#version: 0.2 - Trained by `huggingface/tokenizers`
Ġ Ð
Ð ¾
Ð µ
Ð °
Ð ¸
Ñ Ĥ
Ð ½
Ñ ģ
Ñ Ģ
Ð¾ Ð
Ð »
Ġ t
Ð º
Ñ ĥ
Ġ a
Ñ ĭ
i n
Ð ¼
h e
Ñ ı
Ð ²
Ñģ ÑĤ
ĠÐ ¿
Ñ Į
r e
Ð ´
o n
e r
ĠÐ ²
Ġt he
Ñ ĩ
Ðµ Ð½
Ġ Ñģ
ÑĢ Ð°
Ġ o
Ð¾Ð ²
ĠÐ ¸
a t
Ġ s
a n
e n
Ġ c
o r
ĠÐ ½
Ð ·
Ñ ħ
e s
i t
Ð ¹
i s
Ð ¿
ĠÐ º
Ġ p
ÑĢ Ðµ
ĠÐ ¾
Ġ w
Ġ f
a l
o u
Ġo f
i c
Ġa n
ÑĤ Ðµ
Ð ±
a r
Ð½ Ð¸
Ġ b
e d
Ð¾Ð »
Ð½ Ñĭ
Ġ in
Ð ³
i on
Ñ İ
Ð¾Ð ¼
in g
Ð» Ð¸
Ġt o
Ġan d
ĠÐ ´
Ñ Ĩ
Ġ m
Ð¾ ÑĢ
l e
Ð¾Ð ´
Ġ d
ĠÐ ¼
Ðµ ÑĤ
ĠÐ½ Ð°
o m
a s
Ð½ Ð¾
Ð ¶
Ñ Ī
Ð» ÑĮ
Ð¾Ð ³
ÑĤ ÑĮ
Ðµ ÑĢ
en t
ÑĤ Ð°
Ðµ Ñģ
Ð½ Ð°
e l
Ġ h
ÐµÐ½ Ð¸
ĠÐ¿ ÑĢ
r o
Ðº Ð¸
Ð¾Ð ¹
Ġ l
ĠÐ ±
Ð» Ð°
i l
Ñ Ħ
c t
u s
ÑģÑĤ Ð°
Ðº Ð°
ÑĤ Ð¸
Ñ ī
ÑĤ Ð¾
Ġ re
ÑģÑĤ Ð²
Ðµ Ð¼
e t
Ð¾Ð ¶
Ġ n
Ġ Ñĥ
ÑĨ Ð¸
ĠÐ ·
Ð» Ñı
Ð¼ Ð¸
Ð¾Ð ±
Ġ e
Ð¾Ð² Ð°
Ġ S
o t
Ñģ Ñı
Ġt h
Ð¾ Ð½
Ñ į
u r
at ion
s t
â Ģ
Ġ y
ĠÐ¿ Ð¾
Ġ is
Ð¾Ð³ Ð¾
Ġ Ñĩ
o l
ĠÐ ³
Ðµ Ð¹
Ġ C
v e
Ġf or
Ð¾ ÑĤ
T he
Ð² Ð°
r a
ÑĢ Ð¸
Ġ A
Ð´ Ð°
Ġy ou
u t
r i
ĠÐº Ð°
Ġ g
Ġ ÑĢÐ°
v er
c e
o w
l y
ĠÐ½ Ðµ
ĠÐ µ
c h
ÑĢ Ñĥ
Ġ M
ĠÐ· Ð°
Ð¾Ð º
Ġ Ñį
Ð» Ðµ
ĠÐ °
ÑĢÐµ Ð´
u n
Ð¾Ð» ÑĮ
Ġ on
ÑģÑĤ Ð¸
i d
Ð¾ Ñģ
Ġ P
ĠÐ¾ ÑĤ
Ġ (
i m
Ð² Ð¸
Ġ ÑĤ
Ġ 1
ĠÐ¾ Ð±
o s
Ġ L
Ġ I
a m
Ġb e
Ñĩ Ð°
r ic
Ġ B
ÑģÑĤ ÑĮ
a y
Ð½Ñĭ Ñħ
a d
i g
Ð¾Ð ·
it h
Ġs t
i r
u l
0 0
Ġ 2
ĠÐ »
Ð Ĵ
Ġa s
is t
Ð¸ Ð½
ÐµÐ½Ð¸ Ñı
Ġp ro
Ġ R
er s
Ð° Ð½
a g
Ġc on
Ġw ith
Ġ D
Ġ ÑĤÐµ
Ġd e
Ð´ Ðµ
Ð Ł
ÑĤÐµ Ð»ÑĮ
Ġ F
Ġa re
Ġ T
m ent
Ð¸ Ð¼
Ġ ÑĤÐ°
Ñģ Ð¿
es t
Ñģ Ðº
. .
Ð½ Ð¾Ð¹
Ð½Ñĭ Ðµ
Ġa l
Ġ E
Ġ âĢ
Ð¼ Ð°
Ġ ÑģÑĤ
i f
t er
Ġ G
ĠÐ² Ñĭ
Ð¾Ð ¿
ric s
il l
a k
y rics
Ð ¡
ĠÐ Ĵ
a b
Ġth at
q u
re s
Ġc om
ĠÐ¼ Ð¾Ð¶
Ġs u
Ġb y
es s
Ñĩ Ð¸
or t
o d
Ġ ÑĢÐµ
Ġ it
p er
Ñĥ Ñİ
ĠÐ¿ ÑĢÐµÐ´
ĠÐ¸ Ð·
Ð½ Ð¾Ð³Ð¾
Ð· Ð°
Ġ ÑĦ
ĠÐ¿ÑĢ Ð¾
Ġ H
at e
ĠÐ± Ñĭ
Ġ v
ĠÐ¿ÑĢ Ð¸
Ð° Ð¼
a c
Ð½Ñĭ Ð¹
o p
Ñĩ ÐµÑģ
an d
ĠÑĤÐ° Ðº
ou n
Ðµ ÑģÑĤÐ²
Ġ W
e m
Ð» Ñĥ
it y
Ñģ Ð¸
Ġ -
Ñī Ð¸
ĠÐ´ Ð»Ñı
o c
Ð ŀ
Ġo r
ct ion
r om
u m
Ðµ ÑĢÐµ
i es
ÐµÐ½Ð¸ Ðµ
Ð° ÑĢ
an t
ar t
p e
h t
Ð½ Ðµ
Ġe x
Ð³ Ð¾
he r
Ð ļ
ÑĪ Ð¸
Ð» ÐµÐ½
Ð½Ð¸ Ñı
Ġw h
Ð´ Ð¸
e e
ĠÐ¿ ÐµÑģ
ĠÐ ¶
Ð Ŀ
Ñģ Ðµ
s i
l d
ĠÐ ¡
Ðº Ñĥ
Ġ us
ĠÑģ Ð²
Ġh a
a in
Ñģ Ð»Ð¸
Ð³ Ð°
Ġa t
Ð² Ð»Ñı
ÐµÑĤ ÑģÑı
o re
Ñİ ÑĤ
e w
Ð¾ÑĤ Ð¾ÑĢ
e re
ÑĨÐ¸ Ð¸
Ġ N
Ð¿ Ð°
Ð³ Ð¸
ĠÑĢÐ° Ð·
Ġ "
ĠÑģ Ð¾
ÑĢ Ð¾Ð²
Ñģ ÐºÐ¸
ĠÐ ľ
ĠÐ ļ
Ð´ Ñĥ
ÐµÐ½ ÑĤ
ĠÑĩ ÑĤÐ¾
Ðº Ð¾
i v
Ð Ĳ
Ñħ Ð¾Ð´
Ġf rom
ĠÐ¿ Ð¾Ð´
ÑĢ Ð¾
Ð² Ðµ
Ġha ve
Ð¶ Ðµ
Ġ O
ĠÐ¿ Ð¾Ð»
p p
Ġ U
Ð½ Ñı
Ġn ot
Ðµ ÑĤÐµ
Ġ ÑģÑĤÐ°
s e
Ġ .
i al
Ðµ Ðµ
ĠÐ¸ Ð½
ĠÐº Ð¾ÑĤÐ¾ÑĢ
Ġc an
Ñĭ Ðµ
Ð½Ð¾ ÑģÑĤÑĮ
Ð° Ñģ
Ð¿ Ð¸
Ðº ÑĤ
Ġw as
Ġ un
Ð¾Ð»ÑĮ Ð·
Ð ľ
ÑĢÐ° Ð½
Ġl yrics
ou r
ÑĤ Ð¾Ð¼
ÑĢ Ñĭ
us t
âĢ Ļ
ÑģÑĤ Ð¾
ag e
Ð¼ Ðµ
al l
ĠâĢ ĵ
ÑĢ Ð¾Ð²Ð°
Ð¸ Ð·
ĠÐº Ð¾Ð¼
Ġs e
Ð¸ ÑĤ
Ġ Ñı
Ð» Ð¾
en d
ar d
Ñĭ Ñħ
Ġc h
Ġ he
Ġ Â
ÑĦ Ð¸
as t
Ð° Ð»ÑĮ
ĠÐ² Ð¾Ð·
g e
t h
Ð½ Ð¾Ð²
u re
Ġcom p
ĠÐ Ĳ
Ġ k
Ġ ÑĤÐ¾
Ġ K
b le
ĠÐ Ł
r an
i ve
Ġ2 00
in e
Â »
Ð¼ ÐµÐ½
Ġth is
i a
el l
Ġw ill
o st
Ġ le
r ou
Ð½Ð° Ñı
re e
at ed
ĠÐ¸ ÑģÐ¿
Ð² Ð¾Ð´
Ð½Ñĭ Ð¼
ĠÐº Ð¾Ð½
Ð½Ð¸ Ðµ
ĠÐµ ÑģÐ»Ð¸
Ġ The
Ġs h
Ð Ķ
ĠÐ¸ Ð»Ð¸
ĠÐ¿ ÐµÑĢÐµ
Ġyou r
Ð» Ñİ
ot el
ĠÂ «
Ð· Ð¸
ĠÐ¼ Ðµ
Ð ¢
o g
ĠÐ´ Ð¾
i p
ĠÐºÐ° Ðº
Ñģ Ð°
Ð½Ñĭ Ð¼Ð¸
ÑĩÐµÑģ ÐºÐ¸
Ð¾Ð± Ñĭ
Ðº Ð¾Ð²
Ġ V
ÑģÑĤÐ° Ð²
u d
as e
Ġw or
.. .
Ġc or
Ð¿ ÑĢÐ°
Ð ł
Ðº ÑĤÐ¸
i z
on g
ĠÑģÑĤ ÑĢÐ°
Ġ ÑĨ
ĠÑģ ÐºÐ°
Ð¾Ð»ÑĮÐ· Ð¾Ð²Ð°
c c
f f
o k
Ð½Ð¾ Ðµ
p t
Ð ĺ
o v
Ð½Ð¾ ÑģÑĤÐ¸
ic h
Ð¿ Ðµ
Ġw e
Ġal l
ĠÐµ ÑģÑĤÑĮ
Ġa d
Ñĩ ÐµÑģÑĤÐ²
ÑĩÐ° ÑĤÑĮ
Ð¾Ð´ Ð°
Ð½ Ð¾Ð¼
Ġh as
Ñĥ Ð´
ak e
ic al
ĠÐ¿ÐµÑģ Ð½Ð¸
Ð¼ Ð¾Ð¶
ou s
Ð ĳ
Ñĥ ÑĤ
oun t
i an
ĠÑĤÐµ Ðº
ÑĪ Ðµ
it e
ab le
ĠÐ¶ Ðµ
Ð¾Ð» ÐµÐµ
ĠI n
Ġ1 9
Ġ en
Ġp l
ĠÐ¼Ð¾Ð¶ ÐµÑĤÐµ
a re
ic e
Ð ķ
Ð¾ Ð½Ð°
Ġ J
ĠÐ² ÑģÐµ
ĠÐ¸ Ñħ
Ġ Ñħ
Ġn e
Ð± Ð¾
ĠÐ ĳ
d u
i re
Ñĥ Ñģ
g ht
Ðµ Ð²
ee per
ĠL yrics
Ġthe m
Ñĭ Ð¹
K eeper
r u
a v
Ġcon t
Ð» Ð¾Ð²
Ġo ur
a p
it ion
Ñģ ÑĮ
ÑĤ Ð¾Ð±Ñĭ
in d
Ð¶ Ð°
Ġ 3
e ct
Ñĥ ÑĢ
Ð¾ÑĢ Ð¸
ĠÑģÐºÐ° ÑĩÐ°ÑĤÑĮ
Ġcor re
r y
ĠÑĤÐµÐº ÑģÑĤÐ°
i e
ĠÐ ŀ
er v
ĠÑģÐ² Ð¾
u b
ou t
Ñ ĳ
ĠÐ¼ Ð¸
Ð¶ Ð¸
ĠÐ ł
Ġan y
id e
ĠÑĩ ÑĤÐ¾Ð±Ñĭ
ĠÐ¾ Ñģ
Ðµ Ð·
or m
ĠÐ» Ð¸
b er
ĠÐ Ķ
) .
Ġsu b
I n
Ð· Ñĭ
Ðº Ðµ
Ġ ro
ar y
Ġ im
W e
d er
om e
ĠÐ ĺ
ĠÐ¿ ÑĢÐµ
ĠÐ¿ ÑĢÐ°
Ñģ Ð»Ðµ
ĠS t
ĠÐ²Ð¾Ð· Ð¼Ð¾Ð¶
ou ld
Ð° Ð¹
ar k
ver y
ter n
l o
i k
ĠÐ´ Ðµ
Ġin t
Ðº Ð¾Ð½
u p
ĠÐ¸ÑģÐ¿ Ð¾Ð»ÑĮÐ·Ð¾Ð²Ð°
a il
t her
Ġwh ich
an y
ul t
Ġp os
Ðµ Ð´
ĠÑģ Ð¸
Ġ r
Ġc l
ation s
p ort
c on
ĠÑį ÑĤÐ¾
Ġit s
e ar
ig n
ÑĤÑĮ ÑģÑı
Ġ if
Ð½Ð¸ ÑĨ
ÑĤ Ñĭ
is h
ĠÑģ Ð»
' s
ig ht
Ġre s
ÑģÑĤÐ² ÐµÐ½
ÑĨÐ¸ Ñı
Ġg o
v el
Ð½Ð¸ Ð¸
ÑģÑĤÐ² Ð°
Ġof f
or d
Ġa r
ĠC h
ĠÐ Ŀ
Ġ qu
) ,
c l
Ġp art
ation al
s o
m it
Ð Ń
Ġ j
n t
on e
Ð° Ðº
Ġf ree
ĠÐ¼Ð¾Ð¶ Ð½Ð¾
Ð¾Ð´ Ñĥ
l ic
oun d
Ġa b
f orm
ac k
ÑĢÐµ Ð¼
a ce
ĠÐ» Ñİ
Ð¾Ð³ Ð¸
a ch
ction s
Ñī ÐµÑģÑĤÐ²
as h
Ġf e
ÑĦ Ð¾ÑĢ
ĠÐºÐ° ÑĩÐµÑģÑĤÐ²
ĠÐ ĵ
he n
ÑĪ Ð°
Ñı ÑĤ
ÑĢÐ° Ð¼
ĠÐ±Ñĭ Ð»Ð¸
Ð¸ Ð±
ion s
Ð¼ ÐµÑĢ
u e
Ð² ÐµÑĤ
Ð¾ Ðµ
Ð ĵ
Ġa cc
ĠÑį ÑĤ
Ð² ÐµÑĢ
ĠÐ ¢
Ð° Ð»
m er
Ġthe ir
ĠÐº Ð¾ÑĢ
ÑĢ Ð¾Ñģ
ĠÐ¾ Ð´
Ġm ake
Ð´Ðµ Ð»Ð°
ÑĩÐµÑģ Ðº
Ñģ ÐºÐ°
âĢ Ŀ
Ð½ ÑĥÑİ
ÐĴ Ñĭ
T h
ÑĢ Ñı
Ðµ Ðº
ÑģÑĤÐ°Ð² Ð»ÐµÐ½
ĠÐ´ Ð¾Ð»
ĠÐ¿ Ð¾Ð¼
ÑĤÐ¾Ð¼ Ñĥ
an ce
si ble
as s
Ñĩ ÐµÐ½
Ġh ow
Ġ ,
Ġp er
a ct
an g
ĠÑģÐ» Ð¾Ð²Ð°
Ġt e
Ġt ra
Ġm e
ÐºÐ¸ Ðµ
ÐµÑģ ÑĮ
k s
Ð¾Ð¼ Ð¸
os e
ÑģÑĤ Ñĥ
ĠÑģ Ð´ÐµÐ»Ð°
Ġn ew
Ð¹ ÑĤÐµ
Ð» ÐµÐ½Ð¸Ñı
e ver
ĠÐ´ ÑĢÑĥ
u al
Ġm ore
Ð´ ÐµÑĢ
ĠÑĤÐ°Ðº Ð¶Ðµ
Ðµ ÑĢÐ°
re at
Ð Ľ
Ġb ut
ĠÐ· Ð´
Ġh otel
Ġon e
im e
ÑīÐ¸ Ñħ
Ð¼ Ñĭ
ĠÐ½Ð° Ð¼
Ġ 4
ĠÐ² Ð°Ð¼
e p
Ġ 5
Ġd o
ÑĢÐ° Ð·
Ð¶ Ð´
Ð¾Ð»ÑĮ ÐºÐ¾
or s
le ase
ÑĤ Ñĥ
ĠâĢ ľ
en ce
i le
Ġd is
Ġs p
Ð± Ð¸
ĠÐ²Ð¾Ð·Ð¼Ð¾Ð¶ Ð½Ð¾ÑģÑĤÑĮ
ow n
ÐµÐ½Ð¸ Ð¸
c ial
ĠÐ¾ Ð¿
ÑģÑĤÐ² Ð¸
o ok
ĠÐ± Ð¾Ð»ÑĮ
ĠÐ² Ð¸
Ñī Ð°
Ġ Y
Ġs o
Ñģ Ð»Ñĥ
c om
t e
ĠÐ¼ Ð°
ĠÑı Ð²Ð»Ñı
it ies
ĠÐ² ÑĢÐµÐ¼
Ġpos sible
Ġt ri
ĠÐ¿ ÐµÑĢ
ÑĢ Ð¾Ð´
Ġo ther
am e
ĠÐ¸ÑģÐ¿Ð¾Ð»ÑĮÐ·Ð¾Ð²Ð° ÑĤÑĮ
g h
Ð± Ð¾ÑĤ
ment s
res s
ÑģÐºÐ¸ Ð¹
us si
ĠÐĴ Ñĭ
ÑĮ Ñİ
Ġd es
ĠÑĤÐ¾ Ñĩ
ÑİÑĤ ÑģÑı
Ġ Ã
Ġpro du
Ð» ÐµÐ¹
y st
ĠF l
u ro
ÑĨÐ¸ Ñİ
Ġs erv
ĠÐ¼ Ð¸Ð½
v en
ÑĤÐµ ÑĢ
ÐĿ Ð°
ĠÑģ Ð°Ð¼
Ġal so
el y
Ñī Ðµ
ĠÐ½ Ð¾Ð²
Ñĩ Ñĥ
ĠÐ Ľ
ran s
Ġro om
ĠÐ´ Ð¸
Ðµ Ð»ÑĮ
Ñį ÑĤÐ¾Ð¼Ñĥ
Ð¾Ð¶ Ð°
ĠÐ ķ
Ġa g
l l
n e
Ġl oc
ĠÐ¿ÑĢÐµÐ´ ÑģÑĤÐ°Ð²Ð»ÐµÐ½
Ñ Ĭ
ĠÐ² Ð°Ñģ
ĠÐ½Ð° Ð¸Ð±
ÑģÑĤÐ¾ Ñı
ÑģÐº Ð¾Ð¹
ĠÐºÐ°ÑĩÐµÑģÑĤÐ² Ðµ
Ġ up
ĠÐ¿Ð¾ ÑģÐ»Ðµ
ĠÑģÐ´ÐµÐ»Ð° ÑĤÑĮ
Ð¿ÑĢÐ° Ð²Ð»Ñı
ĠÐ £
ÑģÑĤ ÐµÐ¼
Ġy ear
ĠÐ¿ÐµÑĢÐµ Ð²Ð¾Ð´
ĠÐ·Ð´ ÐµÑģÑĮ
ÑģÑĤÐ² Ð¾
ĠÐ² Ð¾
Ġs pe
Ð¾Ðº Ð°
i ent
Ð¾Ð» Ð¸
Ġw ere
Ġo ut
Ġre l
ĠÐ½ Ð¸
Ġsub mit
Ġc ent
ĠÐ½ Ð¾
Ñĥ Ð»ÑĮ
ĠÐ½Ð°Ð¸Ð± Ð¾Ð»ÐµÐµ
Ð¸Ð¼ Ð¾
Ð £
Ġ2 0
rou ght
f t
Ġfe el
Ġp re
ĠÐ² Ð°
Ġre g
ÑĢ Ð¾Ð¿
Ġb rought
yst em
Ð Ĺ
ÑĤ Ð¾ÑĢ
Ð½Ð¸ Ð¼Ð°
Ð¶ Ð´Ñĥ
ÑĨÐ¸ Ð¾Ð½
ÐµÐ¼ ÑģÑı
re n
ÑĤÐ¸ Ð²
ĠÐºÐ¾ÑĤÐ¾ÑĢ ÑĭÐµ
Ġad d
er n
ĠÑĦ Ð¸
Ġp lease
Ġc ount
ÐµÐ½Ð¸ Ð¹
ĠÐ¼ Ñĭ
il d
ĠÐ· Ð½Ð°
er m
ĠÐµ Ð³Ð¾
ra m
ĠÐ¿Ð¾ ÑįÑĤÐ¾Ð¼Ñĥ
ĠÑģÑĤÑĢÐ° Ð½Ð¸ÑĨ
Ġhow ever
Ð»Ðµ Ðº
ÐµÐ½Ð¸ Ñİ
Ġp e
ĠR ussi
o ve
Ñģ Ñģ
ĠÑģ Ñĥ
Ġin d
Ð»Ñĥ Ð¹
Ð¸ ÑĤÑĮ
Ð¾Ð¶Ð° Ð»ÑĥÐ¹
ĠÑģ Ð¾Ð²
ĠÐ ¤
Ã ©
ĠÐ¿ÑĢÐ¾ Ð¸Ð·
or y
Ġthe y
Ñĥ Ñĩ
ĠÑģ Ð¿
Ð¾Ð¶Ð°Ð»ÑĥÐ¹ ÑģÑĤÐ°
ver s
Ð¾Ðº Ðµ
Ġl a
Ġcorre ct
Ð» ÐµÐ¼
Ð¾Ð± Ð°
Ð´Ð° ÑĢ
p l
an s
Ð¿ ÑĢÐ¸
Th is
ĠÑģÐ¸ ÑģÑĤÐµÐ¼
c es
e y
Ð²Ð¸ ÑĤÑĮ
en s
ĠÑģ Ðµ
Ġa pp
Ð ¨
ĠÐ² Ðµ
Ġc ol
w n
Ġp ol
ÑĢÐ¾Ð² ÐºÐ¸
ÑģÐº Ð¾Ð³Ð¾
ĠÑĩ Ð°
ĠÐ²ÑĢÐµÐ¼ Ñı
Ġon ly
at er
ĠÐºÐ¾Ð¼ Ð¿Ð°
ÑģÐºÐ¸ Ñħ
ing s
ĠÐľ Ñĭ
Ð³ ÑĢÐ°
ĠÐºÐ° ÐºÐ¸Ðµ
Ð ¤
f ul
ĠÐ´ Ð°
c k
Ð± Ð°
ĠÐ¿ÑĢ Ð¾Ð³
vel op
ĠÐºÐ¾ÑĢ ÑĢÐµ
ĠÑģÑĤÐ° ÑĢÐ°
ĠÐ¿ Ð¾Ð¶Ð°Ð»ÑĥÐ¹ÑģÑĤÐ°
Ġtri ed
Ð² Ñĭ
Ġthe re
ĠFl ash
ag es
res ent
Ñĥ Ð½
ĠÐ± ÑĥÐ´
ĠÐ½Ð° ÑĪ
ÑģÑĤÐ° Ð½Ð¾Ð²
Ġt ime
ÑĤÐµ Ð»Ñı
Ðº Ð¾Ð¼
ĠÐ¾ÑĤ Ð¿ÑĢÐ°Ð²Ð»Ñı
Ð¾ ÑģÑĤ
i b
Ðķ ÑģÐ»Ð¸
Ð¾ Ñĩ
ÑĢ Ð¾Ð¼
ÑģÑĤ ÑĢÐ°
Ġbe en
ÑĥÑģ Ð¾Ð²
Ġpro v
on t
Ġwor k
ĠÐºÐ° ÑĢÐ°
at es
ĠÐ³ Ð¾Ð´Ð°
ĠÐ¿ÑĢÐµÐ´ÑģÑĤÐ°Ð²Ð»ÐµÐ½ Ð°
p h
i ew
Ñģ Ð¾Ð²
in t
he re
ĠÑģÑĤÐ°ÑĢÐ° ÐµÐ¼ÑģÑı
ĠÐºÐ¾ÑĢÑĢÐµ ÐºÑĤÐ¸
Ð¼ Ñĥ
Ġab out
Ġ very
Ġt rans
ĠÑĢÐ° ÑģÐ¿
Ġcorre ctions
Ð½Ð¸ Ð¹
Ñģ Ð¾Ðº
ĠÐ¿ÐµÑģ Ð½Ðµ
ĠÐºÐ°ÑĢÐ° Ð¾ÐºÐµ
Ð¾Ð· Ð´Ð°
Ðº ÑĢÐ°
ÑĦÐ¸ ÑĩÑĥ
Ġwh o
i ous
I t
Ðº Ð»Ñİ
ĠÐºÐ¾ÑĢÑĢÐµÐºÑĤÐ¸ ÑĢÐ¾Ð²ÐºÐ¸
ÐŁ ÐµÑģ
ĠÐ¾ÑĤÐ¿ÑĢÐ°Ð²Ð»Ñı Ð¹ÑĤÐµ
ĠÐ¼Ð¸Ð½ ÑĥÑģÐ¾Ð²
ĠÑĤÐ¾Ñĩ Ð½ÑĭÐ¼Ð¸
Ġs ystem
ĠÐ¼Ð¸Ð½ÑĥÑģÐ¾Ð² ÐºÑĥ
ĠÐ³ Ð¾ÑĢ
d e
ĠÐĴ Ð°
ig h
ĠÐ± Ñĥ
ÐŁÐµÑģ Ð½Ñı
Ġth an
ĠÑģ Ð¾Ð±
Ġm an
ĠÐ± Ð¾Ð»ÐµÐµ
ay s
Ð° Ð»Ð¸
ÐºÐ¾Ð½ Ð¾Ð¼Ð¸
c ess
ĠE uro
Ð¾ Ñī
Ð» ÐµÐ½Ð¸Ðµ
re d
ĠÑıÐ²Ð»Ñı ÐµÑĤÑģÑı
I f
ÑĢÐ° Ð¶
Ð¾Ð½Ð° Ð»ÑĮ
Ð± Ðµ
ĠÐ± ÐµÐ·
ÑģÑĤÐ° Ð²Ð»Ñı
Ġus e
Ġn o
Ñı ÑĤÐ¸
ÐµÐ½Ð¸ ÐµÐ¼
Ð¾Ð³ Ð´Ð°
ol d
Ð §
Ġm od
ÑĦÐ¾ÑĢ Ð¼Ð°
Ð° ÑĤ
ĠÑĤÐµ Ñħ
ĠÐ° Ð²
Ġm ost
le ct
Ð³ Ð¾Ð´
ĠÐ»Ñİ Ð±
ĠÐ¸ Ð¼Ðµ
n g
ĠÑģ Ð¾Ð·Ð´Ð°
ĠÐ½ Ð¾Ð¼
ir st
f ere
Ġwor ld
j ect
ĠÐ±ÑĥÐ´ ÐµÑĤ
Ð¿ÑĢÐ° Ð²
Ð³ Ð¾Ð²
in a
Ġfor m
ĠÑĢÐ° Ð±Ð¾
1 0
ÐµÐ½ ÑĤÐ°
Ġb u
Ġde velop
ĠÐ¼Ðµ Ð¶Ð´Ñĥ
ĠÑĦ Ð¾ÑĢ
c re
ĠÐ¿Ð¾Ð» Ð¸
f ter
o b
ĠÐ´Ð¾Ð» Ð¶
Ġl ist
Ñĥ Ð±
Ð² Ð¾
is e
l es
ĠÐ¿ÑĢ Ð¾Ð²
ĠÐ¿ Ð¾Ð·
ĠÑģÐ² Ñı
ĠH otel
Ñĭ Ð¼
Ð½ ÐµÐ¹
ĠU n
ÑĤÐµÐ»ÑĮ Ð½Ð¾
ÐµÑĤ Ð¸
Ġ ri
he d
cl ud
Ġa m
op le
ow s
tern ational
Ġc o
ĠÐ¼Ð¾Ð¶ ÐµÑĤ
Ġo ver
Ð· Ð½Ð°
ÐµÑģ Ð¿
ĠÑģ ÑĢÐµÐ´
ic es
ol og
n d
ĠÑįÑĤ Ð¾Ð¹
con om
Ġ 6
ĠÐ¾ ÑĢ
Ġw ell
us e
Ð¾Ñģ Ñĥ
Ġin st
ĠÑģ Ð»Ñĥ
a z
ÑĢÑĥ Ð¿
am p
ÑĢÐµ Ð±
ÐµÐ½ ÑĮ
Ð½ Ñĥ
ĠÐ¿Ð¾Ð» Ñĥ
ĠÐ¿ Ð»Ð°
ĠÐ¿ÑĢÐ¾Ð³ ÑĢÐ°Ð¼
Ġ et
x t
ĠD e
Ġcon s
u res
ĠÑĤ Ð¾Ð»ÑĮÐºÐ¾
ic s
et s
et w
ĠÑĤ Ð¾Ð³Ð¾
ÑĤ Ð¾Ð²
Ð¾ÑĢ Ð¾
Ñĩ Ðµ
Ġ ent
o y
ĠÐ¿ÑĢÐ¾Ð¸Ð· Ð²Ð¾Ð´
Ġsu pp
c y
ÑĤÐ¾ ÑĢÐ°
Ð½Ð¸ ÐºÐ°
er t
ĠÑį ÐºÐ¾Ð½Ð¾Ð¼Ð¸
ub lic
in ess
Ġim p
ĠEuro pe
at ing
Ð¾Ð» Ð¾Ð³Ð¸
Ð¸ ÑĤÐ°
ĠÑģ ÐµÑĢ
ÑĪÐ¸ Ñħ
ow er
ĠÐ Ń
c ed
at h
o od
Ð² ÑĢÐ¾Ð¿
ĠÐ¿ Ð°ÑĢ
ĠÐ´ Ð°Ð½
ch n
d ition
Ð¶Ð¸ Ð²Ð°
ÑĨ Ð°
Ġin form
Ġ /
a x
Ġm in
Ġ ÑĪ
Ġne ed
al ly
Ð´ Ð¾Ð²
Ġin v
Ñģ Ñĭ
i o
ad e
Ġm ark
ÑĤÐµ Ð»ÐµÐ¹
Ġp h
Ñ ĸ
Ð ¥
ĠÐ¼ Ð¾Ð³
il ity
if ic
ĠÐº Ð¾Ð»
ÑĨÐ¸ Ð°Ð»ÑĮ
ÑīÐ¸ Ðµ
ur n
Ð¾Ð²Ð° Ð½Ð¸Ñı
ĠÐº Ð»Ð¸
on s
Ð³Ð° Ð½Ð¸
ĠÑĩ Ðµ
ĠÐ¿ Ð¾Ð²
Ġbe c
ri es
Ð¸ Ð»
Ġa ct
Ġpe ople
ÑĢ ÐµÐ½
is s
Ð¿ Ð¾Ð»
Ðµ Ð»
ik e
Ġ1 0
Ġs c
Ġg u
s k
ĠÐ¸Ð½ ÑĦÐ¾ÑĢÐ¼Ð°
ĠâĢ Ķ
Ð¾ÑĢÐ¸ Ð¸
Ġat t
ro w
ĠÐ¿Ð¾Ð»Ð¸ ÑĤÐ¸
Ġcom m
e g
Ġin clud
ĠT h
ic k
Ġun der
ĠÑį Ðº
Ġh is
ĠÐºÐ¾Ð¼ Ð¿
Ð» Ð¾Ð¶
u g
Ġw ould
r it
Ð·Ñĭ Ð²Ð°
ĠÐ ¥
ÐµÑĤ Ð°
ÑĪ ÐµÐ¹
Ġ ra
Ð³ Ñĥ
ĠÐ¸ Ð¼
ĠÑģÐ²Ð¾ Ð¸
ÑĢÐ¾Ð²Ð° Ð½
ic t
v ent
ĠÐº Ð¾
ĠÐ¿Ð¾Ð¼ Ð¾Ñī
ĠÐ² Ñģ
us iness
Ð¾Ð±Ð° Ð²Ð¸ÑĤÑĮ
Ġf irst
ĠÐ´ÑĢÑĥ Ð³Ð¸
Ðº ÑĢÑĭ
id ent
Ġint o
ĠÐ½ ÐµÑģ
ÑĢÐµ Ð¼ÐµÐ½
ĠÑĤ Ð¾Ð¼
ÐºÑĤÐ¸ Ð²
Ð¸ Ñģ
ÑĩÐµÑģÐºÐ¸ Ñħ
an k
ĠÐ¾ Ð½
Ðº Ð¾Ð¹
Ġ ÑĢÑĥ
g an
ur ing
Ġ19 9
ÑĢ Ð¾Ðº
ÑģÐºÐ° Ñı
ĠÐ² ÐµÑĢ
Ġe conom
Ġp o
u x
Ġt w
Ġre c
Ġ ÑĢÑĭ
Ñĥ Ð¶
ri v
ĠÐ¾ÑĤ Ð½Ð¾
i ed
ol l
ĠÐ Ĺ
Ð»Ð¸ Ñĩ
Ġ 7
ĠÐ» ÐµÑĤ
ar g
ĠÑĢÐ° Ð±Ð¾ÑĤ
ĠÐ¿ÑĢÐ° Ð²Ð¸
ÑĢÐµ Ñģ
ut ion
ÐµÐ½ Ð°
Ð´ Ñĭ
i et
ĠÐ¿ Ð°
al ity
ÑĨÐ¸ Ð¹
Ñİ Ñī
ĠA r
l ish
Ñĭ Ð¼Ð¸
Ð¾Ð¼ Ð°
ĠC om
á ĥ
p en
ÑĨ Ðµ
Ġs ome
Ñħ Ð°
Ð¾ÑĤ Ð²ÐµÑĤ
ĠÐ¼ Ð½
ĠÑĢÐ°Ð· Ð²Ð¸
Ð± Ñĭ
Ġh igh
ĠÑģ Ð¿Ðµ
Ġs a
ver n
un d
Ðµ Ð»Ð¸
Ġs ong
Ġw hen
ĠÐ¾Ð± ÑĬ
l p
on d
Ð¾Ð± ÑħÐ¾Ð´
Ð² Ñĥ
ĠÐ½Ð° ÑħÐ¾Ð´
e c
Ġp ers
00 0
ÐµÐ½ Ñĭ
Ġp resent
Ġ ...
Ð½Ð° ÑĢÐ¾Ð´
Ġsu ch
Ð¾ÑģÑĥ Ð´Ð°ÑĢ
ĠÑĨ ÐµÐ½ÑĤ
Ġd if
ĠÐ±Ñĭ ÑĤÑĮ
Ð° Ð·
ĠÑį ÑĤÐ¸
ĠU S
ÐµÐ¹ ÑģÑĤÐ²Ð¸
Ð´ Ð¾
ÑĪ ÐµÐ½Ð¸Ñı
ĠÐ³ Ð¾Ð´Ñĥ
ĠÑģÐ¾ Ð¾ÑĤÐ²ÐµÑĤ
Ð¸ÑĤ ÑģÑı
Ġf in
it ed
Ð² Ð¾Ð»
ĠÑĥ ÑĩÐ°
Ġyear s
ÑģÑĤÑĥ Ð¿
Ġinform ation
oc k
in es
Ġ 8
Ġgo od
en er
ĠÐ½Ðµ Ð¾Ð±ÑħÐ¾Ð´
Ġe m
ĠP ro
Ġk n
Ð»Ð¸ ÑģÑĮ
Ġas s
ul ar
an n
Ġa fter
ĠS h
ÑĢÐ° ÑĤÐ¸
Ð½Ð¾ ÑģÑĤ
pt ion
Ġh ad
g ram
Ġa ut
ÑģÐ¸ Ð¸
Ġre st
¿ ½
ï ¿½
Ñħ Ð¸
le ction
ot h
ĠÐ¾Ð± ÑĢÐ°Ð·
ĠÑĩ ÐµÐ¼
ÐºÐ¸ Ñħ
Ðµ ÐºÑĤ
Ġm any
at ive
Ġk ey
s s
r is
Ġe ff
ĠÑĢÐµ Ð·
ÑīÐ¸ Ð¹
ĠÑģ Ð¿Ð¸
Ã Ĳ
Ð½ ÐµÑĢ
ĠÑĢÐ° Ñģ
Ġhe lp
Ġm ay
ĠÐ¿Ð¾Ð¼Ð¾Ñī ÑĮÑİ
ÐµÑģ Ð¿Ðµ
ĠÐ¾ Ð½Ð¸
ÑģÑĤÐ² ÑĥÑİ
i er
Ð± Ð¾ÑĢ
ÐŃ ÑĤÐ¾
Ð¸ Ð»ÑĮ
Ġa v
ĠRussi an
Ð½Ð° Ð½
ÑģÐºÐ¸ Ðµ
u c
ar m
rou gh
Ð»Ð° Ð½
Ġm et
ĠÑĥ ÑģÑĤÐ°Ð½Ð¾Ð²
ÑĩÐµÑģÐº Ð¾Ð¹
ĠÐºÐ¾ÑĤÐ¾ÑĢ ÑĭÐ¹
Ġprodu ct
is m
ĠÐ¾ÑĢ Ð³Ð°Ð½Ð¸
ĠÑĢÐµ Ð³Ð¸
h ip
Ġcomp any
Ñĩ Ð½Ð¾
t s
ĠÐ±Ñĥ Ð´Ñĥ
qu e
ant s
Ġ 9
as ed
Ð° Ñħ
1 9
ĠÐ¾Ñģ Ð½Ð¾Ð²
ÑĢÑĥ Ð´
t y
Ġri ght
l and
al s
Ġd ist
ĠÐ¿Ð¾ ÑĤ
Ġte chn
e en
ĠÐ³ Ð¾Ð´
Ġtw o
Ð½ ÐµÑģ
w ay
Ð» Ð¾Ñģ
Ð»Ñİ Ñĩ
Ð¾Ð» Ð¾Ð¶
it s
Ð²Ðµ Ð´
an ge
in k
ĠÐ¾Ð± ÐµÑģÐ¿Ðµ
ĠÐ¿Ð¾Ð´ Ð´ÐµÑĢ
ĠÐ±Ð¾Ð»ÑĮ ÑĪ
ĠÐ¿ÑĢ Ð¸Ð½
ri b
ÐµÐ½ÑĤ Ð¾Ð²
Ð¼ Ð¾ÑĤ
Ġo wn
Ġc re
Ð· Ð°Ð½
Ġsh ould
Ġcount ries
r al
ĠÐ¿ÑĢÐ¾ ÑĨ
ÐµÐ¼ Ñĥ
rou p
Ð½Ð¸ ÐºÐ¾Ð²
ar s
Ġre qu
ĠÑĥ ÑģÐ»Ñĥ
u ch
Ġle ad
Ġre m
ÑĤÐµ ÑĢÐ¸
Ðº Ð¾Ð»
Ð¸ ÑĤÐµÐ»ÑĮ
ĠÑĩÐµ Ð»Ð¾Ð²
ÑĤÐ¸ Ñı
ust om
Ġs ee
Ñĩ ÐµÐ½Ð¸Ðµ
Ġs it
or k
Ġ est
ÐºÐ° Ð½
Ð²Ð° ÑĤÑĮ
Ð¨ ÐĲ
in ce
Ġde c
Ġs ur
c he
ĠÐ¿ÑĢÐµÐ´ Ð¾
Ð»Ðµ Ð´
k ra
Ð¾ÑĤ Ð¾Ð²
Ġb usiness
Ġj ust
Ġs et
Ġn um
Ð»Ð° Ð³Ð°
ÐµÑģ Ñı
Ġe very
ĠÐ¿Ð¾ Ñģ
ist s
t le
Ġa p
ĠÐ²Ñĭ ÑģÐ¾Ðº
ĠÑĢÑĭ Ð½
Ġm ain
ÑĤ ÑĢÐ°
ÑĪÐµ Ð³Ð¾
ĠÐºÐ° ÑĢ
il y
ĠÐ³ Ð¾ÑģÑĥÐ´Ð°ÑĢ
mer ic
ĠÐ¿Ð¾ÑģÐ»Ðµ Ð´
t ed
ar ch
ÑĤ ÑģÑı
Ð¿ Ð¾
ĠÐ¾Ð± Ð»Ð°
Ġ Z
e b
ÑĥÐ»ÑĮ ÑĤÐ°
Ġ X
ra ct
ere d
ĠÑĤÐµ ÑĢ
ĠÐ¿ÑĢ Ð¾Ð´Ñĥ
ÑģÑĤ ÑĢÐ¾
Ġo b
Ġv is
ĠÐ» Ðµ
t ing
ÑĨÐ¸ Ð¾Ð½Ð°Ð»ÑĮ
Ġe qu
ire ct
ate g
Ð¾Ñģ Ð¾Ð±
Ġre p
ĠÐ±Ñĭ Ð»Ð¾
Ð¾Ð¿ ÑĢÐ¾Ñģ
i en
ĠÐ¿ÑĢ Ð¾Ð±
t en
pe ct
Ñı Ñħ
a use
m e
Ġthe se
i x
re ak
Ð»Ðµ ÐºÑĤ
ÑĦ ÐµÑĢ
ÐŁ ÑĢÐ¸
ĠÑĢÐ°Ð±Ð¾ ÑĤÐ°
ĠÐ¿ÐµÑĢ Ð²
ĠÐ¼ ÐµÐ½
Ð» Ñĭ
Ð¾Ðº Ñĥ
Ġs m
Ð¿ Ñĥ
Ð½Ð¸ Ñİ
a h
Ð»Ð° Ð²
ĠÐ¡ Ð¨ÐĲ
el s
ĠA l
Ð·Ð° ÑĨÐ¸Ð¸
Ġe ven
Ñĩ ÐµÐ½Ð¸Ñı
ĠÐ±Ñĭ Ð»
2 0
a ir
Ġex per
Ġprov id
Ñı Ð¼
ĠÐ² Ð¾Ñģ
Ġgo vern
Ð¿ ÐµÑĢ
Ġroom s
Ġw here
Ġde m
ook ing
ÐµÐ½ Ð½ÑĭÑħ
Ð¾Ð½ Ðµ
Ġsupp ort
ĠÐ½ ÐµÑĤ
f ort
ÑĪ ÑĮ
ĠI t
Ġm on
Ġf ind
w ard
ĠÐķ Ð²ÑĢÐ¾Ð¿
ÑĩÐµÑģÐºÐ¸ Ðµ
a ur
ĠÐ± ÐµÑģÐ¿
Ġserv ice
Ð¾Ð²Ð° Ð½
Ġpro gram
Ġl ike
ĠÐ¼Ð¾Ð³ ÑĥÑĤ
ĠÐ¿ Ð¾ÑĢ
Ð½Ð¸ Ðº
in n
Ġcomp le
ÑĩÐµÑģÐº Ð¾Ð³Ð¾
ÑģÐº Ð¾Ð¼
w ord
Ð½ Ð³
Ã Ń
a ff
Ġf l
ĠÐ¿ÑĢ Ð¸Ð¼
ĠÐ²ÑģÐµ Ñħ
ĠÑģÐ»Ñĥ ÑĩÐ°
Ġth rough
o om
ĠÐ´ Ð¾Ð±Ð°Ð²Ð¸ÑĤÑĮ
Ġ &
ÑģÑĤ ÑĢ
Ġn ow
al e
ĠÑį ÑĤÐ¾Ð¼
Ð½Ð¾Ð¼ Ñĥ
Ñĥ ÐµÑĤ
Ð¿ Ñĭ
Ġ1 5
Ġspe cial
Ñİ ÑīÐ¸Ñħ
Ġpers on
Ġde p
ĠÐº Ð»ÑİÑĩ
Ġre f
ĠÐ¼Ðµ ÑģÑĤ
Ġre al
Ã Ĺ
Ġdes ign
Ġserv ices
ri end
y s
Ġc ustom
ÑĢÐ¾Ð²Ð° ÑĤÑĮ
Ġc ur
Ġc he
ĠU kra
a j
etw een
e v
ÐºÐ° Ñı
ÑĢÐ° Ð²
ĠÑģ Ð°Ð¹
Ð¾ÑĢ Ð¾Ð²
ang u
ĠÐ° Ð»ÑĮ
ĠÐ¿ Ñĥ
Â» ,
Ð»Ð¸ Ñı
Ġus ed
ĠÑįÑĤ Ð¾Ð³Ð¾
Â» .
ĠÐ¸Ð½ ÑĤÐµ
ĠÐº ÑĢÐ°
Ġmark et
Ġ1 8
ĠE x
Ġa c
ĠÐ¿ Ð¾ÐºÐ°
Ġg reat
Ġl ong
al k
2 00
ĠÐĺ Ð½
i ence
Ġd own
ĠI s
B ut
Ġpart ic
ĠÐ¿ Ðµ
f ore
ĠÐ² Ð¾Ð¿ÑĢÐ¾Ñģ
Ðľ Ñĭ
Ġb l
Ð¼ÐµÑĢ Ð¸
ÑĢÐ° Ð±Ð¾ÑĤ
Ġ ÑĢ
l ed
Ð½ ÐµÑĤ
ĠÑĦÐ¸ Ð½Ð°Ð½
ÑģÑĤ ÑĢÑĥ
Ġc ar
Ðº Ð»Ð°
o x
Ġ 0
ĠE ng
Ġin ternational
ur al
w are
Ġpl ace
ÑĢÐ° ÑĦÐ¸
Ð¾Ð²Ð° ÑĤÑĮ
ĠÐł Ð¾Ñģ
ĠÐ¿ÑĢÐ¾Ð± Ð»ÐµÐ¼
ĠA meric
iz ed
Ġin ter
el f
Ġs er
ĠÑĥ ÑĢÐ¾Ð²
Ð¿ ÑĢÐµ
ĠS e
ou se
ÃĹ ÃĹ
ÑĤÐµ Ð»Ð¸
Ã ¨
Ð¾Ð³ Ð»Ð°
" .
Ġb etween
ion al
Ð» ÑģÑı
ĠÐ½Ð° ÑĩÐ°
Ð»Ð° ÑĤ
Ð½Ð¸ Ñħ
Ġf am
ĠÐ¼ ÐµÑĤ
Ġpro f
Ġde f
ÐºÐ° Ð·Ð°
at a
Ġwh at
ÑģÑĤÐ° Ð²Ð¸
" ,
Ð° Ð¼Ð¸
Ñĥ ÑīÐµÑģÑĤÐ²
ĠÐº Ð¾Ð³Ð´Ð°
in ist
Ð ¯
Ġc ity
Ġdif fere
ÑĥÐ± Ð»Ð¸
ĠÐ¾ÑĤ ÐºÑĢÑĭ
ar ge
iz ation
ical ly
ĠÐ¿ÑĢ Ð¾Ð´
Ġm em
ĠC ent
iew s
ĠÐºÐ»ÑİÑĩ ÐµÐ²
Ġor gan
Ġre ce
ÑĦ Ðµ
il ities
if e
Ġg et
ĠÑĤ ÑĢÐµÐ±
ĠÐ± Ð°Ð½
Ġwe b
ĠÐ² ÐºÐ»Ñİ
r and
it al
b al
ĠÐ¿ÑĢÐµÐ´ Ð»Ð°Ð³Ð°
Ġpro cess
ÐµÐ½ Ð½Ð¾
ĠÐ²Ð¸ Ð´Ðµ
ÐºÐ° Ñħ
ĠÐ¼ÐµÐ¶Ð´Ñĥ Ð½Ð°ÑĢÐ¾Ð´
ĠÐºÐ° Ð¶Ð´
ĠÐºÐ¾Ð» Ð»ÐµÐº
r on
Ġc ap
ÑĩÐµÐ½ ÑĮ
a u
Ġex t
Ġex p
ain s
Ð½ ÑĥÑĤ
ĠÐ ¨
Ġa ir
ou gh
Ġre v
Ð¾Ð¶ Ð¸
u es
Ġ200 9
ĠÑĢÐ°ÑģÐ¿ Ð¾Ð»Ð¾Ð¶
Ġd el
tern et
Ð½Ð¾ÑģÑĤÑĮ Ñİ
ĠÐ¸ Ñģ
Ð¾Ð´ ÐµÑĢ
Y ou
Ġb el
ĠÐºÐ¾Ð¼Ð¿Ð° Ð½Ð¸Ð¸
Ġd et
iv es
ĠÐ §
Ġacc ess
ÐĹ Ð°
Ð¾Ð± ÑĢÐ°Ð¶
ÑģÐ¿ Ðµ
Ġcon f
d ay
ÑĤÐ¾ÑĢÐ° Ñı
Ġp ar
i el
Ġc le
ĠÐ¿ Ð¾Ð¿
a i
Ðļ Ð°
ÐµÑĢ Ð¸
Ġpro ject
F or
Ġm ade
ere st
ĠÑĤÐµ Ð¼
ĠÐ°Ð² ÑĤÐ¾Ð¼
Ġav ail
ÑīÐµ Ð³Ð¾
Ġthe n
ÑĩÐ¸ ÑĤÑĮ
ÐµÑĤ ÑĮ
a ut
Ġpol it
Ð¸ Ñĩ
or ies
Ġag ain
ĠÐ¸ Ð³
Ġp ric
g y
Ð¾ ÑģÑĤÐ¸
ĠÑĥ Ð¶Ðµ
ĠÐ± Ð°
Ġm y
Ġv al
ĠÐ¶ Ð¸
Ð²Ð° Ð½Ð¸Ñı
ĠH e
ÑģÐº Ðµ
ĠÑĥ Ñģ
ar n
ĠRussi a
ÐŁ Ð¾
ÑĢÐ° Ð»ÑĮ
ĠÐ½ÐµÑģ Ðº
ĠÐ½Ð¾Ð¼ ÐµÑĢ
Ġc ould
ÐµÐ½ Ðµ
Ġst ay
Ð»Ð¾Ñģ ÑĮ
m s
C h
Ð²Ð° ÐµÑĤ
r ation
ĠÐļ Ð°
Ã ¼
ÑģÑĤ ÑĢÐ¸
ÑĪ ÐµÐ½Ð¸Ðµ
Ġcount ry
Ð½ Ð¾Ð»Ð¾Ð³Ð¸
ent s
Ġs ol
Ñĩ ÐµÑĤ
Ð²Ð¸ Ñģ
Ġl angu
Ġ200 8
ĠÐ¸ÑģÐ¿ Ð¾Ð»ÑĮÐ·
Ġo per
ĠÐ¿ÐµÑģ ÐµÐ½
Ð½Ð¸ ÐºÐ¸
ĠÑĤ Ð¾ÑĢ
n ess
ÐµÐ¼ Ð¸
ind ows
ÐºÐ¸ Ð¼
ĠÑģÐ¾Ð± ÑģÑĤÐ²ÐµÐ½
Ð¿Ðµ ÑĢÐ°
Ġoff ers
Ġim port
ĠÑģ Ð¾ÑĤ
Ġcon st
ĠÐ¿Ð¾Ð· Ð²Ð¾Ð»
Ġoff er
S t
is hed
ÐĿ Ð¾
ÑģÐ»Ðµ Ð´
Ġo pen
Ġar t
ÑĢÐ¾Ð²Ð° Ð½Ð¸Ñı
c o
ĠÑģÐ¾ Ð¾Ð±
iz e
ĠÐµ Ðµ
ĠM e
Ð²Ð¸ Ð¶
ĠY ou
ĠÐ¶ Ð¸Ð·
Ġint erest
Ġs im
Ð¼ ÐµÐ½ÑĤ
Ġf av
Ñĥ Ð·
i um
ÑĩÐµÑģÐºÐ¸ Ð¹
ĠÐ²ÑģÐµ Ð³Ð¾
ul l
g et
ĠS p
t o
ÑĤÐ¸ Ð½
Ã ¥
i vers
ĠP l
n ce
Ġv ar
ĠÐ¾ ÑģÑĤÐ°
ÑĨ Ñĭ
ÐµÐ´ Ð¸Ð½
Ġdevelop ment
ĠB l
Ñı Ð½
ĠÐ¿ÑĢÐµÐ´ Ð¿ÑĢÐ¸
ĠÑĢÐµÐ· ÑĥÐ»ÑĮÑĤÐ°
Ð¾Ð¼ Ñĥ
Ġkey word
Ð»Ð° ÑģÑĮ
in s
Ġinv est
at or
ĠÐ´ ÐµÐ¹ÑģÑĤÐ²Ð¸
Ã ®
ĠÐºÐ¾ ÑĤÐ¾ÑĢÐ°Ñı
ÑĢÐµÐ´ Ðµ
ad y
Ġw ay
Ġf ac
r ound
ĠÐ² Ð»Ð°
Ñģ Ñĥ
n er
Ġnum ber
Ġp ower
Ð¾Ð¿ Ð¾Ð»
Ġf ore
Ġare a
Ġpl ay
Ġres ult
ÐĶ Ð»Ñı
ĠÐ³ Ð¾ÑģÑĤ
ĠÐ¾Ð± ÑīÐµÑģÑĤÐ²
Ġ20 10
Ð¾ Ð¸
Ġb est
ut e
Ġin cre
ĠÐ³ ÑĢÑĥÐ¿
Ġp ages
Ġst aff
re nt
i que
Ñī ÐµÐ½Ð¸Ñı
ur y
Ð²Ðµ ÑģÑĤ
l ine
ÑĥÐ½ Ðº
or ld
Ġh ist
ĠÐµ ÑīÐµ
ĠÐ¿ÑĢÐ° Ð²
ĠÐ¿ Ð¾Ð»ÑĮÐ·Ð¾Ð²Ð°
ĠÐ´ÑĢÑĥ Ð³
ĠÑģÑĥ ÑīÐµÑģÑĤÐ²
Ġbu ild
Ġ ed
ak ing
ÑĢÐ¸ ÑĤ
ĠR e
ĠÐ¾ ÑĩÐµÐ½ÑĮ
ual ly
ĠÑģÑĤ ÑĢÐ°Ð½
Ñı ÑĤÑĮ
ĠÐ¸ ÑģÑĤ
Ġdiffere nt
ĠÐ° ÑĢ
ĠÐ¸Ð· Ð¾Ð±ÑĢÐ°Ð¶
Ġloc ation
Ð³Ð¾Ð´ Ð½Ñı
Ġact iv
o ol
Ġst art
Ġst and
ĠÐ° Ð´
at ure
Ð¸Ð¼Ð¾ ÑģÑĤÐ¸
Ġ end
ru ct
Ġd irect
ÑģÑĤ Ñĭ
Ð»Ð¾Ð² Ð¸
ÑģÑĤ Ð¾Ð²
Ġin f
Ð¾ÑĢ ÑĤ
ĠÐ¿ÑĢÐ¾ÑĨ ÐµÑģ
Ġ ÑĤÐ¸
ĠÐ½Ð¾Ð¼ ÐµÑĢÐ°
Ġt y
Ġf un
ĠÐ¿ Ð¸
ĠÐ£ ÐºÑĢÐ°
Ã ¡
Ġin s
Ġavail able
b um
Ġpro ble
Ġp ur
Ġloc ated
Ġm ed
Ġ1 2
Ð²Ðµ ÑģÑĤÐ¸
Ġc our
A l
ĠÑģÐ¿ Ð¾ÑģÐ¾Ð±
or n
Ð·Ð¸ Ð´
Ã ł
Ġp ublic
Ġs oc
ĠC l
ĠEurope an
f ast
Ġe as
lo ad
ĠÐ³ Ð´Ðµ
Ð´Ðµ Ð»ÑĮ
Ġst r
Ġcol lection
ĠÑģÑĤÑĢÐ° Ð½Ñĭ
ĠÐ¿Ð¾ Ñĩ
ĠÐ² Ð·
y m
ĠÐ» ÑĥÑĩ
olog y
Ġc all
Ġ |
ĠÐ¿ÑĢÐµÐ´ Ð»Ð¾Ð¶
Ð½Ð¸ ÐµÐ¼
a f
Ð´ ÐµÐ¹
d s
est s
lo bal
Ð½ Ð¾Ð²Ð°
Ġb oth
Ġad v
E R
Ġg ener
ĠÐ±Ð¾Ð»ÑĮ ÑĪÐµ
Ð¾Ð³ Ð¾Ð²
ĠÐ¸ ÑģÐº
ÑĪÐ¸ Ðµ
reak fast
Ð½Ðµ Ðµ
Ġd ay
Ġt ake
Ð»Ð¸ ÑĩÐ¸
Ġal bum
Ð¾Ð³ Ð°
Ð» ÐµÑĤ
p or
ÑĤ ÑĢ
Ġbec ause
ÑģÑĤ ÐµÑĢ
ro l
Ġ z
Ġst ate
Ġkn ow
ÑģÐ»Ñĥ Ð¶Ð¸Ð²Ð°
Ġp age
Ġproduct s
Ġmod ern
Ð¸Ð¼ Ð¾Ð¹
is ion
m an
ĠEng lish
ĠÑģÐ¾Ð¾ÑĤÐ²ÐµÑĤ ÑģÑĤÐ²ÑĥÑİ
ĠÐ±ÐµÑģÐ¿ Ð»Ð°ÑĤ
ÑĪ ÐµÐ½
ĠG u
Ð ¦
Ġst ud
ĠÐ±ÑĥÐ´Ñĥ ÑĤ
Ġfav or
ĠÐ´ÑĢÑĥÐ³Ð¸ Ñħ
ĠC on
a ve
ÑĤÐµ Ð³
ĠÐĿ Ð°
Ġsm all
Ð¾ ÑĢÐµ
ĠÑĦÐ¸Ð½Ð°Ð½ ÑģÐ¾Ð²
ot her
Ġb ack
Ġg row
Ġm ust
Ã ³
ĠÐ½Ð° Ñģ
ĠÑģÐ¾ÑĤ ÑĢÑĥÐ´
Ð¼ÐµÐ½ ÑĤÐ°
ĠÐ¿ÑĢÐ°Ð²Ð¸ ÑĤÐµÐ»ÑĮ
ĠÐ¾ Ðº
ĠÑĢÐ°Ð±Ð¾ÑĤ Ñĭ
res ident
at ic
Ð¾Ð¿ Ð°Ñģ
ĠÐ´Ðµ Ð»Ð°
ĠÑģ Ð¾Ð´ÐµÑĢ
Ġd uring
ĠÐ°Ð»ÑĮ Ð±
Ġgovern ment
ĠL e
Ġcont in
Ð± Ñı
Ġcom fort
en e
O n
Ðº Ð¾ÑĤÐ¾ÑĢ
Ðµ Ð¿
ĠÑĤÐµÑħ Ð½Ð¾Ð»Ð¾Ð³Ð¸
Ð´Ð° Ð½
Ġs ame
Ð¾Ð´ Ð¸
Ð²Ð° Ñı
ĠB e
Ð¾Ð³ ÑĢÐ°ÑĦÐ¸
ÑģÑĤ ÑĢÐµ
ĠÑįÐº ÑģÐ¿
a w
Ġs ign
Ð»Ð¸ Ð·
Ġqu ality
si ve
Ð· Ð´
ĠÐ¼ Ð½Ð¾Ð³Ð¾
ĠÐº ÑĢÐ¸
one y
Ġt er
ÑĮ Ñı
ĠÐ±Ñĭ Ð»Ð°
The re
Ðŀ ÑĤÐµÐ»ÑĮ
ri g
Ġth ose
ĠÐ´Ð¾ ÑģÑĤÑĥÐ¿
ĠÑĤÐµ Ð»Ðµ
ĠÐ³ Ð°
Ġcomm un
Ð½Ð¸ Ð¼
Ð» Ð»Ð¸
cc ess
ĠÐ¸Ð· Ð¼ÐµÐ½
Ġ3 0
Ġf il
Ġm uch
ĠÑĦÐ¾ÑĢ Ð¼Ñĭ
Ġs ite
ĠÐ´Ð¾Ð»Ð¶ Ð½Ñĭ
ĠÐ¼ Ð°ÑĢ
at her
ÑĢ Ð¾Ð½
Ġo pp
ĠÐº Ñĥ
Ð´ ÐµÐ½
ĠÑį Ð»ÐµÐºÑĤ
Ð»ÐµÐº Ñģ
Ġ ÑĪÐ¸
1 2
5 0
Ġeconom ic
Ġpol ic
b ers
Ð½Ð° Ñħ
ĠÑģÐ²Ð¾ ÐµÐ¹
Ð´Ðµ Ð»
ĠÐĴÐ° ÑĪÐµÐ¹
ÑĩÐ¸ ÑĤÐ°
Ġor der
ĠÐ¾ ÑĤÐµÐ»Ñı
Ġcent re
Ð° ÑĢÐ°
Ð°Ð½ Ð´
ĠÑĩÐµÐ»Ð¾Ð² Ðµ
m p
ĠÐ´Ðµ Ñı
Ġwith out
ĠW indows
Ġp r
u f
o f
Ġfin an
Ð½Ð¸ ÑĤÐµÐ»ÑĮ
Ġus ing
Ð¼Ðµ ÑģÑĤ
Ñī ÐµÐ½
ĠÑģÑĤ Ð¾
ÐµÑĢÐµ Ð·
ĠÐ¾Ð± Ð¾ÑĢ
he s
u k
Ð² Ð¾ÑĢ
Ġg roup
ÐºÐ¾ Ðµ
er y
ĠW orld
ĠÐ ¯
ĠÑģ Ðº
Ñĥ Ð¼
Ð½Ð° ÐºÐ¾
ĠÑĥÑģ Ð»Ð¾Ð²Ð¸
ĠÑģÑĤÐ° Ð½
ĠÐ ®
Ñĳ Ð½
Ġinclud ing
Ð»ÐµÐ´ ÑĥÑİ
ĠÐ½Ð°ÑĪ Ñĥ
ĠÑģÐ»Ð¾Ð²Ð° Ð¼Ð¸
ĠÐ¿ÑĢÐ¾ ÑĤÐ¸Ð²
ĠÐ´ Ð²Ñĥ
ce pt
ĠÑģ Ð¾Ð³Ð»Ð°
ĠG erm
ĠÐ¾ÑĤ Ð²ÐµÑĤ
ĠÐ·Ð° ÑīÐ¸
ĠÐ¸Ð½ ÑĤÐµÑĢ
A s
Ġ Q
o h
Ġdis c
Ġw ant
ĠÐ½Ðµ ÐºÐ¾ÑĤÐ¾ÑĢ
Ġind ust
ĠP ar
ĠN ew
Ġch ild
ĠÑĤÐ¾ÑĢ Ð³Ð¾Ð²
ro om
ÑĨÐ¸ Ð°Ð»Ð¸
p r
t he
ĠÐ²Ð° Ð¶
ÑģÑĤÐ°Ð²Ð»Ñı ÐµÑĤ
ĠÑģÐ¸ÑģÑĤÐµÐ¼ Ñĭ
Ð´ Ð¸Ð½
ÑģÐ¸ Ð¹
Ġle g
Â Ń
Ġph ot
Ðŀ Ð±
ĠÐ¿Ð¾Ð·Ð²Ð¾Ð» Ñı
Ð¸Ð· Ð½ÐµÑģ
Ġ ide
ric t
Ð¾Ð± Ð¸
Ġ200 7
Ġse c
ĠUkra ine
Ġrequ ire
Ġdo es
Ġe ach
Ġsit u
Ġf act
Ġsong s
ard s
ĠT e
ro v
Ñī ÐµÐ¹
y n
ur g
ÑĨ ÐµÐ½
Ġp riv
ĠÐ³Ð¾ÑĢ Ð¾Ð´
Ġ2 4
z e
ĠÐ¼Ð½ Ð¾Ð³Ð¸
Ġt erm
Ð³ Ð¾ÑĤÐ¾Ð²
ĠÐ± Ð»Ð°
Ġs k
ĠÑı Ð·Ñĭ
ĠÑģÐ¾Ð² ÑĢÐµÐ¼ÐµÐ½
ran ge
ÑĩÐ° ÐµÑĤ
Ġp op
oll ow
ÑĨ ÐµÐ²
l i
ĠÑį ÑĦ
g g
Ð¾ Ð½Ð¸
Ġwith in
Ġprodu ction
ĠÐ ¦
ÐºÑĤ Ñĥ
ĠÑĥ Ð²Ðµ
al th
A n
ĠÐ¸Ð¼Ðµ ÐµÑĤ
um an
ÑģÑĤÐ² Ð¾Ð¼
h or
p le
ĠÐľ Ð¸
o ot
ĠÑĢÐ°Ð· Ð»Ð¸Ñĩ
ĠÐĹ Ð°
ĠÐºÐ¾ÑĤÐ¾ÑĢ ÑĭÑħ
Ġf ound
ÑĢÐ¾ ÑģÑĤ
ĠR oom
ĠÐ¸ Ð³ÑĢÐ°
in ed
Ð´ Ð¶
Ñĩ Ð½Ð¾Ð¹
Ñı Ð²
Ġfavor ite
ÐºÐ° Ð¼Ð¸
Ñı Ð¼Ð¸
Ġc ost
ĠÐ½ ÑĥÐ¶
Ġ Ñİ
our s
ĠÐ²Ñĭ Ð¿Ð¾Ð»
Ġp ri
ĠÑĥ Ð¿ÑĢÐ°Ð²
ĠÑģÐ¿Ð¸ ÑģÐºÐµ
Ã ¤
Ð± Ñĥ
Ð²Ð° ÑĢ
ab ility
ur ity
Ġre t
l ess
ĠÑĦ ÑĥÐ½Ðº
Ġcl ient
ĠÐ¾Ñģ Ð¾Ð±
ÑĢÐ¾Ð²Ð° Ð½Ð¸Ðµ
ÑģÑĤÑĢ Ð¾Ð¹
Ġrest aur
Ġbe ing
Ðµ Ð»Ð°
... "
ĠÐ´ÐµÑı ÑĤÐµÐ»ÑĮ
ak es
ĠM an
un g
Ġe le
ĠÐ´ ÐµÐ½ÑĮ
ÐĴ ÑģÐµ
ĠÐºÐ»ÑİÑĩÐµÐ² ÑĭÐ¼Ð¸
in ing
ĠÐ¿Ð¾Ð´Ð´ÐµÑĢ Ð¶
Ġf riend
W h
ÑīÐ° Ñı
ĠE U
im es
Ġle vel
Ġeff ect
A N
ro p
ĠA n
Ñī ÐµÐµ
Ġvis it
Ġ" ...
ĠÑģÐµ Ð±Ñı
I S
ĠÑĤ ÑĢÐ°Ð½
Ð° ÑĤÐ¸
ĠÐ´Ð° Ð¶Ðµ
ÑĨÐ¸ ÐµÐ¹
ĠÐº Ð»Ð°
Ġp ay
ÐµÑĤ Ñĭ
ĠM ar
Ð²Ð¸ Ð´
ĠÐ¼ Ð°Ñģ
ĠÐ±ÐµÐ· Ð¾Ð¿Ð°Ñģ
ĠÐ°Ð»ÑĮÐ± Ð¾Ð¼Ð°
ÑĢÐ° ÑĤ
Ġl ast
ĠIn ternational
c ell
and s
ĠÑĤ Ñĥ
Ð¸Ð½ Ðµ
ĠÑĤ ÑĢÐµ
Ð¾Ð²Ð° Ð½Ð¸Ðµ
ÑĢÑĥ Ð³
Ġcon dition
ĠÐ² Ð½Ðµ
ĠÐ¼Ð¸ ÑĢÐ°
Ñı Ð±
Ġe vent
Ðº ÑĨÐ¸Ð¸
Ġd i
am ent
ÑĤÐµÐ³ Ð¾ÑĢÐ¸Ð¸
ft ware
Ġ19 8
ĠÐ¾Ð±ÑĢÐ°Ð· Ð¾Ð¼
Ġ i
1 1
Ð° ÑĢÐ¸
il it
ill ion
ĠO f
ĠÐ¼Ð° ÑĤÐµÑĢÐ¸
ut es
ĠÑģÐ¾ ÑģÑĤÐ¾Ñı
ĠÐĶ Ð¶
ĠÐ³Ð¾ÑģÑĤ ÐµÐ¹
ĠIn d
n a
p on
ï¿½ ï¿½
Ġo ld
b e
Ġme et
S o
Ð¿Ð¸ ÑģÐ°
ĠÑĩ ÐµÑĢÐµÐ·
ĠÑģÐ²Ñı Ð·Ð°Ð½
A ll
ÐµÐ½ Ð½ÑĭÐµ
as es
ĠÐ¿ÑĢ Ð¾Ð´Ð°
Ġp ass
ĠÑĦ Ð°Ð¹
Ð¼ Ð°Ð½
ĠÑĢÐ° Ð¹
art ment
Ġinst all
us h
in al
Ġpolit ical
ĠÐ¾Ð±Ð¾ÑĢ ÑĥÐ´
ĠÐ¿ÑĢÐµÐ´Ð¿ÑĢÐ¸ ÑıÑĤÐ¸
iv id
Ġ ÑĢÐ¸
ĠÐºÐ¾Ð»Ð»ÐµÐº ÑĨÐ¸Ñİ
ĠÐº ÑĥÑĢ
Ñĭ ÑĪ
ir on
c ri
ut ions
ĠCh ina
ĠÐļ Ð¾Ð½
Ð° Ð´
ĠÐļ Ð¸ÑĤÐ°
Ġlangu age
Ð¾Ð²Ð° Ñı
O ur
ĠA ir
ĠÑĥ Ð³
Ġg lobal
Ġl it
ĠÐ¾Ð±Ð»Ð° ÑģÑĤÐ¸
ÑĤ ÑĢÐ¸
Ġbe fore
ĠÑĩÐ° ÑģÑĤ
ÑģÑĤÐ° Ð½
Ð¾Ð»Ð¸ ÑĩÐµÑģÑĤÐ²
Ġd ata
Ġimport ant
T o
ĠA ll
Ðŀ Ð´
Ġch o
Ġne ar
ÐŁ Ð¾Ñģ
ĠÐ»ÑİÐ± Ð¸Ð¼Ð¾Ð¹
ĠÐ´ Ð¾Ð¿Ð¾Ð»
ĠÑģÐ²Ð¾ Ðµ
I N
an ies
ĠS erv
as on
r ont
ĠÑħ Ð¾ÑĢÐ¾
ĠÑģÑĤÑĢÐ°Ð½Ð¸ÑĨ Ðµ
lo y
ĠÐ¾Ð¿ ÑĢÐµÐ´Ðµ
Ġs ince
om et
Ġb ed
ÑĦ ÐµÑģ
Ġ1 00
Ġacc ount
ÑĤÐ° Ñħ
ĠÑĤ ÑĢÐ°
Ġ ÑģÑĤÐ¸
Ð¼ ÐµÐ½Ð¸
Ġl arge
Ð¸Ð¼Ð¾ ÑģÑĤÑĮ
ĠÑĩ Ð¸
con d
Ð» Ð¾Ð¼
ĠG o
Ð½ ÑĮ
ĠÑģÐ»ÑĥÑĩÐ° Ðµ
Ð ĸ
t on
ĠÐ´Ð¾ ÑģÑĤÐ¸
m en
ĠA d
Ð²Ð° ÐµÑĤÑģÑı
ĠÐŀ ÑĤ
Ġhe re
3 0
ĠÑĥÑģÐ»Ñĥ Ð³
Ġcon c
' t
Ġfinan cial
Ġcur rent
Ð² Ð»Ðµ
ĠÐ¾ Ð³
o o
Ð¾ ÑĢÐ°
ra ph
Ġ vers
Ġprov ide
ĠÐ´ ÐµÐ¼
ĠÐ² Ð¾Ð¹
j oy
ĠÐ³Ð¾ÑĢ Ð¾Ð´Ð°
f er
Ð¾Ð½ Ð¾Ð²
ĠA nd
ĠÐłÐ¾Ñģ ÑģÐ¸Ð¸
Ġ1 6
ÐĿ Ðµ
ĠÑĢÐ° ÑģÑģ
Ñī ÐµÐ½Ð¸Ðµ
Ġis s
Ġcustom ers
Ġb as
ÑģÐ¸ Ñı
ÑĪÐ¸ Ð¹
Ġwh ile
ÑĦÐµ ÐºÑĤÐ¸Ð²
Ġn ational
A nd
are d
ĠÐºÐ»Ð¸ ÐµÐ½ÑĤÐ°
B ooking
Ð½Ð° Ð¼Ð¸
Ġp rom
Ð¼Ð¸ Ð½Ð¸
ĠÐ¾ Ð½Ð°
ÑĤÐ° Ð½
iv ing
r ing
ĠÐ½Ð° ÑĪÐ¸
Ġprof ess
ater ial
Ð¾ÑĤ Ñı
. ,
am es
ĠÑģÑĤÑĢÐ°Ð½Ð¸ÑĨ Ñĭ
age ment
ord ing
Ð½Ðµ Ð³Ð¾
Ð²Ð° Ð»Ð¸
ĠÐ²Ð¸ Ð´
ĠÑĦ Ð°
ĠÐ¼ ÐµÑĢ
p os
ĠÐ¿ Ð»Ð¾
ĠÐ½Ð°ÑħÐ¾Ð´ Ð¸ÑĤÑģÑı
Ġsu ccess
en g
Ñİ ÑīÐ¸Ðµ
ort h
if ied
am b
Ġn on
A R
ĠÐº Ð¾Ð»Ð¸ÑĩÐµÑģÑĤÐ²
Ð¸ Ð»Ð¸
A t
ĠÐ·Ð° Ð¿
O N
Ġf ollow
Ð¿Ð° Ð´
Ġl ife
ĠÐ²Ð¸Ð´Ðµ Ð¾
Ġ5 0
Ġen g
A T
ÑıÑĤ ÑģÑı
ĠÐ¾Ð´ Ð¸Ð½
ĠÐ¾Ñģ ÑĥÑīÐµÑģÑĤÐ²
Ðº Ð»Ð¸
Ġc ert
ĠÐ´ Ñĥ
ÑĦÐµÑĢ ÐµÐ½
Ð¾Ð¿ ÑĢÐ¸
Ġcomp anies
ÑħÐ¾Ð´ Ð¸ÑĤ
ÐºÑĤ Ð¾ÑĢ
ĠÐ·Ð° ÐºÐ¾Ð½
Ġv iew
ĠÐĴ Ð°Ð¼
Ã ²
Ð¾Ð± Ð¾Ð´
ĠW est
Ñħ ÑĢÐ°
ĠF ran
ĠÐ¿ÑĢÐ¾ ÐµÐºÑĤ
ÑĢÐ° Ð±Ð¾
ot e
Ġspe c
s p
w ays
Ð¾Ð¶ Ð´
Ð» ÐºÐ¸
ĠÐ½Ð° ÑģÑĤÐ¾Ñı
ÑĪ Ð¸Ð¼
ĠP ol
ĠF or
ĠÑĤÐµÑĢ ÑĢÐ¸ÑĤ
o int
aj or
ĠÐ¾Ð± ÑģÐ»ÑĥÐ¶Ð¸Ð²Ð°
Ġpo int
Ð¿ÑĢÐ¸ Ð¼ÐµÑĢ
Ð± Ð¾Ð»
ĠR ep
ĠÐ½Ð° Ð¹
Ġd id
Ġw ater
b y
Ġ es
Ð¾ÑĢ ÑĤÐ°
ÑĤÐµ ÑģÑĮ
ĠÑģÐµ Ð³Ð¾Ð´Ð½Ñı
ÑĩÐµÑģ ÐºÐ°Ñı
Ñĭ ÑĤ
Ð´ Ð¾Ð±
Ġper form
Ð³ Ð°Ð½
Ġe lect
ĠÑĥ ÑģÐ¿Ðµ
Ġre port
Ð¸ Ð½Ñĭ
Ġ1 1
ĠÐ± Ð¸Ð·Ð½ÐµÑģ
Ġan n
ĠÐ»Ñİ Ð´ÐµÐ¹
Ġla w
Ġpro per
Ġth ree
Ã ±
ĠÐ½Ð° Ð´
ĠÐ½Ð° Ð¿ÑĢÐ°Ð²
in ation
en se
Ġrep resent
Ġapp lic
Ġdown load
ĠÐ¿ Ð¾Ðº
Ñİ ÑīÐ¸Ð¹
ĠÑĨ ÐµÐ½
ir d
Ġ1 4
Ð¾Ð» Ð¾Ð´
Ġcl ose
ĠÐ¿ÑĢ Ð¾Ð¶Ð¸
ĠÑģÑĤ ÑĢÐ¾
Ġagain st
Ġw alk
Ġcre ate
Ð¸ ÑĢ
ĠÐ¾ Ð¿ÐµÑĢÐ°
ÑİÑī ÐµÐ¹
Ġrev iews
ĠÐ² Ð¾Ð´
ÑĤÐ¾ Ñĩ
i or
Ð¾Ðº ÑĢÐ°ÑĤÐ¸
ĠÐ¼ Ñĥ
ĠÑĢÐ°ÑģÐ¿Ð¾Ð»Ð¾Ð¶ ÐµÐ½
ee p
ĠÐºÐ¾Ð½ ÑĤÑĢ
ĠÐ¿ÑĢÐ¾Ð´ Ð¾Ð»
id er
ĠÐ²Ñĭ Ð±
ra g
ateg ories
Ġ el
ÑģÐº Ð¾Ðµ
ĠÐº ÑĢÑĥÐ¿
Ð¶ Ð¸Ð¼
iss ion
ĠÐ·Ð° Ð´Ð°
ĠÐ¿ÑĢÐ¾Ð³ÑĢÐ°Ð¼ Ð¼
Ġloc al
Ġ her
h ib
us s
Ð·Ñĭ Ð²Ñĭ
Ð° Ð³Ð°
Ð¶ ÐµÐ½
c ome
ÑĢÑĥ Ð·
ĠI I
ĠÐ² Ð½ÑĥÑĤ
le v
Ġbe aut
Ġm aterial
ĠD es
ĠÐ¸Ð· Ð²ÐµÑģÑĤ
Ġp ack
iv en
ĠÐ½ ÐµÐ¼
Ã ¶
ĠÐ¼Ð¸ ÑĢÐ¾Ð²
ÑģÐºÐ¸ Ð¼
ĠÑįÑĤÐ¾ ÑĤ
ĠÑĥÑĩÐ° ÑģÑĤÐ¸
e xt
ĠB el
at ely
t t
ĠÐº ÑĤÐ¾
ie v
ĠÐ³ Ð»Ð°Ð²
ĠÐºÐ¾Ð¼Ð¿Ð° Ð½Ð¸Ñı
le x
Ġpartic ip
os p
ri d
ĠM y
Ġb reakfast
ĠÑģÐ¿Ðµ ÑĨÐ¸Ð°Ð»Ð¸
m ed
ĠÐ¿ÑĢÐ¾ ÑĦÐµÑģ
si b
Ġ200 6
ĠÐ¿ÑĢÐ¾Ð² ÐµÐ´
ÑĢ Ð¾Ð±
ĠÐ³Ð¾ÑģÑĥÐ´Ð°ÑĢ ÑģÑĤÐ²ÐµÐ½
r ist
Ðļ Ð¾Ð¼
ĠÐ½ÐµÐ¾Ð±ÑħÐ¾Ð´ Ð¸Ð¼
i ble
Ð¹ Ð½
ĠUn ited
ic ial
in ian
ĠÑħ Ð¾
ĠÐ¸ÑģÐ¿Ð¾Ð»ÑĮÐ· Ñĥ
Ð°Ðº Ñģ
ĠÐ° Ðº
ÐºÐ° Ð·
ĠÑį ÑĤÐ°
Ġl ess
ÐµÐº ÑĤÐ°
i ver
ĠÑģÐ²Ð¾ Ñİ
p ar
e x
c ing
om an
ĠÑıÐ²Ð»Ñı ÑİÑĤÑģÑı
Ġar ound
v iron
ou th
Ġ1 7
ĠÐ½Ðµ Ð·Ð°
Ð¶ Ð´Ð°
ĠÑĢÐ°Ð· Ð¼Ðµ
Ġl arg
ch ange
Ġc ult
ĠP al
l ation
fere nce
Ġcl ass
od y
ÑĤÐµ Ðº
Ġs l
ĠÐ³ Ð¾Ð²
ĠÑĥÑĩÐ° ÑģÑĤ
ip ment
Ã ĳ
at s
ĠÐ³ Ð¾Ð»
ĠÑĥ Ð´Ð°
Ð· Ð²Ð°
om m
Ġm ajor
Ġexper ience
ĠÐ½ÐµÑģÐº Ð¾Ð»ÑĮÐºÐ¾
Ð»Ð¸ Ð¹
amp le
Ġ2 5
Ð¾Ð¿ Ð¸
Ġsystem s
ĠÐ·Ð½Ð° ÑĩÐ¸
Ð´Ð¸ ÑĨÐ¸Ð¾Ð½
ĠÐ¸ Ð´Ðµ
Ð½Ð¸ ÑĤÑĮ
ĠÐ½Ðµ Ð¿
Ġm us
Ġr is
Ġt our
s ite
ĠÐ´ÑĢÑĥÐ³Ð¸ Ðµ
ĠÐ¾ ÑĤÐµÐ»ÑĮ
ĠO n
Ġch ang
Ġcont rol
Ġb et
ain ed
ĠÑģ ÐµÐ¼
Ġent er
ru ction
ÑĤ Ð²ÐµÑĢ
Ġqu est
ĠÑįÑĦ ÑĦÐµÐºÑĤÐ¸Ð²
Ġ $
ĠÐ¾ ÑĦÐ¸
Ġh and
ĠÐ² Ð½Ð¸Ð¼Ð°
Ġ '
ĠÑĢÐ°Ð· ÑĢÐ°Ð±Ð¾ÑĤ
in o
or g
Ð² Ð½Ð¾
ĠÐ²ÑĢÐµÐ¼ ÐµÐ½Ð¸
ĠÐº ÑĥÐ»ÑĮ
Ġn ame
Ð°ÑĢ Ñı
ĠÑģÐ² Ð¾Ð¹
i ation
as ter
ĠW e
ĠÐ¿ÑĢ Ð¾Ð¼
Ġch ange
ÑĢÐ¾Ð¼ Ðµ
i pp
ÑĦÐ¸ ÐºÐ°
Ð²Ð¸ Ñĩ
ÑĩÐ¸ Ñģ
ĠIn ternet
ĠA m
ĠÑĢÐµ Ð°Ð»ÑĮ
ĠÐ¿Ðµ ÑĢÐµÐ´
Ð¼ÐµÑĢÐ¸ ÐºÐ°Ð½
Ġrel ated
Ðŀ ÑĤ
Ðµ ÑĨ
Ñı Ð²Ð¸
ĠÑĦ Ð¾ÑĤ
Ðļ Ð°Ðº
Ġcle an
L ist
ĠÐ½Ð¸ Ñħ
Ġf ull
iet y
Ð³ Ð»Ð°
Ġfore ign
re m
etw ork
ĠÐ¾ ÑĪÐ¸
Ġp ict
ĠÐ¼Ð¸ Ð½Ð¸
Ð¾Ð± ÑĢÐ°
ĠÐ´Ð°Ð½ Ð½ÑĭÑħ
ĠÐ¸Ð½ÑĦÐ¾ÑĢÐ¼Ð° ÑĨÐ¸Ð¸
ĠÐ¾Ð± Ñı
ĠÐ¿ÑĢÐ¸Ð¼ ÐµÐ½
ĠÐ¿ÑĢÐ¾ ÑģÑĤÐ¾
ul ation
en cy
ĠÐ±ÐµÑģÐ¿Ð»Ð°ÑĤ Ð½Ð¾
E S
Ð¾ÑĢ Ð¾Ð½
ĠÐ·Ð° ÐºÐ»Ñİ
Ġpro t
ÐºÐ¸ Ð¹
ight s
Ġs al
ain t
Ð²ÑĢÐ¾Ð¿ ÐµÐ¹
ĠÐ¾ÑĢÐ³Ð°Ð½Ð¸ Ð·Ð°
ro ss
Ġfun ction
ĠW h
ĠÐ¿ÑĢÐµÐ´ ÑģÑĤÐ°Ð²Ð¸
Ð¶ Ð¸ÑĤ
ĠÑĢÐµÐ³Ð¸ ÑģÑĤÑĢÐ°
oc u
Ġet c
Ġr un
ĠÐ¿Ð¾Ð»Ñĥ ÑĩÐ¸
h ing
ÑĢÐµ ÑĤ
ĠÐ¿Ð¾Ð´ ÐºÐ°
ĠB ar
om en
ĠÑĩÐ° ÑģÑĤÑĮ
Ġb o
Ġadd ition
Ð³ Ð´Ð°
at t
Ġchild ren
Ġne cess
Ð¾ÑĢÐ¾ Ð½Ñĭ
ent ion
ÑĤÐµ Ð¼
ĠÐ¡ Ð¾
s h
ĠÐ´Ð²Ñĥ Ñħ
Ġf ew
Ġtra dition
ĠÑĦÐ¸ ÑĢ
ra d
ĠÐ¼ Ð¾Ð´
ac es
Ġ ÑĢÐ¾Ñģ
ĠR es
ĠÐ¼Ð¸ ÑĢÐµ
ĠS c
ap an
ÑģÑĤÑĥ Ð¿Ð°
ÑģÑĤÐ¾Ñı Ð½
Ġaut hor
Ð³ÑĢÐ° Ð½Ð¸
Ð° Ð»Ð°
ĠÑģÐ²Ð¾Ð¸ Ñħ
Ġst ill
ĠÐ¿ÑĢ Ð¾Ñģ
Ġen joy
Ġde v
Ð»Ð¸ Ð±Ð¾
Ġall ow
Ġso ftware
uf act
y ing
Ð½ ÐµÐ¼
Ġbec ome
Ð¾ÑĢ Ñı
ĠÑĥ Ð½Ð¸
Ġem p
Ðĺ Ð½
ĠÐĲ Ð½
c ategories
ĠÐ¿ÑĢÐ¾ ÑģÑĤ
ĠÑįÑĤÐ¸ Ñħ
ĠÐ½Ð¾Ð¼ÐµÑĢ Ð¾Ð²
w w
un e
ĠÐ¼Ð¸ Ð»Ð»Ð¸
ÐµÑĢ ÑĤ
Ġd u
ÐºÐ° Ð·ÑĭÐ²Ð°
pe cial
ĠÐĿ Ð¸
es e
ĠC ar
ĠÑį Ð½ÐµÑĢ
Ġest ab
Ð»Ð¸ Ð¼
ÑģÑĤÐ² Ðµ
Ġb ig
ĠÐ¿Ð¾Ð´ÐºÐ° ÑĤÐµÐ³Ð¾ÑĢÐ¸Ð¸
ĠO r
if ul
od e
Ġpric e
' '
at ch
Ġs w
ĠÐ²Ñĭ Ð±Ð¾ÑĢ
Ġb ased
ĠÐ¾ ÑĤÐµ
ĠÐ¼ Ð¾Ð¼
ĠÐ¿ÑĢÐ¾Ð³ÑĢÐ°Ð¼ Ð¼Ñĭ
l ing
iel d
Ġbuild ing
n ov
Ġne xt
ÑģÑĤÐ² Ñĥ
ĠÑĩÐµÐ»Ð¾Ð²Ðµ ÐºÐ°
ÑĭÑĪ Ð»ÐµÐ½
Ġsh ort
ĠÐ¸Ð½ Ð²ÐµÑģÑĤÐ¸
ĠÐ´ Ð¾ÐºÑĥ
ĠÑģ Ð¼
Ġh uman
ĠS u
th ing
ĠÐĺÐ½ ÑĤÐµÑĢ
ĠL a
viron ment
ĠÐ¶Ð¸Ð· Ð½Ð¸
i od
Ġmin utes
ent ly
Ġto o
Ġc ase
Ð¼ Ð¾
Ġp ark
ĠÑĢÑĥ ÐºÐ¾Ð²
ÑĢÐ°Ð½ ÐµÐ½Ð¸Ñı
Ġcomfort able
ÑĦÐ¸ ÑĨÐ¸
ÑĢÑı Ð´
ĠÑģ ÑģÑĭ
ĠÐ½Ð° ÑĨÐ¸Ð¾Ð½Ð°Ð»ÑĮ
ĠÑģÐ¿Ðµ ÑĨÐ¸Ð°Ð»ÑĮ
Ð¢ Ð°Ðº
ĠÐ¿ÐµÑĢ Ð¸
Ð² Ð¾Ð·
ĠÐºÐ¾ÑĤÐ¾ÑĢ Ð¾Ð¹
Ð± ÐµÐ»ÑĮ
ĠÑĢÐ°Ð·Ð²Ð¸ ÑĤÐ¸Ñı
Ð»ÑĮ Ð½Ð¾
ĠÐ¿ÑĢÐ° ÐºÑĤÐ¸
Ð³Ð¸ Ð¸
Ñģ Ð½Ð¾
ĠÐ¸ÑģÑĤ Ð¾ÑĢÐ¸
Ġap pe
ĠÐºÐ¾Ð½ ÐºÑĥ
ĠÑģÐ² Ð¾Ð±Ð¾Ð´
Ġcomp et
Ðº Ñģ
W ith
Ñĩ Ð½ÑĭÑħ
ĠRep ublic
ĠÐ¿ Ð¾Ð±
ĠÐĴ Ð°Ñģ
Ð¡ Ð¿Ð¸
Ð»Ð¸ Ð½
ĠÑĪÐ¸ ÑĢÐ¾Ðº
Ð½ ÐµÐ½Ð¸Ñı
Ġcom b
ĠÐ¿ÑĢÐµ Ð·Ð¸Ð´
Ġ :
Ðł Ðµ
ÃĹÃĹ ÃĹÃĹ
O R
il le
ĠÑĥ Ð´Ð¾Ð±
Ġequ ipment
Ð¶ ÐµÐ½Ð¸Ñı
Ġs he
ĠÐ¿ÑĢÐµÐ´Ð¾ ÑģÑĤÐ°Ð²Ð»Ñı
Ġp ost
ÐµÐ¼ ÑĭÑħ
Ġb ar
ĠÑĩÐ° ÑģÑĤÐ¸
ĠÑĨ Ðµ
Ġd om
ĠÐ»Ðµ Ð³
ÐºÑĤ Ð¾Ð²
ĠP art
ent ial
ĠE n
ĠÑģÐ¾Ð¾ÑĤÐ²ÐµÑĤÑģÑĤÐ²ÑĥÑİ ÑīÐ¸Ñħ
cell ent
Ġse cond
l in
ĠÐ¸Ñģ ÑģÐ»ÐµÐ´
Ġind ivid
k y
Ð¼ ÐµÑĤ
Ð½Ð° Ð»Ð¸
Ð¿ Ð°ÑĢ
re ady
ĠÑĤ Ñĭ
ĠÐ¾ÑĪÐ¸ Ð±
Ġreg ion
Ġst ation
Ġmon th
m ber
Ġex ample
Ġres pon
Ġal ways
ĠÐĲ ÑĢ
Ġb ath
in c
i j
os c
ĠÐ¿ÑĢÐ¾ ÑĪ
k o
ĠÐ² ÑģÑĤÑĢÐµ
ĠÐ´ Ð²Ð°
Ġh ard
I D
ĠÑĩ Ð»ÐµÐ½
U n
ĠÐ¿Ð¾ÑĤ ÑĢÐµÐ±
st and
ÑĢÐµ Ð¹
Ġreg ist
ĠC ount
ĠAmeric a
Ġl ook
Ñĩ ÑĮ
ĠS er
Ñĥ Ð°
Ġt urn
ĠD ep
ag n
Ġa way
Ġsh ow
ch ool
ĠCom p
ĠÐ·Ð° Ð³
Ġsh op
Ġman ufact
Ġm oney
Ġpolic y
Ð Ļ
ĠÐ½ÐµÐ¾Ð±ÑħÐ¾Ð´ Ð¸Ð¼Ð¾
ĠÐ´ Ð¾Ð¼
Ð¢ Ð°
m inist
ĠÐ·Ð° Ð½Ð¸Ð¼Ð°
Ġwork ing
al y
Ġ1 3
Ð² ÑĢÐ°
end ing
ÑĥÑĩ ÐµÐ½Ð¸Ñı
Ġadd ress
Ġgrow th
Ñħ Ð¾Ð²
Ñĭ ÑĤÐ°
ĠÐºÐ¾Ð¼Ð¿ ÑĮÑİ
Â «
Ð·Ð¸ Ð¸
ÑĮ ÐµÑĢ
Ġbe g
ĠÐľ Ðµ
ar ly
Ð¡Ð¿Ð¸ ÑģÐ¾Ðº
Ð³ Ðµ
ĠÐ¼Ðµ ÑģÑĤÐ¾
ĠÐ¾ÑĤÐ½Ð¾ ÑĪ
ÑĤÐ¸ Ð¸
en n
ÑĢÐ° Ñħ
a us
Ġmem bers
ÑĪÐ° Ñı
H e
ĠÐ³ ÑĢÐ°Ð¶
ĠÑģ Ð°
Ġb ank
Ð²Ð¸ Ð´Ñĥ
ĠÑģ ÑĩÐ¸ÑĤÐ°
Ð¼Ð° ÑĤÐ¸
b ian
ĠÑĥ Ñĩ
A r
ro du
Ġc are
Ġte am
le ment
ĠÑģ ÐµÐº
re et
ĠÑģÑĤÐ°Ð½ Ð´Ð°ÑĢ
it es
ĠÐ¿Ð°ÑĢ ÑĤ
Ġ ÑĪÐ°
ĠÑģÑĤÑĢÐ°Ð½Ð¸ÑĨ Ð°Ñħ
ĠÐ¼ Ð¾
Ð² Ñı
ĠP h
Ġsoc ial
Ð½Ñı Ð¼
ĠÐ´Ð¾Ð¿Ð¾Ð» Ð½Ð¸ÑĤÐµÐ»ÑĮ
id d
ie ve
ĠÑĦÐ¾ÑĤ Ð¾Ð³ÑĢÐ°ÑĦÐ¸
Ġm ult
ful ly
ĠÐ²Ñĭ ÑģÑĤÐ°Ð²
Ġst y
ĠÐ½Ð° Ð´Ðµ
Ġpriv ate
ĠÐ¿Ð»Ð¾ ÑīÐ°
ÑĩÐµÑģ ÐºÐ¾Ðµ
ĠÐ¶ ÐµÐ½
ĠS w
Ġ range
ĠÐ½Ð° ÑĪÐ¸Ñħ
Ð»ÑĮ Ð½ÑĭÐ¹
Ġme ans
k a
Ġto p
ÑīÐ¸ ÐµÑģÑı
ĠÑģÐ¾ÑĤÑĢÑĥÐ´ Ð½Ð¸
ÑĪ Ð¸Ð½
Ġse ver
A S
Ð» Ð¾Ð±
Ġd ocu
ÑĤÐ¸ Ðµ
ĠÐ¿Ð¾Ð·Ð²Ð¾Ð»Ñı ÐµÑĤ
Ð² Ð¾Ð¹
Ñģ ÐµÑĢ
Ġh ome
ok ing
ĠA f
ian s
Ġch ar
ĠT o
Ð¹ ÑģÐºÐ¸Ñħ
Ġ ÑĨÐ¸
ĠÐ½Ð°ÑĪ ÐµÐ¹
ĠÐ³ Ð»Ð°
os s
ÑĤ ÑĥÑĢ
Ġh ig
Ġal ready
ĠÑĤÐµ ÑĩÐµÐ½Ð¸Ðµ
ĠÐĵ ÐµÑĢ
ĠCom m
Ġb ro
ÑĤÐ° Ð¼Ð¸
Ġcour se
o per
ĠServ ice
ĠÐ¿ÑĢÐ¾ÑĦÐµÑģ ÑģÐ¸
Ð¶Ð° ÑĤÑĮ
Ð¿Ð¸ ÑĤÐ°
ver t
Ġ200 5
Ġto day
ĠÑĤ Ð¾Ð²Ð°
Ð¼Ð¸Ð½Ð¸ ÑģÑĤÑĢÐ°
ÑĩÐµÑģÐºÐ¸ Ð¼
ĠÐ¾Ð³ ÑĢÐ¾Ð¼
ÑĢÑĥ ÐµÑĤ
v ing
com m
ly mp
ort un
Ð°Ð»ÑĮ Ð½Ð¾
Ġfam ily
Ġf ut
ol id
ÑĩÐ° Ñı
Ġw ar
Ġ19 7
f ect
ĠÐ¾Ð± Ð¾Ð¸
Ġt reat
ĠTh is
Ġb ook
ÑģÑĤÐ¸ Ð½
Ġto wn
ĠÐŀ Ð±
Ð³Ð¾Ð´ Ð°ÑĢÑı
ĠÑĩÐµÐ»Ð¾Ð² ÐµÐº
ĠÐ¾ Ð³ÑĢÐ°Ð½Ð¸
ĠÐ¤ ÑĢÐ°Ð½
sk y
Ðµ ÑĪÑĮ
Ġcomp ut
av a
ĠÐ¸Ð½ÑĦÐ¾ÑĢÐ¼Ð° ÑĨÐ¸Ñİ
Ġpl an
Ġcap ital
em ber
o ver
ĠA g
Ñģ Ð¾
Ġche ck
ÑĨ ÐµÐ½ÑĤ
ĠÑģÑĤÐ° ÑĤÑĮ
ÑĢ Ð¾Ð·
Ð½Ð° Ð»
Ġsever al
Ġh im
ĠÐ¿Ð¾Ð² Ñĭ
ĠÑģ Ð»Ðµ
Ġn ight
ĠÐºÐ¾ÑĤÐ¾ÑĢ Ð¾Ðµ
Ð²Ð° ÑİÑĤ
ÑģÑĤÐ¾ Ñĩ
ĠÐ¸ Ð¼ÐµÐ½
Ã ¢
Ġper iod
ĠÐĲ Ð¼ÐµÑĢÐ¸
Ġcom e
Ð´Ð¸ Ð¸
ĠÐ¿Ð¾Ð» Ð¾Ð¶
ĠL ove
ĠÐ£ÐºÑĢÐ° Ð¸Ð½Ñĭ
Ð»Ñĥ Ñĩ
Ġhe art
H otel
Ġan other
ÑĮ Ðµ
Ġwor ks
ĠÐ¿Ð¾ ÑģÑĤÐ¾ÑıÐ½
Ġm ach
ÐµÐ² ÐµÑĢ
Ð» ÐµÐ½Ð¸Ð¸
ĠM inist
E N
c hen
Ð»Ð¸Ð¼ Ð¿Ð¸
ĠÐ²ÑģÐµ Ð³Ð´Ð°
ĠÑĨ ÐµÐ»ÑĮ
ÑĤÐ¸ Ð¹
at ors
Ġp at
Ðŀ ÐĿ
Ġp ress
che s
in ux
an a
Ð»Ñı ÑĢ
Ġgu est
ĠÐ¿Ð¾ÐºÐ° Ð·Ð°
ab ly
Ġsec urity
ĠÐĽ Ð¸
ĠÐ¾Ð±ÐµÑģÐ¿Ðµ ÑĩÐ¸
id es
Ġp ort
ĠO lymp
ĠÑģÑĤ Ð¾Ð»
ar a
Ġl o
end ed
ur k
l ished
Ġam ong
H ow
ĠÐºÑĢÐ¸ Ð·Ð¸
Ġneed s
ĠÑĤÐµÑĢÑĢÐ¸ÑĤ Ð¾ÑĢÐ¸Ð¸
ĠÐ¿ÑĢÐµ ÐºÑĢÐ°
Ð± Ð¾Ð»ÑĮ
ĠÑĢÐµ Ð°Ð»Ð¸
Ð½Ð¾ÑģÑĤ ÐµÐ¹
Ġd ays
f or
ĠÐ¿ÑĢÐ¸ Ð·Ð½Ð°
m ing
Ġ er
Ġg l
Ġs ing
op e
Ðº ÐµÑĤ
ÐµÐ½ Ð½Ð¾Ð³Ð¾
er gy
Ð¸ Ð¹
Ð¿ÐµÑĢ ÑĮ
ĠÐ±ÐµÐ·Ð¾Ð¿Ð°Ñģ Ð½Ð¾ÑģÑĤÐ¸
ÐµÐ½ Ð½Ð¾Ð¹
ĠÐ¶Ðµ Ð»Ð°
ĠÐ½Ðµ Ð´
ĠÐ´ÐµÑıÑĤÐµÐ»ÑĮ Ð½Ð¾ÑģÑĤÐ¸
ÐŀÐ´ Ð½Ð°ÐºÐ¾
Ġaut om
Ð±Ð¸ ÑĢÐ°
ĠÑĨ Ð²ÐµÑĤ
Ġt em
Ġeas y
Ð¾Ð» Ñı
ÐµÑģÐ¿ ÑĥÐ±Ð»Ð¸
iv ed
ĠÐ¿ÑĢÐ¾Ð² Ð¾Ð´
ĠÐ¿ÑĢÐ¸ Ð½Ð¸Ð¼Ð°
ĠÐ¿ÑĢÐ¾Ð¼ ÑĭÑĪÐ»ÐµÐ½
Ġsa f
Ġhe ad
ĠÐ¸Ð½ÑĤÐµ ÑĢÐµÑģ
le t
n ot
ÑĤÐ° Ð¼
ĠÐ³ ÑĢÐ°
ÑĢÐµÐ´ Ð¸ÑĤ
ist ic
ct or
ĠÐĶ Ð¾Ð±Ð°Ð²Ð¸ÑĤÑĮ
Ġl im
Ġ [
ĠÐ° Ð¼ÐµÑĢÐ¸ÐºÐ°Ð½
ĠÐ¿ÐµÑĢÐµ Ð´Ð°
ĠÐ¼Ð¸ ÑĢ
ĠÐ¿ÑĢÐµÐ´Ð»Ð°Ð³Ð° ÐµÑĤ
Ã °
ÐĴ Ð¾
ĠÑģÑĤÑĢÐ° Ð½Ð°Ñħ
ĠÑģÑĤ Ð¾ÑĢÐ¾Ð½Ñĭ
Ġa ble
Ð»ÑĮ Ð½ÑĭÑħ
ĠAmeric an
Ġre du
ivers ity
Ġd on
ĠÐ¿ÑĢÐ¾Ð¶Ð¸ Ð²Ð°Ð½Ð¸Ñı
ĠÐ²Ñģ ÐµÐ¼
Ġun ique
Ð¾ Ñħ
ĠÐ¿ÐµÑģ Ð½ÑıÐ¼
Ġvers ion
â Ħ
ĠP resident
Ġf und
Ġc reat
ur s
Ġbeaut iful
ĠÐµ Ð²ÑĢÐ¾Ð¿ÐµÐ¹
ÐºÐ»Ð¸ Ð¿Ñĭ
c a
ĠN ational
our ces
Ġm en
ĠT V
ĠÑģÐ²Ñı Ð·Ð¸
Ġf ar
ĠÐ´ ÐµÑĤ
ĠÐ³ Ð¾ÑģÑĤÐ¸
ĠÐ¸Ð½ ÑģÑĤÑĢÑĥ
Ġindivid ual
ĠÑģÐ» Ð¾Ð¶
r as
ĠÐŁ Ð°
Ġf re
Ð± Ð»Ð¸
ĠÑĦ Ð¾Ð½
Ġo pt
Ġ200 4
ÑĥÑģ ÐºÐ°
h od
Ġnecess ary
ĠÐ¼ÐµÐ½ ÐµÐµ
1 8
Ġto t
ĠÑģÐ¾Ð² ÐµÑĢ
ĠRoom s
Ġf ile
ov a
ur ther
Ã §
Ġhe alth
Ġ ve
Ġp ut
Ġen vironment
p re
ĠÑĤÐµÑħ Ð½Ð¸
Ġpartic ular
an ks
am a
Ð» ÐµÑĢ
Ġman agement
Ġfac ilities
ĠÐ ĸ
Ð¾Ð± ÑĢÐ°Ð·
Ð¿Ð° Ð½Ð¸Ñı
ĠÐ½Ð° ÑģÐµ
Ġcont ext
ĠÐ¸Ð·Ð¾Ð±ÑĢÐ°Ð¶ ÐµÐ½Ð¸ÐµÐ¼
Ġrestaur ant
Ġhist or
an e
ol ution
Ġopp ortun
Ġf lo
ĠÑģÑĤÑĢÐ¾ Ð¸ÑĤÐµÐ»ÑĮ
ĠÑģ Ð»ÐµÐ´ÑĥÑİ
ĠÑĩ Ð°Ñģ
Ġval ue
i ber
ĠÑĥÐ¿ÑĢÐ°Ð² Ð»ÐµÐ½Ð¸Ñı
Ġlead ers
Ġtrans port
6 0
c le
Ġeconom y
Ġn etwork
n ers
Ð»ÑĮ Ð½Ð¾Ð¹
Ġh ost
Ġoff icial
ĠÐ¸ Ñİ
Ġsa id
ÑĩÐ° Ñģ
ĠÐºÐ¾Ð¼ ÑĦÐ¾ÑĢ
Ġ ru
Ġa ff
Ð¶Ð´ ÐµÐ½Ð¸Ñı
Ġst at
The y
Ġre ad
Ġcent ral
Ġinst it
Ã ª
ÑĩÐ¸Ñģ Ð»ÐµÐ½
Ð¸ Ð´
Ġpos ition
Ġproble m
Ð ®
Ġdist rib
an ing
Ð»ÑĮ Ð½ÑĭÐµ
og raph
Ġo cc
Ġed uc
ĠÐ² ÑĤÐ¾ÑĢ
Ñĩ ÐµÑĢ
ĠÐ¼Ñĥ Ð·Ñĭ
Ðµ ÑģÑĤÐ¸
ĠÐ¾ Ð·Ð½Ð°
Ġd ou
v es
ÑħÐ¾Ð´ Ñı
ÐµÐ½ÑĤ Ñĭ
ĠÐ¾Ð± Ñĭ
Ð»Ð° Ð´Ð¸
ĠÑĢÐµ Ð¶Ð¸Ð¼
ĠÐ³Ð° ÑĢÐ°Ð½
ot t
Ġt ax
s ide
le y
Ñī Ð¸Ð¼
ĠJ apan
ilit ary
Ñģ ÑĥÑĤ
Ð»Ñĥ Ð±
ĠÐł ÐµÑģÐ¿ÑĥÐ±Ð»Ð¸
Ð¿ ÑĢÐ¾
st it
Ġp ract
ĠÑĥÑģÐ»Ñĥ Ð³Ð¸
ÑĦ Ð°
iv ely
Ð¾Ð»ÑĮ ÐºÑĥ
Ġh ouse
ĠU N
Ġcent er
ĠÑĤÑĢÐ°Ð½ ÑģÐ¿
Ġright s
Ġde b
al t
ĠÐ¿ÑĢÐ° Ð²Ð°
Ġtra de
Ġprovid es
ĠÐ° ÐºÑĤÐ¸Ð²
ÐºÐ° Ð¼
ĠÑĤÐµÐ»Ðµ ÑĦ
Â ®
ĠÐ¿Ð¾ Ð¸
z er
A b
Ð²ÐµÑĢ ÑģÐ¸
Ġc ris
Ð»Ð¾Ð± Ð°Ð»ÑĮ
Ġfut ure
as ing
Ġ4 0
âĢ ľ
ÑģÐ»Ñĥ Ð³Ð¸
ÑģÑĤÐ° Ð½Ð°
Ġd ri
is ed
ent al
il t
re am
on es
hib ition
Ð¾Ð· Ð¸
ĠÑĤÐ° ÐºÐ¸Ñħ
r or
ĠÐ¿ Ð°Ðº
ÑĤÐµ ÑĤ
Ġty p
ĠÐ´ Ð¾ÑĢ
Ġe v
ĠÐ° Ð½
ĠT ra
ot s
u ge
ÐµÐ½ Ð½ÑĭÐ¹
ee k
Ġcont ent
ĠÑģÐ¾ ÑĨÐ¸Ð°Ð»ÑĮ
ĠÑĤ ÑĢÐ¸
Ġf ood
1 5
Ġhist ory
W hen
ĠÐ¾ ÑĩÐµ
ÑĤÐµÐ»ÑĮ Ð½ÑĭÐ¹
ÑĢÐ° Ð²Ð¸
Ġen s
Ġcont act
Ġex cellent
Ġbet ter
Ð¢ Ðµ
osc ow
ÑīÐ¸ Ð¼Ð¸
ri m
Ñĥ Ð²
ÑĩÐ° ÑĤ
ist an
Ġar ch
Ġweb site
Ġperson al
ÐµÑĤÐµ Ð¹
ic ro
ĠS um
Ð¿Ð¸ Ð¾Ð½Ð°
a is
t el
ĠÐ½Ð¾Ð² ÑĭÑħ
ÑĢ Ð¾Ð³
ect ed
m ost
Ġha pp
ÑıÐ± ÑĢÑı
er ing
ĠÐ¼ ÐµÑģÑı
on y
ĠÑģ ÑĥÐ´
ÑģÑĤÐ¸ ÑĤÑĥ
ĠÐºÐ¾Ð½ ÑĤÐµÐº
ÑĢÐ° Ð¼Ð¸
Ġo rig
ĠÐ¿ÐµÑĢ Ñģ
ÑĩÐ¸ Ð½Ð°
ĠÐ´ Ð¾Ð¼Ð°
Ð¾Ð¶ ÐµÑģÑĤÐ²
Ġproble ms
ĠW eb
ĠÐ¿ÑĢÐ¾Ð¸Ð·Ð²Ð¾Ð´ ÑģÑĤÐ²Ð°
ÑģÑĤÐ² ÑĥÐµÑĤ
ĠM ed
ÑĢÐµ Ð²
Ġg ra
Ġprofess ional
Ġindust ry
Ġpict ures
Ġemp loy
ĠÑĢÐµ ÑģÑĤÐ¾
ĠÐŀ Ð»Ð¸Ð¼Ð¿Ð¸
Ġlit tle
Ġvar ious
ak en
ÑĤÐµÐ»ÑĮ ÑģÑĤÐ²Ð°
ÑģÑĤÐ² Ð¾Ð²Ð°ÑĤÑĮ
et y
Ġ200 0
ĠÐ¿ Ð¾ÐºÑĥ
u z
is c
ar l
Ð²Ð° ÐµÐ¼
Ġp le
ĠG e
Ð»Ð¸ Ð¸
Ġv ot
ĠÐ¾ Ð¶Ð¸
Ð·Ð° Ð»
Ð¾Ð± Ð¸Ð»ÑĮ
ĠÑĢÐ°Ñģ ÑĪÐ¸
ĠÐ² Ð¾Ð»
Ġen ergy
olog ical
ĠÐ¿Ð¾Ð´Ð´ÐµÑĢ Ð¶Ð¸Ð²Ð°
Ġfriend ly
Ð°ÑĢÐ° Ðº
u ed
ĠÐķÐ²ÑĢÐ¾Ð¿ Ñĭ
a it
Ġ ÑħÐ¾Ð´
ÑĢ ÐµÐ½Ð¸Ñı
i y
ol s
ĠÐĲ Ð»ÐµÐºÑģ
ÑģÑĤÐ²Ð¸ Ð¸
Ġsu m
ĠÐ¶Ð¸ Ð²
ĠÑģÐ¾Ð± Ð¾Ð¹
Ġ ÑĢÐ¾Ð´
ÐµÐ¹ ÑĩÐ°Ñģ
Ġs at
at ically
Ġl ine
ĠÐ² Ð°Ð»
Ġun d
S h
ĠÐļ Ð¸
ĠÐ° Ð³
f ic
id ence
ĠÑģÑĢÐµÐ´ Ð¸
ĠÑĥ ÑģÐ¸
Ġle ft
at ures
Ñĩ Ð½ÑĭÐµ
ÐŁ ÑĢÐ¾
Ð¶Ð´Ñĥ Ð½Ð°ÑĢÐ¾Ð´
Ñĥ Ð´Ð¸
Ġapp ro
Ġmus ic
ĠW ar
ÑĩÐ° ÐµÑĤÑģÑı
ĠÐ´ Ð¾Ð²
ed er
red it
ĠÐ± Ñİ
i qu
o z
at ural
i ra
st an
A d
ĠG roup
ra el
ĠÑģÑĤ ÑĢÑĥ
ĠÐ¾Ð± ÑĢÐ°
ĠÐ´Ð¾Ð»Ð¶ ÐµÐ½
ĠÐ¾ÑĤÐ½Ð¾ ÑģÐ¸
c ent
ĠÐ¿Ð¾Ð»Ñĥ ÑĩÐ¸ÑĤÑĮ
Ġk ind
ĠÐµ Ð²
ep end
Ñĩ Ð¸Ð½
os it
Ð½Ð¾ÑģÑĤ ÑĢÐ°Ð½
ÐĶ Ð°
ĠÑģ Ð¼Ð¾Ð¶
Ġclient s
iv il
Ġg iven
ÐµÑĢ Ð³
ab or
Ðł Ð°
ĠÑĢÐ° Ð¼
b urg
Ñĩ ÐµÑĤÐ°
Ð´Ð¸ ÑĨÐ¸
ill a
ĠÐ²Ð½ÑĥÑĤ ÑĢÐµÐ½
o ber
ren ch
ĠA si
A L
Ġsu gg
ure d
ĠÑģÐ¾Ð² ÐµÑĤ
P h
is ing
ĠÐ¾Ð±Ñı Ð·Ð°
Ġm illion
os ed
Ġbel ow
R O
Ð» Ð¾Ð³
ĠÐ¸Ð³ÑĢÐ° Ñħ
ĠA ss
in ter
Ð· Ð¼
Ġare as
ĠÐ±Ð¾Ð»ÑĮÑĪ Ð¸Ð½
Ġ ÑĢÐ¾
Ġtechn ology
ĠÐ¾Ðº ÑĢÑĥ
ÑģÑĤ Ð¾Ð¹
Ñī ÐµÐ¼
ĠÑĤÑĢÐµÐ± Ð¾Ð²Ð°Ð½Ð¸Ñı
ÐŃ ÑĤÐ°
ific ation
Ð»Ñİ Ð´Ð°
Ð° Ð³
Ġw on
d ing
Ġcomple x
ĠÐ²Ð°Ð» ÑİÑĤ
Ġse lect
Ġo il
ÑĤÐµ Ð¹
ĠÐ³ Ð¾ÑĤÐ¾Ð²
it or
Ð¾ÑĢ Ñĭ
ar i
ĠÑĢÐµ ÑĪÐµÐ½Ð¸Ñı
A C
Ġt est
ric h
Ðº Ð¾Ð³Ð¾
Ġt imes
Ñĳ ÑĤ
ĠÐ¾Ð´ Ð½Ð¾Ð¹
Ġcent ury
ÑİÑī Ð¸Ð¼
c il
I C
ĠB ank
Ġdet ail
ĠM on
s c
Ġhe ld
ÑĤÐµÐ»ÑĮ Ð½Ð¾Ð¹
Ġchar act
ĠÐ´Ð¾Ð» Ð»Ð°
Ġc al
ĠÑģÐ¾ÑĤÑĢÑĥÐ´Ð½Ð¸ ÑĩÐµÑģÑĤÐ²
ĠC an
our ce
Ð± ÑĥÑĢ
Ð»ÐµÐ½ Ð°
Ġon line
Ã «
ĠÐ´ÐµÐ¼ Ð¾ÐºÑĢÐ°ÑĤÐ¸
Ġv iews
Ġs omet
ĠÑģÐ¾Ð·Ð´Ð° ÑĤÑĮ
Ð¾Ð² Ð¾Ð¹
Ġcondition s
ĠÐ¾ ÐºÐ°Ð·Ð°
ĠS o
Ñģ ÑĥÑĢ
ic a
ĠOlymp ics
Ð½Ð° Ð´
Ġag ree
ĠÑĤ ÑĢÑĥ
Ð¸ Ñħ
Ġw rit
ĠÐ± Ð¾ÑĢ
ĠÐ£ ÑģÐ»ÑĥÐ³Ð¸
ĠÐ½ÐµÑģÐº Ð¾Ð»ÑĮ
ĠÑģÐ²Ð¾Ðµ Ð³Ð¾
cl us
ÑĤÐµÐ»ÑĮ Ð½ÑĭÑħ
Ġl og
Ġin ternet
ÑĢÐ¸ Ð¸
omm od
ĠSt ates
im ate
Ġpric es
ĠÐ· ÐµÐ¼
ĠL at
ÑĥÑİ ÑĤ
ĠÐĺÐ½ÑĤÐµÑĢ Ð½ÐµÑĤ
I I
ide o
Ġk m
Ġsitu ated
g ar
Ġst ruct
Ġprovid ed
ĠÑģÐ°Ð¼ ÑĭÑħ
A fter
ĠÐ¾Ð± ÑĢÐ°ÑĤÐ¸
ist a
ĠÐŀÐ»Ð¸Ð¼Ð¿Ð¸ Ð¹ÑģÐºÐ¸Ñħ
Ġex pl
Ġ200 3
ĠM oscow
Ġle arn
Ð´ ÑĭÑħ
Ġsit es
Ġstr ateg
s er
ĠÐ¸ Ð½Ð¾ÑģÑĤÑĢÐ°Ð½
ĠÐ¾ÑģÑĥÑīÐµÑģÑĤÐ² Ð»Ñı
Ġex pect
ĠÐµ Ð´Ð¸Ð½
Ġp ot
Ġb ene
ÐŁÐ¾Ñģ Ð»Ðµ
ĠÐ¾ÑĤ ÑĢÐ°
ĠÑģ Ð½Ð¸
Ġn ice
ĠÑģÐ¸ÑģÑĤÐµÐ¼ Ð°
ĠÑįÐ»ÐµÐºÑĤ ÑĢÐ¾Ð½
n y
ĠI S
ĠÐĵÐµÑĢ Ð¼Ð°
Ġse arch
ĠA b
I T
Ġl es
Ð¾Ð² ÐµÑĤ
ĠP ark
Ġof ten
ĠÑģÐµ Ð±Ðµ
ĠÐ¼Ð¾Ð¶ ÐµÑĪÑĮ
ĠÑģÐ²Ñı Ð·Ð°
ĠÐºÐ»Ð° Ñģ
Ġse em
t ain
ĠÑĥ Ð´Ð¾Ð²
ĠÑĢÐµ ÑĪ
ĠÐ»Ð¸ ÑĨ
Ð½ Ñİ
ĠN o
Ġh ours
Ð»ÐµÐ½ Ñĭ
ak h
Ġdem oc
âĢĿ .
ĠÐ¿ÑĢÐ¾ Ð¸Ñģ
Ġret urn
ÑģÑĤÐ²Ð¸ Ðµ
m y
ÑĢ ÑĮ
ĠÑĢÐ°Ð· Ð´Ðµ
ĠÑģÐ¾Ð´ÐµÑĢ Ð¶Ð°
Ġg ive
ĠÐ¸Ð½ Ð´Ð¸
Ġcall ed
Ðĺ Ð·
Ġlead ing
Ġcris is
Ġa ch
ÐºÐ¾Ð» Ð¾
ĠÑĢÑĥÐºÐ¾Ð² Ð¾Ð´
m a
ra w
Ġex ist
ĠÐ°Ð²ÑĤÐ¾Ð¼ Ð¾Ð±Ð¸
g ed
ĠÑģÑĤÑĢÐ° ÑĤÐµ
ĠÐ³ Ð»Ð¾Ð±Ð°Ð»ÑĮ
Ġgu ests
Ġan t
Ġre se
Ġm ount
ĠÑħ Ð°ÑĢÐ°Ðº
ward s
ĠÐ°Ð²ÑĤÐ¾Ð¼ Ð°ÑĤÐ¸
ĠÐºÐ° Ð¿Ð¸ÑĤÐ°
Ð¾ ÑīÐ¸
ĠÐ² ÑĢÐµÐ¼ÐµÐ½
Ñİ Ð·
port s
ĠÐ¾ÑĤÐ²ÐµÑĤ ÑģÑĤÐ²ÐµÐ½
ĠUn ion
Ġstr ong
Ðľ Ðµ
ĠC or
E x
Ġimp lement
ĠÑħÐ¾ÑĢÐ¾ ÑĪ
Ġrel ations
Ġm ove
Ġsu per
Ġp ast
ĠÐ´Ð¾ ÑģÑĤÐ°
ĠCount y
Ġb al
al f
ff ic
ri al
Ð¸ÑĤ ÑĥÐ°
- -
ĠÐ¿ Ð¾Ð½
ĠÐ³ÑĢÐ°Ð¶ Ð´Ð°Ð½
i ol
l a
ĠÑĤÐ° Ð¼
Ġactiv ities
ic le
ur ch
l u
ĠÐ½Ð¾Ð² ÑĭÐµ
ĠÐ½Ð¸ Ð¶Ðµ
Ġun t
ĠÑģ Ð¿Ð°
Ġth ink
em b
ÑģÐ¸ Ð²
use um
ĠÑĢÐ°Ð·Ð»Ð¸Ñĩ Ð½ÑĭÑħ
ĠÐºÐ¾ÑĤÐ¾ÑĢ Ð¾Ð³Ð¾
ÑĤ ÐµÐ½
1 3
ĠÑģ Ð»Ð¾Ð²
I V
ĠD ist
ĠÐ¿ÑĢÐ¾ ÐµÐºÑĤÐ°
Ð» Ð¾Ð½
v ious
ro ve
Ġm ilitary
Ġcre ated
Ġpur ch
Ñį Ð½
ĠC ol
Ġt r
Ðŀ Ñģ
ĠÐ¼Ð½Ð¾Ð³Ð¸ Ñħ
Ð» Ð¾Ðº
m ail
u el
ÐŁ Ð¾Ð´
og n
ĠÐ²Ð¾Ð·Ð¼Ð¾Ð¶ Ð½Ð¾ÑģÑĤÐ¸
ĠÑĢÐµ ÑģÑĥÑĢ
Ġl ow
ĠÐ¼Ðµ ÑģÑĤÐ°
Ðļ Ð¾Ð½
ĠGerm any
C om
Ġw he
ĠÑĢÑĭÐ½ ÐºÐµ
Ġacc ommod
Ġf our
Ġd er
Ġtot al
Ġd est
Ġcert ain
ÑĤÐµ ÑĢÐ°
ÐŁ ÑĢÐµÐ´
.. ..
Ðŀ Ð½
it her
ĠÐ¾ÑĤ Ð´ÐµÐ»ÑĮ
Ġother s
ar ant
ĠÐº ÑĢÐµÐ´Ð¸ÑĤ
ĠP et
Ð²Ðµ Ð·Ð´
Ġad minist
Ġt ru
inn ing
Ġw el
Ñı Ñģ
ÑĤÐ¾ ÑĩÐ½Ð¾
Ġv ol
Ġacc ording
Ð¸Ð· Ð¸
Ġg r
er o
Ġf ul
ĠÐ²Ðµ Ð±
sib ility
b o
Ð¾Ð· Ñı
ĠÑģÑĤÐ° Ð²
R e
Ġus er
ĠÐ¿Ð¾Ð¼ Ð¾ÑīÐ¸
ĠA t
ĠÑĤÐ° ÐºÐ¸Ðµ
Ġp res
get her
ÑĢÐ° ÑĤÑĮ
Ð¾Ñģ Ðº
b all
p ro
Ġkn own
Ġk eep
ul es
ac y
Ġto gether
ĠÐºÐ¾Ð½ ÑĨÐµ
Ġrel ate
Ġpe ace
ĠÑĥÑģÑĤÐ°Ð½Ð¾Ð² Ð¸ÑĤÑĮ
k e
ĠC he
ĠÐ¿ÑĢÐ¾Ð±Ð»ÐµÐ¼ Ñĭ
Ð¿Ð¾ ÑĢÐ°
ÑĤÐµ Ð»ÐµÐ¼
a pt
oh n
ĠÐ½ÑĥÐ¶ Ð½Ð¾
ĠÐ¾ÑĢÐ³Ð°Ð½Ð¸ Ð·
Ġcomput er
Â °
Ðľ Ð¸
ĠÐ½Ð°ÑĪÐ¸ Ð¼Ð¸
Ġint eg
Ð² ÑĤÑĢÐ°
Ðľ Ð°
Ð¼Ðµ ÑĩÐ°
Ġob ject
ĠÐ½Ðµ ÑĦ
ou ght
ÑĨÐ¸Ð¾Ð½ Ð½ÑĭÑħ
pecial ly
Ð°Ð»ÑĮ Ð½ÑĭÐµ
her n
ĠÑĥÑĩÐ°ÑģÑĤÐ¸ Ðµ
ĠÐ¸Ð¼Ðµ ÑİÑĤ
tern al
ĠÐ¿Ð¾Ð»Ð¸ÑĤÐ¸ ÐºÐ¸
Ġcons ider
Ð»Ð¸ Ð²
ĠÐºÐ¾Ð»Ð¸ÑĩÐµÑģÑĤÐ² Ð¾
ĠÐ²Ñģ ÐµÐ¹
ĠÑĨÐµÐ½ÑĤ ÑĢÐµ
Ġconc ern
ĠÐºÐ»Ð¸ ÐµÐ½ÑĤÐ¾Ð²
Ġmet hod
Ñĥ Ð¼Ð°
ĠÑģ Ð¸ÑĤÑĥÐ°
Ð²Ð° Ð½
l im
Ð´Ð° Ð½Ð¸Ñı
Ð³ Ð¾ÑĢ
art ments
ĠÐ°ÑĢ ÑħÐ¸
Ð¼ÐµÑģÑĤ Ðµ
Ġ2 1
! !
ra ft
ĠSt ate
Ġdevelop ed
Ð» ÐµÐ½Ð¸Ñİ
Ġte xt
Ġmark ets
ĠT urk
ĠÑģÐ¾ ÑħÑĢÐ°
Ġc ard
Ð°Ñģ Ñģ
ĠÐºÐ¾Ð½ÑĤÐµÐº ÑģÑĤÑĥ
Ð»ÑĮ Ð½Ð¾Ð³Ð¾
ÑĦ ÑĢÐ¸
g o
Ġfollow ing
l er
ĠÐ² Ð»Ð¸Ñı
ÑĪ ÐµÐ¼
ob ile
ÑĤÐµÐ»ÑĮ Ð½ÑĭÐµ
ĠÐ»Ð¸ ÑĪÑĮ
ĠÐ²Ðµ Ð´Ñĥ
Ðµ Ð´Ð¸
ĠÐ½Ð° Ð·ÑĭÐ²Ð°
ĠÐ¿ÑĢÐ¾ÑĨÐµÑģ Ñģ
Ġpop ular
ÑĤÐ¾ Ð½
p ing
Ð½Ð¸ÑĨ Ñĭ
Ð¶ ÐµÐ½Ð¸Ð¸
ĠÑģ Ð¾Ð¿
Ġcan not
ĠÑĢÐµ Ð³Ñĥ
ĠC o
Ġst ep
ĠÐ²Ð½Ðµ ÑĪ
Ġf urther
p s
ĠÐ½Ðµ Ð´Ð°
Ġsugg est
Ġf urn
Ġl ik
ĠÐ¿ÑĢÐ° Ð²Ð¾
ĠÑĤÑĥ ÑĢÐ¸
Ġhelp ful
Ġproject s
ĠÐ´ ÐµÑģ
Ġcont ains
ĠIs rael
Ġman ag
Ġus ers
Ð» ÐµÐ½Ð¸ÐµÐ¼
Ð¸Ð½ Ð³
Ġp a
Ġper fect
o or
ÐµÐ½ ÑĤÐ¸
iv al
ĠÑĢÐµÐ³Ð¸ÑģÑĤÑĢÐ° ÑĨÐ¸Ð¸
ĠÐ»Ð¸ Ð´ÐµÑĢ
Ð¾Ð¿ÑĢÐ¸ ÑıÑĤÐ¸
ÐµÑĢ Ð²
ĠÐ´ Ð²Ð¸Ð¶
Ġl ight
Ġre ally
ÐŃÑĤÐ¾ ÑĤ
it ive
d en
ĠÐ´ ÐµÑĤÐµÐ¹
ĠÐĺ Ð·
ipp ed
Ð´ ÐµÑĤ
Ð¾Ð»ÑĮÐ· Ñĥ
Ġref er
ĠÐºÐ¾Ð½ Ñģ
Ġall ows
L e
ĠÐºÐ¾Ð¼ Ð°Ð½
Ġorgan iz
ĠÐ²Ð½Ð¸Ð¼Ð° Ð½Ð¸Ðµ
ĠÑĦÐ¾ÑĤÐ¾Ð³ÑĢÐ°ÑĦÐ¸ Ð¸
ĠL inux
Ġbene f
ĠÐ²Ñĭ Ñģ
Ġf ail
ĠÐ´ ÐµÑĢÐµ
ÑĤÑĥ ÑĢÑĭ
ÑģÐº ÑĥÑİ
ri ght
ĠP ri
Ġc e
ĠÐ´ ÐµÐ¹
ĠÐ¿ÑĢÐ¸ Ð¾Ð±
ÑħÐ¾Ð´ Ð°
Ġsp ace
Ġconst ruction
Ðµ Ð´Ðµ
ÑĢ Ð¾ÐºÐ°
ĠÐ¿Ð¾ ÑĤÐ¾Ð¼Ñĥ
ad a
Ðº ÑĢÐµ
ĠÐ½Ð° Ð±
Ð¶ ÐµÐ½Ð¸Ðµ
Ð¾Ð· Ð½Ð°
ĠG rand
Ġs ay
st er
Ġfil es
in i
ĠÐºÐ¾Ð¼Ð¿Ð° Ð½Ð¸Ð¹
ĠÐ¾Ð´ Ð½Ð¾Ð³Ð¾
Ġterm s
olog ies
at ives
ĠGerm an
ĠÐ¸ÑģÐ¿ Ð¾Ð»
P ro
Ġac cept
ĠÐºÐ»Ð¸ÐµÐ½ÑĤÐ° Ð¼Ð¸
Ġmaterial s
re en
ĠCh amp
ĠÐ¿Ð¾Ð´ Ð³Ð¾ÑĤÐ¾Ð²
ĠÐ¾ÑĤ Ð´ÑĭÑħ
ĠÐ¾ÑĢÐ³Ð°Ð½Ð¸ Ð·Ð°ÑĨÐ¸Ð¸
Ðº ÑĤÐ°
Ġsh all
Ð½Ñĥ ÑĤÑĮ
Ġproper ty
ÑģÑĤÐ° Ð²Ð¸ÑĤÑĮ
ĠÑģ Ð¾Ð±Ñĭ
ĠM ay
Ġcost s
ĠPar is
ĠSum mer
ĠÐ¼Ð¾Ð¼ ÐµÐ½ÑĤ
ÐºÐ»Ð° Ð´
m oking
Ñĩ Ð½Ð°Ñı
Ġinvest ment
ĠUkra inian
s w
ĠÑģ ÑĩÐµÑĤ
Ġbe h
Ġcon ne
op s
a pp
Ñĩ Ð½ÑĭÐ¹
Ġg ame
ĠAir port
ÑĪ ÐµÑģÑĤÐ²
ĠCent re
ĠÐķ Ð¡
Ġresult s
ire d
O ne
Ð¾ Ð½Ñĭ
Ġam ount
Ġh uge
ĠÐ¾ ÐºÐ¾Ð»Ð¾
ard en
ĠÐ¸Ð·Ð¼ÐµÐ½ ÐµÐ½Ð¸Ñı
Ġto ok
ĠÐ¿ÑĢÐ¾Ð´Ñĥ ÐºÑĨÐ¸Ð¸
y l
Ð¾ ÑĤÐ¾
Ġn atural
ĠÐº Ð²Ð°ÑĢ
ĠÐºÐ¾Ð½ ÑĦÐµÑĢÐµÐ½
Ðļ ÑĢÐ¾Ð¼Ðµ
Ġdesign ed
ĠÑģÐ°Ð¼ Ð¾Ð¼
Ġphot os
ĠÐ¾ÑĤÐµ Ð»Ðµ
ĠÐ½Ð° Ð¿
ĠÐ¿ÑĢÐ¾ÑĦÐµÑģÑģÐ¸ Ð¾Ð½Ð°Ð»ÑĮ
Ð¾Ð¼ ÐµÑĢÐ°
E C
Ġs chool
ĠÐ¿ÐµÑĢÐ¸ Ð¾Ð´
ĠÐ¼ÐµÐ½ Ñı
at ter
ĠÐĲÐ»ÐµÐºÑģ Ð°Ð½Ð´
cri pt
Ġ19 6
ra ce
Ġse a
Ð²Ð° ÑİÑĤÑģÑı
ri ed
ĠCh rist
ĠÐ´ Ð¾Ð³Ð¾Ð²
Ġ ÑĢÑıÐ´
ĠÐ²Ð»Ð° ÑģÑĤÐ¸
ĠÐ¾Ð±ÑģÐ»ÑĥÐ¶Ð¸Ð²Ð° Ð½Ð¸Ñı
ÑĩÐµÑģÐº ÑĥÑİ
âĢĿ ,
Ġstand ard
ore d
ĠÐ²Ð¾Ð·Ð¼Ð¾Ð¶ Ð½Ð¾
g ing
ite ct
Ġcon ven
Ġfe atures
ĠÑģ ÐµÑĤÐ¸
ĠÑĥ Ð»ÑĥÑĩ
le ar
S C
The se
ĠÐ¸ÑģÐ¿Ð¾Ð»ÑĮÐ·Ð¾Ð²Ð° Ð½Ð¸Ñı
ÐºÑĤ Ñĭ
ĠÐĴ ÐµÐ»Ð¸
ĠÐ¾Ð± Ð½Ð¾Ð²
Ð¾ÑĢ ÑĤÐ¸
Ġincre ase
Ġw ide
if t
idd le
Ð¸ Ð½Ð°
ĠÐ¾Ñģ Ð½Ð¾Ð²Ð°
an o
qu are
Ġfam ous
Ð½ ÐµÐ½Ð¸Ðµ
w e
un ic
ÐµÐ½ Ð¾
Ġas k
Ġcommun ic
Ġr ate
ĠÐ¿Ð¾Ð» Ð½Ð¾ÑģÑĤÑĮÑİ
Ġco oper
an ced
ĠÐºÐ°ÑĩÐµÑģÑĤÐ² Ð°
ĠÐ¿ÑĢÐ¸Ð¼ ÐµÑĢ
n ing
ĠÐ¼ÐµÑĢ Ð¾Ð¿ÑĢÐ¸ÑıÑĤÐ¸
ĠÐ± Ð°Ð·
ĠÐ½Ð° Ð¿ÑĢÐ¸Ð¼ÐµÑĢ
Ð²Ð° Ð½Ð¸Ðµ
ÑĢÐµ ÑģÑģ
ĠÑĢÐµÐ·ÑĥÐ»ÑĮÑĤÐ° ÑĤÐµ
re ad
ĠÐ·Ð° ÐºÐ°Ð·
ĠÐ¿Ð¾ ÑģÐº
Ġpart ners
Ġin it
ÑĤÐµÐ»ÑĮ Ð½Ð¾Ð³Ð¾
ĠÐºÐ° ÑĤÐ°
Ġp ub
ÑİÑīÐ¸Ñħ ÑģÑı
Ð¾ ÑĤÐµ
Ð· ÐµÑĢ
Ġm ight
ĠÐ¾ ÑģÑĤ
Ġre ason
Ã £
led ge
Ð´Ñĥ ÐµÑĤ
Ð½Ð¸ÑĨ Ð°
Ð² Ð»Ð¸
ÑĢÐ¾ Ð½Ð¸
Ġwho le
ĠGu est
ir m
ĠÐ¿Ð¾ÑģÐº Ð¾Ð»ÑĮÐºÑĥ
i am
ĠÐ¾Ð¿ ÑĭÑĤ
ÐµÐ¼ Ð°
Ñİ ÑīÐ°Ñı
Ð¸Ð¼ Ð°
Ġme as
ĠÐ¼Ð½Ð¾Ð³Ð¸ Ðµ
ĠI P
te ction
ĠM et
ĠÐ½ÐµÐ·Ð° Ð²Ð¸Ñģ
if y
Ġm ess
Ġm aking
ĠC ont
il es
ĠÐ¿Ð¾Ð· Ð¸
ÑĦÐ¾ÑĢ Ð¼
Ð¿ Ð»Ð°
ÑĩÐ¸ ÑĤÑĭ
du ct
ĠÐ¿ÑĢÐ¸ Ð²Ð»Ðµ
e es
Ġbath room
ĠÑĩ Ð¸Ñģ
Ñĳ Ð¼
Ð¼Ð¾ÑĤ ÑĢÑı
ĠÐ¦ ÐµÐ½ÑĤ
ĠÑĥÑĢÐ¾Ð² Ð½Ñı
ÑĪ ÑĤÐ°
ÑģÑĤÐ°Ð²Ð»ÐµÐ½ Ñĭ
Ġunt il
ĠÐ½Ð° Ð·Ð²Ð°
ĠÐĳ Ð°Ð½
ĠÑĩÐ¸ ÑģÐ»Ðµ
ĠÐ½ÐµÐ´ Ð²Ð¸Ð¶
ĠÑģÐ°Ð¹ ÑĤÐ°
Ġsubmit ted
ĠÐľ Ð°ÑĢ
j e
Ġcomm on
z a
ĠR eg
ĠÐ¿ÑĢÐ¾Ð² ÐµÑĢ
Ġra d
ĠÑĢÐ¾Ñģ ÑģÐ¸Ð¹
Ġty pe
i res
Ġb us
ÑĤÐ¸ ÑĤÐµ
c i
ĠÐ´ Ð°Ð»ÑĮ
Ñħ Ð²Ð°
ÐĲ Ðŀ
ĠÐ°Ð´ Ð¼Ð¸Ð½Ð¸ÑģÑĤÑĢÐ°
Ġf ield
ÑģÑĤÐ² Ð¾Ð²Ð°
Ġcon n
ĠÑĨÐµÐ»ÑĮ Ñİ
ÑģÑĤÑĥ Ð¿Ð¸
Ð³ Ð¾Ñģ
ĠÑĥÑģÐ¿Ðµ ÑĪ
ĠÑĢÐ° Ð´Ð¸
Ð²Ð° ÑĤÑĮÑģÑı
ĠÐĺ ÑĢÐ°
Ġt ry
ÑĢÑĥÐ³ Ð»
ĠÐ½ÐµÑģÐºÐ¾Ð»ÑĮ ÐºÐ¸Ñħ
Ð¼Ð° ÑĤÑĢÐ¸
Ð»Ðµ Ð·
ĠF rench
Ġsing le
E T
Ð¾Ñģ ÑĢÐµÐ´
ĠÐ¿Ð¾Ð¿ Ñĥ
ĠÑĢÐ°Ð¼ ÐºÐ°Ñħ
Ġ6 0
2 4
ĠÐ·Ð° Ð¿Ð¸
ĠÑĦ ÑĥÑĤ
ĠÑĥ ÐºÑĢÐ°
Ġeff ic
ĠÐ¿ÑĢÐ¸Ð½ Ñı
or age
Ð´Ð¸ Ñı
p ut
Ð´ ÑĮ
ĠÑģÑĤÐ° Ð±Ð¸
Ð¿Ð¸Ð¾Ð½Ð° ÑĤ
ĠÐ³ Ð°Ð·
Ð·Ð° ÑĨÐ¸Ñı
s el
ĠÐ° ÑĤ
ĠÐ¸Ð½ ÑĦ
C on
ĠÑĢÐ°Ð· ÑĢÐµ
ra b
ĠÐ¿Ð¾Ð» ÑĥÑĩÐµÐ½Ð¸Ñı
ĠÐ½ÐµÐºÐ¾ÑĤÐ¾ÑĢ ÑĭÐµ
ĠÐ»ÑİÐ± Ð¾Ð¹
ĠDe bian
ĠÐ¿Ð¾ ÑģÑĤÐ°Ð²
ÐĲ ÑĢ
i us
ĠÑģ Ñĭ
Ġle ast
Ð¾Ð² ÑĭÑħ
ÑĨÐ¸ Ð°
Ġmeet ing
ĠÐºÐ¾Ð½ÐºÑĥ ÑĢ
ĠÑĤÐ° ÐºÐ¸Ð¼
ĠÐ½Ð¾Ð² ÑĭÐ¹
ĠÐľ Ð°
ĠÐ±Ð°Ð½ ÐºÐ¾Ð²
ĠÐ¼ Ð¾Ð»Ð¾Ð´
ĠO b
19 9
I P
Ġimp rove
Ġevent s
oc us
u is
Ð·Ð½Ð° ÑĩÐµÐ½
ĠÐ¿Ð¾ ÑģÐµ
ĠÐ´Ð¸ ÑģÐº
ÑĢÐ°Ð±Ð¾ ÑĤÐ°
Ġin c
ĠÑĦÐ¾ÑĢ Ð¼Ð°
Ð¶ Ð½Ð¾Ð¹
Ġst e
ri a
ĠÑĩÐ° ÑģÑĤÐ¾
1 4
ra q
Ñĥ ÐµÐ¼
Ġim age
E L
Ġoff ice
Ġleg al
ines e
ol f
Ġab ove
ĠÑģÑĥ Ð¼
k t
Ġw eek
Ġex hibition
c ies
Ġh old
ĠÐ²ÐºÐ»Ñİ ÑĩÐ°Ñı
Ġdem and
ĠÐ½Ð°Ð¹ ÑĤÐ¸
Ġm ov
ĠÐ¼ ÐµÐ½ÑĮ
ĠÐ½Ð° ÑĥÑĩ
ĠÐ¿ÑĢ ÑıÐ¼
ĠÐļ Ð°ÑĢ
Ġgener al
Ġrel ax
Ð¿ÑĢÐ° Ð²Ð¸
Ġm akes
Ð´Ð° ÐµÑĤ
Ñĩ ÐµÐ¹
Ð²Ð¸ Ð³Ð°
ĠÐ¿Ð°ÑĢÑĤ Ð½ÐµÑĢ
ĠÐ¿ÑĢÐ¸ ÑĢÐ¾Ð´
in ks
at o
Ð¾ Ñĥ
ĠB rit
z y
ĠÑģÑĢÐµÐ´ ÑģÑĤÐ²
Ð³ Ð»Ñı
ĠÐ¾Ð±ÐµÑģÐ¿Ðµ ÑĩÐµÐ½Ð¸Ñı
ĠÑĥ Ð½Ð¸ÐºÐ°
ĠFran ce
Ġl ot
g er
Ġex ec
ÐµÐ½ ÐµÑĢÐ°
Ġal most
Ñĩ ÐµÐ½Ð¸Ñİ
1 7
v ed
A M
Ġext ra
Ġha ving
ĠAf ric
Ġre comm
Ġc op
Ġits elf
ĠÑĦÐ¸ Ð»ÑĮ
ĠÐ¾ÑĤ Ð´ÐµÐ»
k i
ĠÐºÐ¾Ð¼ Ð½Ð°
U S
Ġv ill
ir t
Ð»Ð° Ð´
ĠÐ¾ÑĤÐ½Ð¾ ÑģÑı
ĠÐ½Ð°ÑģÑĤÐ¾Ñı ÑīÐµÐµ
d om
Ð¾Ð·Ñı Ð¹
ĠC ity
ĠÑģÐ¾Ð´ÐµÑĢ Ð¶Ð¸ÑĤ
ĠDist rict
Ġc ivil
ab les
Ð¾ÑĢ Ð¾Ð¶
Ð°ÐºÑģ Ð¸Ð¼
Ġ2 2
ÐļÐ¾Ð¼ Ð¿Ð°Ð½Ð¸Ñı
ĠÐ½ Ð¸Ð·
ĠK ing
ÑĤÐ° ÑĢ
n ow
ĠÐŃ ÑĤÐ¾
Ñı Ð´
ĠÑĢÐµ ÑĪÐµÐ½Ð¸Ðµ
ud e
Ġes pecially
Ð½Ð° Ð¼
Ġtechn ical
Ġa im
ĠÐ³ÑĢÑĥÐ¿ Ð¿Ñĭ
Ð² ÐµÐ½
um b
ĠÑģ ÐµÐ¹ÑĩÐ°Ñģ
ÑĢÐ¸ Ð½
Ġl ux
a im
fic ult
im um
Ġeng ine
Ñı Ð²Ð»Ñı
mer cial
âĢ ¦
Ġl iving
op h
oun cil
Ġ ÑĢÐ¾ÑģÑĤ
ĠÐ¿ÑĢÐ¾Ð´Ð¾Ð» Ð¶Ð°
ĠÐ² ÐµÐ´
ĠÐ·Ð° Ð½Ñı
ĠÐ¢ Ð°Ðº
ĠÐ²Ðµ Ð»Ð¸
Ġind epend
Ġinclud e
Ġcom mit
Ġcomple te
Ġd r
ĠÐ¿Ð¾Ð¼ Ðµ
Ġl and
ĠP ort
ren cy
ĠÐ»Ñİ Ð´Ð¸
ar us
ĠÐ²Ð¾Ð· ÑĢÐ°
Ġsh are
Ð¾Ð½ Ð´
f ace
Ġcharact er
Ġne ver
ĠÑģÑĢÐµÐ´ ÑģÑĤÐ²Ð°
ap s
Ñĩ Ð½Ð¾Ð³Ð¾
ĠÑģÐ²Ð¾ Ð¸Ð¼
O S
Ð¡ Ð»ÐµÐ´ÑĥÑİ
ĠÐ´Ð¸ Ð·Ð°
Ð¾ÑĢÐ¸ Ñı
Ð½Ðµ Ð²
p ose
Ġgu arant
ĠWest ern
ĠÐ± ÐµÐ´
ĠS l
Ġne g
Ġcons um
ĠÐ¶ ÑĥÑĢ
ÑģÑĤÐ²Ð¸ Ñı
Ġeff ort
Ñİ ÑīÐµÐ³Ð¾
Ĥ ¬
as k
Ġunder stand
le g
ĠS outh
Ð²ÐµÐ·Ð´ Ð¾Ñĩ
ÑĢÑĥ Ð¶Ð¸
Ġdis pl
Ð¼ Ð¾Ñģ
ÑĩÐ° ÑģÑĤ
ĠCent ral
st ar
ĠÑģÐ¾Ð¾ÑĤÐ²ÐµÑĤ ÑģÑĤÐ²Ð¸Ð¸
ĠÐ¿ÑĢÐµÐ´ÑģÑĤÐ°Ð²Ð»ÐµÐ½ Ñĭ
â Ĥ¬
ĠÑģ Ð¾Ðº
ĠÐ¿Ð¾ ÑģÑĤÑĢÐ¾
r ated
ÑĪÐ¸ ÑĤÑĮ
Ġsty le
ĠÑģ ÑĢÐ°Ð²
ol ic
ĠÑįÐºÐ¾Ð½Ð¾Ð¼Ð¸ ÐºÐ¸
om b
ĠB er
Ġdif ficult
p ond
ĠS ch
ĠComp any
ĠA p
ĠÐ° Ñį
ĠÐ¸Ð¼ÐµÐ½ Ð½Ð¾
Ġrese arch
uc lear
ĠÐ¸ÑģÐº ÑĥÑģ
g age
Ð§ ÐµÐ¼
Ġe mer
ill s
Å ¡
Ð½ Ð¾Ð¿
am ic
Ġ )
ĠÐ¿ÑĢÐ°Ð²Ð¸ÑĤÐµÐ»ÑĮ ÑģÑĤÐ²Ð°
ĠÑģ ÑĦ
Ġw omen
Ð¶Ð´ Ñĭ
ĠÑĥÑĢÐ¾Ð² ÐµÐ½ÑĮ
Ð¼ÐµÐ½ÑĤ Ñĭ
ÑĢÐµ ÑĤÑĮ
Ð¿Ð° Ñģ
ĠÐ°Ð´ ÑĢÐµÑģ
Ġm ot
p ris
ÑĤÐµÐ»Ñı Ð¼
ĠJ ava
ĠQ u
ĠÑģÑģÑĭ Ð»ÐºÐ¸
Ġs ent
ĠÐ¾Ð¿ÑĢÐµÐ´Ðµ Ð»ÐµÐ½
ĠÐ½Ðµ Ð±Ð¾Ð»ÑĮ
ĠÐ½Ð°ÑħÐ¾Ð´ Ð¸
ÐµÐ¼ ÑĭÐµ
ĠÐºÐ¾Ð½ Ðµ
Ġser ver
Ð¡ Ðµ
ir l
ĠÐ¾ÑģÐ¾Ð± ÐµÐ½Ð½Ð¾
ĠÑģÑĤÐ° ÑĢ
o le
ĠÑĤÑĭ ÑģÑı
e f
ĠÐĿ Ð¾Ð¼ÐµÑĢÐ°
h a
Ñĳ ÑĢ
Ð» ÐµÑĤÐ¸
ĠÐ°Ð² ÑĤ
Ġd ue
Ġchang es
Ð¼Ð¸ ÑĤÐµ
ĠY our
ĠÐ¼Ð° Ð³Ð°
ĠÑĢÑĭÐ½ ÐºÐ°
Ġ +
th ough
ĠÐ½Ð° Ð»
ÑĢÑĥ ÐµÑĤÑģÑı
ĠB ro
ÐºÐ¾Ð¼ ÐµÐ½
Wh at
ÑĤÐµÐ»Ñı Ð¼Ð¸
inc ip
ĠÑģÐ°Ð¹ ÑĤÐµ
ro ll
ĠÐ² Ð·Ð°
Ġpre vent
ĠÐ² Ð¼ÐµÑģÑĤÐµ
ĠÐ´ ÐµÐ½Ðµ
Ġc redit
e an
Ð½Ñı Ñı
Ġbu ilt
pr ise
Ðł Ð°Ð·
ĠÐ½ Ð¾ÑĢ
ĠÐ³Ð°ÑĢÐ°Ð½ ÑĤÐ¸
a ult
ÑĢÐ¸ ÑĤÐ°
ĠÐ¿ÑĢÐ¾Ð³ÑĢÐ°Ð¼ Ð¼Ð°
ĠÐ³Ð¾Ð² Ð¾ÑĢ
ĠÐ½Ð° Ñĥ
ĠÑģÑĤÐ° Ð½Ð¾Ð²
m ark
g round
ĠÐ·Ð° Ð²Ð¾Ð´
Ġapplic ation
ac ed
ĠÐºÐ¾Ð¼ÑĦÐ¾ÑĢ ÑĤÐ°
ict ion
ĠÐ¾ÑĦÐ¸ ÑĨÐ¸Ð°Ð»ÑĮ
ĠÐ²Ð¾Ð· Ð´Ñĥ
ĠÐ¿ÐµÑĢÑģ Ð¾Ð½Ð°
B e
Ġbec ame
Ġactiv ity
ĠÑģÐµÑĢ ÑĮ
Ġrec ogn
ĠÐºÐ°Ð¶Ð´ ÑĭÐ¹
il i
ĠÑĥ ÑģÑĤÑĢÐ¾Ð¹
Ġ2 3
Ġle t
Ġtradition al
ĠÐ´Ð°Ð½ Ð½ÑĭÐµ
ĠÐ¾Ð¿ Ð»Ð°
Ġv ous
ĠÐ» Ð°
1 6
ÑĩÐµÑģÐº Ð¾Ð¼
B y
ĠÑĢÐ°Ð±Ð¾ÑĤÐ° ÐµÑĤ
ĠÐ¾ÑĩÐµ ÑĢÐµÐ´
ĠE ast
ant ly
ÑģÑĤ Ðµ
ĠÐºÐ¾Ð½ ÑĨ
Ð» ÐµÐ½Ð¸Ð¹
ÑĤÐ¸ ÑĤÑĮ
ĠÐ³Ð¾Ð´ Ñĭ
ĠÐ¿ÑĢÐ¸Ð½ ÑĨÐ¸
ĠÐ¸ ÑģÑĤÐ¾Ñĩ
ond on
ĠÐºÐ°ÑĢ ÑĤÐ¸Ð½
ĠÐ½Ð° ÑĢÑĥ
ÑģÐµ Ð´Ð°
M ore
ener al
ĠÑĢÐ°Ð±Ð¾ÑĤ Ñĥ
ĠÐ´ Ð¾Ð±Ð°
Ð¾ÑĢ ÑĥÐ¶
ĠÐºÐ¾ÑĤÐ¾ÑĢ Ð¾Ð¼
ĠÐ¼ ÐµÑĢÐµ
ĠÐ¼Ðµ Ð´Ð¸ÑĨÐ¸
ÐµÑĢ Ñħ
ad em
Ġw ind
Ġat m
ÑĢÐ° Ð·Ð¸
ĠV ista
r s
ĠÑĤ ÑĢÑĥÐ´
ĠÑĪ ÐºÐ¾Ð»
ĠÑį Ð»ÐµÐ¼
Ð±Ð° ÑĤÑĭ
Ġen c
ĠÐ¿ÑĢÐµÐ´Ð»Ð¾Ð¶ Ð¸ÑĤÑĮ
o e
ÑģÑĤÑĮ Ñİ
ĠÐ° Ð±
Ð¶ Ð½ÑĭÑħ
ĠÐ¾ÑģÐ½Ð¾Ð² Ðµ
at ory
Ð· Ð²ÐµÐ·Ð´Ð¾Ñĩ
Ġwh y
ĠÐ±Ð¾ÑĢ ÑĮ
ĠÐ¿Ð¾Ñģ ÐµÑĤÐ¸
ĠÐŀÑĤ Ð·ÑĭÐ²Ñĭ
Ð¾Ð² ÑĭÐµ
ĠÐ¿ÑĢÐµÐ·Ð¸Ð´ ÐµÐ½ÑĤ
Ġs ide
ĠC D
Ġs ize
Ġrece ive
Ðµ Ð²Ð¸Ñĩ
ĠÐ´ÑĢÑĥÐ³ Ð¾Ð¹
ĠÐ²Ñĭ ÑĪÐµ
Ġtrans fer
ĠÑģÐ»Ñĥ Ð¶
ÑĢÐ¾Ð²Ð°Ð½ Ð½ÑĭÑħ
ĠÐ¾ÑĤ Ð·ÑĭÐ²Ñĭ
are nt
Ġ ident
Ġr ates
ĠÑĥÐ½Ð¸ Ð²ÐµÑĢÑģÐ¸
Ġ ver
u ck
Ġmem ber
ĠÑĨ ÐµÐ»
Ð¡ Ð°Ð½
s on
Ġc amp
Ġm ar
so ft
Ġc ut
ĠÑĢÐ¾ ÑģÑĤÐ°
ĠÐ´ Ð½Ñı
Ġde al
m in
ĠÑģ Ð¸Ð¼
Ġlarg est
ĠÑģÑĤ Ð¾ÑĢÐ¾Ð½
Ġv iol
Ġsu re
Ġneed ed
M S
ÑĢÐ° Ð±
ur b
ĠÐĳ Ñĥ
Ð¾ ÑıÑĤ
Ñı ÑģÑĮ
ac ilities
ÐŁ ÑĢÐµ
ĠÐ±Ñĭ ÑģÑĤÑĢÐ¾
ĠÑģÐ¾ ÑģÑĤÐ¾
ot a
Ġtra vel
cre t
all s
Ðº Ð¾ÑĢ
ĠM us
2 5
ĠR iver
ir c
Ġple as
Ġre form
Ġv ideo
Ġflo or
âĢ ĵ
ĠE l
ÑĤÐ¸ ÑĦÐ¸ÐºÐ°
p ly
ÐºÐ° ÑĢ
ĠÐ±Ð»Ð° Ð³Ð¾Ð´Ð°ÑĢÑı
ĠÑĢÐ°Ð¹ Ð¾Ð½
ĠJ u
Ġme aning
ĠÑĢÐµ ÐºÐ»Ð°
ĠD is
ĠÐķÐ²ÑĢÐ¾Ð¿ Ðµ
ĠEU R
p ress
Ð¿ Ð»
Ñī Ð¸Ð½
ĠAr t
ÑĢÐ¾Ð³ ÑĢÐ°Ð¼
Ġl ink
ĠÐ¾ ÑĨÐµÐ½
ÑĪ ÐµÐµ
Ġyou ng
ÑĩÐ° Ð¹
c hed
Ġal ong
Ġs ound
ra p
ĠB ul
ay a
av ing
Ġpo ol
Ñĥ ÐµÑĤÑģÑı
Ġ8 0
Ġqu iet
Ðº Ð¾Ð±
a e
st e
end s
ĠT rans
ĠÐºÐ¾ÑĢ Ð¿Ð¾ÑĢÐ°
Ð¼ÐµÐ½ ÑĮ
Ġiss ues
ĠÐ·Ð° Ð²ÐµÑĢ
ĠÐłÐµÑģÐ¿ÑĥÐ±Ð»Ð¸ ÐºÐ¸
ĠÐĴ Ð¸
Ġres pect
Ġres ources
ĠÐ³Ð¾ÑģÑĥÐ´Ð°ÑĢ ÑģÑĤÐ²Ð°
ĠX P
g en
Ð° ÑĤÐ°
ÑĢÐ¸ Ð°Ð½
Ġre n
Ġsc ient
ÑĤ Ð¾Ð¹
Ġd ire
ĠÐ¿Ð¾Ð´ Ð¾Ð±
ĠÐ½Ð°ÑģÐµ Ð»ÐµÐ½Ð¸Ñı
Ġarch itect
ÐµÐ· Ð´
Ġch arg
ĠÑİ ÑĢÐ¸
Ġqu e
ĠÑģÑĤÑĢÐ° Ð½Ðµ
Ä ģ
art h
Ġm ass
ĠB usiness
ĠÐº Ð½Ð¸
Ġtreat ment
F rom
ĠÐ¿ Ð¾Ð¶
ĠÐ¾Ð´ Ð½Ð¸Ð¼
Ð»Ð¸ÑĩÐ¸ Ðµ
Ġdisc uss
osp here
ÐµÐ· Ð´Ð°
S e
og le
Ġinv ol
ĠÐ²Ð¾Ñģ ÑģÑĤÐ°Ð½Ð¾Ð²
Ð¡Ð»ÐµÐ´ÑĥÑİ ÑīÐ¸Ðµ
Ð² ÑĪÐ¸Ñħ
ĠÐ»ÐµÑĤ Ð½Ð¸Ñħ
ĠÐķÐ²ÑĢÐ¾Ð¿ ÐµÐ¹
ĠUn iversity
ÐĲ ÐĿ
ĠÃ Ĳ
Ġrec ord
g u
ĠÐ´Ð¸ ÑĢÐµ
4 0
ĠÐ·Ð° Ð²Ð¸Ñģ
Ġsign ific
ÑĢÐ°Ð¼ ÐµÑĤ
ĠÐ¿Ð¾Ñĩ ÑĤÐ¸
Ġon ce
o on
Ġt aken
Ġg as
Ð¡ Ð¾
Ġprogram s
c el
Ġup d
E n
Ñĥ Ñį
ÑģÐºÐ¸ Ð¼Ð¸
Ġevery thing
um e
ĠCh inese
Ð¾Ð· Ð°
ĠÐ¡ Ð°Ð½
Ġass ist
Ð· Ð¸Ð½
Ð¾ÑĤ Ñĭ
l ad
ĠÑĤ ÐµÐ½
Ġun e
Ġpart s
Ġap artment
ĠÑģÐ²ÑıÐ·Ð°Ð½ Ð½ÑĭÑħ
E D
ĠÐ²Ð° ÑĪ
ĠÑĨÐµÐ½ÑĤ ÑĢÐ°
ĠÑģÐ²ÑıÐ·Ð°Ð½ Ð½ÑĭÐµ
ÐºÐ¸ Ð¼Ð¸
ĠÐĲ Ð²
ĠÐ±Ð¾Ð»ÑĮÑĪ Ð¾Ð¹
Ð¸ Ð³
Ð¾Ð²Ð° Ð½Ð¸Ð¹
Ġte le
Ġqu ick
Ð¾Ð¶Ð´ ÐµÐ½Ð¸Ñı
ce ed
Ġqu al
Ġhig her
Ð¾Ð¼Ð¸ Ð½Ð°
ÐµÑĤ Ð¾Ð²
ÑģÐº Ð¾
ĠÐ¾ ÐºÐ¾Ð½
Ġris k
Å Ĥ
it able
ĠÑĤÐ¸ Ð¿Ð°
Ġa u
ĠÑĨÐµÐ½ÑĤ ÑĢÐ°Ð»ÑĮ
Ð¸ Ð¸
ĠÐ¾ ÑģÑĤÐ°Ð²Ð»ÐµÐ½Ñĭ
Ġdocu ment
Ð´Ð° ÑĤÑĮ
an ces
Ġe arly
ce ption
ĠÐ½Ð¸ Ðº
a ul
Ñī ÐµÐ½Ð¸Ð¸
Ġopportun ity
ĠÐ¾ ÑĢÐ¸
Ġinclud es
Ġatt ack
ĠÑħÐ¾ÑĢÐ¾ÑĪ Ð¾
ĠÐº Ð¼
ĠV al
R ussi
ĠÑįÑĤ Ñĥ
ĠÑĢÑĥ Ñģ
ÑĦ ÑĤ
ĠÐľÐµ Ð¶Ð´ÑĥÐ½Ð°ÑĢÐ¾Ð´
Ġaddition al
ÑĪ ÐºÐ¾Ð¼
Ġab s
ĠD o
Ġ200 2
Ġbas is
ĠÐ¿ÑĢÐ¾Ð¸Ð·Ð²Ð¾Ð´ Ð¸
Ð½Ð¸ ÑĤÐµ
i able
Ġint rodu
Ġth ird
id ed
and er
t a
Ġc rit
Ð¿ Ð¾Ð²
ie f
ĠÑĩ ÑĥÐ²
ĠÐ¿ÑĢÐ¸ Ð±Ñĭ
O M
ĠÐ± Ð¾Ð»
Ġen ough
ĠG od
ĠÐ¸ÑģÑĤ Ð¾ÑĢÐ¸Ð¸
cri ption
Ñ Ĺ
Ġm om
os ition
Ġrequire ments
Ġequ ipped
s elf
ĠÐ²Ñĭ Ð¿Ñĥ
Ġcle ar
re st
Ġe uro
Ġtra ining
Ð¾Ð¶ Ðµ
Ġres erv
ĠÐ¼ÐµÑĤ Ð¾Ð´
Ġde cl
Ġr ather
Ġd ie
ĠA ust
ĠÐ¿ Ð°Ð¼
ĠA c
our n
ĠI ran
ĠÐ¾Ð±Ð¾ÑĢÑĥÐ´ Ð¾Ð²Ð°Ð½Ð¸Ñı
ĠÑĤÐµ Ð¿ÐµÑĢÑĮ
Ġbu y
ĠÑģ ÑĢÐ¾Ðº
Ð²Ð° ÑĢÐ¸
ĠÐ¿ÑĢÐµÐ´ Ð½Ð°
ĠÐ´Ð¾Ð»Ð¶ Ð½Ð°
air s
Ġrec ent
Ġa ud
ÑħÐ¾Ð´ ÑıÑĤ
ĠÑĤÑĢÐ° Ð´Ð¸ÑĨÐ¸Ð¾Ð½
Ġl ive
ĠN orth
ĠD ay
Ġrequ est
Ġo p
ug ust
Ġro le
Ġrece ption
Ġ200 1
ut ed
8 0
er c
Ġrequire d
ÑĩÐµÑģÐºÐ¸ Ð¼Ð¸
re g
Ġcor por
med i
he l
at tle
Ġp resident
ĠÐ¿Ð¾ Ð½Ð¸Ð¼Ð°
ĠÐ¾Ð¿ ÑĤÐ¸
Ġb anks
ell ing
an u
Ġp our
ĠL ondon
ill ed
Ġ 000
ĠÐ¼ Ð¾Ñī
Ð½Ñı ÑĤÑĮ
ÑĢÐ¾Ð²Ð°Ð½ Ð½ÑĭÐµ
Ġinclud ed
Ġcommun ity
Ġan al
ĠS m
Ġdevelop ing
Ġent ire
ĠÐŀ ÐŀÐĿ
ĠA nt
Ġgroup s
ic o
ĠP r
Ġeduc ation
y d
. âĢĿ
ĠÐŀ ÑĤÐµÐ»ÑĮ
ĠÐ¸Ð½Ð´Ð¸ Ð²Ð¸Ð´Ñĥ
ĠÑģÐ¾Ð·Ð´Ð° Ð½Ð¸Ñı
Ġpark ing
g es
Ġst op
ĠÑĤÐ°Ðº Ð¾Ð¹
Ġ ÑĪÐµ
Ġex change
ĠÃ ł
Ġnew s
ĠÐ½Ð° ÑĩÐ¸Ð½Ð°
Ġann oun
ĠÑĥÑĩ ÑĢÐµ
ÐĲ Ð½
Ġse par
Ġy et
Ġstart ed
ĠÑģÑĤÑĢÐ°ÑĤÐµ Ð³Ð¸
ĠÐ°Ñį ÑĢÐ¾Ð¿
it ing
ĠÐ¢ Ð°
Ġaccommod ation
Ġj ob
ĠÑĥÐ´Ð¾Ð² Ð»ÐµÑĤ
ÐµÑĢ Ð¾Ð²
ÑģÑĤÐ²ÐµÐ½ Ð½Ð¾
Ð «
r ast
ÑĤÐµÐ»ÑĮ Ð½ÑĭÐ¼
ĠÑĢÐ°Ñģ ÑħÐ¾Ð´
Ġpot ential
sel ves
ĠÐ·Ð° Ð¿ÑĢÐµ
Ġdirect ly
ĠÐ½Ð° ÑĪÐµÐ³Ð¾
ĠÑĢÐµ ÐºÐ¾Ð¼ÐµÐ½
ĠÐ¯ Ð¿Ð¾
ĠÐ½Ð° ÑĢÐ¾Ð´
ĠÐµ Ð¼Ñĥ
ĠÐĶ Ð°
Ñģ Ð¾Ð½
est ic
Ġsol ution
ĠÐ³Ð¾Ð» Ð¾Ñģ
Ð² ÑĭÐµ
Ġknow ledge
ĠÐ»Ð¸ Ð±Ð¾
Ġh olid
ĠM icro
Ġtrans l
Ġsol utions
Ġf ocus
ĠÐļÐ¸ÑĤÐ° Ñı
Ġl ater
ĠÑĥ ÑĤÐ²ÐµÑĢ
ĠÐ½ÐµÐºÐ¾ÑĤÐ¾ÑĢ ÑĭÑħ
un a
m et
Ġfor mer
ĠÐ½Ðµ Ð´Ð¾
ĠÐ¿ÑĢÐµÐ´ ÑģÑĤÐ°Ð²Ð»Ñı
ĠA ng
Ġpro tection
M ar
Ð´Ð¸ Ð½Ð°
Ġl ooking
un ch
Ġp an
ĠÐ¿ÑĢÐµ ÑģÑģ
lic k
Th at
Ġf ront
ĠBel arus
Ġ rou
Ġquest ion
er ve
ĠCent er
Ġre ach
ĠA ut
Ð´Ðµ ÑĤÐµ
ĠÐ½Ð¸ ÐºÐ°
Ġb ody
ĠF ore
ĠÐ¡ Ð°
Ġcho ose
Ġsur round
ĠÐºÐ¾ÑĤÐ¾ÑĢ ÑĥÑİ
ĠÐ± ÐµÑĢÐµ
ÑĩÐµ Ð³Ð¾
Ġestab lished
Ġtechn ologies
in ary
ĠAsi a
ĠÑģÐ¸ÑģÑĤÐµÐ¼ Ñĥ
ĠAr men
il ar
pt ember
ĠBl ack
Ġatm osphere
Ð±Ð¾Ð» Ñĥ
ĠC ouncil
e ed
Ġc it
ĠP e
* *
Ðŀ Ð½Ð¸
ĠÑĤÐµÑħÐ½Ð¾Ð»Ð¾Ð³Ð¸ Ð¸
ÐºÑĤ ÑĥÑĢ
Ġrefer red
ĠM arch
ĠÐ² Ð¼Ðµ
ent oo
ĠÑģÐ¾Ð² Ð¼ÐµÑģÑĤ
Ġstand ards
Ġ2 7
ĠÐ·Ð´ Ð¾ÑĢÐ¾Ð²
ĠÑĥ Ð±Ðµ
Ġcon ference
Ġrestaur ants
Ġwor ds
Ġmonth s
Ð»Ð° Ð¼
Ð¼Ð° ÑĢ
res h
Ġpr incip
Ð¿ Ð¾Ð½
Ġrece ived
Ġincre asing
ÐĿ Ð¸
Ġsim ple
ĠÐ²Ð¾Ð¿ÑĢÐ¾Ñģ Ñĭ
ĠÐºÐ¾Ð»Ð»ÐµÐº ÑĨÐ¸Ð¸
ÑĢÐµ Ð³Ð¸
ĠÐ²ÐµÑĢ ÑģÐ¸Ð¸
How ever
ÑĢÐµ Ð·
Ġre nt
ĠÐ´Ð¾Ð»Ð»Ð° ÑĢÐ¾Ð²
ra y
ĠÐŁ ÑĢÐ¸
ĠÑħ ÑĢÐ°Ð½ÐµÐ½Ð¸Ñı
Ġv ia
ĠÐº Ð¸
ĠÑħ ÑĥÐ´
im ming
Ġcap ac
Ġcl ick
ĠÐºÐ¾Ð¼Ð¿ Ð»ÐµÐºÑģ
m ar
Ġar riv
ĠÐ¿Ð¾ÑĤ ÐµÐ½
r ase
ĠK az
li ament
Ġcho ice
ÑĤ ÑĭÐ¹
ĠÐºÑĥÐ»ÑĮ ÑĤÑĥÑĢ
ĠChamp ions
ĠÐ¼ÐµÑģÑĤ Ðµ
Ġlangu ages
ĠÐ¿Ð¾Ð´ ÑĤÐ²ÐµÑĢ
ÐĽ Ð¸
land s
ĠDes k
Ð§ÐµÐ¼ Ð¿Ð¸Ð¾Ð½Ð°ÑĤ
ĠÐ° ÑģÑģ
Ġlist ed
ĠÑĤÐ¾Ð¼ Ñĥ
ĠÑĤÐµÐ»ÐµÑĦ Ð¾Ð½
ĠF riend
I M
ĠP er
ÐŁ Ð°
Ġair port
Ġphot o
ĠÐ° Ð¿
Ġdec or
ĠÐ¸ÑģÐº Ð»Ñİ
Ġwhe ther
ĠÐ¶Ðµ ÑģÑĤ
a ction
ĠÐ¢ ÑĥÑĢ
Ġide al
ÐĶ Ð¸
ĠÐ¿Ð»Ð° Ð½Ð¸
ĠÑĥÐ²Ðµ Ð»Ð¸ÑĩÐ¸
Ð¸ÑĤÐ° Ð¹
Ġperform ance
ĠÐ° Ð½Ð³
c er
20 10
ĠÐ¸Ð·Ð¾Ð±ÑĢÐ°Ð¶ ÐµÐ½Ð¸Ñı
ĠÐ¿ Ð¾Ð³
ast ic
Ġcol l
Ð° Ð»Ð¾Ð²
Ġcont rib
ĠÑģÐ¿Ð¸ ÑģÐºÐ°
Ġinstit utions
m b
Ð¾ ÑģÑĤÐ¾Ñı
Ġl at
ens ion
R E
Ðĺ Ð§
ĠÐºÐ°Ðº ÑĥÑİ
Ð· Ð¼Ð°
Ġh alf
Ġs end
ĠÐºÐ¾Ð¼ÑĦÐ¾ÑĢÑĤÐ° Ð±ÐµÐ»ÑĮ
ï¿½ï¿½ ï¿½ï¿½
ĠÑĢÐ°ÑģÐ¿ ÑĢÐ¾ÑģÑĤ
Ġmed ia
com ing
ĠÑĢÐ°Ð±Ð¾ ÑĩÐ¸
Ġb ase
ĠÐ¡ Ð¸
ĠÐ½Ð°ÑĩÐ° Ð»Ð°
ÑĤÐµ ÑĤÐ°
Ġth ous
N ow
Ġch all
ĠÑĨÐµÐ½ÑĤ ÑĢ
D es
ĠÐ¾Ð± Ð¼ÐµÐ½
ĠÑĤÐµ ÐºÑĥ
ĠÐ¾Ñģ Ð½
ĠÐ¾Ð±ÑĬ ÐµÐ´Ð¸Ð½
Ä ±
Ġb ring
Ġth ings
ĠÑģÐ¼ Ð¾Ð³
D P
ĠÐ¿Ð¾Ð»Ñĥ ÑĩÐ°
Ġestab lish
Ġcustom er
r atic
ĠÐ¸Ð½ÑĤÐµ ÑĢÐµ
Ġconne ction
ĠEx change
ĠÐ¼Ð½ Ð¾Ð¶ÐµÑģÑĤÐ²
ÐµÐ½ Ð½Ð¾Ðµ
ÑĮ Ð¸
en a
le b
iz ing
Ð½Ð¸ ÐµÐ¹
et er
ĠÐº ÑĢÐµ
ĠÐ¸Ð¼ ÐµÑĤÑĮ
it er
ĠÐ´ Ð½ÐµÐ¹
ÑĥÑİ ÑĤÑģÑı
ĠÐĺÐ· ÑĢÐ°
Ġmanufact ure
Ġf ive
Â ł
ĠÐ¼ Ð°ÐºÑģÐ¸Ð¼
ĠÐµ Ð¶Ðµ
Ġeffect ive
ĠÐ¸Ð· Ð¼ÐµÐ½Ð¸
ĠÐ½Ð¾Ð² Ð¾Ð³Ð¾
ĠÐ½Ð°ÑĪ Ð»Ð¸
ct ober
Ðĳ Ð¾Ð»ÑĮ
ĠÐĳ Ð°ÑĢ
ĠW ith
ĠF ire
ib r
ĠÐºÑĥ Ñħ
is es
Ġcooper ation
Ð¶ Ñĥ
al d
ĠÑĥ Ð»Ð¸
Ð¡ Ð¢
Ġst ates
ÐŁ Ð¾Ð»
ĠO ut
Ġful ly
ĠÑĢÐ°Ð±Ð¾ ÑĤÐµ
ĠÑįÑĤÐ¸ Ð¼
A D
re ed
Ġdist ance
Ġsub ject
ĠÐ»ÐµÐ³ ÐºÐ¾
ĠÐ¼ Ð¾Ð½
oc iation
ĠÑģÑĤÐ° Ð»Ð¸
ÑĩÐµ Ð±
ĠK h
ĠÐ´Ðµ Ð»Ðµ
ÑĤÐ° Ð»ÑĮ
ov iet
Ð²ÑĤÑĢÐ° Ðº
y r
Ġpart y
on st
ĠT H
ĠÐ¿Ð° ÑĢÐ°Ð¼ÐµÑĤ
ĠÐ²Ð¾Ñģ Ð¿
2 3
Ð´ ÐµÐ¼Ð¸
ĠÐ´ Ð¾Ðº
ĠÐĳ Ð°
ÑħÐ° Ð½Ð¸
Ġw arm
ter m
N ew
Ġstud ents
Ġquest ions
Ð°Ð» Ñĭ
Ð±Ð¾ ÑĢÐ°
ĠÑģÐ¾Ð±ÑģÑĤÐ²ÐµÐ½ Ð½ÑĭÐµ
ĠÐ¾ÑĤÐ½Ð¾ÑĪ ÐµÐ½Ð¸Ð¸
Ð»Ð° Ð¼Ð¸
Ġindust rial
it a
ĠÐ·Ð°Ð¿ ÑĢÐ¾Ñģ
Ġh ous
Ġn uclear
ac hed
Ġtra in
ÑĪÐ° ÑĤÑĮ
h ouse
ĠÐ²Ð¾Ð¹ Ð½Ñĭ
he st
I s
ÑģÑĤÐ²ÐµÐ½ Ð½Ð¾Ð¹
Ġconven ient
ÑĤÐ¾ÑĢ Ð¾Ð²
Ġind ic
Ð¼ ÐµÐ½ÑĤÐ¾Ð²
ĠÑĢÐ°Ð·Ð²Ð¸ Ð²Ð°
ĠÐ·Ð° ÑıÐ²
Ġpl ant
ĠÐ¾ÑĤÐ½Ð¾ ÑĪÐµÐ½Ð¸Ñı
ĠÐ½Ðµ Ð³Ð¾
Ġcom mercial
Ġse ction
Ġcult ure
Ġcont ract
Ġbe ach
ÑĢÐ°Ð· Ñĥ
ren g
Ġtrans lation
Ġatt ract
Ġspec ific
ĠÑĥÑģÑĤÐ°Ð½Ð¾Ð² ÐºÐ¸
ĠÑģÑĤ ÐµÐ¿
Ġin nov
ar ies
Ġg en
ĠÐºÐ¾Ð½ ÑĦ
Ġg round
ĠI raq
ĠÐ¾Ð´ Ð½Ð°ÐºÐ¾
ĠA s
Ð´ ÐµÑģÑĮ
u ff
ĠF in
ĠÐ¾Ð´ Ð½Ð°
Ġmod el
ĠÐ¸Ð½ÑĤÐµÑĢ Ð½ÐµÑĤ
en ing
Ð ¬
ĠÐ´Ð¾ÑģÑĤÐ° ÑĤÐ¾ÑĩÐ½Ð¾
ĠÐ¿Ð¾Ð¿Ñĥ Ð»ÑıÑĢ
Ġg ot
Ġb rand
hip s
ra cy
ÐµÐ¹ Ð½
Ð°Ð»ÑĮ Ð½Ð¾Ð¹
ĠÐ´Ð¾ ÑħÐ¾Ð´
Ġsoc iety
ĠÑı Ð´ÐµÑĢ
ĠÑĤÐµÐº ÑģÑĤÑĭ
ĠÑģ ÐµÐ»ÑĮ
Ġd am
ĠÐĴ Ð»Ð°Ð´Ð¸
Â µ
Ð·Ð° Ð´
ĠT w
Ġsomet hing
Ġ ut
Ġreg ional
P l
n o
ch an
ĠÑĩ ÐµÑĤÑĭ
L a
ress ion
Ġd one
er ous
Ġdes c
ÐµÐ½ Ð½Ð°Ñı
ur ance
Ġe ither
od ay
Ġreg ard
Ð¡ Ð¸
ĠÐ¼ Ð½Ðµ
ĠÑģÑĤ ÑĢÐµ
ĠÑĢÐ°Ð±Ð¾ÑĤÐ° ÑĤÑĮ
ĠÑģÐ»Ðµ Ð´ÑĥÐµÑĤ
ic les
ÑĪÐ° ÐµÑĤ
ĠÐķ Ð²
ÑĤÐµÐ»ÑĮ ÑģÑĤÐ²Ð¾
ĠÐ¸Ð· Ð´Ðµ
Ð·Ð° ÑĤÑĮ
ĠÑħ Ð¾ÑĤÑı
ĠÐ¿Ð¾ÑĢ ÑıÐ´
I L
at al
ĠÐ¿Ð¾ÑģÐ»ÐµÐ´ Ð½Ð¸Ðµ
% .
Ð¿ Ð¾Ð´
Ġter rit
Ðļ Ð¾Ð³Ð´Ð°
Ð´Ð¸ ÑĤÐµ
ÑĤ Ñı
ĠT er
ĠÐ± Ð»Ð¸Ð·
ĠI f
ÑĢÐµÐ´ Ð¸
Ð¸Ð¼ ÑĥÑīÐµÑģÑĤÐ²
ĠÑģÐ°Ð¼ ÑĭÐ¼
Ð¸ Ðµ
Ġ2 8
ĠÐ¿ÑĢÐµ Ð²
Ġc ou
ĠÐ² Ð¾Ðº
ÑĢ Ð´
ĠS af
ad es
ĠÐ¸Ð³ ÑĢÑĭ
ĠÐ¼ ÑĥÐ¶
Ð¶ Ð¼Ð¸ÑĤÐµ
ĠÐ¿ÑĢÐµÐºÑĢÐ° Ñģ
en ed
ĠÑģÐµÑĢÑĮ ÐµÐ·
Ã ¬
Ġs ym
est aur
ÑĦÐ¾ÑĢ Ð¼Ð¸
ĠÑĦ Ð¸Ð·Ð¸
Ġdou ble
ĠÐ¾ÑĤ Ð²Ðµ
ĠT own
ĠÐ¿ÑĢÐµÐ´ ÑģÑĤÐ°Ð²Ð»ÑıÐµÑĤ
Ġcol lect
Ġf ace
is on
Ġan sw
Ġad vert
ÑĨÐ¸Ð¾Ð½ Ð½Ð¾Ð¹
ph one
Ð¶ Ð´Ðµ
Ġd ans
ÐµÐ½ Ð½ÑĭÐ¼
ĠÑĢ Ð¾Ð»ÑĮ
ĠÐ² ÑĢÐ°
Ġbeg inning
Ġw r
ĠÐ¿ÑĢÐ¾Ð´Ñĥ ÐºÑĤÐ¾Ð²
ĠÑģÑĤÑĢÑĥ ÐºÑĤÑĥ
Ġro ad
ver age
ÑĢ Ð¾Ð´Ð°
ÑĪÐ¸ Ð¼Ð¸
ĠÑĥÑĢÐ¾Ð² Ð½Ðµ
ÑĢÑĥÐ³Ð» Ð¾ÑģÑĥ
ÑĢÐ° Ñģ
ber g
Ġspe ak
Ġpre p
ĠÑģÐ°Ð¹ ÑĤ
r ate
Ð¸ Ð¼Ð¸
ĠÐ² Ð¸Ð½
or ks
he t
Ġth reat
ce mber
ĠÐ± Ð¾Ð³
ĠÐ²Ð·Ð° Ð¸Ð¼
ĠJ une
Ġe ver
Ð¸Ð½ ÑĤÐµ
Ġf ram
ĠÑģÑĤÑĢÐ°Ð½Ð¸ÑĨ Ð°
ĠÑģÐ¼Ð¾Ð¶ ÐµÑĤÐµ
ĠÐ´Ð¾Ð»Ð¶ Ð½Ð¾
ĠÐ¾ÐºÑĢÑĥ Ð¶Ð°
ĠSe ptember
ĠÑĨ ÐµÐ½Ñĭ
Ġens ure
Ġmin or
y a
ĠÑģ Ð»Ð¸
ĠÐĲÐ¼ÐµÑĢÐ¸ ÐºÐ¸
ÑĤÐµÐ»ÑĮ Ð½Ð¾ÑģÑĤÐ¸
ĠÐ±Ð¸Ð·Ð½ÐµÑģ Ð°
ru g
ĠÐĵÐµÑĢÐ¼Ð° Ð½Ð¸Ð¸
ÑģÐ¸ ÑĤ
ĠÐ¾Ð´ Ð½Ð¾
Ġa ve
ĠÐºÐ° Ð¼
ĠÐ¿ÑĢÐ°Ð²Ð¸ÑĤÐµÐ»ÑĮ ÑģÑĤÐ²Ð¾
ĠS ystem
ĠO pen
ĠÑĢÐ°Ð· Ð¼ÐµÑĢ
Â ¾
Ð·Ð° Ñħ
Ð»Ñı Ñħ
ĠBul gar
ÑģÐ¸ Ñİ
Ġag o
Â ²
Ð»ÑĮ Ð½Ð°Ñı
ĠÐĴÐ° ÑĪ
if f
Ġs cre
Ġrem ain
Ġp ain
v a
Ġj o
ĠC our
ĠI N
ĠÐŃ Ðº
Ġtyp es
ĠÐ¿ÑĢÐµÐ´Ð½Ð° Ð·Ð½Ð°ÑĩÐµÐ½
et ing
ĠÐĿÐ¸ ÐºÐ¾Ð»
ĠÐ ¹
ĠÑģ Ð¾Ð»
ĠÐ¼Ð½ Ð¾Ð³
Ð½Ð¸ ÐºÐ¾Ð¼
ĠÐ¾ ÐºÐ°Ð·ÑĭÐ²Ð°
Ġinf lu
Ġcontin ue
ĠP C
anu ary
ĠÐ¾Ð±ÑĬ ÐµÐºÑĤ
Ġorig inal
Ġshop ping
ĠÐļ Ð°Ð¼
ov o
ĠÐ¾ÑĤÐ´ÑĭÑħ Ð°
C l
ĠÐ¾Ð± Ðµ
ĠÑĥÐ²Ðµ Ð»Ð¸Ñĩ
ĠÐ¾ÑĪÐ¸Ð± ÐºÑĥ
Ġatt ention
Ġch arm
ĠÑĥÑģÐ»Ð¾Ð²Ð¸ Ñı
ĠÐ¿Ñĥ ÑĤÐµ
Ġadv ant
ÐºÐ¾Ð± ÑĢÐ¸ÑĤÐ°
ÃĹÃĹÃĹÃĹ ÃĹÃĹÃĹÃĹ
ĠÐºÐ°ÑĢÑĤÐ¸Ð½ ÐºÐ¸
Ġdist rict
Ġd oll
ĠÑĥ Ð¼ÐµÐ½ÑĮ
ĠÐ¿Ð¾Ð´ Ð°
Ġgo ing
Ġs em
se qu
Ġqu ite
ID S
Ġ5 00
ÑĪ ÐºÐ¸
A P
ÑĢÐµ ÑĨ
ist ics
ĠÑĢÐ°Ð· Ð½Ð¾
ĠÑģÑĤÐ° Ð»
Ġbas ic
Ġd at
ĠÑģ ÐµÐ½ÑĤ
ÑĤÐµÐ»ÑĮ Ð½Ð¾Ðµ
ay er
ĠÐ¾Ð±ÑĢÐ°ÑĤÐ¸ ÑĤÐµÑģÑĮ
ip l
ĠPart y
l ig
ĠÐ½Ð° Ð·Ð°Ð´
con dition
Ðľ Ð°ÑĢ
ÐºÐ° Ð·Ð°Ð½
Ġf oot
ÑĢÐµ Ð±Ð¸
ÑĢ Ð¾Ð¹
al ian
Ġout side
Ġa ction
Ġ7 0
ÐµÐ¼Ð¸ ÑĢ
ĠGo ogle
ne y
pr il
Ġpr int
Ġ2 6
ĠÐ¿ÑĢÐ¾Ð²ÐµÐ´ ÐµÐ½Ð¸Ñı
Ġd en
ĠÐ¿ÑĢ Ð¾ÑĤÑı
ĠF eder
ĠÐ¿ÑĢÐ¸ Ð»Ð¾Ð¶
ĠÐºÐ° Ð½
ĠF ront
R oom
p o
ÑĬ ÐµÐ¼
ÐĲ Ð¢
Ð»Ñİ Ð´
ĠInd ia
v an
âĢ ¢
ĠÐ¾ÑĤ ÑģÑĥÑĤ
ove mber
Ð¡ Ð°
ĠÐ½Ð¾Ð² Ð¾Ð¹
ĠÐ² ÐµÑģ
Ñī ÑĥÑİ
ĠS ec
Ġdet erm
Ðº ÑĨÐ¸Ñı
Ñħ Ð¾
ĠD i
ÑĢÐ¾Ð² Ð¾Ð´
ĠÐ²Ð° ÑĢÐ¸Ð°Ð½
ĠÐºÑĢÐ° Ð¹
ĠÐ°ÑĢÑħÐ¸ ÑĤÐµ
Ð¶Ð´ ÐµÐ½Ð¸Ðµ
ĠÑĥÑģÐ»Ð¾Ð²Ð¸ ÑıÑħ
ĠÐ± Ð°ÑģÑģ
ĠG ood
ĠÑĥ Ð¿ÑĢÐ°Ð²Ð»Ñı
Ġse ctor
ĠÐº Ð¾Ñģ
ĠÐ¼ ÑĥÐ·
ÑĢÐ¸ Ð¹
ĠIn ter
Ġprovid ing
A cc
r at
ra z
ÑĨÐ¸Ð¾Ð½ Ð½ÑĭÐµ
Ðĳ Ð°
ĠÐ¼ÐµÐ´Ð¸ÑĨÐ¸ Ð½
ĠÐ¼ÐµÑĤ Ð°Ð»
Ñģ Ð°Ð½
ĠÐ± ÐµÑģ
ĠÐ¿Ð¾ ÑģÑĤ
ÑĢÐ¸ Ñı
ip s
ĠÐł Ð°
ĠÐºÑĢÑĥÐ¿ Ð½ÐµÐ¹
Ġdec ision
Ġinst ru
ĠO ne
D e
ĠU p
ĠÐºÐ¾Ð¼ Ð¼Ñĥ
Ð·ÑĭÐ²Ð° ÐµÑĤ
Ġf ire
ĠO ff
p id
Ġpl aces
Ð»ÑĮ Ð½ÑĭÐ¼
ĠE st
Ġn ature
Ð¼ Ð¾Ð½
ĠN on
Ġpro pos
Ð¼Ð¾ÑĤ ÑĢÐµÑĤÑĮ
estaur ant
ar b
Ð¾Ð» Ð¾Ð²
ĠR ed
ĠÐ½Ð°ÑħÐ¾Ð´ ÑıÑĤÑģÑı
ĠÑģÐ¸ Ð»Ñĭ
ĠÐ¾Ð¿ÑĢÐµÐ´Ðµ Ð»Ñı
ix ed
o id
Ġcomple t
ÑĢÐ° ÑĨÐ¸Ð¸
ĠO ctober
ĠÐºÐ°Ð¶Ð´ Ð¾Ð³Ð¾
ÐĴ Ð°
ĠÑģÐ¸ÑģÑĤÐµÐ¼ Ðµ
ĠÑģ Ð¼ÐµÑĢ
ĠÑĥ ÐºÐ°Ð·Ð°
ĠÐ³ ÑĢÐ°Ð¼
ail y
Ð´Ñĥ ÑĤ
Ġn orm
ĠÐºÐ²Ð°ÑĢ ÑĤÐ¸
Ġb it
Ġpri or
ĠÐ» ÐµÑģ
ĠÐ¾Ð±ÑĬ ÐµÐ¼
ĠÐ¶Ð¸Ð· Ð½ÑĮ
Ġapplic ations
ÑģÐ° Ð¹
Ð¶ ÐµÐ¹
Ġg ram
Ð½Ð¸ÐºÐ° Ð¼Ð¸
Ġdispl ay
c ient
ĠÐ·Ð° ÑĤÐµÐ¼
Ġpart ies
ĠÃ ¯
form ation
Ġgood s
ĠÐ² ÐµÑģÑĮ
ĠÐºÐ¾Ð¼Ð¿ Ð»ÐµÐº
ab led
ĠI m
Ġpop ulation
ĠÐ´ Ð»Ð¸
ĠÐ±Ð° Ð³Ð°
ĠÑģÑĤÐ¾ Ð¸Ð¼Ð¾ÑģÑĤÑĮ
Ġst reet
ĠÐ»ÑĥÑĩ ÑĪÐµ
k n
Ġph one
ag ue
ĠÐºÐ¾Ð¼Ð¿ÑĮÑİ ÑĤÐµÑĢ
ĠÑĥ Ð¼
âĦ ĸ
ĠH IV
ĠMinist er
Ab ove
ĠÐ¿ÑĢÐµÐ´ Ð¿Ð¾Ð»
Ñİ Ð·Ð°
am ed
ĠÐ¿ÑĢÐµÐ´Ð¾ ÑģÑĤÐ°Ð²
w ide
ish ing
ĠÐ´ÐµÐ¹ÑģÑĤÐ²Ð¸ Ñı
ĠÐľ Ð¾ÑģÐº
ĠÐĽ Ð°
Ðµ Ð²Ð°
ÐµÐ½ Ð½Ð¾ÑģÑĤÐ¸
ĠÑĥ Ð¿
ĠS an
Ð³ ÐµÐ½
Ġmach ine
n ces
Ġc ases
ĠÑĩ ÐµÑĤ
Ġeas ily
Ġor d
L oc
Ġpre vious
ĠÑĤÐµÑħÐ½Ð¾Ð»Ð¾Ð³Ð¸ Ð¹
ĠÐļÐ¸ÑĤÐ° Ð¹
Ġpack age
ĠB o
Ġsh own
ĠÑħÐ¾ ÑĤÐ¸ÑĤÐµ
T M
em pt
ĠÐ¾Ð¿ ÑĢÐµÐ´
Ġc aus
Ð»ÑĮ Ð½Ð¾Ðµ
ĠÐ¼ Ð¾ÑĢ
ĠÐŁ ÑĢÐ°
ĠÐ´Ðµ Ð»Ð¾Ð²
ĠÐ· Ð´Ð°
ĠÐ° Ð»
ÐĴ Ð¾Ð·
Ġpurch ase
ĠÑģÑĦ ÐµÑĢÐµ
ĠÑģÐ²ÑıÐ·Ð° Ð½Ñĭ
ĠÐºÐ¾Ð» Ð»Ðµ
Ġs ource
Ġst reng
ĠÐ½Ð¾Ð¼ÐµÑĢÐ° Ñħ
O T
ÑĢÐµÐ³Ð¸ ÑģÑĤÑĢÐ¸
u an
Ġc ode
ĠK ore
Ġt re
oc i
Ġac ross
ĠÑĤ ÑĥÑĢ
ÑīÐ° ÐµÑĤ
Ġbro ad
ĠS al
ĠH ouse
ĠÐ¿ÑĢÐµÐ´Ð¿ÑĢÐ¸ÑıÑĤÐ¸ Ñı
ĠMicro soft
Ġo ption
Ġb or
ĠÐ¼ÐµÐ¶Ð´ÑĥÐ½Ð°ÑĢÐ¾Ð´ Ð½ÑĭÑħ
ĠÐºÐ¾Ð¼ Ð¼ÐµÑĢ
ÐŃ ÑĤÐ¸
Ġpo or
O L
Ð² Ð¾Ð»Ð¸
Ġb ud
Ġf ast
ĠÑģÐ¿Ð¸ ÑģÐ¾Ðº
Ġiss ue
ĠG ree
Ġ199 0
ĠÐ¾Ð·Ð½Ð° ÑĩÐ°ÐµÑĤ
ĠÑĤÑĢÐµ Ñħ
ĠÑįÐºÐ¾Ð½Ð¾Ð¼Ð¸ ÑĩÐµÑģÐºÐ¾Ð³Ð¾
Ġhotel s
P lease
um p
ĠÑģ Ð²Ð¸
ĠÐĴÐ»Ð°Ð´Ð¸ Ð¼Ð¸
N o
ĠÐ± Ð°ÑĢ
ĠC up
Ġach ieve
ĠÑģÐµÐ³Ð¾Ð´Ð½Ñı ÑĪ
Ġw ood
ĠG eneral
ĠÐ¼Ð° ÑĪÐ¸
stit ute
Ġcit iz
ĠÐ¾ÑĤÐ½Ð¾ÑģÐ¸ ÑĤÐµÐ»ÑĮÐ½Ð¾
Ġlat est
ÑģÑĤÐ¸ ÑĤ
o res
ĠÐĴ ÐĺÐ§
Ġ3 00
ĠÐ¿ Ð¸ÑĤÐ°
Ġg e
Ġinstall ation
im al
Ð¾Ðº Ð¾Ð¹
ĠÐ¾Ð± ÑĢÐ°Ð±Ð¾ÑĤ
ĠCl ub
i ers
v est
ĠÐ¡ ÐµÐ²ÐµÑĢ
ĠE as
av id
Ġre d
ĠÑĤ Ð²Ð¾
Ġ9 0
Ġave c
Ġcl os
ÐĽ Ñİ
ĠÐ± Ð»Ð¸
h old
ast e
ĠÐ°ÑĤ Ð¼Ð¾Ñģ
E uro
ĠÐĲ Ð»ÑĮ
Ġsitu ation
ro s
Ð²Ðµ Ð·
Ġs elf
ris on
Ġ %
/ /
Ġw ww
Ġsim ply
Ġmom ent
, âĢĿ
et te
Ġcons ult
Ñİ ÑīÐ¸ÐµÑģÑı
Ġpl ann
S ome
Ð±Ðµ Ð¶
Ġch arge
Ġcont ain
ÑģÑĤÐ²ÐµÐ½ Ð½ÑĭÑħ
ĠÑĥÑģÑĤÐ°Ð½Ð¾Ð² Ð»ÐµÐ½
ĠÐ¿ÑĢÐµ Ð¸Ð¼ÑĥÑīÐµÑģÑĤÐ²
ĠÐ´ÐµÑģ ÑıÑĤÐ¸
Ð¡Ðµ Ð³Ð¾Ð´Ð½Ñı
ĠM ont
Ñĩ Ð½ÑĭÐ¼
Ð²Ñĭ Ð¼
ĠÑĥÐ²Ðµ Ð»Ð¸
ĠÐ°Ð³ ÐµÐ½ÑĤ
Ġs on
ĠÐ¿ÐµÑĢÐµ Ð³Ð¾Ð²
ĠÐ´ÐµÑĢÐµ Ð²
ĠR oman
ĠÐĴ Ð¾
t ies
Ð¼Ð¾Ð¶ Ð½Ð¾
ĠS ky
ĠB ab
Ġpolic ies
ĠÐµÐ² ÑĢÐ¾
Ġappro ach
ĠÑģÐ¾ ÑģÑĤÐ°Ð²
en ces
ĠA ugust
ĠÐ¿ÐµÑĢÐ² ÑĭÐ¹
ĠÑĢÐµÑģÑĤÐ¾ ÑĢÐ°
Ġd ial
Ġhigh ly
t d
Ġcons id
Ġap artments
a res
ĠÑĢÐ¸ ÑģÐº
ou l
Ġ19 4
âĦ ¢
Ð¿Ð° ÑĢÐ°
ĠÑĤÐ¾ ÑĤ
Ð»Ð° Ð±
ĠP age
ÑĥÑİ ÑīÐ¸Ñħ
ĠÐ¼ Ð»
Ġk it
ĠÑįÐºÑģÐ¿ ÐµÑĢ
Ġsim ilar
ĠÑģÐ¾Ðº ÑĢÐ°
ÐĽ Ð°
Ġ ill
Ðº Ð¾Ð²Ð°
ĠÐº Ð½Ð¾Ð¿
ĠÑĤÑĢÐµÐ±Ð¾Ð²Ð°Ð½Ð¸Ñı Ð¼
Ġser ies
ĠTe chn
Ġcapac ity
ÑģÑĤ ÐºÐ°
Ġ ess
Ð¹ ÑĤÐ¸
ĠÐ¸Ð½ÑĦÐ¾ÑĢÐ¼Ð° ÑĨÐ¸Ñı
ĠÐ¿Ð¾Ð¼Ð¾Ñī ÑĮ
Ġb illion
s erv
ĠÐ¾ Ð´Ðµ
Ðļ Ð¾ÑĢ
Ġwalk ing
Ġc irc
et t
g ress
ĠÐ· Ð²Ñĥ
ĠÐ²Ð¾Ð· Ð½Ð¸Ðº
Ġac qu
Ñģ Ð¾Ð¼
Ġfor ce
Ð§ ÑĤÐ¾Ð±Ñĭ
Ġagree ment
ĠÐĴÐµÐ»Ð¸ ÐºÐ¾Ð±ÑĢÐ¸ÑĤÐ°
ÐĲ Ð»ÑĮ
ÑĤÐ¾Ñĩ Ð½ÑĭÐ¹
Ð¢Ð°Ðº Ð¶Ðµ
Ð¸ ÑĢÐ°
Ġo u
Ġf all
Ġlong er
ĠÐ¿Ð¾ ÑıÐ²Ð¸
ĠÑĢÐ° Ð²
rid ge
ĠÑĩ ÐµÑĢ
Ġb r
ĠÐ¼Ð¾Ð¶ ÐµÐ¼
Ġprot ect
ĠA rab
Ġ19 5
Ñĥ Ð»
ĠÐ´ ÐµÑĢ
ĠÐ± Ð¸
ĠÐºÑĢÐ° Ñģ
ar ing
Ġm ax
Ð´ÐµÑĢ Ð¶Ð¸Ð²Ð°
ĠÐ½ÐµÐ¿ Ð¾ÑģÑĢÐµÐ´
Ġim medi
ĠDe cember
Ġb reak
Ð±ÑĥÑĢ Ð³
Ġcult ural
ĠÑĢÐµ ÑģÐ¿
Ġra il
ĠÑģÑĥÑīÐµÑģÑĤÐ² ÑĥÐµÑĤ
x im
Ðĺ ÑģÐ¿
ĠÐ¿Ð¾Ð´Ð´ÐµÑĢÐ¶ ÐºÑĥ
ĠÐ° ÑĢÐµÐ½
O r
re t
et h
áĥ Ĳ
is ions
Ġde ath
ÐµÑĤÐµ ÑĢ
'' ''
ĠÐ³ Ð»ÑĥÐ±
Ġl ic
Ð´Ð° ÑİÑĤ
on a
Ð· Ð¾Ð²
ĠÑģÐ¾ ÑģÑĤÐ°Ð²Ð»ÑıÐµÑĤ
Ġhistor ical
ĠÑĢÐ°Ð·Ð²Ð¸ ÑĤÐ¸Ðµ
Ġorgan ization
a ign
s hip
ĠÑĥ Ð·Ð½Ð°
ÑĩÐµÐ½ Ñĭ
he ad
ra de
ĠJu ly
ĠÐ¾ Ð¿Ð°Ñģ
ap ers
ĠÐ°Ð½ ÑĤÐ¸
ul a
ĠÐ¿Ð»Ð¾ÑīÐ° Ð´
S ince
ĠD irect
ĠÐ¼Ðµ ÑħÐ°Ð½Ð¸
ĠÐĲ Ð·Ð¸Ð¸
he m
ĠÑĢÐ°Ð· Ð½ÑĭÑħ
ÑģÑĤÐ¾Ð¹ ÑĩÐ¸
Ð¼ Ñı
ĠÐ¼Ð¸Ð½ ÑĥÑĤ
o ff
Ġsupp ly
Ġf it
ĠÐ´Ð°Ð»ÑĮ Ð½ÐµÐ¹
ĠÐ¾ Ð½Ð¾
ÑĪ Ð»Ð¸
Ð¡ Ð¾Ð²ÐµÑĤ
F ind
ÐºÐ° Ð±
ĠÐ¿ÐµÑĢÐµ ÑĩÐ¸ÑģÐ»ÐµÐ½
is f
ĠÐ½Ðµ Ð´Ðµ
ĠÐĵ Ð°
Ġdom estic
Ġcon duct
Ð°Ñģ ÑģÐ°
Ġsum mer
ĠA pril
Ġsuccess ful
Ðµ ÑģÑĤ
ĠB est
ĠÐ±Ð»Ð° Ð³
Ġ rich
ĠÐ² Ð¿Ðµ
ell a
ĠÑĤÑĢÐ°Ð½ÑģÐ¿ Ð¾ÑĢÑĤ
ÑģÑĤÐ°Ð½Ð° Ð²Ð»Ð¸
ĠG reat
ert ain
ÑģÑĤ ÐµÐ¹
Ġd ate
ro ad
ĠÐ±Ð¾Ð³ Ð°ÑĤ
S p
Ġt arg
ÐµÐ¹ ÑĦ
de ed
Ġs un
ĠJ anuary
ĠÐ¿ÑĢÐ¸ Ð²Ð¾Ð´
er a
Ġd yn
ĠÐ°Ð²ÑĤÐ¾Ð¼Ð¾Ð±Ð¸ Ð»ÐµÐ¹
ĠÐĽ Ñİ
ĠÑĢÐµÐ³Ð¸ Ð¾Ð½Ð°
Ġorganiz ations
her s
com es
V D
Ð´Ðµ Ð±
ac ious
ĠÐ¿ÑĢÐµÐ´Ð»Ð°Ð³Ð° ÐµÐ¼
Ġconf ig
ĠÐ·Ð°ÑīÐ¸ ÑĤÑĭ
ĠÐ±Ñĥ Ð¼Ð°
ĠÑĦÑĥÐ½Ðº ÑĨÐ¸Ñİ
ÑĤÐ¾ÑĢ Ñĭ
Ġth ough
ĠÐ²Ðµ ÐºÐ°
oy al
ĠÐ½ ÐµÐ¹
ill ing
ĠÑĥÐ³ ÑĢÐ¾Ð·
ĠÐ¿ÑĢ Ð¾Ð¿
ÑĢÐ° Ð¹
c ks
Ð± ÐµÑĢ
ĠÐ½Ð° Ð¼Ð¸
Ð¼Ðµ ÑģÑĤÐ¸
Ġide a
Ð·Ð¸ Ñı
ĠB ox
ĠÐ¿Ð¾Ð´ ÑħÐ¾Ð´
A B
ĠÐļ Ð¾Ð¼
Ġsal es
A m
t ee
ĠÐ·Ð° ÐºÑĢÑĭ
Ð»Ðµ ÐºÐ¾
Ġch amb
ĠÐº Ð¾Ð´
ĠÐ²Ð¾Ð· Ð²ÑĢÐ°
ĠÐ¿Ð¾Ñģ ÑĢÐµÐ´
ĠÐ½Ð° ÑģÑĤÑĢÐ¾
ĠÐĺ ÑĤÐ°
Ð²Ð¸ Ð°
ĠÐ¸ÑģÐ¿Ð¾Ð»ÑĮÐ·Ð¾Ð²Ð° Ð½Ð¸Ðµ
Ġser ious
Ġlik ely
ÑģÐ¸ Ð¾Ð½
Ġres ort
Ġinterest ing
ĠÐ¿Ð¾Ð»ÑĮÐ·Ð¾Ð²Ð° ÑĤÐµÐ»ÐµÐ¹
re w
Ġex clus
ĠÐ¿Ð¾ÐºÑĥ Ð¿Ð°
ĠÐ³ Ð¾
ron ic
Ġre le
ĠÑģÐ¿ Ð¾ÑĢ
ĠÐ¿ÑĥÑĤÐµ ÑĪÐµÑģÑĤÐ²
ĠG old
ÑģÐºÐ¾Ð¼ Ñĥ
Ġprom ot
ĠÐºÐ° ÑģÐ°
ĠÐ¾ ÑģÑĤÐ°Ð½Ð¾Ð²
ol a
Ð²Ð° Ð»
ĠD el
ÑĨÐ¸Ñı Ð¼Ð¸
Ġele g
ĠÐ·Ð°ÐºÐ»Ñİ ÑĩÐ°ÐµÑĤÑģÑı
ÑĢÐµ ÑĤÐ°
ĠÑĢÐµ ÑĪÐ¸
ĠÐ¶ÐµÐ½ ÑīÐ¸Ð½
Ð¼ ÐµÑĤÐ¸
Ġcol or
p ite
Ð´ Ð¾ÑĢ
Ðķ ÐĿ
S cript
ÑĢÐµÐ¼ÐµÐ½ Ð½Ð¾
ĠN ovember
ĠÐ½Ð°ÑĪ ÐµÐ¼
ĠÐºÐ¾Ð½ÑĦ Ð»Ð¸
ĠÑģÐ»Ð¸ ÑĪÐºÐ¾Ð¼
n el
Ġw id
ĠÐ·Ð½Ð° ÑĩÐµÐ½Ð¸Ðµ
C E
ĠÐ²Ñĭ ÑħÐ¾Ð´
Ġapp l
inn er
ÑĢÑĥ ÐµÐ¼
Ġt aking
2 2
Ġre pl
Ð± Ð°Ð¹
ĠÐ£ÐºÑĢÐ° Ð¸Ð½Ðµ
ĠÑģÐ¾Ð·Ð´Ð° Ð½
ĠDep osit
ĠS oviet
Ġelect ric
ĠÐ´Ð° Ð²
ug gage
Ġpay ment
ĠW ill
Ð¾Ñĩ ÑĮ
or ge
ĠÐ¼Ð°ÑĤÐµÑĢÐ¸ Ð°Ð»Ð¾Ð²
ÑĢÐ¸ ÑģÑĤÐ¸
ĠÑģÑĤ ÑĥÐ´
ĠÐ´Ð¾ÑģÑĤÐ¸ Ð³
Ġrec ently
Ġvar iety
v al
ĠS aint
ĠÐ¸Ð¼Ðµ ÐµÑĤÑģÑı
Ġconf lic
h am
Ð² ÑĭÑħ
ĠD an
ĠC al
ĠÑģÐ¾ ÐµÐ´Ð¸Ð½
Ġcomp on
ĠÑĥ Ð²ÐµÑĢ
Ġc ame
ÑĨÐµ Ð´Ñĥ
ĠÐ² Ð°Ð½
ĠÐ¾ Ð¿Ð¸ÑģÐ°
Ġm er
as c
ĠÑı Ð½
Ġthem selves
Î ±
Ñī Ñĳ
ĠÐ² ÐºÑĥ
w h
ĠÑĥÐ´Ð¾Ð²Ð»ÐµÑĤ Ð²Ð¾ÑĢ
Ġ ran
ĠÑĢÐµ Ð»Ð¸
Ġfor ces
Ġdocu ments
ĠÐ·Ð° Ð¿Ñĥ
Ġreg ul
velop ment
ĠÐ¸Ð¼ Ð¿
Ġso on
ĠÑģ Ð¾Ñģ
ĠÐ¿ÑĢÐ¸ Ð³Ð»Ð°
it ch
ĠM or
ĠÐ¿ÑĢÐµ Ð¿
Â ³
gy pt
Ð½Ð°Ð´ Ð»Ðµ
ĠÐ¿Ð¸ ÑģÑĮ
ĠÐ¾ ÐºÑĤ
ĠT our
Ð½Ð¸ ÑģÑĤÐµÑĢ
Ðĳ Ð»Ð°
v o
Ġre ady
D uring
n es
Ġt able
ĠE d
ĠÐ¿Ð¾ÑĤ ÑĢÐµÐ±Ð¸
Ġe lection
ÐĿ Ð°Ð¹
j a
Ð² ÑĪÐ¸Ð¹
ar ian
T P
ĠS oc
Ġt akes
ĠÑĤÑĢÐµ ÑĤÑĮ
g or
ac hes
Ð½ ÐµÐ¼Ñĥ
ĠÑģÐ¾Ð¾Ð± ÑīÐµÑģÑĤÐ²
Ġdeb t
Ġexper ien
Ġgovern ments
ĠÐ¿ÑĢÐ¾ ÑĦÐ¸
Ġoper ation
ĠÐ¼ Ð¾Ð±Ð¸Ð»ÑĮ
ĠÐ² Ð¸Ð·
Ð½Ð° ÑĤ
ĠÐĿ Ðµ
b it
ĠÐ·Ð° Ð»
ĠÐŁ ÑĢÐµ
ĠÐµ Ñĳ
l av
ĠÐ¶Ðµ Ð»ÐµÐ·
Ġtru e
ĠÐ¼ Ð¾Ð»
Ġm obile
ÑĢÑĥ ÑİÑĤ
Ðĳ Ð¾Ð»ÐµÐµ
Ð³Ð¸ Ð½Ð°
Ġpre c
ĠÐ¸Ð¼ Ñı
ĠÐ¿Ð¾Ð´Ð´ÐµÑĢÐ¶ ÐºÐ¸
ĠÑĢÐ° ÑģÑĤ
j an
ĠÐ½ÐµÐ´Ð²Ð¸Ð¶ Ð¸Ð¼Ð¾ÑģÑĤÐ¸
Ġim m
ĠÑĥÐºÑĢÐ° Ð¸Ð½
ĠÐ¾Ð±ÑīÐµÑģÑĤÐ² Ð°
Ġdetail s
ÐµÑĢ Ñĭ
Ð¢Ð° ÐºÐ¸Ð¼
ĠÑİÑĢÐ¸ Ð´Ð¸
ĠS un
Ġr ound
ĠÐ¿ÑĢÐ° Ð·Ð´
ĠÐ¸Ð· Ð±Ð¸ÑĢÐ°
Ġwon der
Ñİ ÑīÐ¸Ð¼Ð¸
Ġoffer ing
ĠÐ¼Ð¸ÑĢÐ¾Ð² Ð¾Ð¹
ĠR o
Ġr ules
Ġappe ar
ĠÐ° Ð½Ð°Ð»Ð¸
Ġup on
ĠÑģÐµÑĢ Ð²ÐµÑĢ
Ġse ason
ĠÐł Ð¸
Ġlarg er
ĠÑģÐ² ÐµÑĤ
kn own
ear ch
ÑĥÑĩ ÐµÐ½Ð¸Ðµ
Ġth us
Ðļ Ð°ÑĢ
ĠÐ¼Ð¸Ð½ Ñĥ
ĠÐ¾Ð± Ð½Ð°
S P
Ð¾Ð³ ÑĢÐ°
ĠÐ½Ðµ ÐºÑĥ
ĠÐ¿Ð¾ÑģÑĤÐ¾ÑıÐ½ Ð½Ð¾
Ð¶ ÐµÑĤÑģÑı
Ð²Ð¸ Ð½
ÑģÑĤÐ¸ÑĤ ÑĥÑĤ
l am
z h
Ð»Ð¸ Ð·Ð°ÑĨÐ¸Ð¸
Ġvill age
Ġdat ab
U R
Ġstat us
ĠÐ¿ÑĢÐ¸ Ð½Ð°Ð´Ð»Ðµ
ĠP ublic
Ġem b
ĠÐľ Ð°ÑĢÐ¸
ian ce
Ġoff ered
200 9
Ġgrow ing
ĠÐ¾ÑĤ Ð»Ð¸
ĠG entoo
Ġhig hest
ĠÐ¿Ð¾ ÑĤÐµ
ĠA pp
ĠM ark
ĠH ost
ĠÐºÐ¾ÑĤÐ¾ÑĢ ÑĭÐ¼
Ġimp rov
Ġrecomm end
Ġbe gan
Ð¸Ð½ Ñĥ
Ġc os
j ust
ÐĶ Ð°Ð½
por ary
ĠÑģ Ð»ÐµÐ´
ĠÐĽ Ñĥ
Ã£ o
ĠÐ° ÑĥÐ´Ð¸
Ġbel ieve
Ġdri ve
Ð³ Ð°ÑĢ
Ð¾Ð» Ð°Ð³Ð°
ÑģÑĤÐ°Ð² ÐºÐ°
mer ce
ĠIt aly
ĠÐºÐ»ÑİÑĩÐµÐ² ÑĭÐ¼
Ġ- -
Ð² ÐµÐ¹
ĠD on
ÑĨ Ñĥ
ÑĪ Ð¾Ð¹
Ñĩ ÐµÐ½Ð¸Ð¸
Ġem ail
Ð± Ð°Ð½
ÑĢÑı ÑīÐ¸Ñħ
ĠÐ¾ ÑĢÑĥÐ¶Ð¸
Ġpro ced
ĠÑģÐº Ð¾ÑĢÐ¾
ÑĤÐ¸ Ñİ
ĠB ut
Ð»ÐµÐ½ ÑĮ
ĠÐ·Ð°Ð²Ð¸Ñģ Ð¸Ð¼Ð¾ÑģÑĤÐ¸
ĠÐ¿ÑĢÐ¾ÑĤÑı Ð¶ÐµÐ½Ð¸Ð¸
Ġc ities
ĠC ath
u a
ÐºÑĤ Ð¾ÑĢÐ¾Ð²
ĠM inn
Ð´Ð¸ Ð´Ð°
ĠÑĦÐ°Ð¹ Ð»Ð¾Ð²
Ð½ Ð¾Ð´
ĠÐ¿ÑĢÐ¾ÐµÐºÑĤ Ð¾Ð²
Ġsaf e
ys is
ĠÐ½ÐµÐºÑĥ ÑĢÑıÑīÐ¸Ñħ
ĠÐ¸Ð· Ð³Ð¾ÑĤÐ¾Ð²
ÐĿ Ð¾Ð²
ĠS ol
iv ity
Ġ2 9
ĠÐ²Ñĭ Ð´Ðµ
Ġ âĦĸ
ĠÑĦÐ¸ÑĢ Ð¼Ñĭ
ĠÐ°Ð½Ð³ Ð»Ð¸Ð¹
Ġ !
ĠÐ·Ð° ÑĢÐµÐ³Ð¸ÑģÑĤÑĢÐ¸
Ġrel ig
ÑĨÐ¸Ñı Ñħ
ĠÐ¿ÐµÑĢ ÑģÐ¿Ðµ
ĠÐ¿ÑĢÐµÐ´Ð¾ÑģÑĤÐ°Ð²Ð»Ñı ÐµÑĤÑģÑı
ĠÑĢÐ°ÑģÐ¿ÑĢÐ¾ÑģÑĤ ÑĢÐ°Ð½
ĠÑĦÐ¸Ð½Ð°Ð½ ÑģÐ¸
Ð³ ÐµÑĤÐ¸
vern ment
i Ä
ĠÑĢÐµÐ³Ñĥ Ð»Ð¸
Ð± ÑĢÐ¸
ĠÐ´ÐµÐ¹ÑģÑĤÐ²Ð¸ ÑĤÐµÐ»ÑĮÐ½Ð¾
ra in
Ġde ep
ĠÐ¿Ð¾Ð´ ÑĢÐ¾Ð±
ĠÐ³ÑĢÑĥÐ¿ Ð¿
Ġg ames
ÑĮ ÑĤÐµ
ĠÐºÐ°ÑĩÐµÑģÑĤÐ² Ð¾
Ð»Ñı ÑĨÐ¸Ð¸
Ñį Ð¹
ow ers
Ġact ive
Ġest ate
ĠÐ¿ÑĢÐ¾Ð¼ÑĭÑĪÐ»ÐµÐ½ Ð½Ð¾ÑģÑĤÐ¸
ĠÑģÐ»Ð¾Ð² Ð¾Ð¼
ĠÑįÐº ÑģÐº
ĠAfric a
ĠÐ¿ÑĢÐ¾ÑĨÐµÑģ ÑģÐ°
Ð»Ð° Ð¹Ð½
ol y
ag ed
Ġincre ased
Ġfriend s
ÑĨÐ¸ Ð¾Ð½Ð¸
i os
Ð¿Ð°ÑĢ ÑĤÐ°
ĠY ork
Ġh ope
Ġcl aim
ĠÐ½Ð°Ð´Ðµ Ð¶
ÑĢ ÐµÐ½Ð¸Ðµ
Ġit em
ri an
Ġadd ed
ĠLat v
ĠÐ´ ÐµÐ²
Ġd aily
ÑĤÑĥ ÑĢÐ°
Ñİ ÑĢ
Ð¾ ÑĨÐ¸Ð°
Ġex am
igh b
Ġl ower
Ġfe ature
ÐĹ Ð´ÐµÑģÑĮ
ĠÐ´ÑĢÑĥÐ³Ð¸ Ð¼Ð¸
eb ru
ÑĨ ÐµÐ½Ð¸
Ġacc om
al a
ĠÐ´Ðµ ÐºÐ°Ð±
ĠÐ¸ÑģÑģÐ»ÐµÐ´ Ð¾Ð²Ð°Ð½Ð¸Ñı
: //
Ġto ol
ĠÐ± ÑĢÐ°
ĠâĢ ŀ
Ð¸Ð± Ð»Ð¸
ĠÐ½ÐµÐ´Ð¾ ÑģÑĤÐ°
ell s
ĠÐ¼Ð¸Ð»Ð»Ð¸ Ð¾Ð½Ð¾Ð²
ĠÐ±Ð°Ð³Ð° Ð¶Ð°
ĠN e
Ð¾Ð³Ð¸ Ðµ
Ġwind ow
ĠÑĦÑĥÑĤ Ð±Ð¾Ð»Ñĥ
Ġl oss
Ġve h
Ð» Ð»
ĠÐ´ ÑĢÐµÐ²
ĠÐ¢ Ðµ
Ġauthor ities
Ġstruct ure
ĠÐ·Ð°ÐºÐ¾Ð½ Ð¾Ð´Ð°
ourn al
Ã ½
ÑĩÐ¸ ÐºÐ¾Ð²
Ġph ys
ĠÐ²Ð¾Ð¿ÑĢÐ¾Ñģ Ð°Ð¼
Ġmed ical
ok e
Ġinterest s
ĠÐ´ÐµÑıÑĤÐµÐ»ÑĮ Ð½Ð¾ÑģÑĤÑĮ
ĠÑĤÐ¾ Ð½
ĠÑĨ ÐµÐ½Ðµ
ĠÐºÐ»Ð¸ ÐµÐ½ÑĤ
g est
Ġ3 5
Ġcur rency
ĠÐ´ÐµÐ»Ð° ÑĤÑĮ
ĠÑĢÐµÑģÑĤÐ¾ ÑĢÐ°Ð½
Ġthrough out
ĠÐ²Ð¾Ð´ Ñĭ
s u
ĠÐ²ÐµÑĢ Ð¾ÑıÑĤ
ac he
ĠÐ¸Ð³ ÑĢÐ¾Ðº
i i
ÐĿ ÐµÑģ
ĠÐ´ÐµÐ½ÑĮ Ð³Ð¸
ĠÐĲÐ½ Ð´
ĠâĢ ĳ
ĠÐĶ Ð¸
Ðł Ðŀ
ÐµÐ´ Ð¶
ĠÐ¿Ð¾ÐºÑĥ Ð¿
7 0
Ð½Ð° Ð»Ð°
ĠÐŀ ÑĢ
Ð²Ð¾Ð» Ñİ
Ġcompet ition
ĠÐ¾Ð± ÑīÐµÐ¹
Ġex c
ĠÐ³Ð¾ÑĢÐ¾Ð´ Ðµ
Ð¾ÑĢÐ¸ ÑĤÑĮ
ĠÑĢÐµÐ³Ð¸ Ð¾Ð½Ð°Ð»ÑĮ
ĠÐ´Ð¾ ÑģÑĤÑĥÐ¿Ð°
ÑĦ ÐµÐ¹
ĠÐ¾Ð³ÑĢÐ¾Ð¼ Ð½Ð¾Ð³Ð¾
est ival
ed ic
Ġreg ular
y e
ĠÐ° Ð¿ÑĢÐµ
ĠI T
ĠÑĩÐµÑĤÑĭ ÑĢÐµ
Ġa ward
ĠÐºÐ¾Ð½ ÑģÑĤÑĢÑĥ
lo od
Ñĩ Ð½Ð¾Ð¼
ĠÐ³ Ðµ
ÐĶ Ð¾
ĠÑģÑĥ Ð±
ÑİÑī ÐµÐµ
ĠÐºÑĢÐ¸Ð·Ð¸ ÑģÐ°
Ġconsid ered
ĠH er
ĠÐ¿ÑĢÐ°ÐºÑĤÐ¸ ÑĩÐµÑģÐºÐ¸
ÑĢÐµ Ðµ
Ġmen u
et ers
ĠÐĲ ÑĦÑĢÐ¸
ĠÐºÐ°Ðº Ð¾Ð¹
Ġh ot
C lick
ĠÐ¿ Ð»Ñı
ag er
ĠÐ¼Ð¾Ð³ Ð»Ð¸
ove red
ÑĢÐ° Ð±Ð°ÑĤÑĭ
ĠÑģÐ¾ ÑģÑĤÐ°Ð²Ð»Ñı
ĠÑįÐºÑģÐ¿ Ð»Ñĥ
ĠÐ´Ð¸Ð·Ð° Ð¹
Ñĥ Ð´Ð°
ĠÐ¿Ð¾Ð´ ÐºÐ»Ñİ
ĠSaf ety
ÑĤÐ° Ñı
Ð»Ð°Ð½ Ð´
ĠÐ´Ð¾ÐºÑĥ Ð¼ÐµÐ½ÑĤÐ°
ĠÐ¾ÑĤ Ð»Ð¸Ñĩ
ĠÐ±Ð¾Ð»ÑĮÑĪÐ¸Ð½ ÑģÑĤÐ²Ð¾
ĠÑĢÑıÐ´ Ð¾Ð¼
Ð¡ ÑĤ
ag ing
Ġindepend ent
Ġcontin u
Ġcar ry
ĠÑħ Ð¾Ð·ÑıÐ¹
or a
ĠÑĢÐ°ÑģÐ¿ Ð¾Ð»Ð°Ð³Ð°
ĠÑĪ ÑĤÐ°
uis ine
Ġb ir
Ð´Ð¸ ÑĤÑĮ
ÑĪÐµ Ð»
riv ate
ÑıÐ± ÑĢÐµ
ĠÐ´Ñĥ Ð¼Ð°
Ã ´
T oday
Ñī Ñĥ
ĠV ol
ĠÐ¿ÑĢÐ¸Ð¼ÐµÐ½ Ñı
ĠÑģÐ²Ñı Ð·
ĠÐ¿Ð»Ð° ÑĤ
d am
ĠÐ±Ñİ Ð´Ð¶
ĠÐ¿Ð¾Ð¼ Ð¾ÑĩÑĮ
Ġdistrib ution
ĠÐ¼ÐµÐ½ Ñİ
es ota
ograph y
ĠÐ¼Ð¾Ð´ ÐµÐ»Ð¸
ĠÐĺ ÑģÐ¿
Ġbed room
Ð³Ð¸ Ð¿
pris es
ĠÐ½Ð°Ð± Ð»ÑİÐ´Ð°
ÑĨ ÑĥÐ·
ur ation
Ġpre m
c ul
Ġb ad
Ð¾Ðº Ð¾Ð»
ĠÑģÑĤ Ð¾Ð»Ð¸
ĠÐºÐ¾Ð½ ÑĤÐ°
ÑĤÐ¸Ð² Ð½ÑĭÑħ
as ino
âĢ ļ
ĠÐ¿ÑĢÐ¾ ÑĨÐµÐ´Ñĥ
ÑĢÐ¾Ð² Ð¸Ñĩ
Ġpur pose
ĠSec urity
id a
Ġwrit ten
ĠMinn esota
Ð¶ ÐµÐ½Ð¸Ñİ
ĠIn stitute
Ã© s
ebru ary
ĠÐļ Ð¾ÑĢ
ĠÐ¸ Ð½Ð¸
Ġb ox
ĠÐ·Ð° Ð²Ð¸
ĠD ue
Ġlit er
ĠÐ¾Ð´ Ð½Ð¾Ð¼
ĠÑģÐ¾Ð¾Ð± ÑīÐ¸
ĠÑģÐ¿ÐµÑĨÐ¸Ð°Ð»Ð¸ Ð·Ð¸
H ere
Ð²Ð¸ Ð¸
Ġ199 9
ĠÐ½Ð¸Ðº Ð¾Ð³Ð´Ð°
9 0
Ġcom es
Ġsub s
ĠÐ°Ð² ÑĤÐ¾
Ġconst it
ĠÐ¼ÑĥÐ·Ñĭ ÐºÐ°
ĠÐ¿ÑĢÐµÐ´Ð¿ÑĢÐ¸ÑıÑĤÐ¸ Ð¹
ĠÐ³ÑĢÐ°Ð¼ Ð¼Ð°ÑĤÐ¸
ist er
Ġwor d
Ġext rem
ÐºÐ° Ð´ÐµÐ¼Ð¸
u ild
Ã³ n
In deed
ÑģÑĤÐ²ÑĥÑİ ÑĤ
Ġde g
ĠÐ¿ÑĢÐ¸ ÑıÑĤ
y ch
ĠÑĤ ÑĢ
ĠÑħ ÑĢÐ°
ĠSt orage
Ġvisit ors
Ġparticular ly
ĠÑĢÐµÐ°Ð»ÑĮ Ð½Ð¾Ðµ
Ġexist ing
Ð¸ Ð»Ð°
ÑĦ ÐµÐºÑĤ
Ð°Ð»ÑĮ Ð½ÑĭÐ¹
ĠÐ½Ð° Ð¿Ð¸
ĠM in
Ġpro b
ĠMinist ry
r ant
con t
Ð½ ÐµÐ½Ð¸Ñİ
ĠÐ´ Ð²Ðµ
ers on
ÑĢÑĥÐ³Ð»Ð¾ÑģÑĥ ÑĤÐ¾ÑĩÐ½ÑĭÐ¹
R oman
ĠÑģ Ð±Ð¾ÑĢ
ve re
ĠÐ¿Ð¾Ð» ÐµÐ·
Ġopen ed
ĠÐ½Ð°Ð» Ð¾Ð³Ð¾Ð²
ric ult
ĠÑĦ ÑĢÐ°Ð½
ĠÑĢÐµÑģÐ¿ ÑĥÐ±Ð»Ð¸
ĠÑĢÑĭÐ½ Ð¾Ðº
ÑĤ ÑĭÑħ
Ġadminist ration
ro wn
ĠG ay
ĠÑģÐ¾ ÑĩÐµÑĤÐ°
ĠÐ¾ÑĤÐ½Ð¾ÑģÑı ÑīÐ¸ÐµÑģÑı
Ġl ove
Ð¾Ðº Ð¾
S moking
Â ¸
Ð±Ð° Ñħ
Ã¼ r
ĠÐ¾ Ñħ
Ġv ict
Ġ20 12
ÑĢÐ°Ð±Ð¾ ÑĤÐ°Ð½
Ġdesc rib
Ð½Ð¾ Ñģ
Ġlead er
v iew
ĠÐ¿ ÑĭÑĤÐ°
Ġpresent ed
ĠÑģÐ¾Ð²ÐµÑĤ ÑĥÐµÐ¼
id s
ĠÑĤ Ñı
Ġdem onst
ĠL td
1 00
Ġcurrent ly
ĠÐºÐ¾Ð½Ñģ ÑĥÐ»ÑĮÑĤÐ°
ÐºÑĢÐµ Ð¿
ÑģÑĤÐ¾ ÑĢÐ°Ð½
Ġkit chen
Ġa ge
Ñī ÐµÐ½Ð¸Ð¹
ir it
ĠÑģÐ¿ ÑĢÐ¾Ñģ
Ġse en
ĠÑĩÐ°Ñģ Ð¾Ð²
c ast
Ġpar am
Ġeffort s
ĠÐ¾ ÑĦÐ¾ÑĢÐ¼
ĠÐ´ Ð¾Ð±
Ġl abor
ĠSe a
d a
ĠÐ¸ÑģÐ¿Ð¾Ð»ÑĮÐ·Ñĥ ÐµÑĤÑģÑı
Ð² Ð¾Ðµ
F ran
ĠÑį ÑĤÐ¾Ð¼Ñĥ
Ġcl ub
ĠÐ¿ÑĢÐµÐ´Ð¾ ÑģÑĤÐ°Ð²Ð»ÑıÐµÑĤ
rop ri
n et
ĠÑĤ Ð¾Ð³Ð´Ð°
Ðº Ð²Ð¸
S S
Ð¢ ÐµÐ¼
ĠÐºÐ»Ð°Ñģ ÑģÐ°
ĠÐ¾ÑģÐ½ Ð¾Ð²Ð°Ð½
Ġgram m
Ġd a
y ear
os h
z i
iel ds
Ð¿ ÑĥÑģÐºÐ°
Ġth ought
ĠÐ³ÑĢÑĥÐ¿ Ð¿Ð°
ĠSt reet
ur t
v is
ĠÐº ÑĢÐ¾Ð²Ð°
ĠÐ° ÐºÑĤÐ¸
Acc ording
Ġcharg ed
ĠCath olic
ĠÐ½Ð° Ð·Ð½Ð°
Ġto ols
Ġco ver
or f
vent ion
az a
ÑģÑĤÑĥÐ¿ Ð»ÐµÐ½Ð¸Ñı
ĠÑĥ Ð·
ÑĢÐ¸ ÑĦ
E very
ĠS k
ĠÐ¿ÑĢÐ¸Ð²Ð»Ðµ ÐºÐ°
ĠÑĢÐµ Ð´Ð°
ĠÑģÐµÐ¼ ÐµÐ¹
ĠÑģÐ¾ Ñħ
ĠÑĤÐ¾Ñĩ ÐºÐ¸
Ġcorpor ate
Ġ áĥ
ĠÐ·Ð°Ð³ ÑĢÑĥÐ·
k h
ĠE gypt
Ð§ ÑĤÐ¾
ĠÑĢÐµ Ð±
ĠÑıÐ½ Ð²Ð°
Ġbu ff
ĠÐĿÐ° ÑĨÐ¸Ð¾Ð½Ð°Ð»ÑĮ
ĠÐ¤ÑĢÐ°Ð½ ÑĨÐ¸Ð¸
ĠÑĤÐµÑĢ ÑĢ
ĠÐºÐ¾Ð½ÑĤÑĢ Ð¾Ð»Ñı
Ġ Å
Ġc uisine
Ġlist ings
ĠÐ± ÐµÐ»
ĠÐ»Ð¸ ÑĨÐ°
Ġspe ed
ĠÐ²Ñģ Ñĳ
ĠÐ¨ ÑĤÐ°
ĠÑģÐ¾ÑģÑĤÐ¾ Ð¸ÑĤ
Ġ Î
ĠâĢ ĺ
Ð°Ð»ÑĮ Ð½ÑĭÑħ
Ġcitiz ens
Ġ ).
ĠÐ²Ð° ÑĪÐµÐ³Ð¾
Ġsat isf
ĠÑĤÐ²Ð¾ ÐµÐ¹
Ġle ave
ĠÐºÐ¾Ð½ ÑĦÐ¸
t ime
ĠÑĢÐ°ÑģÑģ Ð¼Ð°ÑĤÑĢÐ¸
ĠÑģÑĤÐ° Ð»Ð°
ĠJ ohn
ĠSer ver
Ġsp acious
ĠÐ¼Ð¸Ð½Ñĥ ÑĤÐ°Ñħ
ĠÐ¿Ð¾Ðº ÑĢÑĭ
ĠÐ¾Ð±Ð¾ÑĢÑĥÐ´ Ð¾Ð²Ð°Ð½Ð¸Ðµ
ĠÐ¿Ð¾Ð¸ ÑģÐº
ĠThe re
ÑĢ Ð¾Ð´Ñĥ
ĠÐ¿ÑĢÐ¸ ÑĩÐ¸Ð½
ĠÐ»Ð¸ ÑĨÐµÐ½
ĠÐ·Ð° Ð±
ot i
Ð·Ð¸Ð´ ÐµÐ½ÑĤ
ĠJava Script
ĠS a
Ġdis e
ĠÐ¼ Ñı
Ġpl us
Ðº ÑģÐ¸
ĠM al
Ġpro s
ient s
Ġscient ific
ĠÐŁ Ð°ÑĢ
I ON
Ġ =
ĠÐ¸ÑģÐºÐ»Ñİ ÑĩÐ¸
I A
Ġd ig
g a
r un
Ġm ag
ÐŁ Ðĺ
Ġoper ating
ÑĨÐ¸ Ð¾Ð½Ð°
Ġj oint
2 1
Ġs av
us es
ÑģÑĤÐ¾ ÑĩÐ½Ð¾Ð¹
ĠÐ± Ðµ
ĠÑĥ Ð¿Ð°
ĠÂ »
ĠÑĦÐ¾ÑĢ Ð¼Ð¸
Ð» Ð¾Ð³Ð¾
Ð²Ðµ ÑĢÐ°
ĠÐ¿Ñĥ ÑĤÐ¸
u le
ĠÐ¡ Ð¾Ð²
Ġne ighb
Ġset t
ĠTurk ey
ÐĿÐ°Ð¹ ÑĤÐ¸
ĠÐ¿ÑĢÐ¾Ð¸Ð·Ð²Ð¾Ð´ Ð¸ÑĤÐµÐ»ÑĮ
ÑİÑī ÑĥÑİ
ÑĨÐµÐ½ÑĤ ÑĢ
ÐĲ Ð²
Ġdire ction
ĠÐ³Ð¾ÑģÑĥÐ´Ð°ÑĢ ÑģÑĤÐ²
ĠD own
Ġatt ra
i h
ÑĨÐ¸Ð¾Ð½ Ð½Ð¾Ð³Ð¾
ĠIt alian
Ñģ Ð¾ÑĢ
it ure
ĠÑĤÐ° Ð½
ĠO ld
G e
ĠT or
Ð½Ðµ ÑĪ
Ġm agn
Ġd iv
Ð¡ ÑĤÐ°
Ġwh ose
T ip
Ð» ÐµÑģ
il s
Ðŀ Ðŀ
Ã± Ã²
and id
st ant
ĠÐ²Ñĭ Ð´Ð°
ĠÐ³ ÑĢÑĥÐ·
ĠÐ¿Ð¾Ð¼ Ð¾Ð³Ð°
Ġstud y
Ġlevel s
re l
Ñĩ Ð½ÑĥÑİ
ĠÐ·Ð½Ð° ÑĩÐµÐ½Ð¸Ñİ
ĠM er
Ġadv anced
Ġp et
Ġf ight
Ġg rand
ĠÑĢÐ°Ð·Ð»Ð¸Ñĩ Ð½ÑĭÐµ
qu et
ĠÐºÐ¾Ð¼ Ð¸Ñģ
ph rase
Ð¡ Ð°Ð¼
ĠÐ¿ÑĢÐ¸ Ð²Ðµ
se c
ĠÐ¼ Ð°Ð»
Ġ3 1
Ġpos sibility
ĠD em
Ðĳ Ñĥ
U N
ĠÑģ ÑĥÑĤ
Ġru le
C he
l ight
Ġco ff
ĠÑĤÐ¾ÑĢÐ³Ð¾Ð² Ð»Ð¸
Ġcontext ual
c raft
y es
ĠÐ¿Ð¾Ð» Ð¾Ð²
ĠÐŁ Ð¾Ð»ÑĮ
Ġter ror
ĠII I
ĠFriend ly
ĠÐĺÐ·ÑĢÐ° Ð¸
ĠL ife
ĠÐ³Ð¾Ð´ Ð¾Ð²
ĠÑģ ÐµÐ¼Ð¸
Ġprodu ced
ĠÐ¿ÑĢÐµÐ´ ÐµÐ»Ð°
ĠÐ½Ð°ÑĩÐ° Ð»Ðµ
Ġwel come
Ñĩ Ð½Ð¾Ðµ
Ð¾ ÑĪ
Ġparticip ants
Ñ Ķ
ĠÐł Ñĥ
Russi an
Ġf air
Ġl ack
orn ing
Ð´Ð° Ð¼
ĠS P
ĠI M
R A
ÑģÑĤÐ¸ ÑĤÑĮ
ĠÑĤ Ð²Ð¾ÑĢ
oun ter
ÐµÐ² ÑĢÐ°
ĠÑģÑĤÑĢÐ°Ð½Ð¸ÑĨ Ð°Ð¼Ð¸
ĠThe y
Ġsaf ety
ĠÐ¿Ñĥ ÑĤÐµÐ¼
ĠÐ½Ð°Ð¿ÑĢÐ°Ð² Ð»ÐµÐ½
ĠÐ¾ÑĩÐµÑĢÐµÐ´ ÑĮ
Ġth ing
ib ility
Ġmount ain
ĠÑģÐºÐ° Ð·Ð°Ð»
Ð· Ð¾ÑĢ
ĠF ree
ĠÐ½Ð°ÑħÐ¾Ð´Ð¸ ÑĪÑĮ
k en
Ð¾Ð¿ Ð»ÐµÐ½Ð¸Ðµ
Ġinit i
ÐŁÐ¾ ÑįÑĤÐ¾Ð¼Ñĥ
ze ch
E M
Ġart icle
Ġb row
ĠÐŁ Ð¾
ĠÑģ ÐºÐ¾
ĠÐ¸Ð¼ ÐµÐ½Ð¸
ĠÑģÑĤÐ¾ Ð¸ÑĤ
ĠÐ·Ð° ÑĤÑĢÐ°
Ġeffic ient
Ð¾Ð´ ÐµÐ¹ÑģÑĤÐ²Ð¸
e qu
ÑĢ Ñİ
ÑĪ ÑĢÑĥ
are n
ÐĽ Ðµ
ipl om
ĠGe org
Ġme chan
res sive
Ġplay er
Ġs i
ĠÐ¿ÑĢÐµÐ·Ð¸Ð´ ÐµÐ½ÑĤÐ°
ĠKaz akh
H our
Ñģ ÐµÐ¼
ĠÐ»Ð¸ ÑģÑĤÐ¸Ð½
ĠÐ¿Ð¾Ñģ Ð²Ñı
ĠÐ¦ÐµÐ½ÑĤ ÑĢÐ°Ð»ÑĮ
ĠÐ¿Ð¾ Ñħ
ĠH ow
ĠÑĨ ÐµÐ»Ð¸
ÑĢÐ°Ð· Ð¾Ð¹
Ġpower ful
ÑĤÐµ Ñħ
f e
an ish
ĠÑĥ Ð±Ð¸
Ġs ale
Ġw ish
ĠM useum
m ission
ĠÐ¿ÑĢÐµ Ð¶Ð´Ðµ
M y
200 8
ĠÐ´ÐµÐ¼ Ð¾Ð½
k ing
Ġt en
Ð»Ð¸ ÑĤÑĮ
Ġch ann
ĠÑĤÐµÐºÑģÑĤÐ° Ð¼
ĠÐ½Ð¾ÑĢ Ð¼Ð°
ÑĤ ÐºÐ¸
Ġsh ows
ĠÐ¿Ð¾Ð· Ð²Ð¾Ð»Ð¸
ĠÐ¿ÑĢÐ¸Ð½ ÑıÑĤÑĮ
Ġpoint s
ĠÐ¿ÐµÑĢÐµÑĩÐ¸ÑģÐ»ÐµÐ½ Ð½ÑĭÐ¼Ð¸
Ðº Ð¾Ð¼Ð¸
es h
Ġcre ation
ĠÐ· ÑĢÐµÐ½Ð¸Ñı
ĠÐ¡Ð¾ ÐµÐ´Ð¸Ð½
ÑĢÐ¾Ð²Ð° Ð½Ñĭ
Ġse lection
Ġcl imate
ĠÐ¿ÑĢÐ¾Ð¸Ñģ ÑħÐ¾Ð´Ð¸ÑĤ
p a
ĠR ev
ÑĨÐ¸Ð¾Ð½ Ð½ÑĭÐ¹
Ġcop y
Ġmeaning fully
ĠÐ¿ Ð°Ð½
ĠÐ¾ÑģÐ½Ð¾Ð² Ð½ÑĭÑħ
Ph ot
in ated
Ġw ays
ĠÐ°Ð² Ð³Ñĥ
ĠÑģÑĤÐ°Ð±Ð¸ Ð»ÑĮ
ĠÑģÐµÑĢ Ð²Ð¸Ñģ
Ġval ues
ĠÐ·Ð° ÐºÐ¾
ĠÐĴ Ð²Ð¸Ð´Ñĥ
ĠÑĤÑĢÐ° Ð´Ð¸
ĠÐ¾Ð±Ñĭ ÑĩÐ½Ð¾
el t
ĠB reakfast
ĠÐ¤ ÐµÐ´Ðµ
ĠÐ¼Ð°Ñģ ÑĪÑĤÐ°
ĠÑģÑĤÑĢÐµ Ð¼Ð¸
ĠÑģ Ð°Ð¼Ð¸
ĠS he
ĠÑģÐ°Ð¼ ÑĭÐµ
Ġre lease
ĠÑģÐ¸ Ð»
ĠÐºÐ°Ð½ Ð´Ð¸Ð´Ð°
Ġgramm atically
y le
Ġdemoc racy
ĠÑĦÐ¾ÑĢ Ð¼Ñĥ
Ġseem s
Ð¾ÑĢ Ð¾Ð´
ĠÐ½Ð° ÑģÐ¸
Ġbud get
ĠÐ»Ð¸ÑģÑĤÐ¸Ð½ Ð³Ð¸
sk i
ĠÐ³ÑĢÐ°Ð¼Ð¼Ð°ÑĤÐ¸ ÑĩÐµÑģÐºÐ¸
ĠIn n
Ðº ÑĢÐµÑĤ
Ð»Ðµ Ð³
Ð³Ð° Ð¼Ð¸
ĠÐ²Ð°Ð»ÑİÑĤ Ñĭ
ĠÐºÐ¾Ð½ÑĤÐµÐºÑģÑĤÑĥ Ð°Ð»ÑĮÐ½ÑĭÐµ
ÑĦ ÑĢÐ°Ð·Ð¾Ð¹
ĠÐµ ÑīÑĳ
ĠÑĢÐ°Ñģ ÑģÐºÐ°
Ġcontext ually
ĠÐºÐ¾Ð½ÑĤÐµÐºÑģÑĤÑĥ Ð°Ð»ÑĮÐ½Ð¾
Ġv o
ĠM old
ĠÐ¼Ð¸Ð»Ð»Ð¸ Ð°ÑĢ
T ra
Ð¾Ð¹ ÑĤÐ¸
Ġh tt
ĠÐµÐ´Ð¸Ð½ ÑģÑĤÐ²ÐµÐ½
Ġl ov
ĠR ad
Ġsignific ant
ÐµÐ»Ð° ÑĢÑĥ
Ð²Ð° ÑĤ
ĠÑĢÐµÑĪ ÐµÐ½Ð¸Ð¹
ĠAc adem
ĠÑģÐ¾Ð¾Ð± ÑīÐµÐ½Ð¸Ñı
B l
ĠB al
ÑģÐ¿ Ð¾ÑģÐ¾Ð±
le ep
ĠÐ½Ðµ Ð¸Ð·
Ġsh ower
ĠBrit ish
Ð¸ ÑĤÐµ
ĠÐ¸ ÑĤ
ĠÐĴÐ° ÑĪÐµÐ³Ð¾
ic y
Ð± ÑĢÐ°
Ġ19 3
ĠÐ²Ñģ ÐµÐ¼Ñĥ
ĠÐ´Ð°Ð½ Ð½ÑĭÐ¹
ĠÐºÑĢÐ¸Ð·Ð¸ Ñģ
ien cy
ĠÐ²Ð½ÑĥÑĤ ÑĢÐ¸
Ġcamp aign
ĠÐ³ ÑĢÐ°ÑĦÐ¸
av i
Ġlim ited
Ð½Ð¸ Ñģ
Ġprocess ing
ĠÑģ Ð¿ÑĢÐ°
und red
2 7
ĠÐ³ Ð¸
Ġrem ains
at form
Ġl inks
cl ub
Ð¹ e
Ð¿Ð° Ð½Ð¸Ð¸
ĠÑĥÑĩÐ°ÑģÑĤ Ð½Ð¸ÐºÐ¾Ð²
Ġce leb
as ons
ĠM en
ĠF ebruary
Ġ20 11
ÑĪ ÑĥÑİ
Ġemploy ees
bo ard
ĠÐ´Ð¾Ð±Ð° Ð²
ĠÐĽ Ðµ
ĠÐº Ð¸ÑĤÐ°Ð¹
Ä «
or al
res pond
ĠDe velopment
ĠÐ¾Ð±ÐµÑģÐ¿Ðµ ÑĩÐ¸ÑĤÑĮ
Ġexp ress
2 6
Ġg ives
Ġst age
Ð¶Ð´ ÑĭÐ¹
Ðĳ Ð°ÑĢ
ĠÐ¿ÑĢÐ¾Ð¸Ð·Ð²Ð¾Ð´ ÑģÑĤÐ²Ð¾
Ð¸Ð· Ð²Ð¾Ð´
b ased
ĠN ov
Wh ile
unic ip
Ð½Ð¸ ÑĤ
ĠT ime
Ġreg ions
ĠÐ¿ÑĢÐµÐ´Ð»Ð¾Ð¶ ÐµÐ½Ð¸Ñı
ÐłÐµ ÑģÑĤÐ¾ÑĢÐ°Ð½
Ġ x
ĠSt ation
Ð¸Ð½ Ð³Ð°
ĠR ome
ĠÐºÐ¾Ð¼Ð¿ÑĮÑİ ÑĤÐµ
Ð· Ñı
ĠA lex
Ð»Ðµ Ðµ
ĠÑģÐ¾Ð± ÑĢÐ°
Ġcommunic ation
Ñī ÐµÐ½Ñĭ
Ġex port
ĠÐ²ÑĭÐ¿Ð¾Ð» Ð½Ñı
Ġad op
Ġopt ions
V IS
ĠÐ± Ð¸Ð»
Ġsupp l
áĥĲ áĥ
Ġd raw
Ġl ab
Ġl ate
Ð² ÑĪÐ¸
ĠEx press
Ġholid ay
Ġ ir
ĠÐ¿ ÑĥÐ±Ð»Ð¸
Ġen able
ĠPal est
Ġant i
b ox
Ġcomplet ely
ad o
iqu es
Ġmess age
d ed
ÑĤÐµÐ»ÑĮ Ð½Ð¾ÑģÑĤÑĮ
ĠK y
Ġoper ations
ÐŁ ÐµÑĢ
ĠÐ¡ ÐµÐ¹ÑĦ
% ,
ĠÐ¾ÐºÐ¾Ð½ ÑĩÐ°
Ðº Ð¾Ñģ
Ġs us
ĠÑĢÐ°Ð· ÑĢÐ°Ð±Ð¾ÑĤÐ°
ĠÑģÐµÑĢ Ð´
Ġt al
Ñĩ ÐµÐ¼
ÐŀÑģ Ð½Ð¾Ð²
Ġm ind
ut ive
ĠÐ²ÑĤÐ¾ÑĢ Ð¾Ð¹
ĠÐ·Ð½Ð°ÑĩÐ¸ ÑĤÐµÐ»ÑĮÐ½Ð¾
D o
ĠÐ Ļ
ĠÐ²Ð½Ðµ Ð´
ĠÑįÐºÑģÐ¿Ð»Ñĥ Ð°ÑĤÐ°
Ġ15 0
ĠÑģ Ð½Ð°
Ð¾Ð»Ð¾Ð³Ð¸ Ð¸
Ġregist ration
Ð¼ Ð¾Ð²
ĠÐ¿ÑĢÐ¾Ð¸Ð· Ð²ÐµÐ´
ĠÐ¿Ð¾Ð¸ ÑģÐºÐ°
M any
Ġs ix
ĠÐĲÐ»ÐµÐºÑģÐ°Ð½Ð´ ÑĢ
ĠS quare
Ð°Ð½ ÑĮ
ĠServ ices
Ð¾Ð²Ð° Ð»Ð¸
ĠC ap
Ñĥ Ð¿
Ġinstall ed
Ġpleas ant
Ġb ran
ĠÑĥ ÑĩÐµÑĤ
Ġd Ð¹
ĠÐ¾Ð± ÑģÑĥ
Ġun its
ĠCour t
ĠÑĥ Ð´Ð¸
end er
ĠSt e
ĠÐ¿ÑĢÐ¾ÑģÑĤ ÑĢÐ°Ð½
ĠÐ½Ð° ÑģÑĤÑĢÐ¾Ð¹
ĠÑįÐ»ÐµÐºÑĤÑĢÐ¾Ð½ Ð½Ð¾Ð¹
a pe
Ã ¿
Ġp ath
ĠÑĦ ÐµÐ²ÑĢÐ°
ant a
ĠÐľ Ñĥ
ĠÑģÑĤÐ° Ð»Ð¾
ĠÐ½Ð°ÑĪ Ð¸Ð¼
ĠÐ¿Ð° ÑĢÐ°
h n
Ġcar ried
ĠÐ²ÐºÐ»Ñİ ÑĩÐ°ÐµÑĤ
ĠÐ¯Ð¿Ð¾ Ð½Ð¸Ð¸
ell ite
ous ly
ĠÐ´ÐµÐ»Ð° ÐµÑĤ
IN G
4 5
Ġref lect
Ġreport s
ĠE conom
en cies
b ack
Ð²Ð° Ð»ÑĮ
ÑħÐ¸ Ñı
Ġv on
Ġnot hing
ĠÑĨ ÐµÑĢ
ĠÐ¿ÑĢÐ¸Ð½ ÑıÑĤÐ¸
Ġv ac
Ġfin al
ĠÐ¾Ð±ÑĢÐ°Ð· Ð¾Ð²Ð°Ð½Ð¸Ñı
ĠÑįÐ»ÐµÐºÑĤ ÑĢÐ¾
Ġf a
ĠÑħÐ°ÑĢÐ°Ðº ÑĤÐµÑĢÐ¸
Ġterrit ory
ĠA re
ĠÐ½Ðµ Ð²Ð¾Ð·
ĠÑı ÑĢ
Ð´ÐµÑĢ Ð¶
Ġlo ad
ĠÑģ Ð´ÐµÐ»
Ð± ÐµÑĢÐ³
Ġbo ard
Ã Ł
un t
ĠF acilities
Ġmain tain
ĠÐ¿ÑĢÐ¸ Ð²ÐµÐ´
Ġs il
ĠPro gram
ĠÐ¿ÑĢÐ¾Ð³ÑĢÐ°Ð¼ Ð¼Ñĥ
Ð¾Ð¶ ÐµÑĤ
ĠÐºÑĢÐ¸ ÑĤÐ¸
ĠÑıÐ·Ñĭ Ðº
Ð¡ Ð¡
Ġapp ly
Ġbed s
Ġpart ner
ĠÐ¿ÑĢÐ¸ Ñģ
iss ions
Ġplay ers
Ġcon cept
ro y
ÑĢÑĭ Ð²
ĠÐ½ÐµÐ¾Ð±ÑħÐ¾Ð´ Ð¸Ð¼Ð¾ÑģÑĤÐ¸
ÑīÐµÐ½ Ð¾
Ġal tern
oc ks
ĠÐ¼Ð½Ð¾Ð¶ÐµÑģÑĤÐ² Ð¾
ak er
Ġl ines
Ġst ri
ĠÐ½Ð°Ð¿ ÑĢÑı
Ġguarant ee
ĠÑģÑĤÐµÐ¿ ÐµÐ½Ð¸
) ;
im ir
ĠÑģÑĤÐ¸ Ð¼Ñĥ
Ġsw imming
ĠB y
ĠÐ¾Ð±ÐµÑģÐ¿ÐµÑĩÐ¸ Ð²Ð°ÐµÑĤ
ĠÐ¸Ð½Ð¾ÑģÑĤÑĢÐ°Ð½ Ð½ÑĭÑħ
ct ors
ĠÐ· Ð¸Ð¼
Ġ4 5
ĠÑģ Ð¼Ðµ
ÑĢÐ¾ ÑģÑĤÑĢÐ°
ĠÐ¿Ð¾Ð»Ð¸ÑĤÐ¸ ÐºÐ°
Ġ199 8
Ð³Ð¸ Ñı
ĠÐ¾Ð±ÐµÑģÐ¿Ðµ ÑĩÐµÐ½Ð¸Ðµ
Ġm ail
ĠÐ¼ Ð¾Ð´Ñĥ
Ġset ting
Ġhtt p
Ð´ ÑĢÐ°
ĠM r
ÑĤÐµÐ»ÑĮ Ð½Ð°Ñı
ĠÐĲÑĢ Ð¼
ĠÐ·Ð° ÐºÐ°Ð·Ð°
ÐŁ Ð°ÑĢ
ĠPol and
ĠÐ¾Ð´ Ð½Ð¾Ð²
x y
Ñı ÐµÑĤ
ĠÐ± Ð¾
em p
Ġass oci
ĠF e
Ġstep s
Ġpub lished
Ð´ ÐµÐ¹ÑģÑĤÐ²Ð¸
ĠÑģÑĤÐ°Ð½Ð´Ð°ÑĢ ÑĤ
ĠÐĶ Ð¾
Ġgreat er
ĠÐ¾ÑģÐ½Ð¾Ð² Ð½Ð¾Ð¼
ĠÐºÐ»Ð°Ñģ ÑģÐ¸
Ñħ Ñĥ
Ġto wards
ĠÑģ ÐµÐ·
ĠSky pe
Ðŀ ÑĢ
ĠH igh
ĠÐ¿ÑĢÐ¸ ÑģÑĥÑĤ
ut h
Ġres ident
P S
ĠÑĥ Ð²Ð¸Ð´
Ġst ock
ĠÐļ Ð¾ÑĢÐµ
ĠAss ociation
Ġquick ly
Ġs ports
Ġan cient
Ġv irt
ĠÐ´ÑĢÑĥ Ð·
Ġwork ers
g l
Ð» Ð»Ð°
Ġm at
Ġm useum
Ð½Ð° ÑĢ
Ġcomp ar
ĠÑģÑĢÐµÐ´ Ñĭ
Ġprofess ion
h aps
ĠÐ¿ÑĢÐ¾Ð´Ñĥ Ðº
ÑĩÐ¸ Ðº
og ue
ĠÐ²ÑĭÐ± ÑĢÐ°ÑĤÑĮ
m ina
ĠDes ign
ĠS ong
ĠV er
ĠCh urch
ĠÐ¿Ð»Ð° ÑĤÐµ
ĠE lev
ĠCom mit
ĠS am
ĠÐºÐ¾Ð½ ÐºÑĢÐµÑĤ
ĠPro v
ĠÐ¼Ð°ÑĢ ÑĤÐ°
ĠÐ¿ Ð¾Ð»ÑĮÐ·Ñĥ
ĠÐº Ð¾Ð¿Ð¸
ĠP an
ÐĴ Ð¸
ĠÑĢÐµÐ°Ð»Ð¸ Ð·
ĠÐ¾Ð±ÑĬ ÑıÑģ
Ġdatab ase
ĠÐ¼ Ð¾ÑĢÐµ
Ġg reen
ĠO ur
ÃĲ Âµ
Ġtem per
Ġfre qu
Ġs ense
it z
ĠG l
ÐĶ Ðµ
ĠÐ¾ÑĢ Ð³Ð°Ð½
ĠÐ¥ Ð°
Ġautom atically
n i
r um
ĠDep artment
Ġh osp
ĠL uggage
pl es
Ġpa id
et ary
ĠC ons
und ry
on ia
ĠÐ´Ð° ÐµÑĤ
ĠM ag
it ude
âĢ Ķ
ĠÐ´Ð¾Ð³Ð¾Ð² Ð¾ÑĢ
Ã µ
Ġfore st
ĠÑģÐ°Ð¼ Ð¾Ð³Ð¾
ĠÐĿ Ð¾Ð²
Ġbl og
Ġrespon sible
Ġt alk
Ġmod e
ution al
Ġreport ed
Ð½ Ð¾Ðº
More over
ĠTH E
ĠÐļÐ°Ð¼ ÐµÑĢÐ°
ĠÐĹÐ° Ð¿Ð°Ð´
r m
t es
ĠÐºÐ° ÑĤÐµÐ³Ð¾ÑĢÐ¸Ð¸
ĠE m
iz es
Ġatt empt
ĠC ast
ĠL ou
ĠÃ ©
ĠPro f
Ġthere fore
ĠA zer
ĠÑģÐ°Ð¼ Ð¾Ðµ
Q u
ĠN ations
ĠÐ¼ÐµÐ½ÑĮ ÑĪÐµ
Ġp ie
ĠÑĥ ÑĩÐµÐ±
ĠUS D
ĠÑįÐ½ÐµÑĢ Ð³Ð¸Ð¸
ÑĦ tel
ĠÑĥ ÑģÑĤÐ°Ð½Ð°Ð²Ð»Ð¸
ĠÐŁ Ð¾Ð»
ĠÑĤÑĢÐ°Ð½ Ñģ
ĠÑĤÐ¾Ð²Ð° ÑĢÐ¾Ð²
ĠÐ²Ñĭ Ð³Ð¾Ð´
Ġuse ful
ĠÐ¿Ð°ÑĢ ÑĤÐ¸Ð¸
ÑĪ Ñĥ
Ð¾Ð²Ð°Ð½ Ð½ÑĭÐµ
ÑģÑĤÑĢÑĥ ÐºÑĤÑĥ
Ð±Ð»Ð¸ Ð·Ð¸
Ð¶Ð° Ð¹
ÐµÐ½ Ð½ÑĭÐ¼Ð¸
et her
ĠÐ¿ÑĢÐµÐ´ ÑģÑĤÐ°Ð²
ĠÐ¿ ÑĥÐ½
Ġl iber
Ñħ Ð°Ð¹
ĠÐ¼Ð°Ñģ ÑģÐ¾Ð²
ĠÐĳ ÐµÑĢ
Ð´Ð¸ÑĨÐ¸Ð¾Ð½ ÐµÑĢ
b ar
Ġc ause
T e
Ġmet res
ĠÑĦÐ°Ð¹ Ð»
ĠÐ¼Ð° Ð»ÐµÐ½ÑĮ
Ġtele phone
ĠÐ½ÐµÑģ Ð¼Ð¾ÑĤÑĢÑı
Ġenter prises
Ġstrateg y
b on
p art
Ñħ Ðµ
ar les
ĠÑĢÐµ Ð¹
Ð»Ñı Ð½
ÑĤ Ð¾Ðº
ĠÐ¼Ð¸ ÑĢÑĥ
ĠÑĢÐ°ÑģÐ¿ ÑĢÐ¾ÑģÑĤÑĢÐ°
Ġdev ice
Ġregist ered
P er
b a
Ð± Ð¸Ð½
ÑīÐ¸ Ð½Ñĭ
ĠÐ¼Ð¸ Ðº
ĠÑĩÐ¸Ñģ Ð»Ð¾
' ll
S er
ĠÑĤ Ð¾Ð¿
áĥ ĺ
Ġenter prise
ĠElev ator
i ant
ĠHe ating
ĠJapan ese
Ġm atter
ĠS y
Ġfor ward
Ġst ar
ÑĢÐ°Ð· Ð´Ð¾
ĠÑĩÐµ Ð³Ð¾
ĠÐ¼ÐµÐ¶Ð´ÑĥÐ½Ð°ÑĢÐ¾Ð´ Ð½Ð¾Ð¹
Ġfil m
Ð² ÑĪÐµÐ³Ð¾
Ðł ÐĲ
os ing
ant ic
Ġpers ons
ÑĩÐ¸ Ð½Ð°Ñı
I F
ĠM iddle
ca pe
ĠComm ission
Ġexp and
fere nces
ĠPal ace
ÐºÐ¸ Ð½
Ð¼Ð¾ÑĤ ÑĢÐ¸
Ġ ÑĢÑı
Ġf ig
Ġc ross
ĠC le
ĠÐ·Ð° Ð±Ð¾Ð»
is ation
Ð¿Ð¸ ÑĤÑĮ
Ð¸Ð±Ð»Ð¸ Ð¾ÑĤÐµ
ĠÐĳ ÐµÐ»Ð°ÑĢÑĥ
b l
b ai
Ġw ait
Ġre nov
ĠC ur
ĠÐ¾Ñģ Ð½Ð°
ĠÑģÑĤÐ°Ð½Ð¾Ð² Ð¸ÑĤÑģÑı
b ook
b les
Ġapp ropri
Ġtour ist
Ð¸Ð½ÑĤÐµ ÑĢÐµÑģ
ĠÑĢÐ°Ð·ÑĢÐ°Ð±Ð¾ÑĤ ÐºÐ¸
Ġfund s
ÐĳÐ»Ð° Ð³Ð¾Ð´Ð°ÑĢÑı
ĠÐ¸Ð· Ð±Ðµ
ĠÐ¼Ð° Ñı
ĠÐ¼Ð°ÑĢ ÑĪÑĢÑĥ
ĠÐĶÐ¶ Ð¾Ð½
I R
d em
ĠB ush
ĠÐ¿ÑĢÐµÐ´ Ð²Ð°ÑĢÐ¸
ĠÑģÐ¾ÑĤÑĢÑĥÐ´Ð½Ð¸ÑĩÐµÑģÑĤÐ² Ð°
ÑĤÐµÑĢ Ð½Ð°
Ġcontin ued
ĠÐ²Ð¾ Ð¾ÑĢÑĥÐ¶
ĠM ac
Ġcor respond
ÑĩÐµÐ½ Ð½Ð¾Ð³Ð¾
ĠÐ¼ Ð¾ÑĢÑı
ÑĢÑĥ Ñģ
Ðļ Ðŀ
ĠÐ¿Ð¾Ð¿ ÑĭÑĤ
Ġlux ury
i as
Ġp al
ĠÐ¿ÑĢÐ¾ ÑĤÐµ
Ðŀ Ð½Ð°
ÐĿ Ðŀ
ÑĮ Ð±Ñĭ
ĠÐºÐ»Ð¸ Ð¼Ð°
Ġele ments
ÑĢÐ° Ð²Ð¾
Ġm ention
ur a
Ðļ Ñĥ
Ġab ility
ĠÐ±Ð°Ð½ Ðº
Ñģ ÐµÐ½
ĠÐĴ ÑģÐµ
Ġ199 2
r d
Ð± Ð¸ÑĤ
ĠÐ·Ð° Ð¿Ð¾Ð»
ÐµÐº Ð¾ÑĤÐ¾ÑĢ
Ġmach ines
Ġsepar ate
Ġh om
Ġprodu ce
Ġworld wide
ĠÐ¿ÑĢÐµÐ´Ð¿ÑĢÐ¸ Ð½Ð¸Ð¼Ð°
Ġcomp l
Ġj ud
ĠÑģÐµÑĢ Ð²Ð¸
ĠÐ¿ÐµÑĢÐ² Ð¾Ð¹
ĠÐ´ÑĢÑĥÐ³ Ð¸Ð¼
ĠÐ¾ÑĤ Ð´Ðµ
ĠÐºÐ¾Ð½ÐºÑĥ ÑĢÐµÐ½
ĠÑĢÐµÐ°Ð»Ð¸ Ð·Ð°ÑĨÐ¸Ð¸
Ġg arden
ÐŁ ÐµÑĢÐµ
Ġspecial ists
Ġdep artment
ĠÐĽÐ¸ ÑĦÑĤ
Ġhistor ic
Ġc y
Ġ199 7
ĠÐ²ÑĭÐ¿Ð¾Ð» Ð½
ĠÑģ Ð¼Ñĭ
ĠA K
ĠÑĤÐµÑĢ Ð¼Ð¸
Ġgl ass
Ġ il
ĠM il
ĠÐ°Ð² ÑĤÐ¾ÑĢ
ÑĢÐ¾Ð²Ð°Ð½ Ð½ÑĭÐ¹
Ġcomm and
ÑĤÐµÐ»ÑĮ ÑģÑĤÐ²
ĠÐ´ÐµÐ¹ÑģÑĤÐ²Ð¸ Ð¹
Ġs ust
S u
N ot
w ood
Ġwh ite
Ġus ually
ĠÐºÐ¾Ð¼Ð¿Ð° Ð½Ð¸ÐµÐ¹
ĠÑĩÐ°ÑģÑĤ Ð½Ð¾ÑģÑĤÐ¸
Euro pe
E l
ĠÑģÐ°Ð¼ Ð¾Ð¹
ĠÑĩÐ»ÐµÐ½ Ð¾Ð²
Ð»Ð° Ð³
ĠÐºÐ¾Ð½ÑĤÑĢ Ð¾Ð»ÑĮ
ĠÐ¿ÑĢÐµÐ´ ÑĥÑģ
isc al
Ġanal ysis
2 8
Ð½ Ð¾Ð³Ð¸Ðµ
re me
ÃŃ Ã¨
ĠIS O
ĠÑĢÐ°Ð±Ð¾ÑĩÐ¸ Ñħ
ĠÑģÐ²Ð¸ Ð´Ðµ
ĠKazakh stan
im a
Ð½Ð¸ÐºÐ° Ð¼
ĠÐ¼ÐµÑģÑı ÑĨÐµÐ²
Ġconn ect
bai jan
on om
ĠÐ·Ð° Ð¿Ð°Ð´
Ġpract ice
Ġrele ased
u y
ĠÐ± Ð°Ð»
ÑĢÐ¾Ð²Ð° Ð½Ð¸Ð¸
Ġdev ices
ĠEn ter
h ol
Ġh arm
Ġchang ed
i very
Ã »
ĠÐ¿ÑĢÐµÐ´ Ð¾ÑĤ
ĠÐ¿ÑĢÐµ Ð²Ñĭ
ĠÑģÐ°Ð¼ ÑĭÐ¹
Ġpre par
Ð¾Ð»Ð¸ ÑĤÐ¸
Ġrun ning
ĠÐ³ÑĢÐ° Ð½Ð¸ÑĨ
Ġchamb res
F l
ĠÐ´ Ð¾Ð¿
ĠÑĩ ÑĢÐµÐ·
Ġopportun ities
Ġs ens
Ġcreat ing
ĠÐ¾Ð¶Ð¸ Ð´Ð°
ĠÐ¿Ð¾Ð² ÐµÑĢÑħ
ruct ure
ĠÑģÐ¸Ð¼ Ð²Ð¾Ð»
S T
Ġf irm
Ġsu ff
ĠÐ¡ ÐµÑĢ
Ñĸ Ð²
ĠÑģÐ¾Ð³Ð»Ð° ÑģÐ½Ð¾
ĠÐ¼ÐµÐ¶Ð´ÑĥÐ½Ð°ÑĢÐ¾Ð´ Ð½Ð¾Ð³Ð¾
ĠÐ§ Ðµ
Ġleg is
ĠÑģÐ¿ÐµÑĨÐ¸Ð°Ð»Ð¸ ÑģÑĤÐ¾Ð²
Ġexpect ed
ic ht
Ð½Ñİ Ñİ
Ð· Ðµ
Ġm iddle
Ġd edic
Ġinterest ed
ess ion
ition s
sp apers
ĠÑģ ÐµÐ²ÐµÑĢ
ĠÐļ ÑĥÑĢ
Ð½Ð¾Ð´ Ð¾ÑĢÐ¾Ð¶
Ġallow ed
Ð± Ð¾Ð¹
Ġevery one
Ġbenef its
Ġcons ist
Ð» ÑĭÑħ
Ð· Ñĥ
Ġm ap
Ġredu ce
ĠÑĦÐ¸Ð½Ð°Ð½ÑģÐ¾Ð² ÑĭÑħ
Ġs old
ĠÐ¿Ð¾Ð´ Ð¿Ð¸
Ġd rug
Ð°Ð»ÑĮ Ð½Ð¾Ð³Ð¾
ĠÐ³ ÐµÐ½ÐµÑĢÐ°
ĠÐºÐ¾Ð¼Ð¿ Ð¾Ð½
Ġra pid
ĠÑģÐµÐ½ÑĤ ÑıÐ±ÑĢÑı
ĠM c
ĠÐ¾ÑĤ ÑĩÐµÑĤ
ĠÐ²Ð¸ Ð´Ð¾Ð²
ĠÐ°Ð²ÑĤÐ¾Ð¼ Ð¾Ð±Ð¸Ð»ÑĮ
ĠÐº ÑĢÑĥ
ĠÐłÐ¾Ñģ ÑģÐ¸Ð¹
in ate
Ġl ed
ĠÐĳ Ð¾Ð»
et ic
ĠÑĥ ÑģÑĤÐ¾Ð¹ÑĩÐ¸
ĠÐ¼Ð½Ð¾Ð³Ð¾ ÑĩÐ¸ÑģÐ»ÐµÐ½
ĠN ot
ĠÑģÐ¾ ÑİÐ·
ĠÐĽ Ð°ÑĤ
ol it
ĠÑģÐ¾Ð±Ñĭ ÑĤÐ¸Ñı
f l
Ġpol ice
E X
t ail
Ð¸ Ñı
Ð¶Ð° ÐµÑĤ
ĠÑģÐ²Ð¾ ÐµÐ¼
ĠÐ¿Ð»Ð¾ÑīÐ° Ð´Ð¸
t hen
Ñģ Ð¾Ð»
Ð¾Ð³ Ðµ
Ġc ast
ĠÐ¿Ð¾Ð´ Ð²ÐµÑĢ
0 4
ar ter
ir s
ĠÐ²Ñĭ Ð±Ð¾
ÑģÐ¸ ÑĤÑĮ
ĠCommit tee
0 9
Ġfre ed
J ohn
ĠÑĥ ÐºÐ°Ð·Ð°Ð½
Ð± Ð°ÑĢ
Ð¢Ðµ Ð¿ÐµÑĢÑĮ
Ð·ÐµÑĢ Ð±Ð°Ð¹
re hen
ĠÐ·Ð½Ð° Ð¼ÐµÐ½Ð¸
ĠÐ³Ð¾ ÑĢÐ°Ð·Ð´Ð¾
Ġs quare
ĠC zech
ĠT r
ĠÑįÐ½ÐµÑĢ Ð³ÐµÑĤÐ¸
ew ork
Ġim ages
Ġexper ts
Ġmethod s
Ġneg oti
ĠÑĤÑĭÑģÑı Ñĩ
Ġ #
or ing
Ð¾Ð» ÐµÑĤ
ÑĤÐ¸ Ð¼
Ġ198 0
Ġn ames
Ð±Ð¾ Ðµ
ĠÐł Ðµ
Ġconn ected
Ġins urance
ĠÐ¸Ñİ Ð½Ñı
u i
Ġspe ct
ĠÐ¾ÑĢ Ð³Ð°
ĠÑģÑĤÐ¾ Ð¸Ð¼Ð¾ÑģÑĤÐ¸
Ġrepresent atives
ĠÐ²Ð° ÑĪÐµÐ¹
Ġbl ack
ion e
Ð»Ð¸ Ð²Ð¾
ub e
ĠÑģÐ¾ÑĤÑĢÑĥÐ´ Ð½Ð¸ÐºÐ¾Ð²
ibr ary
R estaurant
ĠÐ± ÑĢÐ¾Ð½Ð¸
Ġcon v
ĠÐ¿ÑĢÐ¾ÑĨ ÐµÐ½ÑĤ
Ġsym b
Ġl ost
F irst
ĠÑģ Ð½Ð¾Ð²Ð°
Ð¶ ÐµÐ¼
ĠÑĤÐ°Ðº Ð¾Ð³Ð¾
Ġob lig
Ġ199 6
Ġtarg et
2 9
8 6
Ġassist ance
ĠÐ´ÐµÑģÑıÑĤÐ¸ Ð»ÐµÑĤÐ¸
A nt
w all
ÐµÐ¼ Ð¾Ð¹
ÐµÐ¼ ÑĭÐ¹
ÑĢÐ¸ Ð¿
ĠÐ¼Ð°ÑĤÐµÑĢÐ¸ Ð°Ð»Ñĭ
Ġpack ages
ĠÐ½ÐµÐ¼ ÐµÑĨ
Ġadvant age
ĠÑĢÐµÐ·ÑĥÐ»ÑĮÑĤÐ° ÑĤÑĭ
ĠÐ¾ÑĢÐ³Ð°Ð½Ð¸Ð·Ð° ÑĨÐ¸Ð¹
e ad
Ġt ren
ĠY ear
Ġsa ve
Ġf ol
ĠÐ¾ÑĤ Ð¿ÑĢÐ°Ð²
Ġcom ing
ĠÑģÐµÑĢ ÑĤÐ¸ÑĦÐ¸ÐºÐ°
ĠÑĤÐµÐ¼ Ð¿ÐµÑĢÐ°
ĠA N
ÑīÐ° ÑĤÑĮ
Ġact ually
Ð´Ð° Ð¼Ð¸
oc op
ÐĿÐ° ÑĪÐ°
ÑĩÐ° ÑİÑĤ
ĠÑĤÐµ Ð°ÑĤ
ÑģÐ° Ð¼Ð¸
av y
ĠÑĨÐ¸ ÑĦ
h ab
ĠIn c
Ġf arm
ĠÑģÑĤÐ° Ð½ÐµÑĤ
ÑģÐ° Ñħ
lad imir
u it
ĠÑĩÐ¸ ÑģÑĤ
ĠV en
ĠÐºÐ°Ð¶Ð´ Ð¾Ð¹
ĠÑģÑģÑĭ Ð»
ĠÐ¾ ÑħÑĢÐ°
Ġto ld
ĠÐ³ Ð¸Ð±
Ġon es
Ð³Ð¾ Ðµ
ut y
ĠÐļ ÑĢÑĥÐ³Ð»Ð¾ÑģÑĥÑĤÐ¾ÑĩÐ½ÑĭÐ¹
Ġvot es
ru it
ÐĿÐ° Ð¿ÑĢÐ¸Ð¼ÐµÑĢ
ort hern
ĠÐ¿Ð¾ÑģÑĢÐµÐ´ ÑģÑĤÐ²Ð¾Ð¼
ĠBe ach
Ð³Ð°Ð½ ÑĤ
Ñĩ ÐµÐ½Ð¸Ð¹
ww w
re y
it tle
Ð¿ Ð»Ð¸
Ġform s
ĠÐ²Ñĭ Ð²Ð¾Ð´
ĠÐ´Ð¾Ð¼Ð° ÑĪ
ĠÐ½ Ð¸Ð¼
ĠÑħ Ð¾Ñĩ
Ġins ide
Ð¾ ÑĦ
ou ch
ĠM ore
Ðľ Ðĺ
ĠÑħ Ð¾Ð»Ð¾Ð´
Ġgo al
ĠÑģÐ¾Ð¿ ÑĢÐ¾Ð²
Ġsp a
Ñĩ ÐºÐ¸
Ġin come
ĠF ax
ĠÑĢÐµÐ³Ð¸ Ð¾Ð½Ðµ
ÑĢÐ¾ÐºÐ° ÑĤ
Ġt it
ĠÑĢÐ° ÑģÐº
m as
Ġc ards
ÑĢÐµ ÑģÑĤ
Ġbut ton
ÑģÑĤ ÑĢÐ¾Ð²
ĠÐ½Ð¸ ÑĩÐµÐ³Ð¾
ÐµÑĢÐµ Ð¶
ĠÐ¿Ð¾Ðº Ð¾Ð»
ĠCor por
ĠÑĩÐ°ÑģÑĤÑĮ Ñİ
Ð³Ð¾Ñģ ÑĢÐ¾
ÑģÑĤÐ° Ð½Ðµ
ĠÐ¾Ð¿ ÑĥÐ±Ð»Ð¸
Ġav oid
ĠÐŀÑĤ Ð¾Ð¿Ð»ÐµÐ½Ð¸Ðµ
ĠM a
Ñį ÐºÐ¾Ð½Ð¾Ð¼Ð¸
Ġchall eng
ÑĥÐ»ÑĮ ÑĤÐ¸
ĠÐ¼Ð°Ð³Ð° Ð·Ð¸Ð½
Ġeleg ant
ĠÐºÑĥÐ»ÑĮ ÑĤÑĥÑĢÑĭ
ĠÐ¾ÐºÑĢÑĥÐ¶Ð° ÑİÑīÐµÐ¹
ĠKore a
Ġbeh ind
s es
ent ed
Ġtra ding
ĠÐ±Ð¾Ð» ÐµÐ·
ĠArmen ia
ĠÑģÐ¾Ð·Ð´Ð° Ð½Ð¸Ðµ
E ven
l ast
ĠÑģ ÑĢÐ°Ð·Ñĥ
Ġb ooking
ĠÑĢÐ°Ð¹ Ð¾Ð½Ðµ
Ġf resh
ĠÐ´Ð°Ð½ Ð½Ð¾Ð¹
Ġann ual
il a
A lex
Ðº Ð»
os en
ĠÐºÐ¾Ð½ ÑĤÑĢÐ°
ĠF am
Ġbl ock
ĠÐ¾Ð´Ðµ Ð¶Ð´Ñĭ
Ġh undred
iev ed
ĠÑģÐ¾Ð²ÐµÑĢ ÑĪ
Ġrem ov
Ġstart ing
ĠL aw
ĠO F
Ġselect ed
Ġex pen
F i
Â ´
Ð¾Ð¿Ð¸ ÑĢÐ¾Ð²Ð°Ð½Ð¸Ðµ
Ñĩ Ð½Ð¾ÑģÑĤÐ¸
ĠÐ¿ÑĢÐ¾ÑĨÐµÑģ ÑģÐµ
ĠÐ²Ð¾ÑģÐ¿ Ð¾Ð»ÑĮÐ·Ð¾Ð²Ð°
l ike
t ra
ĠÑģÐ¸ Ð»Ñĥ
Ġter race
ĠÐ·Ð°Ð³ ÑĢÑĥ
ĠÐ¿Ð¾ ÐµÐ·Ð´
ĠÐ·Ð° Ð¼
ĠÑĢ Ð¾Ð·
ĠÐ±Ð¾Ð»ÑĮÑĪ Ð¾Ðµ
Al so
ĠG arden
Ð¾Ð¼ ÐµÑĤ
ĠÐº ÑĢÑĭ
ĠÐ´ Ð¾ÐºÐ°
G mina
ĠD iv
pect s
Ġsc ience
ĠÑĤ Ð¾Ð¶Ðµ
ĠÐ²Ð· Ð³Ð»Ñı
ĠTh at
Ġorgan ized
Ġrespon sibility
Ġf lex
ĠÐºÐ¾Ð¼ Ð°Ð½Ð´
Ðł Ð¸
ÑĤÑĭ Ð¼
m on
Ð½ Ñĸ
Ġc rim
ed ia
ÐĶ Ð¶
Ġsk i
Ð¾Ð¶Ð´ ÐµÐ½Ð¸Ðµ
Ð¾Ð²Ð° Ð½Ñĭ
ĠSp a
Ð»Ð° Ð¼ÐµÐ½ÑĤ
ĠÐ´Ð¾ÑģÑĤÐ¸ Ð¶ÐµÐ½Ð¸Ñı
Ġannoun ced
ĠD avid
Ġun ivers
ĠÐºÐ°ÑĢ ÑĤÑĭ
Ġwonder ful
Ðº Ð¾Ð¿
Ð¾Ð² Ð¸Ñĩ
ĠC ong
ĠÐ¡ Ð²
Ġus es
Ġdef in
Ġinvest ors
y an
Ġd iplom
Ðľ Ð¾Ð½
oy s
ĠLe ague
ÑīÐ° ÐµÑĤÑģÑı
ĠÐ· Ð²
ĠÑĩ Ð¸ÑĤÐ°
ĠÑĢÐ¾Ñģ ÐºÐ¾
Ġinflu ence
Ġbuild ings
ĠÑģÐºÐ¾ ÑĢÐµÐµ
Ġcont em
Ġfreed om
ent y
ÐŁ ÐµÑĢÐ²
Ð¡ Ñĥ
ĠÐ¢ ÐµÑĢ
ĠBulgar ia
at re
ĠÐ°Ð²ÑĤÐ¾Ð¼Ð°ÑĤÐ¸ ÑĩÐµÑģÐºÐ¸
ĠÑģÐ¾ÑģÑĤÐ¾Ñı Ð½Ð¸Ð¸
ĠBer lin
\ \
ĠÐ·Ð° ÑıÐ²Ð¸
ÑģÐµÑĢ Ð¾Ðº
ĠÐ°ÑįÑĢÐ¾Ð¿ Ð¾ÑĢÑĤÐ°
b ody
Ġin ternal
ĠÐ²Ð¾Ð· Ð´ÐµÐ¹ÑģÑĤÐ²Ð¸
Ġdo or
Ġshop s
Ġs ell
Â ½
Ð° Ð½Ð°
Ġh or
ĠÐ·Ð° Ð¸Ð½ÑĤÐµÑĢÐµÑģ
Ġwe ap
ffic ient
r us
ĠÐ¡ ÐµÑĢÐ³
Ġprob ably
ĠS il
Ġex ception
ĠÐ¸Ð½ Ð½Ð¾Ð²Ð°
Ġm id
ÐĲ Ðł
Ġdec ided
ĠÑĢÐµÐºÐ»Ð° Ð¼
ĠÐ¿Ñĥ ÑĤÑĮ
Ġpro gress
ĠÐºÐ»Ð¸ÐµÐ½ÑĤÐ° Ð¼
ĠÑĢÐµÑģÑĥÑĢ ÑģÐ¾Ð²
w here
y p
Ġopen ing
Ġansw er
Ð¾Ð²Ð° Ð»
ĠÐĴ Ð¾ÑģÑĤ
ĠÐ¿ Ð°ÑĤ
ĠÐ¸Ð½ ÑģÑĤÐ¸ÑĤÑĥ
ÐµÐ² Ð¾Ð¹
Ġserv ed
ĠÐ¿Ð¾Ð»ÑĮÐ·Ð¾Ð²Ð° ÑĤÐµÐ»Ñı
ĠÑĢÐ°Ð¹ Ð¾Ð½Ð°
Ðº ÑĤÐ¾ÑĢÐ°
Ð¾Ð»ÑĮ Ð½Ð¾
ĠÐŀ ÐĲÐŀ
ĠÐ¶Ð¸Ð² Ð¾ÑĤ
it ation
ÐºÑĥ Ð»ÑĮ
ĠÃ ¨
Ñĥ Ð½Ð°
Ð´ Ð¶Ð°
ĠÐ½Ð° Ð³ÑĢÐ°
ĠA v
Ġocc up
Ġf ine
Ġl ands
Ð»Ðµ ÑģÑĤÐ¸Ð½
ĠH am
um in
Ð¸Ð» ÑģÑı
ĠÐ²ÑĭÑģÐ¾Ðº Ð¸Ð¼
Ðµ ÐºÑĤÐ¸
Ġc andid
ĠÐ¿ÑĢÐµÑģÑģ Ñĭ
al es
Ðķ Ðł
h ood
) :
ri er
ĠÐ¾Ð± Ð²Ð¸
ĠWh at
ĠÑģ Ð¾Ð¼
Ġsp aces
ĠÐ¤ Ð°ÐºÑģ
ĠÑįÐº Ð¾Ð»Ð¾Ð³Ð¸
Ġconflic t
Ðļ Ð¸
Ġdef ault
ĠÐµ Ð´Ð¸
Ġinst ead
ĠÐ² Ð²ÐµÐ´
Ñħ Ð¾Ð¼
ĠÑģÑĤ Ð¾ÑĢ
ĠÐ¡ Ð¾Ð²ÐµÑĤ
ĠÐ¸Ð½ Ð²Ð°Ð»Ð¸
ĠÐ½ÐµÐ´Ð° Ð²Ð½Ð¾
ÑĩÐµ ÑĩÐ½Ð°Ñı
ĠÑĦÑĢÐ°Ð½ ÑĨÑĥÐ·
C ont
ve y
Ġpl atform
Ġextrem ely
e pt
Ñĭ Ð´Ñĥ
Ð¶ ÐµÑģÑĤÐ²
ĠÑģÐ² Ðµ
ĠJ ust
ĠN or
ĠÐºÐ°Ð¿Ð¸ÑĤÐ° Ð»Ð°
ĠÐ¸Ð½ÑĦ ÑĢÐ°
Ġcoff ee
al le
Ð¾ÑĢ ÑĤÑĥ
Ð»ÐµÐ½ Ð½ÑĭÑħ
F C
Ġ4 00
ĠÃ ¢
Ġmanufact uring
Ðº Ð½Ñĥ
Ġf ixed
ĠD om
ok er
ÑĢÐ¾Ð²Ð°Ð½ Ð½Ð¾Ð¹
Ġadminist r
Ġa verage
ut tle
and a
av es
Ġmon itor
ĠÐļÐ° Ð·Ð°Ñħ
Ġmax imum
Ġh our
ĠW i
ire less
ĠÐ²Ñģ ÐµÐ¼Ð¸
ocop ying
ĠA ct
ÑģÑĤÐµÑĢ Ð¾Ð¸
Ġfurn ished
ĠÐ´Ð¾Ð» Ð³Ð¾ÑģÑĢÐ¾
Ġexper t
Ġele ctions
ÐµÐºÐ¾ÑĤÐ¾ÑĢ ÑĭÐµ
Ñģ ÐµÐ¼Ð¸ÑĢ
ĠÑĥ Ð¶
ĠK iev
ÑĥÐ½ Ð´Ð°
a el
ÑģÑĤÐ²ÐµÐ½ Ð½ÑĭÐµ
Ġtra ck
Ġimp act
Ð½Ð¾ÑģÑĤ ÑıÐ¼Ð¸
Ġpress ure
ĠÑģÐ¸ÑĤÑĥÐ° ÑĨÐ¸Ð¸
ĠÑĥÐ²Ð¸Ð´ ÐµÑĤÑĮ
w ise
Ð² Ð¾Ð±
Ñĩ ÑĤ
be k
Ð¾Ð¶ Ð´Ð°
ĠÑĥ ÑİÑĤ
ri me
ÑģÐ»ÑĥÐ¶Ð¸Ð²Ð° Ð½Ð¸Ðµ
Ġpos sib
ÐºÐ¾Ð» ÐµÐ¿
ĠÑĢÐµÐ¶Ð¸Ð¼ Ðµ
Ġess ential
T S
ĠÐļ ÑģÐµÑĢÐ¾Ðº
ĠÐ¿Ð¾Ð»Ñĥ ÑĩÐµÐ½
ĠÐ¿ÑĢÐµ Ð¼
Ġmajor ity
ĠÐ¸Ð½ ÑģÑĤÐ¸ÑĤÑĥÑĤ
ĠÐŁ Ðŀ
Ġme an
ĠHe ad
ĠÐļÑģÐµÑĢÐ¾Ðº Ð¾Ð¿Ð¸ÑĢÐ¾Ð²Ð°Ð½Ð¸Ðµ
ĠD VD
Ġper cent
ĠÐ½Ð°ÑħÐ¾Ð´ Ñı
Ġmult ip
Phot ocopying
ĠA cc
ĠG en
ant e
Ġex act
ĠÐ´Ð¸ Ð½Ð°Ð¼Ð¸
Ð» Ð¾ÑĤ
ĠÐ¾ Ð¿Ð¸
ĠF ound
ĠÑĤÑĢÐµÐ± ÑĥÐµÑĤ
ĠÐ¼ÐµÑĢ Ñĭ
ĠKing dom
ĠW ord
ĠÑįÐºÐ¾Ð½Ð¾Ð¼Ð¸ ÑĩÐµÑģÐºÐ¾Ð¹
Ð¾Ð» Ñİ
Ġcon sequ
Ġpl aced
ĠÐ¿ÐµÑĢÐ² Ð¾Ð³Ð¾
com merce
ĠÐ¸Ð½ÑĤÐµÑĢ ÑĦÐµÐ¹
Ġs ort
ĠÐ¾Ð´ Ð½Ñĥ
ĠÃ ®
ĠÑģÐ¾Ð± Ð¸ÑĢÐ°
Ðº ÐµÑĢ
ĠLat in
Ġmeas ures
O f
i ro
ĠÐ¼Ð° ÑĪÐ¸Ð½
ĠÐ¾ÑģÑĤÐ° ÐµÑĤÑģÑı
ĠÐ¿Ð°Ðº ÐµÑĤ
Ġtra ffic
Ġplan ets
oc ese
ĠUS A
ĠÐ½Ð¾Ð¼ÐµÑĢÐ° Ð¼Ð¸
Ġsp read
ĠHe art
Ð¾Ð» Ð¾ÑĤ
ĠÐ±Ð°Ð· Ðµ
Ð· ÐµÐ¼
ĠÐ³ ÐµÑĢ
ĠÑĤ Ð¾Ð»
ĠÐ¡ ÑĤÐ°
Ġr ise
Ġattra ctions
Ġgra du
ĠS at
ĠM ount
ĠÐ·Ð° Ð¿Ð°
Ġtri p
ĠCh ild
ÑģÑĤ ÑĢÑĭ
Ġw ine
ĠÐ´ Ð²Ð¸Ð³Ð°
ĠÐ²Ñĭ Ð¿ÑĥÑģÐºÐ°
Ġnum bers
ĠÐ¼Ð¾Ð¼ ÐµÐ½ÑĤÐ°
ĠÑħÐ¾Ð´ Ðµ
ĠÐºÐ¾Ð½Ðµ ÑĩÐ½Ð¾
ĠÐ¾Ð´Ð½Ð¾Ð² ÑĢÐµÐ¼ÐµÐ½Ð½Ð¾
ÑĨ Ð¾Ð²
ĠÐºÑĢÐ° ÑĤ
Ġbuff et
Ð³ ÑĢÑĥÐ·
ĠÐ¼ÐµÐ½ ÐµÐ´Ð¶
ĠÑĢÑĥÐºÐ¾Ð² Ð¾Ð´Ð¸
Q L
Ġt rou
ĠÐ² ÐºÐ»Ð°Ð´
an i
Ð¿ Ð¾Ð·Ð¸
ĠP at
ĠH ar
ĠÐ¿ÑĢÐ¸ ÐµÐ¼
Ġse x
ĠÑģÐ»ÑĥÑĩÐ° ÑıÑħ
Ġt aste
ÑĢÐ¾Ð²Ð° ÑĤÑĮÑģÑı
Ð¿ÐµÑĢ Ð²ÑĭÐµ
Ð»Ð¸ Ð²Ð°
ĠÑĢÐ¸ Ñģ
ĠÐ³Ð¾ÑģÑĤÐ¸ Ð½Ð¸ÑĨ
ĠÐ²Ð¿Ðµ ÑĩÐ°ÑĤ
ĠP ower
Ġe in
ĠF und
ĠInd ust
Ð»Ð¸ Ð·Ð°
Ð¼ÐµÐ½ Ð½Ð¾
Ðł Ð¾Ñģ
Ġdis co
ĠÑģÐ²Ð¾Ð¸ Ð¼Ð¸
ĠÐ·Ð´ ÑĢÐ°Ð²Ð¾
ÑģÑĤ ÐµÑģÑĤÐ²
ĠÐķ ÑģÐ»Ð¸
ĠÐ¿Ð¾Ð² Ð¾Ð´Ñĥ
Ġrespon se
ÑĢÐ¸ÑģÑĤÐ¸ Ð°Ð½
E ach
Ġm ill
ÑĤÐ° ÑĨÐ¸Ð¸
ĠÐ° Ð½Ð°Ð»
ĠB ud
ĠÐ¸ÑģÐ¿Ð¾Ð»ÑĮÐ·Ð¾Ð²Ð° Ð½Ð¸ÐµÐ¼
ĠÐ¿ÑĢÐ¾Ð±Ð»ÐµÐ¼ Ð°
Ġappropri ate
Ġh on
im b
ĠÐ¸Ð· Ð¼ÐµÑĢ
ĠÐ´Ð¸ Ð°
Ġm is
ĠÐ° ÑģÑĤÐµÑĢÐ¾Ð¸
ĠÐ´Ð°Ð½ Ð½Ð¾Ð³Ð¾
ĠÑģÐ¿Ðµ ÐºÑĤ
ĠÐ·Ð° ÑĢÑĥ
ĠPalest inian
Ġp en
Ġcomp rehen
Ġdis pos
Ġocc ur
ĠÐºÐ¾Ð½ÑĦÐµÑĢÐµÐ½ ÑĨÐ¸Ð¸
Ġask ed
ĠÐ½ Ñĭ
Ġex ternal
ĠÐ¶ÑĥÑĢ Ð½Ð°Ð»Ð¸
ĠÐ´Ð¸ ÑģÑĤÑĢÐ¸
Ġag ricult
Ġco ast
ick et
z en
ĠÑĢÐµ Ð²Ð¾Ð»Ñİ
Ġpa per
Ġimplement ation
ĠÐ¸Ð· Ð´Ð°
ĠI ron
Ġide as
ĠSt ud
ĠÐ¿ ÑıÑĤÐ¸
ĠP re
Ðļ Ð¾Ð»
Ð·Ð¸ ÑĤÑĮ
Ġcert ific
ĠÐ² ÑģÑı
Ġmod els
c or
ĠÐº Ð²Ð°Ð»Ð¸
ĠÐ¿Ð¾Ð»Ð¸ÑĤÐ¸ ÑĩÐµÑģÐºÐ¸Ñħ
G u
ĠÐŁ ÐµÑĢ
Ġown ers
Ġdel ivery
ĠÐ¿ÑĢÐ¾ÑĪ Ð»Ð¾Ð¼
ÑĨÐ° Ð¼Ð¸
ĠÑĦÐ¸ÑĢ Ð¼Ð°
Ġsat ellite
ĠÐ±Ð»Ð¸ Ð¶Ð°Ð¹
ĠÐ´Ð¾ ÑģÑĤ
ĠÐ¾Ð±ÑĢÐ°Ð· Ð¾Ð²Ð°
Ġfund ament
Ġmove ment
ĠÑĢÐµÐ»Ð¸ Ð³Ð¸
ÑĢÐ¸ Ðº
ÑĤÐ¸Ð² Ð½ÑĭÐµ
Ġinvest ig
ĠÑģÑĢÐ°Ð² Ð½ÐµÐ½Ð¸Ñİ
ĠHost els
Ä ĥ
ĠÐ¸ÑģÐ¿ ÑĭÑĤÐ°
ĠÐ´Ðµ Ð»
ĠÐľÐ¸ Ð½Ð¸ÑģÑĤÐµÑĢ
ĠE C
ĠG N
3 5
Ð½Ð¸ Ð»Ð¸
Ð¾Ð± Ð¾ÑĢ
ĠÑĥÑĤÐ²ÐµÑĢ Ð¶Ð´Ð°
Ġscre en
ĠÐ²Ñĭ Ð·Ð²Ð°
Ð¹ÑĤÐµ ÑģÑĮ
Ġup g
Ð¾Ð¿ÑĢÐ¸ Ð¼ÐµÑĩÐ°
Ġyour self
Ġj ournal
Ġrequ ires
er ies
gh an
ĠÐ½Ð¾ ÑĩÑĮ
ĠMan agement
ĠÐ¸Ñİ Ð»Ñı
ĠÐ·Ð´ÑĢÐ°Ð²Ð¾ Ð¾Ñħ
n b
ÑĪ ÐºÐ°
im ent
ĠÐ¿ÑĢÐ¾Ð³ÑĢÐ°Ð¼ Ð¼Ðµ
ĠÐ±Ñİ ÑĢÐ¾
Ġal though
Ð±Ð¸ Ð½Ð°
ĠÐ¿ÑĢÐµÐ´ ÑĭÐ´Ñĥ
Ð½Ð¾Ð² Ð¸Ñĩ
ĠÐ¼Ð° Ð»Ð¾
ĠÐ¾ÑĤÐ²ÐµÑĤÑģÑĤÐ²ÐµÐ½ Ð½Ð¾ÑģÑĤÑĮ
ÐµÐ½ Ð½ÑĥÑİ
Ð³Ð° Ñħ
Ġun it
ith uan
Ð¾Ð²Ð°Ð½ Ð½ÑĭÑħ
ĠÐ¾Ð¿ Ñĭ
Ġexclus ive
Ä į
ĠR ental
ÑĩÐµÑģÑĤÐ² Ð°
ĠÑĢÐ°Ð·Ð½Ð¾ Ð¾Ð±ÑĢÐ°Ð·
i ability
ĠÐ³Ð¾Ð» Ð¾Ð²
Ã ¸
ĠÐ´ ÑĢ
il ing
us ed
out hern
ĠÐ±ÑĥÐ´Ñĥ ÑīÐµÐ¼
lev ision
Ð´ Ð¾Ð¼
ig a
ĠÐ¿ÑĢÐµ Ð±Ñĭ
ĠÐ´Ðµ Ð¿
ÐŀÐ± ÑģÐ»ÑĥÐ¶Ð¸Ð²Ð°Ð½Ð¸Ðµ
Ġw orth
ĠF rom
ĠÑħÐ°ÑĢÐ°Ðº ÑĤÐµÑĢ
ver se
Ð¶Ð´ ÐµÐ½Ð¸Ð¹
Ġapp re
ĠÐ¿ÑĢÑıÐ¼ Ð¾
E ng
ik h
ĠFeder ation
ĠAzer baijan
w ith
ĠÐ¾ ÑĨÐµÐ½Ð¸
ĠÑħ Ð¾ÑģÑĤ
ĠÐ»ÑİÐ± Ð¾Ð³Ð¾
ĠÑģÑĤÐ¸ Ð»Ðµ
Ġ ?
ÑĢÐ° Ð¸Ð»ÑĮ
ĠÑģÑĥÑĤ ÐºÐ¸
ĠÑĤÐ°Ðº Ð¾Ðµ
ĠÐļ Ñĥ
In d
Ġdemoc ratic
ĠÐ¿Ð¾ÑģÑĤÐ°Ð² ÑīÐ¸
Ġad ult
Ġout put
ĠÐ´Ð¾Ð¿Ð¾Ð»Ð½Ð¸ÑĤÐµÐ»ÑĮ Ð½ÑĭÑħ
B C
Ð¼ Ð¾Ð¹
Ð°Ð»ÑĮ Ð½Ð¾Ðµ
ian o
ĠÐ·Ð½Ð° ÐºÐ¾Ð¼
O ut
ĠÐĿ Ð¾
ÑĩÐµÑģÐº Ð¾Ð¼Ñĥ
ÐŃ Ðº
Ð§ Ð°
ĠDe f
ÐºÐ»Ð° Ð´Ñĭ
Ġhapp y
ĠÐ¾ÑĢÐ¸ Ð³Ð¸Ð½Ð°
condition ing
Ġprocess es
ĠLa undry
Ġfurn iture
ĠÐ¼Ð» Ð½
at ively
ern el
ĠÐºÐ¾Ð½ÑĤÑĢ Ð¾Ð»Ð¸
Ġrad io
ĠÐ½Ð° Ð´Ð¾
ĠÐ²Ð· Ð¸Ð¼Ð°
ĠÑģÐ¾Ð²ÐµÑĢ ÑĪÐµÐ½
ĠÐµÐ¶Ðµ Ð³Ð¾Ð´
ÐµÐ½ Ð½Ð¾ÑģÑĤÑĮ
ĠÑĤÑĥÑĢÐ¸ ÑģÑĤÐ¸
ĠÐ¿ÑĢÐ¸Ð¾Ð± ÑĢÐµ
ur ious
Ġad just
Ð¶ Ð½ÑĭÐµ
Ġacc ord
Ġcol le
B P
S im
m ical
Ġre con
ĠÐ° Ð½Ð°
ĠÑģÐ¾ ÑģÑĤÐ°Ð²Ð¸
Ġform at
ĠÐ¾ÑģÑĤ ÑĢÐ¾Ð²
ĠÐ´Ð¾ÑģÑĤ Ð¾Ð¿ÑĢÐ¸Ð¼ÐµÑĩÐ°
ĠÑĢÐ°Ð±Ð¾ÑĤÐ° ÑİÑĤ
rast ructure
a uc
Ð¹ es
ĠF irst
Ð´Ñĥ ÑģÑĤÑĢÐ¸
Ġsl ow
Ġmot or
ĠÐ½Ð° ÑģÑĤ
ash ion
Ġmet al
ĠÐ¾Ð¿ÑĢÐµÐ´ ÐµÐ»Ð¸
M ost
Ð¶ Ð½ÐµÐ¼Ñĥ
Ġstrateg ic
al u
ĠÐ½Ð° Ð¿Ð¸ÑģÐ°
Ġre ached
Ġsupport ed
ĠÑĤÐµÐ½ Ð´ÐµÐ½
Ġm as
Ð»ÐµÐ½ Ð½ÑĭÐµ
ĠÐ»Ð¸ Ð½Ð¸Ð¸
Ġimmedi ately
i pe
Ġpro p
ĠIs land
ĠÐ½ Ð¾Ñģ
ĠÐ¼Ð¾Ð´ ÐµÐ»ÑĮ
ĠÐ¿ÑĢÐµÐ´Ð¿Ð¾Ð» Ð°Ð³Ð°
ĠÐ¿Ð¾Ð»Ð¸ÑĤÐ¸ ÑĩÐµÑģÐºÐ¾Ð¹
U T
Ñĥ ÑģÐ°
Ġreg ime
Ġwork ed
Ġcomb ination
Ġadvert ising
n ik
ĠG irl
Ġch ance
ĠÐ¿Ð°ÑĢ ÐºÐ¾Ð²
V ery
Ġw ent
Ġm orning
ĠÐĲ Ð½Ð³
ĠÐ¶Ð¸Ð· Ð½
Î ¹
ent e
ĠÑĤÐµÑĢÑĢÐ¸ÑĤ Ð¾ÑĢÐ¸
ĠÐ°ÑģÑĤÐµÑĢÐ¾Ð¸ Ð´Ð¾Ð²
ĠÐ· Ð²ÐµÐ·
ÑĤÐµÐ»ÑĮ Ð½ÑĥÑİ
ĠE lect
N e
p an
s et
Ġw atch
Ġprep ared
Ġg old
Ð¸Ð½ Ð¾Ð²
art e
E d
ĠÑģÑĤÐ° ÑĤÐ¸
ĠÐŁ Ñĥ
ÑĦÐ¾ÑĢ Ð¼Ñĭ
ĠÐ±Ð¾Ð»ÑĮÑĪ Ð¸Ð¼
ĠÐ´Ð²Ð¸Ð¶ ÐµÐ½Ð¸Ñı
k ov
ĠÐ¿ÑĢÐ¸ ÑħÐ¾Ð´
oc ol
ĠÐ¾Ð±ÑģÐ»ÑĥÐ¶Ð¸Ð²Ð° Ð½Ð¸Ðµ
ĠÑĤÑĢÑĥ Ð´Ð°
emb ly
ĠW inter
Ġfound ed
ĠÐ¿ÑĢÐ¾Ð³ÑĢÐ°Ð¼Ð¼ Ð½Ð¾Ð³Ð¾
ĠÑģÐ»Ð¾Ð¶ Ð½Ð¾ÑģÑĤÐ¸
Ġc ru
Ġf iscal
Ð»ÐµÐ½ Ð¾
ÑĪÐµ Ð´
ĠÐ¿Ð¾Ð»Ð¸ÑĤÐ¸ ÐºÑĥ
Ġop in
ĠÑģ ÑĨ
ĠÐ²Ð¾Ð·ÑĢÐ° ÑģÑĤÐ°
ĠAcadem y
ÑĢÐ° Ðº
Ġd ang
Ġstreng then
ĠÐ²Ñĭ ÑĢÐ°
ĠÑģÐ¸ Ð³
Ġsk ills
m ary
it u
ĠÐ¼ Ð°Ð½
ÐĿÐ° ÑĪÐ¸
ĠÐ¸Ñģ ÑħÐ¾Ð´
ĠÑĦÐ°Ð¹ Ð»Ñĭ
Ġorig in
Ġ1 000
Ġmet ers
ÑĤÐ°Ð»ÑĮ ÑıÐ½
Ġr Ð¹
ĠÑĢÐ°Ð·Ð´Ðµ Ð»Ðµ
Ġdedic ated
S L
Ġ3 2
ĠÐ¾ÑĤÐ½Ð¾ÑĪ ÐµÐ½Ð¸Ð¹
raz il
ĠÐ°ÑĤÐ¼Ð¾Ñģ ÑĦÐµÑĢ
S he
Ġmin i
Ġste el
O D
Ġpl ants
Ġarchitect ure
Ð´Ð¾ Ñħ
Ġfun ctions
Ġpass word
, "
Ġ Ñĸ
Ð´ Ð½ÐµÐ²
Ġs y
Ġdo ing
G o
ten ance
Ġdep end
Ð¾ ÑĤÐ¸
Ð´ ÐµÑģ
ĠÐŁÑĢÐ° ÑĩÐµÑĩÐ½Ð°Ñı
ĠÑĤÐµ Ð¿
od es
Ġeconom ies
ĠBl ue
ĠÑĨÐµÐ» Ð¾Ð¼
Ġf ields
ĠÐ± Ð»Ð¾Ðº
ĠB ack
ĠÐ¿Ð¾Ð·Ð²Ð¾Ð» Ð¸ÑĤ
stand ing
Ġenc ou
6 4
ad d
ĠG et
ÐĿÐ° Ð¶Ð¼Ð¸ÑĤÐµ
ĠÑĥ ÑĩÐ¸ÑĤÑĭ
Ġab road
ĠÐ·Ð½Ð° Ð½Ð¸Ñı
g ent
ĠSp anish
ĠÐ¿ÑĢÐ¾Ð´Ð¾Ð» Ð¶Ð¸
ra ge
Ġst ability
ÐĴ ÐŁ
ĠHostels club
Ð¡ ÐµÑĢ
Ġcompon ents
s pe
Ġ ult
ĠÐ½Ð¾Ð² ÑĥÑİ
ĠÐº ÑĢÐ¾Ð²
ĠÐ¾ÑĤ ÐºÐ°Ð·Ð°
ÑĩÐ¸ ÐºÐ°
ĠÐ¿ÐµÑĢÐµ Ð²Ð¾Ð·
az z
Ġnum erous
I G
Ð»Ð¸ ÑĤ
es ides
Ð¾ÑĤ Ð½Ð¾
ĠB r
ĠÐ´Ð¾Ð» Ð³
ĠÑĤÐµÐ»Ðµ Ð²Ð¸
ĠÐ¾Ð³ÑĢÐ°Ð½Ð¸ ÑĩÐµÐ½
Ġsomet imes
Che ck
A meric
ĠÑģ Ð»Ð°
Ġb i
ĠSt ar
ÑĨ ÐµÑģ
Ġar range
ĠÑģÐ¿ Ð¾ÐºÐ¾Ð¹
ĠÐ¸Ð½Ð²ÐµÑģÑĤÐ¸ ÑĨÐ¸Ð¹
ĠÐºÐ° Ð¶ÐµÑĤÑģÑı
Ġpl ans
Ġapp rov
ĠÐĺÐ½ Ð´Ð¸Ð¸
ĠÐ»ÑĥÑĩ ÑĪÐ¸Ñħ
ĠÑģ ÐµÑĤÑĮ
Ð·Ð¸ Ð½Ð¾
ĠÐ»ÑĥÑĩ ÑĪÐ¸Ðµ
ĠSu per
ĠÐ³ ÐµÐ½
ÑĢÐ¸ ÑĤÐ°Ð½
ÑĢÐ¾Ð²Ð° Ð½Ð¸Ñİ
ĠÑıÐ·Ñĭ ÐºÐ°
ĠEas tern
P r
ĠÐº ÑĢÐ¾Ð¼Ðµ
ĠS ing
ĠT erm
Ð½Ñı ÐµÑĤÑģÑı
0 8
ĠÐ¿ÑĢÐ¸Ð¼ÐµÐ½ ÐµÐ½Ð¸Ñı
ĠM od
00 1
ĠÐŀ Ñģ
is k
Ġres ist
Ġh all
Ġla un
ĠÐ¿Ð¾Ñĩ ÐµÐ¼Ñĥ
ic ians
Ð¼Ð¸ Ð¸
' re
ĠR oyal
ĠÐľ ÐĴ
ĠÐ´ÐµÐ½Ðµ Ð³
Ġbal ance
iction ary
h r
ĠMe x
ĠPl ay
Ġn amed
ash k
d own
ÐŁ Ðµ
ĠÐ¿ÑĢÐ°Ð²Ð¸ Ð»Ð¾
ĠÐļÐ¾Ð½ ÑĦÐµÑĢÐµÐ½
B an
in y
ĠÐ³Ð¾Ð²Ð¾ÑĢ Ð¸ÑĤ
er ia
ĠM art
ĠÐ¿ÑĢÐ°Ð²Ð¸ Ð»Ð°
ĠÐ½ÐµÐ¿Ð¾ÑģÑĢÐµÐ´ ÑģÑĤÐ²ÐµÐ½Ð½Ð¾
Ð» Ð¾Ð´
ĠÐ½ Ñĥ
ĠÐ´ Ð¾Ð±Ð¸
ĠÐ¾Ð±Ð»Ð° ÑģÑĤ
ĠÐ¸ÑģÐº Ð»ÑİÑĩ
On ly
Ġinvol ved
Ġhous es
ĠÐĴÐµÐ»Ð¸ÐºÐ¾Ð±ÑĢÐ¸ÑĤÐ° Ð½Ð¸Ð¸
ĠF il
ĠÐ²Ñĭ ÑģÑĤÑĥÐ¿Ð°
Ġhe at
Ġbenef it
it ors
ĠÐ¾ ÑīÑĥ
ing u
ĠC at
Ð¾Ñģ ÐºÐ¾Ð²
Ġper man
ĠÑĥÑģÐ¿ÐµÑĪ Ð½Ð¾
ĠÐ¿Ð¾Ð´ Ð¿Ð¸ÑģÐ°
ÑĤ ÑĥÑģ
Ð¼Ð¸ Ñı
ĠÐ¾Ð± ÑĢÐ°ÑĤ
ĠÑģÑĤ ÑĢÐµÐ¼
ĠÑĦ ÐµÑģÑĤÐ¸
ĠÐº Ð¾Ðº
ÑĢÐ¸ Ñģ
ĠÐľ Ð¾Ð»
Ġdef ic
Ġbig gest
Ñĥ Ð³
ÑĨÐ¸Ñı Ð¼
Ġcour t
Ġsec ure
ĠÐ¿Ð¾Ð· Ð´
ĠÐ¿Ð»Ð° Ð½
Ð¾Ð»ÑĮ ÑĦ
ĠÐ¿Ð¾Ð¼ Ð¾Ð³
ÑıÐ² Ð»ÐµÐ½Ð¸Ñı
ĠÐ¾ÑĤÐ²ÐµÑĤÑģÑĤÐ²ÐµÐ½ Ð½Ð¾ÑģÑĤÐ¸
Ġdam age
ĠMold ova
ÑĥÑİ ÑīÐ¸Ðµ
Ð² Ð¾Ð³Ð¾
ĠU K
Ġpl ug
or ia
ĠÑĦ Ð¾ÑĤÐ¾
ĠÑĢÐ°Ð· ÑĢÑĥ
Ġfam il
ell ig
L E
ÑĢÐµ Ð²Ð°
Ð¸Ð¼ ÑĩÐ¸
Ġfe ed
ĠÐ¾ÐºÑĤ ÑıÐ±ÑĢÑı
Ã ¯
ĠM at
en ge
Ð¶ Ð½ÑĭÐ¹
ĠÐļ Ð¾Ð»
ĠÐ·Ð°Ð²Ð¸ ÑģÐ¸ÑĤ
ĠD a
Ð²Ð»Ðµ ÐºÐ°
ĠÑĪÐ¸ÑĢÐ¾Ðº Ð¸Ð¹
Å ¾
ĠÐ² ÑģÐ¿
Ġe commerce
ÑĤ ÑĭÐµ
ĠÐ¾Ð±ÑĢÐ°Ð±Ð¾ÑĤ ÐºÐ¸
Ġm it
Ġl ives
Ġany thing
Ġmarket ing
ĠÐ²Ð»Ð° Ð´ÐµÐ»ÑĮ
ĠRe al
Ð¾Ñĩ Ð½ÑĭÑħ
ĠÐ´ÐµÐ¹ ÑģÑĤÐ²ÑĥÑİ
ĠÐĿÐ¸ÐºÐ¾Ð» Ð°
ag s
ÐŁ Ð¸
ÑģÑĤ Ð¾ÑĢÐ¾Ð½
ÑĤÐ¾ ÑĢÐµ
ĠS im
ĠM S
ĠE very
ac c
ĠN ight
ell o
ĠÐ¿Ð¾ÑĢ ÑĤ
ĠR ock
ĠÐ²Ð¾Ð·Ð¼Ð¾Ð¶ Ð½Ð¾ÑģÑĤÐµÐ¹
ÐºÐ¾Ð½ ÐµÑĨ
Ġsp irit
ĠÐ¿ÑĢÐ¾Ñģ Ð¼Ð¾ÑĤ
ÑĨ Ñĸ
ĠÐ¿ÑĢÐ¾ÑĦÐµÑģÑģÐ¸ Ð¾Ð½Ð°
ĠÐ¿ÑĢÐ¸Ð¾Ð± ÑĢÐµÑĤ
C P
ÐŁ ÐµÑĤÐµÑĢ
ÑģÐ¾Ð» ÑİÑĤ
ĠS chool
ÑĢÐ¸ Ð´
ĠW in
ĠÐ¿Ð¾Ð± ÐµÐ´Ð¸
Ġinit ial
ĠH ome
ĠÐ² Ð²Ð¾Ð´
Ġdel iver
ĠÐ¿ÑĢÐµÐ¼ ÑĮÐµÑĢ
Ð½Ð¸ Ð¼Ð¸
ĠÐ²Ð»Ð¸Ñı Ð½Ð¸Ðµ
Ð»Ñı ÐµÑĤ
Ġset tle
ĠÐ´Ð¸ÑĢÐµ ÐºÑĤÐ¾ÑĢ
Ġf ir
ĠÐ¼ ÑĥÑģ
ĠÐļ Ð¾Ð¼Ð¸
ÐļÐ° Ð¶Ð´ÑĭÐ¹
C an
Ð½ Ð´
Ð» Ð¾Ð²Ð°
Ġs outh
Ðļ ÐĲ
ĠÑħ Ð¾Ð»
Ġabs ol
a per
Ð± ÑĥÐ´
ĠÐ³ ÑĢÑĥ
Ð´Ðµ ÑĢÐ°
ĠÑģÐºÐ° Ð·Ð°ÑĤÑĮ
ĠÑĦÐ¸Ð½Ð°Ð½ÑģÐ¾Ð² Ð¾Ð¹
ĠÐŁ ÑĢÐ¾ÐºÐ°ÑĤ
ĠÐ¿ÑĢÐµ Ð¾Ð±ÑĢÐ°Ð·
ĠÐºÐ¾ÑĢ Ð¾ÑĤ
Ġdr ink
Ð»ÑĮ Ð½ÑĥÑİ
Ġg raph
all ed
ĠAK VIS
d oor
Ð¶ Ð½Ð¾
Ð¾Ð¿ Ð°
ĠJ ew
Ġc ounter
Ð½Ðµ ÑĤÐµ
ĠÐ´Ðµ Ð»Ð¾
ĠÐ¿Ð¾ÑĤÐµÐ½ ÑĨÐ¸Ð°Ð»ÑĮ
ÑĢÐ°Ð½ Ñģ
ĠSo ftware
ÐºÐ¸ Ð´
ÐµÑĢÐ° Ð¼Ð¸
Ġan im
ÑģÐ¿ Ð¾Ð»Ð¾Ð¶
ĠRes ort
Ġcont roll
Ġdep osit
ÐĿ ÐµÐºÐ¾ÑĤÐ¾ÑĢÑĭÐµ
ĠÑĢÐ°Ð· ÑĢÐ°Ð±Ð¾ÑĤÐ°Ð½
ĠK ar
ĠÑįÐºÐ¾Ð½Ð¾Ð¼Ð¸ ÑĩÐµÑģÐºÐ¸Ð¹
ak istan
ĠÐ¼Ðµ Ð´
o ch
Ġrel iable
m ore
Ġm iss
ĠSt and
ĠÐ´Ðµ ÑĦÐ¸ÑĨÐ¸
Ġopt im
Ġt ask
ĠÐ¼ÐµÑĤ ÑĢÐ¾Ð²
ĠÐ²Ð· ÑĢÐ¾Ñģ
w o
ĠB en
Ð¸Ð¼ ÑĭÑħ
Ġinter face
ĠÑĥÑģÐ¸ Ð»Ð¸Ñı
ĠÐ¿ÑĢ Ð¾Ðº
ĠÑģÑĤÑĢÐ¾Ð¸ÑĤÐµÐ»ÑĮ ÑģÑĤÐ²Ð°
ĠChe ck
Ġviol ence
ĠÑįÑĦ ÑĦÐµÐºÑĤ
ĠÐ²ÐµÐ»Ð¸ ÐºÐ¾Ð»ÐµÐ¿
r Ã©
Ġl ay
ĠR em
áĥ Ķ
ĠMe eting
Ġparticip ation
ĠÐ¿Ð¾ÑĤÐµ ÑĢÑı
ĠÐ°Ð¿ÑĢÐµ Ð»Ñı
Ġapp oint
ĠQ ue
loy ment
ĠSw ed
ĠPri me
Ġeffic iency
ĠÐ¸ÑģÐºÑĥÑģ ÑģÑĤÐ²Ð°
is a
p et
t ained
ĠÐ° Ð²Ð¸Ð°
ĠD ie
ĠO per
Ðľ Ñĥ
ÐµÐ´ ÐµÐ½Ð¸Ñı
ÑĥÐ± Ð¾Ðº
Ð¿Ð» Ð¾Ð¼Ð°
Ġrail way
ÐµÐ¼ Ð¾Ð³Ð¾
ĠD ry
Ġag ency
ĠÐ¸Ð½ÑĤÐµ Ð³ÑĢÐ°
ĠComm un
ÑĩÐµÑģÑĤÐ² Ð¾
Ġen h
ĠÐ¿Ð¾Ð»Ð¾Ð¶ ÐµÐ½Ð¸Ðµ
W ill
m es
ĠÐ² Ð½ÐµÑģ
ĠD ream
Ġthous and
5 00
Ġc ateg
Ð´Ð¸ ÑĤ
ĠOr gan
Ġleaders hip
ĠÑģÐ¾Ñħ ÑĢÐ°Ð½
Ġ Ø
Ð´Ð¸ Ð¹
Ðĳ Ñĭ
Ð¼Ð¾ÑĤ ÑĢÐµÐ½
Ġelect ronic
ster dam
Ð² ÑĪÐ¸Ðµ
ÐµÑĢÐ¸ ÑĤÐµ
ĠÐ½Ð°Ð·Ð²Ð° Ð½Ð¸Ðµ
ĠÐľ Ð°Ð¹
ĠÐ¸Ð½ Ð²ÐµÑģÑĤ
ru pt
ach ing
ĠÑģÑĤÐ°Ð² ÐºÐ¸
ĠÐ´ÐµÑĢ Ð¶Ð°
ul ated
ĠÐ¿Ð¾ÑģÐ»ÐµÐ´ Ð¾Ð²Ð°
ĠÐ¸ÑģÑģÐ»ÐµÐ´ Ð¾Ð²Ð°Ð½Ð¸Ð¹
J ust
Ġb and
ĠÐ½Ðµ Ð¿ÑĢÐ¸
ĠÐ¼Ð° ÑģÑĤÐµÑĢ
Ð¾ÑģÑĥÐ´Ð°ÑĢ ÑģÑĤÐ²ÐµÐ½
B el
ĠÑĨ ÐµÐ½Ð°
ven ue
ĠÑģÑĤÑĢÑĥ ÐºÑĤÑĥÑĢ
ĠÑģÐ¼Ð¾Ð³ ÑĥÑĤ
Ġplann ing
nb sp
ĠÐĲ Ð±
Ðĵ Ð°
Ġp as
Ð¾Ð» ÐµÐ²
Ðķ Ð¡
ĠÐĵ ÑĢÐµ
Ġ199 4
ĠÐ¿ÑĢÐ¸Ð¼ÐµÑĢ Ð½Ð¾
ĠÑħ Ð¸Ð¼Ð¸
Ñĥ Ð¿ÑĢÐµ
ĠÐ²Ñģ Ñİ
ĠÑĢÐ°Ð·Ð²Ð¸ ÑĤÐ¸Ñİ
ĠÐ¿ÑĢÐ¾Ð´Ñĥ ÐºÑĤÑĭ
T rans
Ġbeaut y
rap y
3 3
M an
ÑģÑĤ Ñı
Ġw inter
Ð½Ð¸ Ð½
ÑģÑĤÐ° Ð¼Ð¸
ag o
ĠÐ¿ÑĢÐ¾Ð² ÐµÑģÑĤÐ¸
ĠÑģ Ñħ
ic ious
ĠÑĥ ÐºÑĢÐµÐ¿
Ġro ll
ĠÑĥÑģÐ»Ð¾Ð²Ð¸ Ð¹
enn is
Å Ł
Ġg irl
ther s
ec ause
Ġris ks
Al though
ĠÑĤÑĥÑĢ Ð½Ð¸
ĠÐ¡Ð¾Ð² ÐµÑĤÐ°
ĠP rivate
ĠÑĢÐµ Ð°
ĠIn t
ĠÐ°Ð»ÑĮ ÑĤÐµÑĢÐ½Ð°
ĠÑħÑĥÐ´ Ð¾Ð¶
Ġitem s
Ġt out
Ġsu itable
ĠÐ¾Ð½ Ð»Ð°Ð¹Ð½
Ġconst ruct
Ġinf rastructure
ĠAf ghan
Ðº ÑĥÑİ
Ð»Ñı ÑĤÑĮ
ĠÑģÐ°Ð¼ Ð¾
ĠÐ½Ð° ÑĩÐ°ÑĤÑĮ
Ġad apt
Ġinter pre
ĠÐ· Ð´Ð°Ð½Ð¸Ñı
ÐµÐ» Ñĭ
ĠÑĦÑĥÐ½Ðº ÑĨÐ¸Ð¸
ĠÐ¸Ð½Ð²Ð°Ð»Ð¸ Ð´Ð¾Ð²
o is
Ð¿ Ð¾Ñĩ
Ð¼Ðµ Ð´
Ġbank ing
Ġlearn ing
om a
ĠB alt
um n
ĠÐ¸ÑģÐ¿Ð¾Ð»ÑĮÐ·Ð¾Ð²Ð° Ð½Ð¸Ð¸
ĠÐ²Ð¾Ð¿ÑĢÐ¾Ñģ Ð¾Ð²
Ġthous ands
B ook
Ġc at
Ð¿ Ð¾Ñģ
ĠU s
ÑĢÐ¾Ð²Ð°Ð½ Ð½Ð¾Ð³Ð¾
N S
ĠM ad
ĠT ri
ĠÑıÐ·Ñĭ ÐºÐµ
Ġpict ure
Ä ħ
Ġst able
c her
Ġt ill
Ð¶ Ð½Ð°Ñı
iz z
Ð¾Ð³ Ñĥ
ÐµÑĤÐµ ÑģÑĮ
ber t
19 8
ĠÐ±Ð°Ð½ ÐºÐ¸
Ð¾Ñģ ÑĮ
qu es
ÑĤÐ¾ÑĢ Ð¾Ð¼
Ġent ertain
Ġcall s
ĠÐ½Ð°Ð¹ Ð´ÐµÑĤÐµ
Ġa ctions
Ð² ÑĪÐµÐ¹
ut s
un k
Ð°Ð»ÑĮ Ð½Ð°Ñı
ĠÑĨÐµ Ð»ÑıÑħ
ÐĿÐµÑģ Ð¼Ð¾ÑĤÑĢÑı
ĠÑĤÑı Ð¶Ðµ
ÑģÑĤÐ¸ ÐºÐ¸
ĠP aul
iven ess
Ñī ÐµÐ½Ð¸Ñİ
Ġent re
ĠÑĤÑĢÐµÐ± ÑĥÐµÑĤÑģÑı
Ġtransport ation
ĠÐ·Ð° Ð¼ÐµÑĩÐ°
ĠÐ¿Ð¾Ð» Ð½Ð¾Ð¼
ĠC op
Ġ199 5
ĠÐ²Ð°Ð¶ Ð½Ð¾
ĠÐĳÐ¾Ð» Ð³Ð°
ĠÑģ ÑĩÐµÑĤÐ°
el d
ĠÑĥ ÐºÐ°Ð·ÑĭÐ²Ð°
ÑĢÐ¸ Ñħ
ĠÐĺ Ð²Ð°
Ġser ve
ĠÐ¿ÑĢ Ð¾Ð·
Ġinter ior
ĠÐĹÐ° Ð²ÑĤÑĢÐ°Ðº
ĠÐ± Ð¸Ð±Ð»Ð¸Ð¾ÑĤÐµ
ĠL ake
Ġmain tenance
Ðļ Ð¾Ð½Ðµ
Ġlim it
ÑĢÐ¾Ð² Ð¾Ð¹
ĠÑģÑĤÑĢÐ° Ñħ
ĠÐ»ÑİÐ± Ð¾Ð¼
ĠÐ¿ÐµÑĢÑģÐ¿Ðµ ÐºÑĤÐ¸
0 3
ĠÐ½Ð° Ð»Ð¸ÑĩÐ¸Ðµ
Ġre asons
Ð¾Ñģ Ð¿
ĠW il
ĠÐ»Ñİ Ð±Ð¾Ðµ
2 000
H P
M e
Ñĥ Ðº
ob by
Ġam b
Ġpolit ics
Ġnear by
ĠÑħÐ¾Ð´ ÑĮÐ±Ñĭ
Ġappl ied
ÑĤ Ð¾Ð³Ð¾
ÑĢÑĥ ÑİÑĤÑģÑı
ĠÐ¿ÑĢÐµÐ´ ÑģÐµÐ´Ð°
Ñı Ð·
Ð»ÐµÐ½ Ð½ÑĭÐ¹
ĠÑĤÐµÑħ Ð½Ð¸ÐºÐ¸
ĠÐº Ð²
Ġb ott
qu ot
Ġis land
ĠÐ¿ÑĢÐ¾ ÑħÐ¾Ð´
Ġri ver
Ð¿Ñĥ ÑĤÐ°
ĠM ot
ĠÑĢÐ°Ð· Ð´ÐµÐ»
ĠÐ²Ð¾ÑģÐ¿Ð¾Ð»ÑĮÐ·Ð¾Ð²Ð° ÑĤÑĮÑģÑı
Ð·Ð° Ð»Ð°
Ġenvironment al
ĠÐ¾ÑĤÑĢÐ° ÑģÐ»Ð¸
ĠLatv ia
ic he
Ġnot e
ĠÐ±ÑĥÐ´ ÐµÐ¼
Ġphys ical
ĠÐ¸Ð·Ð¼ÐµÐ½Ð¸ ÑĤÑĮ
b ach
ĠÐŁ ÑĢÐµÐ´
ĠV an
ĠÐ´ÑĢÑĥ Ð³Ð°
ĠÐºÐ¾Ð»Ð¸ÑĩÐµÑģÑĤÐ² Ð°
ĠD en
ĠÑģÐ°Ð¼ Ð¾ÑģÑĤÐ¾Ñı
ĠCon ference
ĠÐ´Ð¾ÐºÑĥ Ð¼ÐµÐ½ÑĤÐ¾Ð²
Ġ u
ĠÑı Ð¿Ð¾Ð½
ĠTown ship
ĠFound ation
ĠÐ²Ð¾Ð· Ð½Ð¸ÐºÐ°
Ġmed ic
el come
Ñī ÐµÐ¼Ñĥ
Ð¾ ÑĤÐ°
ĠÐ½Ð° Ð¸
ÐŁ Ð¾Ð¼
Ð¸Ð»ÑĮ Ñı
Ġdisc ount
Ġconc ert
Ð¾Ñĩ Ð½ÑĭÐ¹
ĠÐ±Ð°Ð½ ÐºÐ°
Ġproper ties
iqu id
Ġt ell
ĠÐ»Ðµ ÑĩÐµÐ½Ð¸Ñı
Ġexperien ced
Ð´ ÑĨÐ°
Ð¾Ð» Ð°
ÐŁ ÑĢÐ¾Ð³ÑĢÐ°Ð¼
ĠOb ama
ĠÑĥ ÑĩÐ¸
ĠÑĦÐ° ÐºÑĤ
ÐľÐµ Ð¶Ð´ÑĥÐ½Ð°ÑĢÐ¾Ð´
it t
Ġst orage
Ä ĵ
Ġpos itive
Ġgener ation
ĠÐ²ÑĭÑģÑĤÐ°Ð² ÐºÐ¸
Ġdes pite
Ġsust ain
7 5
Ġb on
Ġget ting
ĠÐ±Ð° Ð»Ð°Ð½
Ġsign ed
Ġ ..
Ġl if
Ð¼Ð¸ Ð½
ÑĢÐ¾Ð²Ð° Ð»Ð¸
Ġcomple ted
k in
ĠH all
ĠÐ¼Ðµ Ñĩ
ĠÑģÐ¸ Ñħ
Ġf ear
Ġro ck
ĠÑĢÐµÐ± ÐµÐ½
Ã¡ n
ĠÐĺÑģÐ¿ Ð°
is hes
Ġbal con
id ing
ĠÐ¾ÑĤ Ðº
Ġdis p
ĠÐ¾ÑĩÐµ Ð²Ð¸Ð´
ĠÐ´ÐµÐ¼Ð¾ÐºÑĢÐ°ÑĤÐ¸ Ð¸
ĠÑĥÐ·Ð½Ð° ÑĤÑĮ
n ight
ak ers
S aint
Ġ ÑĢÐµÐ´
ÑĢÐ° ÑģÐ°
ÑģÐº Ñĥ
Ġ199 1
Loc ated
z bek
Ð¿ Ð°Ð½
ÑĤÐµ Ð»Ñİ
ĠÐ¿ÐµÑĢÐµ ÑħÐ¾Ð´
au ght
rig er
ÑĳÐ½ Ð½ÑĭÑħ
ĠÐºÑĥÑĢ Ñģ
ĠFran k
ĠFam ily
ĠÐ¢ Ñĥ
ĠÐ½Ð¾ ÑıÐ±ÑĢÑı
ĠÐ²ÑĭÑģÐ¾Ðº Ð¾Ð¹
E F
ĠÐ¸ÑģÐ¿Ð¾Ð»ÑĮÐ·Ñĥ Ñı
ĠÐ´Ð¾Ð² ÐµÑĢÐ¸
ĠÑıÐ½Ð²Ð° ÑĢÑı
ĠCorpor ation
Ġ >
Ñį Ð»ÑĮ
ri pt
ĠÐ¿ÐµÑĢÐµ Ð¼ÐµÐ½
ĠÐ·Ð°Ð¿Ð¸ ÑģÐ¸
ÑĤÐ¸Ð² Ð½Ð¾Ð¹
ĠÐ¿Ð¾ÑģÐ»ÐµÐ´ Ð½Ð¸Ñħ
ĠGu ests
Ñį ÑĦ
ly ing
ĠÐŁ Ð¾Ñģ
Ġtr ust
ĠÐ± Ð»ÑİÐ´Ð°
Ñį ÑĢ
ĠF all
ĠOff ice
Ð´ ÐµÐ¼
Ð¿ÑĢÐµ Ð¶Ð½ÐµÐ¼Ñĥ
ĠÐ²ÑĭÐ±Ð¾ÑĢ Ñĭ
ÐŁ Ðŀ
Ġeffect s
Ð´Ð° Ñħ
ĠÐ» Ð¾Ð³Ð¸
ĠÑĥ ÑħÐ¾Ð´
Ġ3 6
ĠÐ°Ð²ÑĤ Ð¾Ð±
Ġt im
ĠÑģÐ¾Ñģ ÐµÐ´
It s
ĠPl an
ĠÐ½ÐµÐ¾Ð±ÑħÐ¾Ð´Ð¸Ð¼ ÑĭÐµ
ĠAsi an
T A
st ruction
ĠÐĲ Ð»
erm an
ĠSe cret
ĠÐ° ÑģÐ¿
ĠÐŁ ÑĢÐ¾
ĠÐŁ Ð°ÑĢÐ¸
Ð³Ð¾ÑĢ Ð¾Ð´
ĠÐ¾Ð¿ÑĤÐ¸ Ð¼Ð¸
d es
ĠÐ¸Ð·Ð¼ÐµÐ½ ÐµÐ½Ð¸Ð¹
ĠÐ¢ÑĥÑĢ ÑĨÐ¸Ð¸
Ġv ote
Ñĩ Ð½Ð¾ÑģÑĤÑĮ
Ġc ash
ar ia
Ġpre fer
ĠÐºÑĢÐ° ÑģÐ¸Ð²
ĠPar liament
ĠGo vernment
s moking
v ision
ĠÐ¿ ÑģÐ¸
ĠÐ² ÑħÐ¾Ð´
ĠÐ· ÐµÑĢ
Ġpar liament
ÑĩÐ° Ð»Ð°
Th us
ĠÑĥÐ´Ð¾Ð± ÑģÑĤÐ²Ð°
ĠÑĥÑĩÑĢÐµ Ð¶Ð´ÐµÐ½Ð¸Ñı
ĠDirect or
al ing
Ġis t
Ðľ Ð½Ð¾Ð³Ð¸Ðµ
ĠÐ¿Ð° ÑĨÐ¸
Ñĥ ÑĩÐ¸
ĠÐĴ ÐµÐ½
Ġha ir
ĠÐł Ð¾Ð±
Ġr at
ĠÐ§ ÐµÑĢ
ĠÑĥÐ¿ÑĢÐ°Ð² Ð»ÐµÐ½Ð¸Ðµ
ĠÐ¿Ð¾Ð²Ñĭ ÑĪÐµÐ½
ĠÐ²ÐµÐ´Ñĥ ÑīÐ¸Ñħ
Ġwr ite
est ern
ĠÑĢÐµ Ð¼Ð¾Ð½
ĠÐ»Ñİ Ð´
ĠÐ¿Ð¾Ð² ÑĤÐ¾ÑĢ
ĠÐºÐ»Ð° ÑģÑģ
Ð°ÑĢ Ð´
ĠÐĶÐ¾ ÑģÑĤÐ°Ð²ÐºÐ°
C O
C o
U s
Ġd ry
Ġbe y
ÑĬ ÐµÐ´Ð¸Ð½
Ð¤ ÑĢÐ°Ð½
Ġdou b
ĠÐ´ÐµÐºÐ°Ð± ÑĢÑı
C H
ĠÑģ Ð¾Ð¶
ĠÐķ Ð³Ð¸Ð¿
Ġ ;
Ġbel ong
ĠÐ¿ÑĢÐµÐ´Ð»Ð¾Ð¶ ÐµÐ½Ð¸Ðµ
ÐºÐµÑĤ Ð½ÑĭÐ¹
Ġc ell
ĠP ack
ĠL ithuan
Ġsp end
Ġtra v
w ar
ĠÐ½Ð° Ð±Ð¾ÑĢ
ĠM em
ĠÐ¿Ð¾Ð·Ð²Ð¾Ð»Ñı ÑİÑĤ
Ġg ain
Ð°Ñģ Ð°
Ð»Ñİ Ð·Ð¸
Ð¤ Ð°
Ġdoes n
ĠÑĪÐ° Ð³
Ġp rison
ĠÐºÐ° Ð½Ð°
ĠP rem
ĠÐ²Ðµ ÑĩÐµÑĢ
ĠD u
ĠD ub
ĠAm sterdam
ĠÑĨÐµ Ð»ÐµÐ¹
Ġlux urious
Ðµ Ð»ÐµÐ½
Ġw indows
Ġth umb
Ġs ays
Ð³ ÐµÑĢ
ĠI r
ĠG al
ĠÐ±Ð¾Ð»ÑĮ ÑĪÐ¸Ñħ
ĠÐ´Ð¸ Ð¿Ð»Ð¾Ð¼Ð°
ans ion
ĠPro ject
Ã³ w
ĠÐ²Ð¸Ð´ Ð¾Ð¼
ĠÐ·Ð°Ð¿ÑĢÐµ ÑīÐµÐ½Ð¾
Ġcaus ed
Ñģ ÑģÐµ
Ð¾ÑĤ ÑĢÐµÐ±
ĠB ay
est er
ĠE arth
ĠÐ´Ð°Ð½ Ð½Ð¾Ð¼
Ġdistrib ut
Ġfl ight
ĠÐ¿Ð¾Ð´Ð´ÐµÑĢÐ¶ ÐºÐ°
Ġarriv al
ĠÐ° ÑĢÐ°Ð±
ÐĿ Ðĵ
B attle
f a
Ñĥ Ð¼Ðµ
ĠÐ¿ÑĢÐ¸ Ð¾ÑĢÐ¸
ĠAr ch
ĠÐ²Ð¾Ð·Ð´Ñĥ ÑħÐ°
ĠÐ¿Ð¸ÑĤÐ° Ð½Ð¸Ñı
Ġc af
Ð¿ ÑĤÐ¸
Ġst ore
ĠÐ¼Ð°Ð³Ð° Ð·Ð¸
ĠÐ²Ð·Ð¸Ð¼Ð° ÐµÑĤÑģÑı
ĠÑĢÐ° Ð½ÐµÐµ
Ġofficial s
ĠÐ¿Ð¾Ð·Ð¸ ÑĨÐ¸Ð¸
Ð²Ð° Ð»Ð¸ÑģÑĮ
ĠÐµ ÑģÑĤÐµÑģÑĤÐ²
Ðķ Ð³Ð¾
ĠÃ ±
Ġperform ed
Ġdom ain
ĠChampions hips
ĠÐĺÑĤÐ° Ð»Ð¸Ð¸
ri ve
ak s
Ðĺ ÑģÑĤ
ÑĩÐµÐ½ Ð°
ĠÑģÑĥ Ð´ÐµÐ±
Ġsc ript
ĠÐ¿ÐµÑĢÐ² ÑĥÑİ
Ġopp osition
Ð» Ð¾Ð¹
Ð¼Ð¸ Ð½Ð°
Ð¡ Ð¾Ð²
ÑĢÐ°ÑĤÐ¸ ÑĤÑĮ
ĠÐ¿ÑĢÐµÐ² Ð¾Ñģ
3 1
Ð» Ð»ÐµÐºÑĤ
ĠÐ¿ÑĢÐµ Ð·
uild ing
ÑĤÐ¸ Ð½Ð°
ĠL ittle
Ġr ul
9 5
Ġg ave
Ġindividual s
ĠÑĤ Ð¾Ð¹
ĠÐŁ ÐµÑĤ
Ġvol ume
Ġinteg ration
Ġs ources
Ð°Ð½ ÑĤÐ°
Ðĵ ÐµÑĢ
Ġdec ades
Ġsuccess fully
Ð² Ð¾ÑĢÐ¸
Ġb ur
ĠÑĢÐ° Ð½
Ð¡ Ð
Ġest im
iter ran
Ġf uel
ĠC ro
ĠB ad
ell ow
Ġnorm al
ĠT O
ĠÐ³ÑĢÐ°Ð¶ Ð´Ð°
The n
Ġso ft
ĠÐºÐ¾Ð¼ÑĦÐ¾ÑĢ ÑĤ
ĠÐ¼ÐµÑĢÐ¾Ð¿ÑĢÐ¸ÑıÑĤÐ¸ Ð¹
ĠÐ±Ð°ÑģÑģ ÐµÐ¹Ð½
el le
ĠB or
du c
Ġ *
Ð± ÐµÑĢÐ°
ÑĦ ÑĦ
ĠÐĲ Ð·ÐµÑĢÐ±Ð°Ð¹
Ð·Ð¸ Ð°ÑĤ
ĠÐ´Ð¾Ð» Ð³Ð¾Ð²
ÐĲ Ð»
Ġco ol
ĠÑģÐµÐ¼ ÑĮÐ¸
ĠÐ¿Ð¾ÑĤÐµÐ½ ÑĨÐ¸
Ġdig ital
l ov
Ð´Ð¸ Ð½Ð¸
Ġsur face
ĠÑģÐ¼Ð¾Ð¶ ÐµÑĤ
ĠÐºÑĢÐ°Ð¹ Ð½ÐµÐ¹
ĠÑĢÐ¾ÑģÐºÐ¾ ÑĪ
E G
ĠÐºÐ¾Ð¼Ð°Ð½ Ð´Ñĭ
Ð¸Ð³ ÑĢÑĭ
I m
z one
ÑĤÐµÐ»ÑĮ Ð½ÑĭÐ¼Ð¸
Ġval id
he im
ĠÐ·Ð° ÑħÐ²Ð°
ĠÐ¸Ð·Ð´Ðµ Ð»Ð¸Ð¹
Ð¾Ð¹ Ð´ÐµÑĤ
ĠNew spapers
e ch
Â ·
Ġc ook
ing ton
Ġcons ists
ĠÐ¿ÑĢÐ¾Ð´Ð° Ð¶Ðµ
ÑĦÐ¸ÐºÐ° ÑĨÐ¸Ð¸
Ð¸ Ð¿Ðµ
Ð¶ Ð½Ð¾Ð³Ð¾
Ġbey ond
ÑĤÐ° Ðº
ĠO S
ĠÑģÐ¾Ð²ÑĢÐµÐ¼ÐµÐ½ Ð½ÑĭÑħ
Ġeduc ational
Ġattract ive
0 1
Ġp arent
ĠS ound
S c
Ð°Ð½ Ðº
ĠH ol
ian a
Ð¤ Ð¸
M P
Ð³ ÐµÐ»ÑĮ
Ġm aster
ĠSp ain
ĠÐ¼Ð¸Ð½Ð¸ Ð°ÑĤ
Ġturn ed
Ġfram ework
ĠÑĥÐ¿Ð° ÐºÐ¾Ð²
ĠÑħÐ¾Ñĩ ÐµÑĤ
ĠD r
ĠÑģÑĤ ÐµÐº
Ð°Ð»ÑĮ Ð½ÑĭÐ¼
Ġco ord
Ġdid n
Ġrelig ious
P al
Ġs port
ad or
ĠÐ¿ÑĢÐ¸ Ð´
ĠPet ers
an ia
ĠÑģÐ¿ÑĢÐ° Ð²ÐµÐ´
n ail
ien ces
for ce
it ness
Ġh ands
Ġsp ending
ater al
Ñĸ Ð´
ock et
ĠÐºÑĢÑĥÐ¿ Ð½ÑĭÑħ
Ñģ ÑģÐ¸
ĠA G
ĠÑĢÑĭ Ð½Ð¾
ĠSh op
ĠÐ°Ð½Ð° Ð»Ð¸Ð·
ÑĪ ÐµÐ½Ð¸Ð¹
ĠÐ³Ð¾ÑģÑĥÐ´Ð°ÑĢÑģÑĤÐ²ÐµÐ½ Ð½ÑĭÑħ
Ġpeace ful
as ion
Ð¥ Ð¾ÑĤÑı
Ð·ÑĭÐ²Ð° ÑİÑĤ
Ġmem ory
ĠÐ´Ð²Ñĥ Ð¼Ñı
ĠSoc ial
B ar
Ġn a
ĠÐ¿Ð¾ ÑĤÐ¾Ð¼
Ð½Ð¾Ð² ÑĮ
ĠÐ²ÐµÑĢ ÑģÐ¸Ñı
ock tail
Ġeven ing
ĠÑħÐ¾ ÑĤÐµ
ĠMus lim
he nt
ĠÐ»Ñİ Ð±Ð¸
ens es
ĠÑģÐ¾Ð³Ð»Ð° ÑĪÐµÐ½Ð¸Ñı
ĠÐ¸ÑģÐºÐ»ÑİÑĩÐ¸ ÑĤÐµÐ»ÑĮÐ½Ð¾
e k
ĠÐ½Ð° ÑĪÐ°
Ġgr ant
Ġex ten
ÐĲ Ð´
ĠÑĦÐ¾ÑĢ Ð¼Ðµ
ĠÐ¾ ÑĩÐ¸
ÑģÐº Ð¾Ð»ÑĮÐºÐ¾
ĠÐ¿Ð¾Ð»ÑĥÑĩÐ¸ Ð»
ĠÐ°Ð± ÑģÐ¾Ð»ÑİÑĤ
Ġs an
ÐĴ ÐµÑĢ
ĠÐ½Ð¾Ð² Ð¾Ðµ
Ġperson nel
ul ate
Ð»ÐµÐ½ Ð½Ð¾Ð¹
Ġk il
ĠÐ¿Ð° Ð»ÐµÑģÑĤÐ¸Ð½
Ð¸ Ð³ÑĢÐ°
cl ass
ĠÑĥÑģÑĤÑĢÐ¾Ð¹ ÑģÑĤÐ²Ð°
a ctions
ĠÐĴ ÐĴÐŁ
Ġtrans form
ĠÑĦÐµÐ²ÑĢÐ° Ð»Ñı
Ġcompar ison
Ġcomprehen sive
Ġc r
ĠÐĲ ÑĦ
ÐĶ ÐµÐ¹ÑģÑĤÐ²Ð¸
ĠÐ¿Ð¾ÑĢ ÑĤÐ°
ĠÐ¸ÑģÑģÐ»ÐµÐ´ Ð¾Ð²Ð°
ĠÐ°ÑĢÑħÐ¸ÑĤÐµ ÐºÑĤÑĥ
S uch
Y our
Ġs ch
Ġengine ering
Ġbir th
ĠÑģÐµÑĢÐ´ ÑĨÐµ
Ġaccord ance
A G
ĠÐ½Ð° Ð»Ð¸ÑĩÐ¸
ĠA ff
ĠÐŁ Ð¸
Ġtemper ature
F acilities
or ial
ĠA L
Ð²ÐµÑĤ Ð°
ĠÐ°Ð²Ð³Ñĥ ÑģÑĤÐ°
ÐĶ Ð¡
Ð¸ÑĤ Ð¾Ð²
ĠV ict
ĠÐŃÐº ÑģÐ¿
ÑĢ Ð¾ÑĤ
Ñī ÐµÐ½Ð°
ÐºÑĤÐ¸ ÑĩÐµÑģÐºÐ¸
ĠÐºÐ¸ Ð½Ð¾
ar io
ĠC y
oun g
A IDS
Ð¸ ÑĤÑĮÑģÑı
Ð¢ Ðŀ
ĠV ers
ĠÐ²ÑĭÑģÐ¾Ðº Ð¾Ð³Ð¾
Ġd ream
ĠÐ¿Ð¾Ð» Ð½ÑĭÐ¹
ĠÐ¿Ðµ ÑĩÐ°
Ġavail ability
Ġbor der
Ð¼Ð° Ñı
ĠÐŀÑĢ Ð³Ð°Ð½Ð¸
I X
Ġrev olution
ĠÑĦÐ¸Ð½Ð°Ð½ÑģÐ¾Ð² Ð¾Ð³Ð¾
Ġexpen sive
áĥĶ áĥ
C C
ĠC amp
Ġbu g
ĠÑģÑĤÑĢÐ° Ð½Ð°
Ġpre d
ĠÐ¿Ð¾Ð»Ñĥ ÑĩÐ°ÑĤÑĮ
l ines
ar c
Ð°Ð½ Ñģ
Ð¥ Ð°
ĠÐ¸ Ð¼Ð¸
ĠÐ¸ ÑĤÐ°Ð»ÑĮÑıÐ½
ou d
Ġsa una
T R
ĠG DP
Ġch urch
ĠÐ¾Ñģ Ð²Ð¾Ð±
Ġaltern ative
ĠÐ¿Ð°ÑĢ ÑĤÐ¸Ñı
ĠÐ¿Ð¾Ñģ ÐµÑĤ
Ġrenov ated
Ð»Ðµ Ð³Ð°Ð½ÑĤ
Ġtest ing
Ð¾ÑĢ ÑĥÑģ
Ð»ÑĮ Ð½Ð¾Ð¼
ÐºÐ¸ ÑģÑĤÐ°Ð½
ĠÐ²Ðµ Ð»Ð¾Ñģ
Ġconc ent
ĠÑĥ ÑĤ
Ġ( "
ĠL eg
ĠR el
ĠCle aning
as y
Ġfor um
Ġw all
ot o
ĠÐĴ ÑģÐµÐ¼Ð¸ÑĢ
ran ce
3 2
D F
ĠÐ½Ð° ÑĩÐ¸Ð½Ð°Ñı
ab in
ĠÐ¼ÐµÑĢÐ¾Ð¿ÑĢÐ¸ÑıÑĤÐ¸ Ñı
Ð¸Ð¼ÑĩÐ¸ ÑģÑĤÐºÐ°
Ñį Ðº
ĠÐŀ Ð½
eng th
ĠAng el
ĠÐ»Ð¸ÑĨÐµÐ½ Ð·Ð¸
M L
ĠÐĴ ÐµÑĢ
ÑĨÐµ Ð¿
ric e
ual ity
ĠÐ¶ÐµÐ»ÐµÐ· Ð½Ð¾Ð´Ð¾ÑĢÐ¾Ð¶
b s
Ġd im
Ġthan ks
Ġmain ly
ĠÐ²Ð»Ð° ÑģÑĤÑĮ
Ban quet
Ġf ant
Ð¡ Ð¾Ð³Ð»Ð°
ĠÐļÐ¸ÑĤÐ° Ðµ
ĠA IDS
ĠL oc
ĠN AT
etw orks
Ġinf lation
Ġlaw s
ĠÑĢÐ°Ð·Ð¼Ðµ ÑīÐµÐ½Ð¸Ð¸
ĠÐ¿ÑĢÐµÐ´Ð¾ ÑģÑĤÐ°Ð²Ð¸ÑĤÑĮ
Ñĩ Ð½ÑĭÐ¼Ð¸
ĠG lobal
ĠÐ²Ñĭ Ð½Ñĥ
Ð½Ñı ÐµÑĤ
Ġvot re
ĠÑĩÐµÑĤ Ð²ÐµÑĢ
_ _
ĠÐ¿ÑĢÐ¸ Ð²ÐµÑĤ
Ð°Ð¼ Ð±
Ð¸ÑĤ Ð²Ð°
ÑĤÐ¸Ð² Ð½Ð¾Ð³Ð¾
ĠÑĥÑģÐ»ÑĥÐ³ Ð°Ð¼
ab ilities
ĠÐ¿ÑĢÐ¸ Ð²ÐµÑģÑĤÐ¸
ĠÐ±Ð¾Ð»ÑĮÑĪ ÑĥÑİ
Ġsett ings
ol es
ĠÑį Ð¿Ð¸
Ġst ations
ĠÐ¸ÑģÐ¿Ð¾Ð»ÑĮÐ· ÑĥÐµÑĤ
ĠÐºÐ¾Ð½ÑĨÐµ Ð¿
ĠÑĢÐµÐºÐ¾Ð¼ÐµÐ½ Ð´Ñĥ
Ðµ ÑĦ
ÑĢÐ¾Ð²Ð° Ð½Ð°
ĠÐĳÐ°Ð½ ÐºÐµÑĤÐ½ÑĭÐ¹
ĠÐ¿Ð°Ð¼ ÑıÑĤ
Ð³ ÑĢÐ¸
Ð»ÐµÐ½ Ð½Ð¾
Ġcl osed
ĠÑĥÐ½Ð¸ ÑĩÑĤ
Ġcomb ined
ĠÐ½Ð° Ð·
ric k
ĠÑģÐ»ÑĥÐ¶ Ð±Ñĭ
Ġfamil ies
Ġa id
Ð»Ñı ÐµÑĤÑģÑı
ĠÐ¾Ð± ÑĥÑĩÐµÐ½Ð¸Ñı
ĠÑı Ð²
Ġres pond
ĠÐ·Ð°Ð¿ ÑĥÑģÐºÐ°
ĠÑĢÐ¾Ð´ Ð¸
Ġprofession als
Ġw in
Ġb orn
ĠÐ» Ð¾Ðº
ab il
ĠÐ¸Ð½ Ð´ÑĥÑģÑĤÑĢÐ¸
ĠÐ½Ð°Ð¿ÑĢÐ°Ð² Ð»ÐµÐ½Ð¸Ñı
ĠÑĢÐµÐ»Ð¸Ð³Ð¸ Ð¾Ð·
Ġ âĤ¬
Ð´ÐµÑĢ Ð¶Ð°
ĠÐ½ÐµÐ¾Ð±ÑħÐ¾Ð´ Ð¸Ð¼Ð¾ÑģÑĤÑĮ
Ġart icles
Ð´Ð¶ Ð°Ð½
Ġsem in
Ã© e
ĠÐłÐ¾Ñģ ÑģÐ¸Ñı
Ġn et
ĠP akistan
ĠW omen
Ġass ets
Ġemer ging
ĠDis abled
s ych
Ðķ ÐĽ
Ġimp os
e et
Ġan aly
ÑĥÐ»ÑĮ Ð¼Ð°Ð½
Ġind ex
ĠÐ¾ÑģÑĤ ÑĢÐ¾Ð²Ð°
Ð± ÑĢÐ°Ð½
ÑģÑĤÐµÐ¼ Ð°
ĠÐ½Ð¸ Ð¼Ð¸
air man
ĠÑĦÑĥÐ½Ðº ÑĨÐ¸Ð¾Ð½Ð°Ð»ÑĮ
ĠÐ·Ð°Ð´Ð° Ñĩ
ĠT re
ĠÑĢÐµÐ·ÑĥÐ»ÑĮÑĤÐ° ÑĤÐ¾Ð²
ĠÐ¿ÑĢÐ¾Ð¸Ð·Ð²Ð¾Ð´Ð¸ ÑĤÐµÐ»ÐµÐ¹
Ġt ro
ĠÑģÑĤ ÐµÐ½
ĠÐ¡Ð°Ð½ ÐºÑĤ
T V
ĠÐĳ ÐµÐ»
Ġvers ions
ĠÐ¾Ð¿ÐµÑĢÐ° ÑĨÐ¸Ð¸
ĠSu ite
9 9
at i
Ġd Ã©
ĠB razil
ÑĥÑģ Ð»Ð¾Ð²
Ġgo es
ÑĢÐ¾Ðº Ð¸
ĠÑĤÐ¸ Ð¿
ĠÐĲÑĢÐ¼ ÐµÐ½Ð¸Ð¸
ÑĬ ÐµÐ·Ð´Ð°
ĠÐ½ÑĥÐ¶ Ð´Ð°
ĠÑĢÐµÐ³Ñĥ Ð»ÑıÑĢ
ur ies
ĠÐ¿Ð¾Ð» Ðµ
Ðĵ ÑĢÐ°Ð½
ĠÐ²ÐµÑĢ Ð½Ñĥ
ĠÐ¿ÑĢ Ð¾ÑĤ
Ð¾Ðº Ð¸
ÑĩÐ° ÑİÑĤÑģÑı
ĠÐŁ Ð¾Ð´
u j
Ġn orth
Ġint ended
ĠÑĢÐµÐ³Ð¸ÑģÑĤÑĢÐ° ÑĨÐ¸Ñı
ĠÐ² ÑħÐ¾Ð´Ð¸ÑĤ
ĠÐľ Ð¾Ð½
ÑĢÐµÐ¼ Ñı
ĠÐ±Ð°ÑģÑģ ÐµÐ¹
ĠÐ¸Ð½ÑĦÑĢÐ° ÑģÑĤÑĢÑĥÐºÑĤÑĥ
' ve
C ent
Ġ ),
Ġ ÑĢÐ¾Ð¼
Ġst ru
ĠÐ¥ Ð¸Ð¼ÑĩÐ¸ÑģÑĤÐºÐ°
ĠÑģÐ¾Ð³Ð»Ð° Ñģ
Ð°ÑģÑģÐ° Ð¶Ð¸
Ġe arn
ĠÐ° ÐºÐ°Ð´ÐµÐ¼Ð¸
ev a
ĠÐ·Ð°Ð½Ð¸Ð¼Ð° ÐµÑĤ
ĠÑĥÐ±Ð¸ Ð¹
ĠÐ¡ ÐŁÐĺ
ore r
ĠÐºÐ°ÑĢ ÑĤÐµ
ĠÐ¾ÑĢÑĥÐ¶Ð¸ Ñı
an c
ĠAust ral
ĠÑģÐ¾Ð²ÐµÑĢÑĪ ÐµÐ½Ð½Ð¾
ĠÐ² Ð¾ÑĤ
Ð¹ s
ĠÐ¼Ð°ÑĢ ÐºÐµÑĤ
ĠÐ¿ÑĢÐµÐ´ÑģÑĤÐ°Ð²Ð¸ ÑĤÐµÐ»ÐµÐ¹
ĠÑģÐµÐº ÑĤÐ¾ÑĢÐ°
ĠÐ·Ð²ÐµÐ· Ð´Ñĭ
ĠÐ²ÐµÐ»Ð¾Ñģ Ð¸Ð¿Ðµ
F ree
Ġm ut
ÑĪ ÐµÐ½Ð¸Ñİ
Ġres ol
ĠÑįÐ»ÐµÐºÑĤ ÑĢÐ¸
ĠTurk ish
ĠÑĢÐ° ÑģÑĤÑĥ
ĠÐ´Ð¸ Ð°Ð»
Ġcontem porary
Ñĩ ÐµÐ½Ð¸ÐµÐ¼
ich ael
ĠÐ²Ð° ÑĪÐ¸
ĠÐ¾ÑģÐ½Ð¾Ð² Ð½Ð¾Ð¹
ĠÐ²ÑĭÐ±Ð¾ÑĢ Ð¾Ð²
ĠÐ¶ Ð¸Ð»
ĠÑģÐ¸ÑģÑĤÐµÐ¼ Ð¾Ð¹
Ð²Ñĭ ÑĩÐ°Ð¹
ĠÐ¿Ð¾Ð»Ð¸ÑĤÐ¸ ÐºÐµ
ĠÐ½Ñĭ Ð½ÐµÑĪ
Ġc am
st all
ĠÐŁ ÑĢÐ¾Ð³ÑĢÐ°Ð¼
ĠÐ´Ð°Ð½ Ð½ÑĭÐ¼
ĠÐ¾ÑģÐ½Ð¾Ð² Ð½ÑĭÐµ
ĠÐ²ÑĭÐ± ÑĢÐ°Ð½
ĠÐ¾Ð±Ñı Ð·Ð°Ð½
ĠÐ²Ð¾Ðº ÑĢÑĥÐ³
Ã ¦
is ure
ĠÐ²Ð¼Ðµ ÑģÑĤÐ¾
Ġh um
ch a
ĠE ner
ĠH uman
ĠÐ½Ð°ÑĩÐ° Ð»Ð¾
ĠÑģÐ¾Ð±ÑģÑĤÐ²ÐµÐ½ Ð½Ð¾ÑģÑĤÐ¸
ĠÐ¿ÐµÑĢÐµÐ´Ð° ÑĩÐ¸
Ġbrow ser
P ar
ĠÐ´Ð¸Ð·Ð° Ð¹Ð½
ĠÐ¾Ð± Ð»Ð¸
ĠG i
ĠÐ¸ÑģÐ¿Ð¾Ð»ÑĮÐ· ÑĥÑİÑĤÑģÑı
ÐµÐ¼Ð° Ñı
Ġthumb nail
ĠÐ² Ð½Ð¾Ð²ÑĮ
Ð»ÑĮ Ð·Ñı
ĠÐ·Ð½Ð° ÑĩÐµÐ½Ð¸Ñı
ĠÑĢ Ð¾Ð»Ð¸
ĠÑĢÐµÐ·ÑĥÐ»ÑĮÑĤÐ° ÑĤ
ĠChrist ian
ĠPeters burg
Ġun a
ÐºÐ¾Ð½ ÑģÑĤÑĢÑĥ
Ġpur pos
lev ant
ĠWh ite
Ð·Ð²ÐµÐ·Ð´Ð¾Ñĩ Ð½ÑĭÐ¹
ĠÐ¾Ð±ÑĬÐµÐºÑĤ Ð¾Ð²
ĠÐ½ Ð¾Ð²Ð°Ñı
Ġb oot
ĠÐ¾ÑĤ Ð»Ð¸ÑĩÐ¸Ðµ
Ġbe comes
ĠÐ» Ñĭ
ĠG reen
Ġobject s
Ġaim ed
ĠÑģÐ¾Ð¶ Ð°Ð»
C D
ĠÐ²ÐµÑĢ Ñħ
ĠÐĲÐ¼ÐµÑĢÐ¸ ÐºÐµ
Ġcharm ing
ĠÐ·Ð´ÑĢÐ°Ð²Ð¾Ð¾Ñħ ÑĢÐ°Ð½ÐµÐ½Ð¸Ñı
ĠEng land
ĠÑĢÐ°ÑģÑħÐ¾Ð´ Ñĭ
ĠKy iv
R es
p ed
Ð¾Ð¶ Ð½Ð¾
ÐŁ Ñĥ
Ġjo in
ĠÑģ Ñĩ
Ġsk in
ĠW hen
Ġte levision
az ine
ĠÑģÐµÑĢ Ð¸Ð¸
Ġgu ide
Ġz one
d ate
Ġs en
ÑĨ ÐµÐ¹
ĠÐ¿Ð¾Ð» Ð°Ð³Ð°
Ð¿Ð°ÑĢ ÑħÐ¸Ñı
ĠÑĢÐ°Ð·Ð²Ð¸Ð²Ð° ÑİÑīÐ¸ÑħÑģÑı
Ġh yd
ÑīÐµÑģÑĤÐ² Ð°
ĠÐ¿Ð¾Ð¼ Ð¾Ð¶ÐµÑĤ
ĠBo ard
s he
ĠÐ¶ ÐµÑĢÑĤ
ĠÐĲ ÑģÑģ
Ġrem ained
Ã¥ Ã±
ag en
200 7
Ġaccount s
ĠÐ´Ð¾Ð² Ð¾Ð»ÑĮÐ½Ð¾
ĠÐ·Ð° Ð¼ÐµÐ½
pp ed
ĠÐ¿Ð¸ ÑģÐ°
D on
Ġal one
ĠÐ¿Ð¾Ð´ Ð°ÑĢ
mit ted
fort un
ĠPol ish
ĠÐ¿Ð¾Ð»ÑĥÑĩÐ¸ Ð»Ð¸
ober t
ÑĨ Ð°Ð¼
ĠÐ° Ð¼
ĠN ow
ĠÐ²Ð¸ Ð´Ñĭ
Ġvis ited
ĠÐ¸ Ð´ÐµÐ½
ÑĤÐ¾ ÑģÐ¿Ð¾ÑģÐ¾Ð±
ĠÐ´ÑĢÑĥ Ð³Ð¾Ðµ
ĠÑĢÑĭÐ½ ÐºÐ¸
ĠÐ¡Ð¾ ÑİÐ·Ð°
Ġincreasing ly
and y
ĠÐ±Ñĥ Ðº
Ġsa w
ĠIs lam
ĠÐ¾Ð±ÑīÐµÑģÑĤÐ² Ð¾
ĠPe ople
Ġliter ature
S E
Ð»Ð° Ñħ
ÑĢÐ¾Ð²Ð° Ð»
Ġob tain
ĠÑģÐ»ÑĥÑĩÐ° Ð¹
arl ier
ĠÐ¾ÑģÑĥÑīÐµÑģÑĤÐ²Ð»Ñı ÐµÑĤÑģÑı
ĠÐ½Ðµ Ð»ÑĮÐ·Ñı
Ġappre ci
f ord
Ġa ware
ĠÐ¼Ð¸ Ð½Ð¸Ð¼Ð°
Ġmeet ings
ÐļÐ¾Ð½Ðµ ÑĩÐ½Ð¾
st ra
Ġar rest
ÑĨÐ¸Ð¾Ð½ Ð½Ð°Ñı
Ð¼ Ñģ
ĠB ig
ĠG ra
ĠÐ¾ÑĤÐ½Ð¾ÑģÐ¸ ÑĤÑģÑı
Ġdetail ed
Ġparam eters
ÑģÑı ÑĤ
ÑģÑĤÐ²Ð¸ ÐµÐ¼
ĠÑĥÐ´Ð¾Ð² Ð¾Ð»ÑĮ
ĠI D
Ġpo ver
Ġ7 5
Ġimport ance
Ġpract ical
T O
ot ed
Ġpre st
ĠÐ²ÑĭÐ¿Ð¾Ð» Ð½ÐµÐ½Ð¸Ñı
ĠÐ³Ð»Ð°Ð² Ð½ÑĭÐ¼
Ð¾ ÑģÑĤÑĮ
Ð° Ð²
Ġst ory
Ġdis k
Ġla unch
ĠÐ²ÑĭÐ± ÑĢÐ¾Ñģ
Ġweap ons
Ġre ality
ĠW ater
Ġsp l
ĠÐ¿Ð°ÑĢÑĤ Ð½Ðµ
ĠÐ¡ÐµÐ²ÐµÑĢ Ð½Ð¾Ð¹
ĠÐ¼Ð¸Ð½Ð¸Ð°ÑĤ Ñİ
ÐµÐ½ Ð½Ð¾Ð¼
an cy
P e
Ð¾ÑĤ ÑıÑĤ
ĠÑĢÐ° Ð´Ñĭ
ÐĲÐ¢ Ðŀ
Ġpover ty
Ġ rom
ĠÐ± Ð¾Ð³Ð°
ĠI V
Ġ198 9
ĠÐ¾Ð¿ÑĤÐ¸ Ð¼Ð°
Ð»ÑĮ Ð½ÑĭÐ¼Ð¸
ĠP ut
A V
ĠÐ¾ Ð·
as ks
pl ace
Ġunderstand ing
ĠÐ±ÑİÐ´Ð¶ ÐµÑĤ
c at
ĠÐ¿ ÑıÑĤÑĮ
om as
Ġtechn ological
Ġmeas ure
Ġh ab
ĠÐ½Ðµ Ð¿ÑĢÐµ
ĠL im
ÐºÐ¾ ÑģÑĤÑĮ
ĠÑģÑĤÐ° ÑĤÑĥÑģ
ĠÐĲ Ð´
Ġoff ices
ĠÐ¿Ð¾Ð´Ð´ÐµÑĢ Ð¶Ð°
ĠÐ® ÐĿ
o very
Ġs ights
Ġs leep
ar p
Ġm atch
ĠÐ¿ÑĢÐ¸ ÑĪ
ĠÑĥÐ´Ð¸ Ð²Ð¸
d i
ÑīÐ° ÑĤÑĮÑģÑı
ĠÑįÐºÐ¾Ð½Ð¾Ð¼Ð¸ ÑĩÐµÑģÐºÐ¸Ñħ
G ood
w ork
ĠB and
Ġex cept
Ðł Ðĺ
lo ok
ĠÐ¿ÐµÑĢ ÐµÐ½
ĠÐ½ÐµÐ¼ Ð½Ð¾Ð³Ð¾
ĠÐºÐ½Ð¾Ð¿ ÐºÑĥ
ĠÐºÐ¾Ðº ÑĤÐµÐ¹
ĠÐ²Ñĭ ÑĢÐ°Ð¶
Ġcomp ared
ĠÐ±Ð¾Ð»ÑĮ ÑĪÐµÐ¹
Ġmanag ed
P C
ig e
ĠÐ½ÐµÑĦ ÑĤÐ¸
ĠÐ·Ð´Ð¾ÑĢÐ¾Ð² ÑĮÑı
ÐŁ ÑĢÐ¾Ð²
Ð¾Ð¿ Ð¸Ñģ
ĠU zbek
ĠÐºÐ¾Ð¼ Ð¼ÐµÐ½ÑĤÐ°
ĠÐľÐ¾ÑģÐº Ð²Ðµ
ĠÐ¼ÐµÑģÑĤ Ð½ÑĭÑħ
ĠÐ°ÑģÑģ Ð¾ÑĢÑĤÐ¸
ĠT y
Ð´Ð¸ Ð°
Ġte ac
Ġveh icle
ĠÐ¿ ÑıÑĤ
Ð¾ÑĢ Ð´Ð¸Ð½Ð°
Ð¾Ð½ Ñĥ
ĠJ es
Ð°Ð¹ ÑĤ
Ġrev iew
uk e
ĠÐ¿ÑĢÐµÐ´Ð¿ÑĢÐ¸ÑıÑĤÐ¸ Ðµ
ÐºÐ¾Ð¼Ð¸ ÑĤÑĮÑģÑı
ol o
ĠÐ¿ÑĢÐ¾Ð´Ñĥ ÐºÑĤ
An y
Ġpass ed
Ġfundament al
Ġl as
ist ory
ĠD J
Ġacc ur
Ġdef ined
ĠÑĨÐ²ÐµÑĤ Ð°
od ies
ens ions
ĠÐ¿Ð¾Ñĩ ÑĤÐ¾Ð²
on ic
ĠÐ² ÐµÑĤ
ĠÐ¸Ð· Ñĥ
Ġv an
Ð³Ð¾Ð² Ð¾ÑĢ
ĠÑĥÑĩÐ°ÑģÑĤÐ¸ Ñı
ĠChampions hip
Ġ id
Ġm other
ĠÐ¼ Ð¾Ð½Ð°
Ð¾ÐºÐ° ÑĩÐµÑģÑĤÐ²
ĠÑģÐ²Ð¾Ð±Ð¾Ð´ Ñĭ
ĠBrit ain
ĠDi ocese
ĠÐ·Ð° Ð²ÑĤÑĢÐ°Ðº
ĠD ark
ĠO s
pp ort
Ñĳ Ð»
or i
ee ks
Ġim ag
ond s
Ġfin ance
3 7
w ing
Ð ©
ĠÑĥ Ð²Ð°
ĠÑĥ ÑĩÐµÐ½
ĠE mp
ĠÐ¿Ð¾Ð´ ÑĩÐµÑĢ
ĠÐ¿ÑĢÐµ ÑģÑĤÑĥÐ¿
A g
ĠÐ² Ð¿ÐµÑĢÐ²ÑĭÐµ
Ġn or
Ġag g
Ġ199 3
ĠÐ³Ð»ÑĥÐ± Ð¾Ðº
Ġto ward
ress ed
v i
ro g
ĠÐ·Ð° Ð¼ÐµÑĤ
ĠÐ¾ÑĤ Ð¾Ð±ÑĢÐ°
Ġch osen
Ġqu ant
Ġprom ote
ĠÑģÑĤÑĢÐ° Ð½Ð°Ð¼Ð¸
Ðķ Ð¿Ð°ÑĢÑħÐ¸Ñı
ĠÑģÐ¾Ð¾Ð± ÑīÐµÐ½Ð¸Ðµ
M on
U kra
ĠÐ°Ð´ ÑĢÐµ
ĠÐ¿ÑĢÐ¾Ð´Ð° Ð¶Ð¸
ĠÐ¿ÐµÑĢÑģ Ð¾Ð½Ð°Ð»ÑĮ
ĠÑģ ÐºÐ¸Ð´
Ġc ere
Ð¼Ð° Ñħ
II I
Ġcoll abor
it ting
ĠÐŃÑĤÐ¾ ÑĤ
'''' ''''
Ġfl at
ĠÑĤÐµÐ»Ðµ Ð²Ð¸Ð´
iÄ ĩ
Ð·Ð¸ ÑĢÐ¾Ð²Ð°ÑĤÑĮ
ign ed
Ġbeg in
ĠÐ¸ ÑģÐºÐ°
Ġb right
Ġm m
ĠIn formation
ĠÐ¿ÑĢÐµÐ¿ Ð¾Ð´Ð°
e ur
ĠÐ¸Ð½ Ð¾Ð³Ð´Ð°
ĠÐ¿ÑĢÐ¸Ð½Ð¸Ð¼Ð° ÑĤÑĮ
ĠRo ad
ĠÐºÐ»Ð¸Ð¼Ð° ÑĤÐ°
ĠÑģÑĤÐ°Ð½ ÑĨÐ¸Ð¸
os ite
ĠT im
Ġmet ro
ĠÐ¿Ð¾Ð´Ð´ÐµÑĢÐ¶ ÐºÐµ
Ġfail ed
o oth
Ð¾ ÑĩÐ¸
Ġl iquid
b ank
h an
m at
av en
ĠÑĢÐ°ÑģÐ¿ ÑĢÐµÐ´Ðµ
ĠÐ²Ð¾Ñģ Ð¿ÑĢÐ¸
Ð»Ð¸Ð· Ð¼
F in
ÑĤÐ¸ ÐµÐ¼
Ġ1 20
ÑĩÐµÐ½ Ð¾
ĠÑģÐµÑĢ Ð²ÐµÑĢÐ°
Ġinnov ative
Ġcateg ory
Ð¼Ð¸ ÑĤÑĢÐ¸
Ġe c
Ġkind s
ĠÃ Ń
Ġcreat ive
' m
Ð¡ Ð¿Ðµ
Ġinvest ments
Ġauthor ity
Ġwr ong
d o
Ð¾Ð² Ð¾Ð³Ð¾
ĠV illa
ĠÐĴÐ»Ð°Ð´Ð¸Ð¼Ð¸ ÑĢ
Ã º
av ig
Ġpri mary
ĠÐºÐ°ÑĤÐ° Ð»Ð¾Ð³
Ġmess ages
S et
Ð¾Ð¿ ÑĢÐ¾
ĠFor um
Ġbook s
ĠÐ²ÐºÑĥ Ñģ
Ġpurpos es
Ġsu ites
ĠÑĦ ÑĥÐ½Ð´Ð°
ÐµÐº ÑģÐ¸
ĠCl ass
Ġdoll ar
Ð¾ÑĤ Ñĥ
ĠÐ¿Ð¾Ð» Ð½Ð¾Ð¹
ĠÐ® Ð¶Ð½Ð¾Ð¹
Ġwant ed
Ġel se
ĠGeorg ia
ĠGN U
Ðµ Ñı
ĠW ay
ĠÐ¡ ÑĤ
Ð²ÑĪÐ¸ ÑģÑĮ
Ġto w
Ġd ivid
Ð¿Ð¸ÑģÐ° Ð½Ð¸Ðµ
ĠÐ¿ÐµÑĢÐµ Ð¼Ðµ
Ð»Ñİ Ð¼Ð¸
ĠÐºÑĢÐ¾Ð²Ð° ÑĤ
4 4
ÐĶÐ° Ð¶Ðµ
ĠÑģÐµÐ³Ð¾Ð´Ð½ÑıÑĪ Ð½Ð¸Ð¹
Ġj e
Ġper haps
Ġc ars
em a
Ġsc ale
ĠÐ³Ð»Ð° Ð¶ÐµÐ½Ð¸Ñİ
Ð¾Ñħ Ð¾Ð·ÑıÐ¹
ĠIron ing
Ġlaun ched
Â º
ar ily
Ġn om
ĠP g
ĠÐ²Ñĭ Ð³Ð»Ñı
ĠÑģÐ»ÑĥÑĩÐ° ÐµÐ²
ĠÐ¼ÐµÑĤ ÑĢÐ¾
ĠB as
Ð¾Ñĩ Ð½Ð¾Ð¹
ĠÐ¼Ð°ÑĪÐ¸ Ð½Ñĭ
ĠÐĺÐ·ÑĢÐ°Ð¸ Ð»Ñı
ĠS pe
Ġg iving
Ð°Ð½ ÑĤÐ¸
Ð¦ ÐµÐ½ÑĤ
Ġcondition ing
Ġhost els
re ets
ĠA D
ĠÐ¸Ð½ÑģÑĤÑĢÑĥ Ð¼ÐµÐ½ÑĤ
Ġa us
ÑĩÐ¸ Ð½Ñĭ
ĠÐĵ ÐµÐ½
ĠÐ¸Ð½ÑĤÐµ Ð»Ð»ÐµÐºÑĤ
Ð¾Ð² Ñĭ
ĠO l
Ðĵ Ð»Ð°Ð²
Ġfl ow
ĠÑįÐºÑģÐº ÑĥÑĢ
Ġmechan ism
Ġm ig
Ð»Ðµ Ð²
if ying
Ġv oc
ĠÐ³Ð¾ÑģÑĥÐ´Ð°ÑĢÑģÑĤÐ²ÐµÐ½ Ð½Ð¾Ð³Ð¾
Ġcal cul
ĠÑģÑĤÑĢÐ°ÑĤÐµ Ð³Ð¸Ð¸
Ï Ħ
ĠÑĤÐ° ÑĢÐ¸ÑĦ
ĠW all
ĠÐĳ Ð»Ð¸
ĠÐĿ Ð¾ÑĢ
Ġiss ued
ĠÐ¾Ð±Ð½Ð° ÑĢÑĥ
Ġk ernel
ru ption
ĠÐ³Ð° Ð·Ð°
ĠÑĢÐ°Ð´Ð¸ Ð¾
ĠÐ±Ð¾ÑĢÑĮ Ð±Ðµ
Ġmultip le
Ġre b
ĠL ike
ĠÐ¿Ð¾Ð´ ÑħÐ¾Ð´Ñı
ÐĶ Ð¾Ð¼
ĠÐ¾Ð¿ Ð¿Ð¾Ð·Ð¸
ĠÐĴÐ° Ð¼Ð¸
ĠÐ³Ð¾ÑĢÐ¾Ð´ Ð¾Ð²
ĠÐłÐ¾ÑģÑģÐ¸Ð¹ ÑģÐºÐ¾Ð¹
k er
ĠÑģ ÐµÑĤÐµ
Ð¾Ð² Ð¾Ð»ÑĮ
ĠÐ¼ Ð¾Ð´ÐµÑĢ
ĠÐŁ Ðµ
ĠÐ¾Ñģ Ð²Ðµ
Ġnew ly
Ġfir ms
ĠÑģ Ð»Ð¾
Ð¾ÑĢ Ð¸Ð·
ĠÐ¿Ð¾Ð´Ð´ÐµÑĢÐ¶Ð¸Ð²Ð° ÐµÑĤ
Ġse cret
ĠAr my
Ġm icro
Ġre ve
ĠÑĤ Ñİ
ĠN ice
ÑĢÐ¾Ð²Ð° Ñı
ov ich
Ġwe ak
ĠÐĶ Ð»Ñı
ĠÐ±Ð¾Ð»ÑĮ ÑĪÐ¸Ðµ
ĠÑģÐ¾ÑħÑĢÐ° Ð½Ð¸ÑĤÑĮ
xim ately
ĠÐ°Ð½Ð°Ð» Ð¾Ð³Ð¸
Ġexten sive
ĠÐºÐ¾ÑĤÐ¾ÑĢ ÑĭÐ¼Ð¸
Ġsty lish
ĠÐºÐ¾Ð¼Ð¿Ð»ÐµÐº ÑģÐ°
ĠÐĴÐ¾ ÑģÑĤÐ¾ÑĩÐ½Ð¾Ð¹
Ð½Ð¸ ÑģÑĤÐ¸
Ġd riv
Ñī ÐµÑĢ
ĠÑģÐ¾ ÑģÑĤÐ°
hed ral
stan ces
ĠÐ¿Ð¾ÑģÐ²Ñı ÑīÐµÐ½
Ðļ Ð°Ð¼
lect ual
ĠUn der
ĠÐ¿ÐµÑĢÐ² ÑĭÑħ
ĠÐ¿Ð¾ÑģÐµÑĤ Ð¸ÑĤÑĮ
P art
at ers
al ed
ĠÑĢÐ° Ð·Ð°
qu ality
ĠÑģÐ¸ Ð»ÑĮÐ½Ð¾
EN T
ĠÑģÐ¾Ð±Ñĭ ÑĤÐ¸Ð¹
Ġo d
Ġf ab
Ġful f
Ġlic ense
ĠÐ¸ Ð´ÐµÑĤ
ĠÐ° Ð¿Ð°ÑĢÑĤÐ°
Ġreform s
ĠÐ¼Ð°ÑĤÐµÑĢÐ¸ Ð°Ð»Ð°
ĠÐ³Ð¾ÑĤÐ¾Ð² Ñĭ
ĠPort ug
am ing
Ġtry ing
ĠÐķÐ²ÑĢÐ¾Ð¿ÐµÐ¹ ÑģÐºÐ¾Ð³Ð¾
ĠÐľÐĴ Ð¤
Ð¾Ð» ÑĩÐ°
ĠÐ¡ Ðµ
pro of
l or
ĠÐº Ð»ÑĥÐ±
Ðĳ ÐµÐ·
ĠÐ±Ð¾Ð»ÑĮ ÑĪÐ°Ñı
Ġmin imum
os a
ÑĥÐ´ Ð¾Ð²
ÑīÐ¸Ñħ ÑģÑı
Ġcol d
ĠÐ´ÐµÐ¹ÑģÑĤÐ²Ð¸ ÑĤÐµÐ»ÑĮÐ½Ð¾ÑģÑĤÐ¸
ĠÐĶÐ¶ Ð¾ÑĢ
ĠÐ°ÑģÑģ Ð¾ÑĨÐ¸Ð°
Ġ2 50
ĠÑĤÐ° Ð¹
ill er
Ðķ Ð¢
Ġar my
ÑĤÑĥ ÑĢÐµ
ĠÐ¿Ð¾Ð»ÑĮÐ·Ð¾Ð²Ð° ÑĤÐµÐ»ÑĮ
ĠÐºÑĥÑĢ ÑģÐ°
Ġchalleng es
ĠCong ress
Ð½Ð¸ Ð²ÐµÑĢÑģÐ¸
Ġwill ing
ĠX V
Ġfact ory
Ġparticip ate
ĠÐļÐ¾Ð½ÑĦÐµÑĢÐµÐ½ ÑĨ
h o
ce an
ÐµÑģÐ¿ Ð¾ÑģÐ¾Ð±
Ġadv ance
ĠÐ³ Ð³
ĠÐ´Ð° ÑĤÑĮ
Ġdec isions
Ġopin ion
0 6
ĠL ight
Ġcon ver
ĠV o
ĠÑĥÐ²ÐµÐ»Ð¸ ÑĩÐµÐ½Ð½Ð¾Ð³Ð¾
a ux
ĠÐ½Ð° ÑĢ
ÑĦ ÐµÐ»ÑĮ
ĠÐĺ ÑĢÐ°Ð½
Ġqu i
ste in
Ð±ÑĥÐ´ ÑĮ
t re
Ġf ashion
Ð¼Ð¸ ÑĤ
ĠÑģÐ¿ ÑĥÑĤ
ĠMar ia
ĠÐ¿ÑĢÐµÐ´ÑģÑĤÐ°Ð²Ð¸ ÑĤÐµÐ»Ð¸
ĠPh il
ĠAust ria
Ġ ic
Ġex ceed
Ð¿Ð° Ð´Ð°
ÐµÑĤÑĮ Ð¼Ð¸
Ġfollow ed
ĠÐ¼Ñı Ð³
ĠÑģÐ¾Ð¶Ð°Ð» ÐµÐ½Ð¸Ñİ
S ch
ÑĤÐ¸ Ð»Ð¸
ĠM ass
ÐŁ Ð¾Ñĩ
ĠIn f
Ġplay ed
Ð´Ð¾ÑĢ ÑĦ
0 7
A K
Ġc atal
ĠÐ½Ð° Ð¼ÐµÑĢ
ĠÐ¡ ÐµÐ¼
ĠÑĤÐ¾Ð²Ð° ÑĢ
Ġconcern ing
ĠÐ¿Ð°Ð¼ ÑıÑĤÐ¸
Ġrou te
Î ¿
Ð» Ð»Ðµ
all ery
ÑİÑīÐ¸Ð¹ ÑģÑı
ĠÐ¿ÑĢÐ¾ÑĪ Ð»Ð¾Ð³Ð¾
ĠIM F
Ð¡Ð¡ Ðł
R L
ÐµÑĢ ÑĪÐµÐ½
Ġprof it
eng er
ĠAfric an
w a
os is
Ġv ent
ĠÐ²ÑĭÐ¿Ñĥ ÑģÐº
angu age
ĠÐ¿Ð¾Ð¿ Ð°
ĠÐ½Ð°ÑĨÐ¸Ð¾Ð½Ð°Ð»ÑĮ Ð½Ð¾Ð¹
Ġinteg rated
ĠÑĥÐ½Ð¸Ð²ÐµÑĢÑģÐ¸ ÑĤÐµÑĤ
ĠÐ¼Ð¸Ð½Ð¸Ð°ÑĤÑİ ÑĢÑĥ
e ction
in ations
ĠÐ¿ÑĢÐ¾ ÐµÐºÑĤÐ¸
Ġche ap
Ð¾Ð±ÑĢÐ° Ð·Ð¸
G reat
ĠÐ¿ Ð°ÑģÑģÐ°Ð¶Ð¸
Ġwe alth
ĠÐ¿ÑĢÐ¾Ð´Ð° Ð¶
Ġmanag er
Ġdecor ated
Ġchall enge
g in
Ġre pe
ĠÑģÑĢÐµÐ´ Ð½ÐµÐ³Ð¾
Ñİ ÑģÑĮ
ÐĴ Ðµ
Ġag encies
ĠÐºÐ¾Ð»Ð»Ðµ ÐºÑĤÐ¸Ð²
Ġproced ure
0 5
Ġc red
ĠÐ´ ÐµÑĤÑĮÐ¼Ð¸
Ġal umin
Ð¡ ÑĤÑĢÐ°
Ch ina
ĠÐ½Ðµ Ð¿ÑĢÐ°Ð²Ð¸
ĠÐ£ Ð·
19 7
Ġprot ected
ĠAfghan istan
3 6
8 5
Ġt end
Ñį Ð½ÐµÑĢ
ĠÐ²ÐºÐ»Ñİ ÑĩÐ¸
w ell
Ã ĥ
Ġw eeks
Ð¾Ð± ÑīÐµ
ĠÐ¾ÑĤ Ð¼Ðµ
ĠÐ´Ð¸ Ð°Ð³
ĠÐ¿ÐµÑĢÐ² Ð¾Ð¼
ĠÐºÐ¾Ð¼Ð¼Ñĥ Ð½Ð¸ÐºÐ°
ĠÐĶ Ð°Ð½
Ġob vious
ĠÑĦÐ¸Ð½Ð°Ð½ÑģÐ¾Ð² ÑĭÐµ
S te
ĠÐ» ÑĮ
oth ing
ĠÑıÐ·Ñĭ ÐºÐ¾Ð²
ĠGree k
R eg
is se
ĠÐ·Ð° ÐµÐ·Ð´Ð°
Ġback ground
Ð¶Ð´Ð° Ñı
p ir
am s
Ġsol id
ĠÐ½ÐµÐ´Ð° Ð»ÐµÐºÐ¾
Eng lish
ÑģÐºÐ° Ð½
sk aya
ĠÐ§ Ð¸
Ð¾ Ñı
Ġun s
ĠÑģÐ¾Ð²ÑĢÐµÐ¼ÐµÐ½ Ð½Ð¾Ð¹
kt op
ĠBab y
ik a
rag ue
Ġmult i
h al
ĠB on
ĠÐ²Ñĭ Ð¿Ð»Ð°
Ġman age
Ġcour ses
Ġc apt
Ġto ile
Ġst im
Ðļ ÑĥÐ±Ð¾Ðº
hent ic
ĠÐ³ Ð°ÑĢ
ĠÐ¿Ð¾Ð» Ñı
ast y
ÑģÐ° Ð´
ĠÑģÐ¿ Ð¾Ñģ
ĠÐ¾Ð³ÑĢÐ°Ð½Ð¸ ÑĩÐ¸
Ġimplement ed
ĠÐ¿Ð¾Ð½ ÑıÑĤÑĮ
ĠÐ¾ÑĢÐ³Ð°Ð½ Ð¾Ð²
Ñĥ ÑģÑĤÐ¸
ÑĦ ÐµÑĢÐ°
ur d
ĠÐºÐ¾Ð½ ÑĨÐ°
Ġrelax ing
Ġjob s
ĠÐĽÐ°ÑĤ Ð²Ð¸Ð¸
it zer
is co
ĠÑĢÐ°Ð· Ð¼
ĠGe orge
ĠÐ±Ð¾ÑĢÑĮ Ð±Ñĭ
Ð»ÑİÐ·Ð¸ Ð²
Ġsur v
ĠÐµÐ²ÑĢÐ¾Ð¿ÐµÐ¹ ÑģÐºÐ¸Ñħ
ĠMex ico
C ar
ÑģÑĤ Ð¾Ð¼
Ġc overed
ĠÐ¾ÑģÐ½Ð¾Ð² Ñĭ
ĠÐºÐ°Ð¶Ð´ Ð¾Ð¼
Ã® Ã¢
ĠÑĤÐ¾ÑĢÐ³Ð¾Ð² ÑĭÑħ
Ġm ist
Ð»Ð° ÐºÑĤÐ¸
ÐĶÐµÐ¹ÑģÑĤÐ²Ð¸ ÑĤÐµÐ»ÑĮÐ½Ð¾
Ñĩ ÑĤÐ¾
ĠÑģ ÑĦÐµÑĢ
id o
oun ge
Ġtrans p
ĠÐ¼Ð¸ÑĢÐ¾Ð² Ð¾Ð³Ð¾
Ð¾ ÑĦÐ¸
ĠS E
ĠÐ²Ñĭ Ð±Ð¸ÑĢÐ°
ab y
ĠFl or
Ð¾Ð»Ð¾Ð³Ð¸ Ñı
ĠÐ»Ð¸Ð´ÐµÑĢ Ð¾Ð²
Ġconsum ption
ÃĹÃĹÃĹÃĹÃĹÃĹÃĹÃĹ ÃĹÃĹÃĹÃĹÃĹÃĹÃĹÃĹ
ĠÐ±ÑĢÐ° ÑĥÐ·
ĠÐ½ÐµÐ²Ð¾Ð· Ð¼Ð¾Ð¶Ð½Ð¾
ĠProv ince
S itu
Ð²Ð° Ð¼Ð¸
ĠÑį Ð»ÐµÐ³Ð°Ð½ÑĤ
ĠÑħ Ð¾ÑĤÑıÑĤ
ĠÐ¿Ð° Ð´
Ġmon u
Ð¾Ð±ÑĢÐ° ÑĤÑĮÑģÑı
ĠÐ¾ÑĢÐ³Ð°Ð½Ð¸Ð·Ð° ÑĨÐ¸Ñı
Ð½Ð¸ Ð±ÑĥÐ´ÑĮ
Ð¶Ð° ÑĤ
Ġregard ing
Ð½Ð° Ð¿ÑĢÐ¸Ð¼ÐµÑĢ
Ġsh ip
ĠÐĴÐ° ÑģÐ¸
ĠÐ¸Ð½ÑĦÐ¾ÑĢÐ¼Ð° ÑĨÐ¸ÐµÐ¹
Ġfoot ball
0 2
Ġn ation
ĠÐ³ ÑĢÐµ
Ġprincip les
TM L
ĠA P
and o
ÑĪÐ¸ ÑĢ
Ġnear ly
j o
Ġb ill
Ġm al
ĠÐ° ÐºÑĤÑĥ
Ðĺ Ð¼ÐµÐ½Ð½Ð¾
Ð¾Ð±Ð° Ð²
ĠÐ¿ÑĢÐ¾ÐµÐºÑĤ Ñĭ
ĠÐ¿Ð¾Ð²Ñĭ ÑĪÐµÐ½Ð¸Ñı
Ġrelations hip
Ġschool s
ĠÑģÐ¿Ðµ ÑĨÐ¸
ĠÐ¼ÐµÑģÑĤÐ° Ñħ
Ġcos y
ÑĢ ÑĤÑĥ
ĠÑģ Ð¸Ð½
ĠM ach
Ð¾Ñĩ Ð½ÑĭÐµ
Ã¨ s
ĠM P
Ð»Ð¾Ð² Ð¸Ñĩ
Ġdes k
ĠÐ³Ð¾Ð´Ð° Ñħ
Ġev idence
ĠÑĢÐ¸Ñģ ÑĥÐ½
Y et
ÐºÐ¾Ð² ÑĮ
ĠÐł Ð°Ð·
ĠÐ´Ð¾ÑģÑĤÐ¾Ð¿ÑĢÐ¸Ð¼ÐµÑĩÐ° ÑĤÐµÐ»ÑĮÐ½Ð¾
ĠÐĲÑĦ Ð³Ð°Ð½Ð¸
Ð¾Ñģ Ð°
Ð³Ð¸ ÑģÑĤÑĢÐ°
m l
ĠA fter
Ġcompet itive
Ġdest roy
ĠÐ¾ÑĤÐ´ÐµÐ»ÑĮ Ð½ÑĭÑħ
ĠN ok
Ġdiffere nce
Ġs n
ĠÐ½Ð° Ð¶Ð¼Ð¸ÑĤÐµ
ĠF estival
Ðĳ ÐµÑĢ
ĠÐ½Ð¾Ð² ÑĭÐ¼
3 4
c ia
t ers
Ġw ants
ĠÐ´ Ð²ÐµÑĢ
ĠÐ¿ÑĢÐµÐ´ Ð¼ÐµÑĤ
Ġmod ified
Ġplay ing
U M
ÑĢÐ¸ ÑĤÑĮ
ĠE r
Ġv ul
Ðł Ñ
ĠÐ°Ð»ÑĮÐ± Ð¾Ð¼
Ġconduct ed
O ver
Ġany one
ÑĤÐ¸Ð² Ð½ÑĭÐ¹
ĠFore ign
ĠÑģÐ¾Ð²Ð¼ÐµÑģÑĤ Ð½Ð¾
Ðº Ð¾Ð»ÑĮ
Ġspecial ized
Ġappe ared
ĠÐ½Ð°ÑĥÑĩ Ð½Ð¾
Ð¾Ð· Ð¸ÑĤ
Ðļ Ð¡
Ð¿Ð° ÑĢÐ°ÑĤ
Ð½Ð¾Ð² ÐµÐ½Ð¸Ñı
Ġk ept
ĠÑĢÑĥ Ð±
ĠÑģÐ¾Ð¾ÑĤÐ²ÐµÑĤ ÑģÑĤÐ²ÑĥÐµÑĤ
ĠÐ½ÐµÑĦ ÑĤÐµ
ĠDem oc
Ð½ Ð¾Ð·
Ð» Ð¾ÑĢ
ĠÐµ Ð¹
ĠÑģ ÐºÑĢÑĭ
ĠÑĥ Ð´Ðµ
ĠH el
ĠÐºÐ¾ÑĤÐ¾ÑĢ Ð¾Ð¼Ñĥ
Ġhe ating
ĠÑģÐ¾Ð² ÑģÐµÐ¼
Ġconfig uration
Ġperman ent
Ġ ÑīÐµ
Ġc able
Ġm ort
ĠÐ³ Ð¸Ð´
ĠÐ²Ñĭ ÑģÐ¾
Ġwe ight
ĠHotel s
ĠÑģÐµÐ¼Ð¸ Ð½Ð°
ĠÐº Ð»Ñĥ
Ġm ission
Ñį ÑĤ
ĠÑĢÐ°Ð· ÑĢÐ°Ð±Ð°ÑĤÑĭ
ÐĿÐ° ÑĪ
l og
ĠÐ¸ Ð¼Ñĥ
ĠÑģÐ¿ÐµÑĨÐ¸Ð°Ð»ÑĮ Ð½Ð¾
ĠÑĤÑĢÐ°Ð½ÑģÐ¿ Ð¾ÑĢÑĤÐ°
Ġintrodu ced
S R
h otel
Ġ `
ĠÐ´ Ð½Ð¸
Ð°ÑĢ Ñĭ
Ð¿Ð¾Ð» Ð½Ðµ
Ġupd ate
ĠÑħÑĥÐ´ Ð¾Ð¶ÐµÑģÑĤÐ²
ĠÐ¸Ð·Ð´Ðµ Ð»Ð¸Ñı
Ġd ark
ord ers
az ing
Ġsome one
O nce
ĠA R
Ġst one
Ð»Ð°Ð½ Ð´Ð¸Ð¸
Ġfail ure
Ġst ars
Ð·Ð° ÑĨÐ¸Ñİ
Ðł Ñĥ
ĠHe alth
ĠÐ½ÐµÐ´Ð²Ð¸Ð¶ Ð¸Ð¼Ð¾ÑģÑĤÑĮ
Ġren ew
ĠGree ce
ĠÐ¡ Ð°Ð´
Ð¾ÑĢÐ¸ Ð¹
ĠÐ´Ðµ ÑĪÐµ
ĠÐ¾ÑĦÐ¸ Ñģ
ĠÑģÑĤÑĢÐ¾Ð¸ÑĤÐµÐ»ÑĮ ÑģÑĤÐ²Ð¾
Ġwrit ing
ĠÑĥÐ±Ðµ Ð´Ð¸
Ġf ee
ĠÐ¾ÑĢÐ¸ ÐµÐ½ÑĤÐ¸
Ġhelp s
Ġequ al
ĠÑĢ Ð¾Ð´Ð°
ĠÐĵÐµÑĢÐ¼Ð° Ð½Ð¸Ñı
ĠÐ¼Ð¸Ð»Ð»Ð¸Ð°ÑĢ Ð´Ð¾Ð²
unicip ality
Ġt asks
el er
ĠÑĥ Ð²Ð¸
ur i
ĠÐ¿Ð¾ ÑıÐ²Ð»Ñı
ĠV IP
clud ing
Ð» Ð¾Ð¿
Ð³ Ð¾Ð½
Ð´Ð° Ð»Ð¸
ĠÐºÐ¾Ð¼ Ð¸
ĠÐ±Ñĥ Ð´ÐµÑĤÐµ
ĠÑĦÐ°Ð¹ Ð»Ð°
Ġcertain ly
g n
ĠÐ¾Ð± ÑīÐµÐ³Ð¾
ul f
ĠR ec
ĠÐ¾Ð±ÑĬ ÑıÐ²Ð¸
ÑģÐ¸ ÐµÐ¹
ÑĪÐ° ÐµÐ¼
Ð²ÐµÐ´ Ð¾Ð¼
ĠÐļÐ¾Ð½ Ð´Ð¸ÑĨÐ¸Ð¾Ð½ÐµÑĢ
Ġhim self
V al
ĠÑĢÐ°Ð·ÑĢÐ°Ð±Ð¾ÑĤ ÐºÐµ
ĠÐºÐ¾Ð¼Ð°Ð½ Ð´Ð°
Ð¾Ð»ÑĩÐ° Ð½Ð¸Ñİ
il ateral
ri p
am m
ĠÑģÑĤÑĢÐ° Ð½Ð°Ð¼
ĠÐĵ Ðµ
ÑĢÑı Ð·
Ġam en
ĠÐĹ ÐµÐ¼
ĠÑĦÐ¾Ð½ Ð´Ð¾Ð²
3 8
ĠÑĦ ÐµÐ´Ðµ
op es
ÐĶ ÑĢÑĥ
Ñĳ Ñħ
idd en
ĠMus ic
ĠÐ² Ð¾Ð²
Ġn ative
ĠL ux
Ġother wise
ĠÐ¥ Ð°ÑĢ
ĠÐ´ÑĢÑĥÐ³ Ð¾Ð¼
ÑģÑĤÐ²Ð¾Ð²Ð° Ð»Ð¸
ĠF er
Ġpat tern
ĠÐ´Ð¸ÑģÑĤÑĢÐ¸ Ð±Ñĥ
ĠÐ¾ ÑĤÐµÐ»ÐµÐ¹
ÑĤÐ¸ ÐºÐ°
Ġe arlier
ĠL iber
ĠE nd
Ġent ry
Ġbl ue
Ġart ists
ivers ary
Ġd ram
ĠÐ¶Ð¸ ÑĤÐµÐ»ÐµÐ¹
ÑĳÐ½ Ð½ÑĭÐµ
ĠÑĢÐ¸ ÑģÐºÐ°
Ġappe ars
ĠÑģ ÐµÑĤ
ĠM aster
ir ty
ĠÐĺ ÑĢ
Ð²ÐµÑĢ Ñģ
ĠÐºÐ¾Ð¼Ð¿ Ð¾Ð·Ð¸
Ġaff ect
ĠÑĢÐ°ÑģÐ¿Ð¾Ð»Ð°Ð³Ð° ÐµÑĤ
ĠT em
ĠÐ¿Ð° Ð¿
ĠÐ»ÑİÐ´ ÑıÐ¼
ĠÐ¿ÑĢÐµÐ· ÐµÐ½ÑĤÐ°
ĠÐ¸Ð· ÑĢÐ°Ð¸Ð»ÑĮ
Ġno ise
Ġrem ote
L inux
T C
Ðµ ÑħÐ°
Ġre levant
um a
ÐºÑĥ ÑĢ
inn ers
Ġaccept ed
ĠÐ½Ð¸ÐºÐ° ÐºÐ¸Ñħ
Ð¾Ð²Ð° Ð½Ð¸ÐµÐ¼
ĠA C
our g
ÑĤÐ¾ÑĢÐ° Ð¼Ð¸
ĠÑĢÐ°Ñģ ÑģÑĤÐ¾Ñı
ĠÐ¸Ð³ ÑĢ
ĠÐ¼Ð°Ñģ ÑģÐ°
Ñħ Ð¾Ð¶Ð´ÐµÐ½Ð¸Ñı
Ð³Ñĥ Ð»Ð¸
ĠCan ada
ĠÑĩÑĢÐµÐ· Ð²ÑĭÑĩÐ°Ð¹
ÑĩÐ¸ ÐºÐ¸
sc rib
v ille
Ġint el
Ð£ ÐºÑĢÐ°
ĠÐ²ÑĭÑģÐ¾Ðº Ð¾ÐºÐ°ÑĩÐµÑģÑĤÐ²
Ġche mical
O C
Ðµ Ñħ
ĠÐ·Ð° Ð´
ig en
ĠÐ»ÑİÐ± ÑĭÐµ
ĠÐ½Ð¾Ð¼ ÐµÑĢÐµ
Ġdescrib ed
Ġp ick
Ġso le
ĠÐ¼Ð¾Ð³ Ñĥ
ĠÐ¸Ð³ ÑĢÑĥ
Ġmount ains
Ġdisco ver
er al
ĠP RO
Ġcon vers
ĠÐŁ ÑĢÐ°Ð²Ð¸
con f
ĠPri x
ĠD ou
ĠÑģÐ¾ÑĤÑĢÑĥÐ´Ð½Ð¸ÑĩÐµÑģÑĤÐ² Ð¾
y per
Ġ5 5
ĠÑĦÐ° ÐºÑĤÐ¾ÑĢ
ĠÐ¸Ð·Ð²ÐµÑģÑĤ Ð½ÑĭÑħ
Ġestablish ment
ĠÐ¿ÑĢÐµÐ²Ð¾Ñģ ÑħÐ¾Ð´
B S
T ER
ÐĽ Ðĺ
Ġdem ands
So ft
ĠA M
ĠÐ° Ð»ÑİÐ¼Ð¸
ĠÐĶ Ð¼Ð¸ÑĤÑĢÐ¸
3 9
ĠÑģ Ð¾ÐºÑĢÐ°ÑĤÐ¸
Ġe p
ĠÐ¾ÑĤ Ð¼ÐµÑĤ
Ġfact ors
ĠÐ»Ð¸Ð´ÐµÑĢ Ñĭ
ĠÐ·Ð¸Ð¼ Ð½Ð¸Ñħ
Ġmention ed
ÐµÑĢ Ñı
ĠS pecial
am i
ĠÐ»Ð¸ Ð±ÐµÑĢÐ°
ÑĦÑĢÐ¸ ÐºÐ°Ð½
C ol
ĠÐº Ð»ÐµÑĤ
Ġd inner
ir us
ĠÐ´Ð¾ ÑģÑĤÐ°Ð²
ĠÐ¿ÑĢÐ¾Ð¸Ð· Ð¾ÑĪ
ĠÐ³Ð¾ÑĢ Ñı
ÑĢÐ¾Ð²Ð°Ð½ Ð½Ð°Ñı
ĠCon stit
ĠÐ¡ÐµÑĢÐ³ ÐµÐ¹
Ġimpos sible
Ñį Ð¼
ĠV ill
ĠÐ²ÐµÑĢÐ¾ÑıÑĤ Ð½Ð¾
f ree
Ġa f
Ġs ont
ĠÐ¸Ð¼ Ð¿ÐµÑĢ
ÑİÑīÐµÐ¹ ÑģÑı
ĠÐ¾ÑĤÐ½Ð¾ÑĪ ÐµÐ½Ð¸Ñİ
Ġattack s
Ġdyn amic
Ġn etworks
ĠÐºÐ° ÐºÐ¸Ñħ
Ð¡ ÑĥÑīÐµÑģÑĤÐ²
ĠÐĳ ÑĢÐ°Ð·Ð¸
Ġco al
ĠÐ¿Ð°ÑĢÑĤÐ½ÐµÑĢ Ð¾Ð²
Ġentertain ment
fortun ately
Ð Ĩ
ĠÑĢÐµ Ð°Ðº
ew here
N ote
Ġb lood
ĠÑģÑĤ ÑĢ
ĠÐ°Ð½Ð°Ð»Ð¸ Ð·Ð°
Ġbran ch
ĠÐ¿Ð¾Ð»Ð¸ÑĤÐ¸ ÑĩÐµÑģÐºÐ¸Ðµ
Ġass ess
iterran ean
ĠÐ¼ Ð¾Ð½Ð¸
ĠÐ¿ÑĢÐ¸ Ð³Ð¾ÑĤÐ¾Ð²
ĠÐ¡ Ð¡Ð¡Ðł
cre te
Ġmon etary
Ġhard ware
Ġimprov ed
ÐŁ Ð»Ð°
ĠÑĦ ÐµÑĢ
ĠJ ac
ĠÑħ Ð¸
ĠEx pl
ĠÐļÐ¸ ÐµÐ²
ĠÑĥÐ¼ Ð¾Ð»ÑĩÐ°Ð½Ð¸Ñİ
ĠH ung
Ġle isure
ph as
ĠÐ¤ÐµÐ´Ðµ ÑĢÐ°ÑĨÐ¸Ð¸
Ġs q
ĠÑĥ Ð¼ÐµÑĢ
ĠÑįÐºÐ¾Ð½Ð¾Ð¼Ð¸ ÐºÐ°
ĠÐ±ÑĥÐ´Ñĥ ÑīÐµÐµ
ĠPl ace
Ġdownload ing
ĠÐ¿ÑĢÐµÐ¿ ÑıÑĤ
Ġp or
Ġex cess
ÐĽ Ñĥ
ĠÐ¼Ð¾Ð´ Ðµ
ĠAg ency
ĠÐ¿Ð¾Ð»Ð¾Ð¶ ÐµÐ½Ð¸Ñı
ĠÑģÑĤÐ¾ÑĢÐ¾Ð½ Ñĥ
ĠÐ¾ ÑħÐ²Ð°
Ðŀ ÐĴ
ĠÐĳ Ð¸Ð·Ð½ÐµÑģ
Ġf ill
Ð¾Ð´ Ñĭ
Ġfor t
ÑģÑĤÑĢÐ° Ð¸
ĠÐºÐ° ÑĤÐµÐ³
ĠÐ¿Ð¾Ð± ÐµÑĢÐµÐ¶
ĠÐºÑĥÑħ Ð½Ð¸
ĠÐºÑĢÑĥÐ¿Ð½ÐµÐ¹ ÑĪÐ¸Ñħ
Ñģ Ð»Ð°
ĠÐ¿ ÐµÐ½
ĠÐ½Ð° ÑĪÐµ
Ð²Ð¸ Ð»ÑĮ
Ġar m
ĠÐ¿ÑĢÐ¾ÑģÑĤ Ð¾ÑĢ
ĠÐ³Ð¾ÑģÑĤÐ¸ Ð½Ð¸ÑĨÑĭ
ĠÐ¾Ð±ÑıÐ·Ð° ÑĤÐµÐ»ÑĮÐ½Ð¾
ĠÑĢÐµÑģÑĥÑĢ ÑģÑĭ
Des cription
Ġsubs id
Ġl ength
ÑĪÐµ Ðº
act ive
ĠÐ¼Ñĭ ÑĪ
ob e
ĠÑģÐ¿ÐµÑĨÐ¸Ð°Ð»Ð¸ ÑģÑĤÑĭ
ĠÐ³Ð¾Ð² Ð¾ÑĢÑı
ĠCur rency
H is
an cial
Ġst ra
Ch ild
ĠÐĳÐ»Ð¸ Ð¶
ÑĢÐ¾Ð²Ð° Ð½Ð¾
ĠÂ Ĺ
Ã¶ r
ĠÐ½Ðµ Ð±
Ġown er
ĠÐļÑĥÑĢ ÐµÐ½Ð¸Ðµ
O W
p ass
ÐŁ ÑĢÐ°Ð²Ð¸
ĠÐ¡ Ñĥ
Ð¼Ð¾ÑĤ ÑĢ
ĠÐ½Ð°Ð·Ð²Ð° Ð½Ð¸ÐµÐ¼
s en
Ġ Ä
ard ens
ĠÐºÐ¾Ð½ ÑģÑĤÐ¸ÑĤÑĥ
Ġadv ice
ĠÑĥÐ´Ð° Ð»Ð¾ÑģÑĮ
ĠÐ¿Ð¾ÑģÐµÑĤÐ¸ ÑĤÐµÐ»ÐµÐ¹
ĠS ub
ol i
Ġnot ice
Ġmin ute
Ġsupport s
ĠÐ´ÐµÑģ ÑıÑĤ
Ġcrit ical
Ġaward ed
ĠÐ¸Ð·Ð±Ðµ Ð¶Ð°ÑĤÑĮ
Ð½Ð¸ ÐºÑĥ
ĠÑĥ ÑģÑĤ
ĠÐ½Ðµ Ñĥ
Ġal le
ast ers
ĠÐ¿ÑĢÐ¾Ð³ Ñĥ
ĠÐ²Ð½Ð¸Ð¼Ð° Ð½Ð¸Ñı
ĠÐ¿Ð¾ÑĢÑıÐ´ ÐºÐµ
ĠÐ¿ÐµÑĢÐµÐ³Ð¾Ð² Ð¾ÑĢÐ¾Ð²
Ġt ouch
ĠG ame
Ðľ Ð°ÑĢÐ¸
end o
ĠÑģÐ¾Ð·Ð´Ð° Ð²Ð°ÑĤÑĮ
Ġsc he
ÑĪÐ¸Ð½ ÑģÑĤÐ²Ð¾
ĠÐ¿ÐµÑĢÑģÐ¾Ð½Ð° Ð»
l as
ÑĤ Ð¾ÑĢÐ¸
ĠÐ³ Ð¾Ñģ
ĠÐĿ ÑĮÑİ
ĠÐ³Ð¾ÑģÑĥÐ´Ð°ÑĢÑģÑĤÐ²ÐµÐ½ Ð½Ð¾Ð¹
ĠÐĳÑĥ ÑĪÐ°
Ġreserv es
ĠÐ¿ÑĢÐµÐ´Ð¾ÑĤ Ð²ÑĢÐ°
O ther
c z
in ct
cl es
Ġ6 00
Ġra re
arg o
ĠÑĦÑĥÐ½Ðº ÑĨÐ¸Ð¾Ð½Ð¸
ĠAd minist
ĠÐ´Ð¾Ð¿Ð¾Ð»Ð½Ð¸ÑĤÐµÐ»ÑĮ Ð½ÑĭÐµ
Ġwid ely
r ors
ĠÑĤÐµ ÑģÑĤÐ¸
ac o
Ð²Ðµ Ð»Ð¸
ÑīÐ° ÑİÑĤ
ÐµÐ½ÑĤÐ° Ð¼Ð¸
ĠÐ²ÑĭÑģÐ¾Ðº Ð¸Ð¹
ĠÐ¾Ð±Ð»Ð° Ð´Ð°
ĠÐ±ÐµÐ·Ð¾Ð¿Ð°Ñģ Ð½Ð¾ÑģÑĤÑĮ
ĠÐ¿ÑĢÐ¾Ð· ÑĢÐ°
ĠC ustom
ud i
Ð¸Ð»ÑĮ ÑıÐ¼
Ð¹ ÑģÐºÐ¸Ð¹
Ð¿ ÐµÑĢÐµ
Ñİ Ð´Ð°
ÑĪ ÐµÐ½Ð¸Ð¸
Ð²Ð° Ð»Ð°
ut ch
Ġc ore
ĠO ver
O V
Ġcirc um
Ġdise ase
Ġtit le
J SC
Ġ Ñī
Ġbe coming
Ðŀ Ð¿Ð¸ÑģÐ°Ð½Ð¸Ðµ
ĠÑģÑĤÑĢÐ° ÑħÐ¾Ð²
Ġar gu
ĠÑĢÑĭÐ½ ÐºÐ°Ñħ
ĠÐ²ÑģÑĤÑĢÐµ ÑĩÐ¸
Ġautom atic
Ð² Ð¾Ð²
Ð² ÑĪÐ¸Ð¼
Ġdeg ree
a id
ĠP ost
ĠR ub
ÑĪÐ° ÐµÑĤÑģÑı
Ġold er
ĠC as
Ġde ad
Ġmed ium
Ġcontin ues
ĠÐ² Ð´
Ġf ruit
ÐµÐ² ÑĭÑħ
Ġar g
ĠÐ²Ð° Ð¼Ð¸
Ġstruct ures
ĠÐ·Ð°Ð±Ð¾Ð» Ðµ
it o
ĠÐ¿Ð¾Ð» Ð½Ð¾
av ior
ĠÐ²Ð¾ ÐµÐ½Ð½ÑĭÑħ
Ġlook s
ĠRev olution
Ðµ Ð¶
Ġcom ment
ĠÐ¸Ð½ Ð¶ÐµÐ½
Ġun emp
Ġcle arly
Ġpres ence
Ñİ Ð½
ĠL and
Ġex erc
ĠÑĢÐ°ÑģÐ¿ Ð¾ÑĢÑı
Ġprogram me
ĠÐ¡Ð¾ ÑİÐ·
ĠÐºÐ°ÑģÐ° ÐµÑĤÑģÑı
ĠÐĳÐ¾Ð»Ð³Ð° ÑĢÐ¸Ð¸
ĠC ult
ĠÐĳ Ð°Ð»
Ð¡ ÐµÐ½
ĠÑģÑĤÐ°Ð½Ð´Ð°ÑĢ ÑĤÐ°Ð¼
Ġlov ely
ĠÐ½Ð°Ð¼ Ð½Ð¾Ð³Ð¾
ĠÐ½Ð°ÑģÑĤ Ð¾Ð»ÑĮÐºÐ¾
ĠL ast
ĠÐ¢ Ð¾Ð¼
cess ion
ÑĥÐ± ÐµÑĢ
Ġexp ansion
ĠÐ´ÐµÐ»Ð° ÑİÑĤ
ĠÐ½Ð°ÑĨÐ¸Ð¾Ð½Ð°Ð»ÑĮ Ð½ÑĭÑħ
ĠÐ½Ð°ÑģÑĤÑĢÐ¾Ð¹ ÐºÐ¸
Ġassoci ated
Ġpos s
ĠÑĢÐµÐ¶Ð¸Ð¼ Ð°
ĠGold en
ĠÑģÑĤÐ¸Ð¼Ñĥ Ð»Ð¸
ĠÐ¡ ÑĢÐµÐ´
ĠÐºÐ¾Ð½ ÐµÑĨ
Ġrec overy
ĠÑģÐ¿Ð¾ÑģÐ¾Ð± Ð¾Ð¼
ĠÑĥÑģÐ¸ Ð»Ð¸
Ġsus p
ĠUzbek istan
ÐµÐ¼ Ð¾Ð½
Ġcor ner
ĠÐĿ ÐĲÐ¢Ðŀ
ĠÐ¿Ð»Ð¾ÑīÐ° Ð´ÑĮ
Ġcommit ted
ĠC O
Ġoff ic
ĠÑĩÐ¸Ñģ Ð»Ð°
ĠÑĥÐ½Ð¸Ð²ÐµÑĢÑģÐ¸ ÑĤÐµ
ĠJes us
Ð¾Ð´ Ð¾Ð»
ÑĤÐ¸ Ð½Ð³
ÑĤÐ¾ Ðµ
ÐºÐ¾ ÑģÑĤÐ¸
ĠÐ¾Ð³ÑĢÐ°Ð½Ð¸ ÑĩÐµÐ½Ð¸Ñı
ĠChrist mas
Âł Âł
6 7
P N
ĠÐĶ Ñĥ
R em
Ġp aint
ĠS T
ĠP R
Ġconcern s
ĠÐ½ÐµÐ´Ð° Ð²
Ð¡Ð¾Ð³Ð»Ð° ÑģÐ½Ð¾
Ð¶Ð¸ ÑĤÑĮ
Ġag reed
Ġ8 00
Ġstud ies
ĠÐ¿Ð°Ðº ÐµÑĤÐ°
ĠÐĳÐµÐ»Ð°ÑĢÑĥ ÑģÐ¸
c ap
it i
te g
Ð½Ð¾ÑģÑĤ ÑıÑħ
Ġconf ir
ĠÑģÑĤÑĢÐ°Ð½ Ñĥ
ĠÐ½Ð°Ð¿ÑĢÐ°Ð² Ð»ÐµÐ½Ð¸Ð¸
Ġn ar
Ġe ight
Ð½Ð¸ÑĨ Ñĥ
Ð¾ÑģÑĤ ÐµÐ¹
Ġph il
Ġ ice
Ġrem ark
ĠÐ³Ð¾ÑģÑĤ ÑıÐ¼
Ġel im
ĠÐºÐ²Ð°ÑĢ ÑĤÐ°
Ġlet ter
ĠArmen ian
ĠÐ¾ÑĤÐ²Ðµ ÑĩÐ°ÐµÑĤ
Ġnegoti ations
U L
ĠÐ´ Ð²Ð¾
ÑĤÐµÐ»ÑĮ ÑģÑĤÐ²Ð¾Ð¼
ĠÐ¿Ð¾ÑģÐ»ÐµÐ´ ÑģÑĤÐ²Ð¸Ñı
ÑİÑīÐ¸Ð¼ ÑģÑı
Ġhosp it
ĠÐ¼Ð¾Ð´ÐµÑĢ Ð½Ð¸
P R
ĠÐ¼ Ð¼
Ġsu ite
Ġaccess ible
Ar t
ĠL et
ere n
ĠZ e
Ð¾Ð¿ÑĢÐ¸ ÑıÑĤ
Ġpat ients
ĠÐ´Ð¾Ð³Ð¾Ð² Ð¾ÑĢÐ°
ĠÐ¿Ð¾Ð¼Ðµ ÑīÐµÐ½Ð¸Ñı
u h
Ġt ar
Ð¾Ð² Ð¾
Ð¾ÑĢ ÑĤÐµ
Ð²Ð° Ð¹
ĠÐ¾Ð± Ñĥ
ab et
ĠÐ¿Ð¾Ñĩ ÑĤÐµ
Ġmanufacture rs
Ġstru gg
ĠÐ£Ð· Ð±Ðµ
ĠÐ± Ð¸ÑĢ
ĠC H
ĠÐ¾ÑĤ ÑĢÐ¸
ÑģÐº Ð¾ÑĢ
Ð½ÑĮ ÑĪÐµ
Ġpresident ial
Ð²Ð° Ð¹ÑĤÐµ
ĠÐ²Ñĭ Ð·
ĠÐ¸Ð½Ð¸ ÑĨÐ¸Ð°
ĠÐ¿ÑĢÐµÐ´ÐµÐ»Ð° Ñħ
B ecause
Ġf em
Ġ197 0
Ġtyp ical
ĠE v
Ðĺ Ñģ
Ð¾Ð½Ð° ÑĩÐ°
Ġfin ally
ĠÐľÐ¸ ÑħÐ°
Ġach ieved
Ġprincip le
Ġchann el
1 60
ÑģÑĤÐ° Ð±Ð¸
ĠÐ·Ð° Ð¹
Ġtri al
Ġcommun ities
ĠÐ¸Ð½Ð²ÐµÑģÑĤÐ¸ ÑĨÐ¸Ð¸
Ã ¾
un ction
ÑģÑĤÐ¸ ÐºÐ°
Ð¢ Ñĥ
Ġte a
ĠÐ¼Ð¸Ð»Ð»Ð¸ Ð¾Ð½Ð°
" )
m ann
Å Ħ
ow nt
ĠÐ»Ðµ ÐºÐ°ÑĢ
ĠÑģÑĥÑīÐµÑģÑĤÐ² ÑĥÑİ
ĠÑģÐ¾Ð³Ð»Ð° ÑģÐ¸
ĠÐ²ÑĭÑģÑĤÐ°Ð² ÐºÐµ
ĠS MS
ÑģÐº Ð¾ÑħÐ¾Ð·ÑıÐ¹
ĠÐ²Ð¾ ÑģÑĤ
Ġpar a
Ġrepresent ative
ĠÐ¼ÑĥÐ· ÐµÐ¹
L es
ĠÐľ Ð°Ð½
Ġform ed
ĠÐ¾Ð¿Ñĭ ÑĤÐ¾Ð¼
b ed
g i
Ð¼ Ð¾Ð¼
Ð¾Ð± Ðµ
ĠÐ¿Ð¾Ð· Ð½Ð°
ĠÐ¼ÐµÑģÑı ÑĨÐ°
el ess
ĠÑĤ ÐºÐ°
ĠÐ²Ð° ÑĪÐ¸Ñħ
Ġ6 8
ĠÑģÐ°Ð¹ ÑĤÐ¾Ð²
Ġdirect or
ĠÐ·Ð°Ð´Ð° ÑĩÐ°
Ġholid ays
ĠÐ·Ð°ÐºÐ¾ Ð½Ð°
Ġm att
un der
Ġst reets
ÑģÐº ÑĥÑĢ
ĠÑģÑĤÐ° ÑĢÑĭ
ell er
Ã¼ n
Ġinc or
Ġs om
ĠP rague
ĠDe ad
Ġemploy ment
ĠÑĪÐºÐ¾Ð» Ñĭ
T wo
l s
Ġb all
Ġe yes
ĠÐ¸Ð· Ñĭ
ĠÐĵ ÑĢÑĥ
Ġconf irm
Ġrepl ace
Î µ
Ġthe rm
Ð± Ð¾Ð²
ĠÐ¼Ðµ Ð»
ĠÐ¼Ðµ Ð¶
Ġ6 4
ĠÐ¾ÑĤÑĢÐ° Ñģ
ĠÐºÐ¾Ð½ÑĨ ÐµÑĢ
Ġqual ified
Ã´ tel
ĠÐ·Ð² Ð¾Ð½
n am
ĠÐ¾Ð±ÑĢÐ°Ð· Ð¾Ð²Ð°Ð½Ð¸Ðµ
Ġrecomm ended
Ġupd ated
Ð² Ð¾Ð»ÑĮ
ĠÐ½Ð°ÑĩÐ° Ð»
Ġwh om
Ðľ ÐĲ
Ġse ven
ÐºÐ¾Ð½ Ð¾Ð¼
Ġcent ers
Ġdec ade
ĠÐ¸Ð½ÑĤÐµÑĢÐµ ÑģÑĭ
ĠÐºÐ¾Ð½ÑĦÐ¸ Ð³Ñĥ
l ik
us ion
ĠÐ¾ÑĤ Ð´Ð°
ĠÐ²Ñĭ Ð±Ð¾ÑĢÐ°
ĠÐ¿ÑĢÐµÐ´ ÑģÑĤÐ°Ð²Ð¸ÑĤÑĮ
ov sky
Ð¶Ð° ÐµÑĤÑģÑı
ĠSh ow
ĠÐ·Ð°Ð¿ Ð»Ð°
ĠÑģÑĥÐ¼ Ð¼Ñĥ
Ġconsequ ences
j i
s ites
Ġre in
Ð³Ð° Ð»
ĠCh arles
Ġ4 8
ĠÐ²Ð¸ ÑĢÑĤÑĥ
ĠÑĢÐµÐ· ÐµÑĢÐ²
ĠÐ¸ÑģÑĤÐ¾ÑĢÐ¸ Ñı
ĠÐ¶Ð¸Ð² Ð¾Ð¿Ð¸Ñģ
ĠÐ·ÐµÐ¼ Ð»Ð¸
ĠÐ·Ð°Ð³ÑĢÑĥÐ· ÐºÐ¸
áĥĺ áĥ
re land
Ġw alls
ĠÐ¿ÑĢÐ¾ ÐµÐº
ĠÐ¸ÑģÐ¿ ÑĢÐ°Ð²
Ġcomm ission
ĠÐ³Ð¾Ð²Ð¾ÑĢ ÑıÑĤ
ÑģÑĤÐ²ÐµÐ½ Ð½Ð¾Ð³Ð¾
Ġob serv
ĠÐķÐ²ÑĢÐ¾Ð¿ Ð°
ĠÑģÐ¾ÑĨÐ¸Ð°Ð»ÑĮ Ð½Ð¾Ð¹
ÑĨ ÐµÐ¼
ĠÐ½Ð° Ñĩ
Ġre ference
Ð¾Ð± Ð½Ð¾Ð²
ĠT s
ĠÐĴ Ð°Ð»
ĠW M
ÐµÐ½ÑĤ Ð¾Ð¼
ĠÑĥÐ½Ð¸Ð²ÐµÑĢÑģÐ¸ ÑĤÐµÑĤÐ°
Ġvict im
ĠChild ren
Ðº ÑģÐ°
Ð»Ð° ÑģÑģ
ĠÑĢÐ° Ð½ÑĮÑĪÐµ
os es
Ð¼ÐµÐ½ ÑĤÐµ
Ġ3 8
ĠÐŃ Ð½
A H
f ers
Å į
Ð¿ Ð¿
Ġbusiness es
ĠÐ¸Ð´Ðµ Ð¸
ĠÐŀÐ± Ð¼ÐµÐ½
Ġf ather
ĠÐ¾Ð±ÑīÐµÑģÑĤÐ² ÐµÐ½Ð½Ð¾Ð³Ð¾
ĠÑĥÑģÐ¿Ðµ ÑħÐ°
ĠÐ´Ð¾ÐºÑĥ Ð¼ÐµÐ½ÑĤÑĭ
ĠÐ¸Ð½ÑĤÐµÐ»Ð»ÐµÐºÑĤ Ñĥ
Ð´ Ð²Ð¸
ad er
ĠE s
ĠÐŀ Ð´
Ð»Ð¾Ð¶ ÐµÐ½Ð¸Ñı
Ġref riger
ĠÐ¿Ð¾ÐºÐ° Ð·Ð°Ð½
ÐŁÐ¾Ñģ Ð»ÐµÐ´
Ġmonitor ing
ĠÐ¼ÑĥÑģ ÑĥÐ»ÑĮÐ¼Ð°Ð½
Ġ urg
Ġb ri
ĠR ights
ĠÑģÐ² Ð¾Ð±
Ġconf idence
in f
ĠS und
ÑĢÑĥ Ñı
ĠÑĦ ÑĢÐ°
ĠÐĽ Ð¾Ð½Ð´
Ġfl u
ĠNew s
ĠÐ¸Ð³ÑĢÐ° ÑĤÑĮ
ĠÐ½ÐµÐ·Ð°Ð²Ð¸Ñģ Ð¸Ð¼
ĠÐ°ÐºÑĤÐ¸ Ð²Ð¸
an cing
ĠP HP
ĠÐºÐ¾Ð¼ Ð±Ð¸Ð½Ð°
Ð¢ ÐµÑĢ
Ġar ms
ĠAir conditioning
ĠBalt ic
i ri
ĠA st
ĠÐ½Ðµ Ðµ
Ð°Ð½ Ð³
ĠÐ³Ð¾ÑģÑĥÐ´Ð°ÑĢ ÑģÑĤÐ²Ð¾
ÃŃ Ã®
ĠÐ°Ðº ÑĨÐ¸Ð¾Ð½
Ġer a
ĠÑįÐºÑģÐ¿Ð»ÑĥÐ°ÑĤÐ° ÑĨÐ¸Ð¸
Ñĩ ÐºÐ°
ĠÐ° Ð´Ð°
am ber
ĠÑĢÐµ Ð¿
Ġcont rast
Ġro ot
ĠÐ»ÑİÐ± ÑĭÑħ
ĠÐĺÑģÐ¿Ð° Ð½Ð¸Ð¸
e ff
Ġcon fort
Ġde cre
ĠÐ¿Ð¾Ð´ ÑħÐ¾Ð´Ð¸ÑĤ
erv ation
Ġro b
ÑĩÐµÐ½ Ð½ÑĭÑħ
Ġrepresent s
ÐŀÑĤ ÐºÑĢÑĭ
ĠÑĥÑģÑĤÑĢÐ¾Ð¹ ÑģÑĤÐ²
ap pe
Ġstay ed
b or
er g
Ð´Ð° ÑĨÐ¸Ð¸
ĠÐ¿Ð¾Ð´ ÑĢÐ°Ð·
Ð»Ð¾ Ðµ
Ġdes cription
Ġrecogn ized
Ġliber al
ĠÑį ÐºÑĢÐ°
Ð¢ Ð¾Ð»ÑĮÐºÐ¾
Ġ3 7
ĠÑĢÐ°Ð±Ð¾ÑĤ Ð½Ð¸ÐºÐ¾Ð²
ĠÑĢÑĭÐ½ ÐºÐ¾Ð²
ĠÐ¿Ð¾Ñĩ ÑĤÑĭ
ĠIsrael i
Ġexact ly
Ð ģ
ĠÐ²ÑģÐµ Ð¾Ð±
Ġem phas
ĠÐ¸Ð½ÑģÑĤÑĢÑĥ Ð¼ÐµÐ½ÑĤÐ¾Ð²
ĠÑĢÐ°ÑģÑħÐ¾Ð´ Ð¾Ð²
ĠÑĤÐµÑĢÑĢ Ð¾ÑĢÐ¸Ð·
Ġvirt ual
i Ã³n
en ced
ĠL ive
ac ing
Ð¢ Ð¾ÑĢ
ĠÐ±Ð° Ð·Ñĭ
ĠÐ¾Ð¿ÐµÑĢÐ° ÑĨÐ¸Ð¹
ĠÐ³Ð¾Ð² Ð¾ÑĢÐ¸
A F
U B
ĠB C
si a
ĠÐĴÐ° ÑĪÐ¸
ann a
ĠÐ¿ÑĢÐ¾Ð´ Ð²Ð¸Ð¶
ĠÑĪÐ¸ÑĢÐ¾Ðº Ð¾
Ġredu ced
ĠÑĩÐµÑĤÑĭÑĢÐµ Ñħ
Ð²Ð° ÑİÑīÐ¸Ñħ
Ġsal le
ĠTer race
ĠÐ½Ð° ÐºÐ¾Ð½ÐµÑĨ
ĠC all
ĠD og
Ġv ast
ĠÐ¡ ÐĿÐĵ
ÐºÐ¾Ð² ÑĭÑħ
In ternational
ĠÐ¢ Ð°Ð¹
ĠÑĥÑĢÐ¾Ð² Ð½ÐµÐ¼
B esides
ĠÐ² Ð¿Ð¾Ð»Ð½Ðµ
ik ol
ÑĪÐ° ÑİÑĤ
Ġdis hes
ÑıÑĤÐ¸ Ðµ
Ġmost ly
ĠÐ¿ÐµÑĢÐ² ÑĭÐµ
z z
ĠÐ¾Ð± Ñģ
Ġamen ities
l en
ĠÐ¿ÑĢÐ¸ Ñĩ
rom e
Ð»ÐµÐ½ Ð½Ð¾Ð³Ð¾
Ġsp ent
Ġsp ring
Ġet hn
ÑģÐ»ÐµÐ´ Ð¾Ð²Ð°
ĠÐĶÐ¶ ÐµÐ¹
Ġchang ing
ĠÐ¾Ð¿Ð»Ð° ÑĤÑĭ
ĠÐ¿Ð¾Ð¶ ÐµÐ»Ð°
Ġsurround ed
ĠÐ²ÑĭÐ±Ð¾ ÑĢÐ°Ñħ
Ġvul ner
r ary
or ation
ĠÐº Ð¸Ð»
ot ic
ĠL ong
ĠD ol
ive red
ÑĩÑĥ Ð²
ÐĹ Ð°Ð¼
ĠÐ´Ð° Ð»ÐµÐºÐ¾
ĠÐĴÐ° ÑĪÐ¸Ð¼
ĠÑģÐ¾Ð·Ð´Ð° Ð½Ð¸Ð¸
ÑĢÐµÐ½ Ð°
Ġregist er
ĠTra de
Â ¿
ÑģÐ¿ Ð¾ÑĢÑĤ
Ð¸ÑĤ Ð½ÐµÑģ
ĠMed iterranean
Ġhous ing
Ġord ers
ĠÐ¦ÐµÐ½ÑĤÑĢÐ°Ð»ÑĮ Ð½Ð¾Ð¹
ether lands
S an
ĠÐ¾ ÐºÐ°
Ġcol our
Ġsc en
ÑĢÐ°Ð±Ð¾ ÑĤÐ¸
ĠÐºÐ¾Ð½ÑĨ Ð¾Ð²
r ust
Ġa ux
Ð² ÐµÑģ
Ðĳ ÐµÐ»
ÑĤÐ¸Ð² Ñĭ
Ġhelp ed
au gh
ĠÐ¿Ð¾Ð»Ð¾Ð¶ Ð¸ÑĤÐµÐ»ÑĮ
go ing
Ð½Ð¸ ÐºÐµ
ĠD NS
ÑĢÐ¾Ñģ Ð¾
Ġpleas ure
b and
ĠÑģÐ²Ð¾ ÐµÐ¼Ñĥ
ĠÑĢÐ°ÑģÐ¿Ð¾Ð»Ð¾Ð¶ ÐµÐ½Ñĭ
Ġval u
ĠÐ¿ÑĢÐ¸Ð½Ñı Ð»Ð¸
ĠÐ¿ÐµÑĢÑģÐ¾Ð½Ð° Ð»Ð°
Ð²Ð° ÑĤÐ¸
ĠÐĳ Ð¾Ð»ÑĮ
ĠÐ½Ð° ÑģÐºÐ¾Ð»ÑĮÐºÐ¾
Ġfin ished
Ð·Ð´ Ð¾ÑĢÐ¾Ð²
Ġc as
ĠC ard
ĠÐ¾ÑĤ Ð¿ÑĢÐ°Ð²Ð¸
Ð¾Ð¿ Ð¾Ð»Ð¾Ð¶
Ðł ÐµÐ·
5 5
S w
Ð½ Ð¾Ð³
ĠÑĤÐµ ÑĢÐ°
ĠY oung
ĠÑĤÐ¾Ð²Ð° ÑĢÑĭ
Ġaff ord
Ġm ac
Ð°Ð»ÑĮ Ð½ÑĥÑİ
ĠÐ¿ÑĢÐµÐ´Ð¾ ÑģÑĤÐ°Ð²Ð¸
200 6
ĠOn line
ĠÐĺÑĢÐ° Ð½Ð°
Ġstreng th
Ð¼Ð¾ÑĤÑĢÐ¸ ÑĤÐµ
ĠÐ¡Ð² ÑıÑĤ
ĠÐ² ÑĢÐµÐ´
ĠÐ·Ð° Ð²ÑĤÑĢÐ°
ĠB a
ĠÐ°Ðº ÑĨÐ¸Ð¹
Ġris ing
Ġf estival
Ð± ÐµÑĢÐµ
Ġb ound
Ġaud io
ĠÐ°Ð¿ Ð¿Ð°ÑĢÐ°
Europe an
Ñħ Ð½Ð¾Ð»Ð¾Ð³Ð¸
ic ip
Ġover all
ĠÐºÑĥ Ð¿Ð¸ÑĤÑĮ
ĠÐ¸Ð½ÑģÑĤÑĢÑĥ Ð¼ÐµÐ½ÑĤÐ°
Ġdoll ars
ÑīÐ¸ ÑĤ
Ġlegis lation
4 7
y b
Ä Ļ
it arian
ĠÐ·Ð° Ð²ÐµÐ´
Ð»Ðµ ÑĢÐµ
ĠD ig
ĠV ien
ĠIn vest
Ġtour ism
ĠM el
ĠSt ep
ĠÐ¿Ð¾Ð»ÑĮÐ·Ð¾Ð²Ð° ÑĤÑĮÑģÑı
ĠÐŀÐ± ÑĬÐµÐ´Ð¸Ð½
Ġs ides
Ð³ ÑĢÐ°Ð½
ÑıÐ· Ð²Ð¸
Ð½ ÐµÐ½Ð¸Ð¹
Ð½Ð¸ Ð»
Ð½Ð¸ ÑĨÐ¸
ĠÐ´ Ð¾Ð±Ñĭ
ĠÑįÐ»ÐµÐ¼ ÐµÐ½ÑĤÐ¾Ð²
ĠÐ¼ÐµÑħÐ°Ð½Ð¸ Ð·Ð¼
ar ium
Ð²Ð¸ ÑĤ
Russi a
ĠÑģÑĨ ÐµÐ½Ð°
Ð»Ñı Ð¼Ð¸
ĠM o
Ġwith d
Ġ19 60
ĠÐ¿Ð¾Ð»Ñĥ ÑĩÐ°ÐµÑĤ
ĠÑįÐºÐ¾Ð½Ð¾Ð¼Ð¸ ÐºÐµ
Ġallow ing
ĠÑģÑĤÐ°ÑĤÑĮ Ð¸
ĠÐŃÐºÑģÐ¿ ÑĢÐµÑģÑģ
u v
Ñģ ÐµÐ¹
ĠÑĦ Ð°Ðº
ĠÐ²Ð¾Ð· Ð³Ð»Ð°
ĠÑĤÑĢÑĥ Ð±
Ġannoun ce
f ol
r ong
in ating
Ð´ Ð¾Ð½
Ġb ars
ĠC old
ĠR ail
Ð´ÐµÐ½ ÑĨÐ¸Ð°Ð»ÑĮ
Ġev alu
Ġappro ximately
ĠÑįÑĦÑĦÐµÐºÑĤÐ¸Ð² Ð½Ð¾ÑģÑĤÐ¸
ĠÐĲÐ½Ð´ ÑĢÐµ
ĠÐ¾Ð¿ÑĢÐµÐ´ÐµÐ»Ð¸ ÑĤÑĮ
E W
Ð¸ s
Ð»Ðµ Ð³Ð°
Ðķ Ðľ
ĠÐ¿Ð¾Ð² ÑĢÐµ
Ġbedroom s
L C
Ġd as
ÑĤÐ¸ ÐºÐ¸
iv a
ĠÐ´ÑĢÑĥÐ³ Ð¾Ð³Ð¾
ĠÐļÐ¾Ð½ ÑģÑĤÐ°Ð½
ĠÐ²Ð¾Ð¹ Ð½Ð°
ĠÑģÑĩÐ¸ÑĤÐ° ÑİÑĤ
Ġproced ures
G et
f ox
ad ing
ĠÐľ Ð¸Ð½
ĠIn tel
ĠAmeric ans
ĠMan ager
ĠÐ´Ñĥ ÑħÐ¾Ð²
ĠÐ²Ð¾Ð·ÑĢÐ° ÑģÑĤÐµ
ĠÐ¾Ð¿ÑĢÐµÐ´ ÐµÐ»
ĠWill iam
ĠÐ½Ð° Ð¿Ð°Ð´
Ð¾Ðº Ñģ
ĠG mb
end a
Ġwe ather
h of
at us
ĠÑģÐ¿ Ð¾ÑĢÑĤÐ°
Ġconst antly
ĠÑģÐ¾ÑĤÑĢÑĥÐ´ Ð½Ð¸ÐºÐ¸
ĠÐ·Ð°Ð´Ð° ÑĩÐ¸
ĠÐ¿Ð¾Ð»ÑĥÑĩÐ¸ ÑĤÐµ
l amic
Ð¾ ÑĤÐµÐ»ÑĮ
Ð¤ Ð¾ÑĢ
Ġeas ier
Ġkil omet
Ġintel lectual
c ers
ĠÐ·Ð° Ð±Ñĭ
Ð²Ð¸ Ð¹
ĠÐĵ Ñĥ
ĠÐ¼ÑĥÐ¶ ÑĩÐ¸Ð½
Ġm ere
Ġhe avy
out e
ĠÐ¿Ð¾Ñģ Ð¼Ð¾ÑĤÑĢÐµÑĤÑĮ
ĠInd ian
ÑĤÐµÑħ Ð½Ð¸
P ol
Ġa uf
en sive
Ġc ocktail
et e
ĠÐºÐ° ÐºÐ¸Ð¼
un ning
ĠÃ ĳ
Ð·Ð¸Ð´ ÐµÐ½ÑĤÐ°
ĠÐ¿Ð°Ðº ÐµÑĤÐ¾Ð²
ÑĥÐ± Ð»Ð¸Ñĩ
ĠÐ²ÑĭÐ± ÑĢÐ°
ĠÐ¸Ð·Ð²ÐµÑģÑĤ Ð½Ð¾
ĠÐ¾Ð±Ð½Ð¾Ð² Ð»ÐµÐ½Ð¸Ñı
ĠÐĺÑĢÐ° ÐºÐµ
ĠÑĥÐ²ÐµÐ»Ð¸Ñĩ ÐµÐ½Ð¸Ðµ
ĠÑģÐ¾Ð²ÑĢÐµÐ¼ÐµÐ½ Ð½ÑĭÐµ
pre ne
ÑĢÐ¾Ð²Ð¾Ð´ Ð½Ð¾Ð¹
ĠÐ¿ÑĢÐµÐ´Ð¾ÑģÑĤÐ°Ð² Ð»ÐµÐ½Ð¸Ñı
itzer land
ÑĢ Ð¾Ð¶Ð°
Ġthe ory
ĠM ess
ĠÑģÐ°Ð¼ Ð¾Ð»
Ġdel ivered
l t
own ed
Ġposition s
ĠNok ia
ĠÐļ Ð¾
th od
Ð±Ð¾ ÑĤÐ°
ĠÐ¸Ð·Ð¾Ð±ÑĢÐ°Ð¶ ÐµÐ½Ð¸Ðµ
Ġlik ed
Ġresident ial
ĠÐ¿ÑĥÐ½ ÐºÑĤ
ĠÑĥÐ½Ð¸ÑĩÑĤ Ð¾Ð¶
ÑĪ ÐµÐ½Ð¸ÐµÐ¼
ĠÑĥ Ð´
ĠC asino
Ġyou th
ĠÐ¿ÐµÑĢ Ð²ÑĭÐ¼
Ġsur pris
ĠÐ¿Ð¾ÐºÐ° Ð·ÑĭÐ²Ð°ÐµÑĤ
ĠÐļÐ° Ð½Ð°
Ð¾Ð³ÑĢÐ°ÑĦÐ¸ Ñı
ĠÐ¿ÑĢÐ¸Ð»Ð¾Ð¶ ÐµÐ½Ð¸Ñı
Ġt ab
ĠÑģÐµ ÑĢÐµÐ´
ĠÐ¿Ð»Ð° Ð²Ð°
ĠTe am
ĠProf ess
t or
ĠÑģ Ð¾ÑģÑĢÐµÐ´
al in
Ġl obby
ĠM oney
pect ive
mark et
ĠÑģÐ¼ÐµÑĢ ÑĤÐ¸
ĠÑģÐ¾Ð¾Ð±ÑīÐµÑģÑĤÐ² Ð°
Ð» Ð¾Ð±Ð°
ĠÐ´ Ð¾Ñģ
ist ry
Ġde als
ĠE N
ĠÐĴ Ð°ÑĢ
Ġrem ove
ĠÐ¼Ð¸ÑĢÐ¾Ð² ÑĭÑħ
ĠÐ¾ÑĨÐµÐ½ ÐºÐ¸
ĠÑįÐºÑģÐº Ð»ÑİÐ·Ð¸Ð²
ĠÐ² ÑĢÑĥ
ed y
ĠA ward
ĠÑį Ð¿Ð¾
Ġcent uries
ĠÐ²ÑģÑĤÑĢÐµ ÑĩÐ°
Ù Ħ
le ks
ra ck
ĠÐ¿ÑĢÐ¸ ÑĩÐ¸Ð½Ð°
Ñĳ ÑĤÑģÑı
Ġsp here
ĠÐ¾Ð±ÑĬ ÑıÐ²
Ġdep ends
Ġret ail
ĠMed ia
Ð´ÑĮ Ð¼Ð¸
ĠÐ¾ Ð¿ÑĢÐ°Ð²
Ð»Ð¸ Ð½Ð°
Ġl ies
per ial
ĠÐ²ÑĭÑģÐ¾Ðº Ð¾
Wh y
Ġ198 8
ĠÑĤÐ° Ð±Ð»Ð¸
Ġele ment
Ġclass ic
ĠÑģÐµÐ»ÑĮ ÑģÐºÐ¾ÑħÐ¾Ð·ÑıÐ¹
b ird
ĠÐ´ Ð²Ð¾ÑĢ
ÑĢÐ¸ ÑģÑĤ
ĠA S
Ġim pl
ĠÐĵ ÐµÐ½ÐµÑĢÐ°
Ġdi agn
Ġveh icles
ĠNAT O
ĠH olid
lo oking
ĠÐºÐ°ÑĢ ÑĤÐ¾Ñĩ
ĠÐ¿ÐµÑĢÐ¸ Ð¾Ð´Ð°
ĠÐºÐ¾Ð¼Ð¿ÑĮÑİ ÑĤÐµÑĢÐ°
ĠÐ´Ð¾ÑĢ Ð¾Ð³
ĠÐ²Ð¼Ðµ ÑĪÐ°
ĠÑĥÑĩÐµÑĤ Ð¾Ð¼
l an
Ġm ir
ĠL os
ov en
ĠÐ±ÐµÐ· ÑĢÐ°Ð±Ð¾ÑĤÐ¸
ĠÐ¸Ð¼Ðµ ÑİÑĤÑģÑı
ĠÐ¾Ð±Ð»Ð° Ð´Ð°ÐµÑĤ
ĠÑģÑĤÑĥÐ´ ÐµÐ½ÑĤÐ¾Ð²
Ġimm ig
f ield
ĠÐ¼ Ð°Ðº
Ġqu arter
ÐŁÐ¾Ñģ Ðº
Ġcertific ate
ĠÐºÑĢÐ¾Ð²Ð°ÑĤ ÑıÑħ
ĠGmb H
B ank
ĠÐ¡ ÐľÐĺ
ÑĤÐ¸Ð² Ð½Ð¾
ĠDe v
ĠÐ°Ð²ÑĤ Ð¾ÑĢÐ¸
ĠÐ¿ÑĢÐ¾ÑĤ Ð¾ÐºÐ¾Ð»
Ð»Ð° Ð¹
il ed
ut ely
Ġgener ally
ĠÐ¸Ð½ÑĤÐµÑĢÐµ ÑģÐ¾Ð²
J apan
Ð´ Ð¾Ð²Ð°
Ġf ish
ĠS en
ĠA tt
ĠB ug
Ðľ Ð°Ðº
Ġch amp
ĠÑĤÐµÐº ÑģÑĤÐ¾Ð²
ÑĢÐ¾Ð²Ð°Ð½ Ð½ÑĭÐ¼
ĠÐ¿Ð¾Ð± Ðµ
Ġimprove ment
Ġadult s
ĠÑĦÑĥÐ½Ð´Ð° Ð¼ÐµÐ½ÑĤÐ°
O s
ĠÐ¼ Ð¾Ð¸
ĠÐ½Ð° ÑĢÐ¾Ð´Ð°
ĠÐ¾Ð± ÑģÑĤÐ°Ð½Ð¾Ð²
ĠT op
Ġsp ot
ĠÐ¿Ð¾ÑģÐ»ÐµÐ´ ÑģÑĤÐ²Ð¸
Ġdri ver
ĠÑĤÑĢÑĥÐ´ Ð½Ð¾
Ġvo ice
Ġadop ted
ÐŁÐ¾ÑģÐº Ð¾Ð»ÑĮÐºÑĥ
c an
ĠF ar
ĠÐ¿ÑĢÐµ Ð¿Ð°ÑĢÐ°
Ġres olution
Ġrel atively
ĠÐ±Ñĥ Ñħ
Ġreason able
Ġcommit ment
ĠÐ¿ÑĢÐ¸Ð½ÑıÑĤÐ¸ Ñı
ĠÐ·Ð°ÑıÐ²Ð¸ Ð»
ĠÑģÐ¿ÐµÐºÑĤ ÑĢ
Ġd ining
ĠA ccess
ĠÐ¿ÑĢÐ¾Ð¸Ð·Ð²Ð¾Ð´ ÑģÑĤÐ²Ðµ
urb an
r ants
t i
Ġo ri
Ð½Ð¸ ÑĤÐ°ÑĢ
Ð²Ñĭ Ð¼Ð¸
ÐŁÑĢÐ¾Ð³ÑĢÐ°Ð¼ Ð¼Ð°
M ark
ĠÐ½Ð° Ð»Ð¾Ð³
il ly
ÑģÑĤÐ° Ð¼
ÑĢÐ¸ Ð½Ð°
Ġsp ons
ĠÐ°ÐºÑĤÐ¸Ð² Ð½Ð¾
ĠEner gy
] .
Å ¼
il er
ĠÐµ Ð·
ĠB oy
ĠÑįÐºÐ¾Ð½Ð¾Ð¼Ð¸ ÑĩÐµÑģÐºÐ¸Ðµ
Ġact ual
Com p
ÑĦ Ñĭ
ĠÑĢÐµ ÑĦÐ¾ÑĢÐ¼Ñĭ
ĠÐ¾ÑģÐ¾Ð± ÐµÐ½Ð½Ð¾ÑģÑĤÐ¸
L et
ĠÐ´ ÑĢÐ°
ĠÑĤ ÑīÐ°
Ðķ ÑģÑĤÑĮ
Ġer ror
Ġbalcon y
ĠG ames
ak a
ÑĤÑĥ ÑĢÑĥ
Ġdis s
Alex ander
w an
ĠÑĥ ÑīÐµÑĢ
ĠS ee
Ð°Ð¼ ÐµÑĢÐ¸
ÑģÑĤÐ²ÐµÐ½ Ð½ÑĭÐ¹
ÑĢÑĥÐ¿ Ð¿Ð°
ĠÐ¼ÑĥÐ·Ñĭ ÐºÐ¸
ĠÐ´Ð²Ð¸Ð¶ ÐµÐ½Ð¸Ðµ
ĠÑģÑĤÐ°Ð±Ð¸Ð»ÑĮ Ð½Ð¾ÑģÑĤÐ¸
ĠÐ¸ÑģÐºÐ»ÑİÑĩ ÐµÐ½Ð¸ÐµÐ¼
ÑĢÐµÑģ ÑģÐ¸Ð²
ĠÑĢÐ°Ð·Ð¼ ÐµÑĢÐµ
6 6
ÑĢ Ð½
Ġt ours
Ġstud ent
ĠÐ¿Ð¾Ð´Ð³Ð¾ÑĤÐ¾Ð² ÐºÐ¸
Ġplann ed
Ġfor ced
ĠÑįÐºÑģÐ¿ Ð¾ÑĢÑĤ
m o
ÑĤÑĮ Ñı
ĠÐ½Ðµ Ð¾Ð±Ñĭ
Ġthem e
Ã¥ Ãª
Ġrepresent ed
Ġemer g
Ġarriv ed
Ġdistribut ors
Ġe arth
Ġvisit ing
ĠF ed
ĠW ind
ĠÐļ Ð°Ðº
ĠÐ½Ð°Ñĥ Ðº
ĠFeder al
Ġde leg
Ð¡ Ð¿
ĠH TML
Ðĳ Ð¸
ĠPro duct
W elcome
c ol
Ð¾Ð» Ð¾
ĠÐ± Ð»
Ð¼Ð¸ ÑĢÐ°
ĠÑĤÐµ Ð»Ð°
Ð¿ÑĢÐ° Ð²Ð¸ÑĤÑĮ
Ġmark ed
Ġtradition s
ĠÐ¢ÐµÑĢ ÑĢÐ°ÑģÐ°
ÑĤÐ¸ ÑĦÐ¸ÑĨÐ¸
ĠÑĢÐ° ÑģÑĤÐ¸
ĠL uc
Ð¾Ð¿ Ð»Ð°
Ġhe ar
Ġgo als
Ġreturn ed
ĠÑĤÑĢ ÐµÐ½Ð¸
s ee
ri e
ĠF re
ÐĲ Ð±
Ġtrans actions
ĠBel g
ÐĻ Ð¾ÑĢ
ĠÑģÑĤÑĢÑĥÐºÑĤÑĥ ÑĢÑĭ
Ã ·
Ñĭ ÑĢ
ĠÐ¿ÑĢ Ð¾ÐºÐ°
ĠS ur
ĠÐ¾ÑĤ Ð¼ÐµÑĤÐ¸
ig ure
ĠÐ¿ÑĢÐ¾Ð´ Ð¾Ð²Ð¾Ð»ÑĮ
ĠÐ·Ð°Ð½Ð¸Ð¼Ð° ÐµÑĤÑģÑı
ĠÑĦÐµÑģÑĤÐ¸ Ð²Ð°
O ff
ĠR us
Ðľ Ð¾Ð¶Ð½Ð¾
ĠK ra
ÐĶ Ñĥ
Ġcl in
Ġent ered
Ġfac ing
A ut
M et
Ġ ign
ot hes
ĠÐ½Ð°ÑĩÐ° Ð»Ð¸
ĠÐ´Ð¾ÐºÐ° Ð·Ð°
Ġn ations
ĠC IS
ĠH ill
ĠÐ¤ Ð¸Ð½
ĠÐ²ÐµÑģÑĮ Ð¼Ð°
st al
Ġen ables
ĠÐ´Ð° Ð²Ð½Ð¾
ĠÐ²ÑĢÐµÐ¼ÐµÐ½ ÐµÐ¼
Ġdise ases
w s
Ð² ÐµÑĢÐµ
Ġb ag
ĠK n
ĠÐºÐ¾Ð½ Ð´Ð¸ÑĨÐ¸Ð¾Ð½
Ġrest rict
ĠÐ¿Ð¾Ð¿ ÑĢÐ¾Ð±
ĠBulgar ian
duc ation
ĠÑģ Ð¾Ð´ÐµÐ¹ÑģÑĤÐ²Ð¸
ĠÐ± ÑĢÐµÐ½
ĠÑĢÐµ ÐºÐ¾Ð½ÑģÑĤÑĢÑĥ
ĠÑģÐ´ÐµÐ»Ð° Ð½
ĠÐ²Ñģ ÐµÐ¼Ð¸ÑĢ
ann es
Ġdest ination
g al
ÐĿ Ð«
Ġ6 5
ĠÐ²Ð· Ñı
Ġann iversary
ĠÐ¸ÑģÑĤÐ¾ÑĢÐ¸ Ñİ
Ġhundred s
f riend
clud ed
ste ad
ĠÐ¿ÑĥÐ±Ð»Ð¸ ÐºÐ°
ĠÐ¿ÑĢÐ¾Ð´ÑĥÐº ÑĨÐ¸Ñİ
Ġsymb ol
Ġ iron
ĠÑĤÐ° ÐºÐ¸Ð¼Ð¸
Ġk illed
Ġser vers
ĠÐ´Ð¾Ð¼ Ð¾Ð²
ĠÐ²Ð¾Ð·Ð´Ñĥ ÑĪ
ĠÐ¿ÑĢÐ¾ÑĦÐ¸ Ð»Ð°ÐºÑĤÐ¸
ĠÐ²ÑĭÐ½Ñĥ Ð¶Ð´
ÑĢÐ°Ð¶ ÐµÐ½Ð¸Ðµ
ĠÐ¿ÑĢÐ¾Ð² Ð¸Ð½
ĠÐ¿ÑĢÐ¾Ð³ÑĢÐ°Ð¼ Ð¼Ð¸
ĠÐ¿Ð°ÑĢ Ð»Ð°Ð¼ÐµÐ½ÑĤ
ĠÐ¿ÑĢÐ¾ÑĨ ÐµÐ½ÑĤÐ¾Ð²
Ġopp osite
ĠÑĩÐ°Ñģ Ð°
Ġdisplay ed
ĠÐ¿ÑĢÐ¾ÑģÐ¼Ð¾ÑĤ ÑĢÐ°
Ð·Ð¸ Ð¾Ð½
ĠÐ»Ñİ Ð´ÑĮÐ¼Ð¸
ĠÐ±Ð¾Ð»ÑĮÑĪÐ¸Ð½ ÑģÑĤÐ²Ð°
ar ity
ÑĦ ÐµÐ´
ĠC am
ĠIn s
Ð²Ð°ÑĢ ÑĤÐ¸
Ġcut ting
ĠÐ¿Ð¾Ð»ÑĥÑĩÐ° ÑİÑĤ
ĠÐ°ÑĢÑħÐ¸ÑĤÐµ ÐºÑĤÑĥÑĢ
ÐĿÐ¾Ð² ÑĭÐ¹
C ons
Ġp ip
Ð¾ÑĤ ÑĬÐµÐ·Ð´Ð°
ĠT om
ĠCon f
ĠPet er
ĠReg ion
ĠCap ital
Ġmill ions
E st
ĠÐ±Ñĭ ÑģÑĤÑĢÑĭ
Ġart ist
ĠÐ·Ð½Ð°ÑĩÐ¸ ÑĤ
Ġfit ness
ĠÑĤÐµÑĢÑĢ Ð¾ÑĢÐ¸
k ey
ĠÐ± ÑĢÐ¸ÑĤÐ°Ð½
ĠÐºÐ° ÑĦÐµ
ĠÐ²Ñĭ ÑģÑĤÑĥÐ¿Ð¸
ĠH a
ĠÑģÐ¾Ð³Ð»Ð° ÑĪÐµÐ½Ð¸Ðµ
M A
d y
Ñħ Ð¾Ð¹
ÑĪ ÐµÐ¼Ñĥ
ĠÐ± Ð»Ð¾Ð³
ĠÐ·Ð½Ð° ÑĤÑĮ
Ġprior ity
Americ an
Ġpro ceed
Ð¸Ð¼ ÐµÐ½
ĠÑĦÐ¸ÑĢ Ð¼
Ġredu ction
Ġpain ting
Ġtre es
m oney
Ì ģ
Ġs es
ro c
ĠÐºÐ° Ð·Ð¸Ð½Ð¾
ĠP rom
ÑĤÐµÐ»ÑĮ Ð½Ð¾Ð¼
Ðĵ Ð¾ÑģÑĤÐ¸
ĠÐ²Ð½ÑĥÑĤÑĢÐµÐ½ Ð½Ð¸Ñħ
ĠÐ¾Ð±Ð¼ÐµÐ½ Ð°
ĠEas y
Ð² ÑĭÐ¹
ĠÐ° ÐºÑĨÐ¸Ð¸
Ð°Ð½ Ð½
ĠD am
um es
ÑĢÐ°Ð½ ÐµÐ½Ð¸Ðµ
ĠÃ ª
Ġ9 001
ĠÐ¼Ð¸Ð½Ð¸ Ð¼Ñĥ
ĠÑģÐ²ÑıÐ· ÑĮ
ĠÐ¿ÑĢÐ¸Ð¾Ð±ÑĢÐµ ÑģÑĤÐ¸
ÐĺÑģÑĤ Ð¾ÑĢÐ¸Ñı
Ġl ibrary
Ð¡ Ðº
ÑĩÐ¸ Ð»
ÑģÑĭ Ð»Ð°
sk a
ĠÐ´Ð¾ÑģÑĤÐ¸ Ð³Ð°
Ġtax es
Ġconsum er
Ġchann els
B A
Ð½Ð¸ ÑĤÐµÐ»ÑĮÐ½Ð¾
ĠÐ²Ðµ ÑģÑĤÐ¸
Ð¾ÑģÑĤ Ð¾Ð²
Ġfac ilit
Ġindust ries
ĠÐ¿Ð¾Ð´Ð´ÐµÑĢÐ¶Ð¸Ð²Ð° ÑĤÑĮ
ĠÑĢÐµÑģÑĤÐ¾ÑĢÐ° Ð½Ðµ
Ġbott om
ĠP ass
Ġ3 4
ĠÐ¿ÑĢÐ¾Ð¸Ð·Ð²Ð¾Ð´ Ð¸ÑĤÑģÑı
ÑĥÐ¶ Ð´Ð°
ĠÐ¿ÑĢÐ¾Ð´Ñĥ ÐºÑĤÐ°
Ð¡Ð¸ ÑģÑĤÐµÐ¼Ð°
ÑĢ Ð³Ð¸
ĠL eb
Ðļ Ð»Ð¸
ĠÑģÐµ ÐºÑĤÐ¾ÑĢ
Ġapprov ed
S m
Ð¹ l
is er
ĠF oot
ĠÐ¼Ð¸ Ñģ
ÑĩÐµÐ½ Ð½ÑĭÐµ
ĠÐ²Ð¸ Ð´Ð°
iet ies
Ġpolit icians
Ġpartners hip
Ġ ï¿½
ĠÐº Ð¾Ð³Ð¾
ĠL es
ast s
Ġsub stant
ÐĿÐ° ÑĨÐ¸Ð¾Ð½Ð°Ð»ÑĮ
ĠÑĥÐ´Ð¾Ð± Ð½Ð¾
Ġut il
ĠEconom ic
Ġfant astic
Ð½Ð¾ ÑģÐ¸
ĠÐ´Ð¾Ðº Ð»Ð°
ĠÐºÐ¾Ð½ÑĦÐ¸ Ð´ÐµÐ½ÑĨÐ¸Ð°Ð»ÑĮ
Ġp sych
Ġpro xim
ĠIS A
Ġs ession
Ð¿ ÑĢÐµÐ´
al i
ĠÐ½Ð° Ð½ÐµÑģ
Ġse ctors
Ðĺ Ð¯
ru e
ĠÐĶ Ñį
ĠÐ½Ð°ÑĨÐ¸Ð¾Ð½Ð°Ð»ÑĮ Ð½Ð¾Ð³Ð¾
min ute
En joy
Ġl ake
Ġg ar
ĠÐĲÐ² ÑģÑĤÑĢÐ¸
ĠÐ¼Ð°ÐºÑģÐ¸Ð¼ Ð°Ð»ÑĮÐ½Ð¾
Ġagricult ural
ĠÑĥ ÑıÐ·Ð²Ð¸
Ġint ellig
ĠÑĦÐ¸ Ð»Ð¸
20 11
Ġb ul
Ġas pects
Ð¿Ð° Ð·
Ġres idence
ĠEng ine
ĠÐºÐ²Ð°ÑĢÑĤÐ¸ ÑĢÑĭ
Ġmas sive
ĠM ur
Ġhold ing
ĠÐ¿ÑĢÐ¸ÑĢÐ¾Ð´ Ñĭ
Ġsurround ing
Ð½Ð° ÑĨÐ¸Ð¾Ð½Ð°Ð»ÑĮ
ĠB rid
ĠÐ¤ Ð¾Ð½
Ġinv ite
ĠÐ¸ÑģÐ¿Ð¾Ð»ÑĮÐ· ÑĥÑİÑĤ
ĠÐ±Ð¸Ð» ÐµÑĤÐ¾Ð²
ÑĮ ÐµÑĢÐ°
Ġsu fficient
ĠÐ²ÐµÑĢ ÑģÐ¸Ñİ
Ġpresent ation
Ġspec ified
ĠÐ¶ÐµÐ½ ÑīÐ¸Ð½Ñĭ
Ġindepend ence
ĠÐ¾Ð±Ð»Ð°ÑģÑĤ ÑıÑħ
' ,
Ġp owers
Ġd og
ĠÐ¾Ð± ÑģÑĤÐ¾Ñı
ĠJ ack
ĠÐŀ ÐŀÐŀ
ĠÐ±Ð¾Ð»ÑĮÑĪ Ð¾Ð³Ð¾
Ġdef ense
Ġsmall er
ÐĴÐ¾Ð· Ð¼Ð¾Ð¶Ð½Ð¾
ĠÑĥÐ²ÐµÐ»Ð¸ ÑĩÐ¸ÑĤÑĮ
A pp
F ore
i em
ou ven
ing ly
ĠÐ´ Ð¾Ð±ÑĢÐ°ÑĤÑĮÑģÑı
ur rent
ate ver
ÐµÐ´ Ñĭ
ÑĢÐµÑģ ÑģÐ°
ĠÐ²ÑĭÑģÐ¾Ðº Ð¸Ðµ
Ġac adem
ograph ic
Ġinnov ation
Ġprepar ation
ĠÐ¼ Ð¾Ð¹
Ð´Ð¸ Ð½Ð¾
ree ment
Ġrem ember
ĠÐ±ÐµÑĢÐµ Ð³Ñĥ
Ðµ Ð»Ð¾Ð²
Ġs ets
en z
ĠM ind
ĠÐ·Ð° ÐºÑĥ
ÑĢÐ¾ Ð¸ÑĤÐµÐ»ÑĮ
rou d
ĠÐ¿ÐµÑĢÐµ ÑģÐµ
A Y
U p
s ur
Ġw arn
Ġw ireless
ĠÐľ ÐµÐºÑģÐ¸
200 5
hold ers
ĠÐ¿ÑĢÐ¸Ð´ ÐµÑĤÑģÑı
Ð¾Ð½ Ñģ
Ð¾Ñģ Ð¸
ĠI reland
ÐŁ Ð¾Ð¶Ð°Ð»ÑĥÐ¹ÑģÑĤÐ°
Ġres ource
Ġaut hentic
ĠÐ¼Ð½Ð¾Ð³Ð¾ Ðµ
ĠÑģÐµÐ¼ ÑĮ
ĠTw o
r ations
Ġro of
Ġent rance
ĠÐ¿ÑĢÐ¾Ð±Ð»ÐµÐ¼ Ñĥ
aw a
ĠÐ¼ÐµÑģÑı ÑĨ
Ġflex ible
thod ox
c alled
i ary
Ġ ï¿½ï¿½ï¿½ï¿½
ĠÐ²Ñĭ ÑĢÐ°Ð·Ð¸
ĠÐļ ÑĥÐ±
Ã© n
ĠÐ²ÑĢÐµÐ¼ÐµÐ½ Ð°
Ġmov ed
ĠV ladimir
ĠÐ½Ð¾Ð² ÐµÐ¹
ĠÐºÐ¾Ð¼Ð¿ Ð»ÐµÐºÑĤ
ĠÐºÐ¾ ÑĦÐµ
ĠÐ¾Ðº Ð½Ð°
ĠAss embly
ĠÑĦÐ¾ÑĢÐ¼Ð° ÑĤÐµ
ĠÑħÐ¾Ð·ÑıÐ¹ ÑģÑĤÐ²Ð°
Ġt ons
Ġb odies
Ġg ets
Ġrep ublic
ĠÐ½Ð°Ð·Ð½Ð° ÑĩÐµÐ½Ð¸Ñı
Ġb out
ain e
ĠÑģÐ¾ÑģÑĤÐ¾Ñı Ð½Ð¸Ðµ
ĠÐ½ÐµÐ±Ð¾Ð»ÑĮ ÑĪÐ¾Ð¹
P L
ĠÐ² Ð¾Ð¿
Ġn ov
ĠT imes
Ðľ ÐµÑĤ
ĠÐ²Ð¾Ð· Ð¾Ð±Ð½Ð¾Ð²
Ð¼ÐµÐ½Ð¸ ÑĤÑĮ
Ġspec ies
Ð¿ÑĢÐ¾ ÑĤÐ¸Ð²
Ġmagn ific
R ec
ĠÑĢÐµ ÑĪÐ¸ÑĤÑĮ
ĠW ild
ĠN etherlands
Ġsh ared
Un der
ĠÐ¾ÑĤÑģÑĥÑĤ ÑģÑĤÐ²Ð¸Ðµ
ĠSecret ary
Ġalumin ium
ĠF ri
ĠÑģÐ¿ Ñĥ
Ġunder ground
ĠAlex ander
Ġl ayer
ĠPut in
Â ¼
Ð¼ Ð¾ÑĢ
Ġl ie
ĠP ay
ÑĢÐ¾Ð² ÐºÐ°
ĠÐ¾Ð´ Ð¾Ð±
ĠPr ince
Ġm i
ĠÐ²Ñĭ ÑĢÐ¾Ñģ
ĠAr gent
There fore
Ġpub lish
Ġpossib ilities
6 5
A p
P re
k es
r ates
ĠÐ´ Ð»Ð¸Ð½
est y
ĠÐ²Ð¾ Ð¾Ð±ÑīÐµ
Ġpan or
ĠÐ¿ÐµÑĢÐµÐ³Ð¾Ð² Ð¾ÑĢÑĭ
ĠÐ¿ Ð¾Ð»ÑĮÐ·
ÑĤÐ¸ ÑĩÐµÑģÐºÐ¸Ñħ
ĠÑģÑĤ Ð¾Ð»ÑĮ
if orn
Ġincre ases
ĠÐ¿Ð¾Ð´ÑĤÐ²ÐµÑĢ Ð¶Ð´Ð°
v et
ĠÐ¿ ÑĥÐ±Ð»Ð¸Ñĩ
Ġd rop
ĠS up
em y
Ġinform ed
ĠÐºÐ¾ Ð¾ÑĢÐ´Ð¸Ð½Ð°
ĠÐ°Ð± Ð¾Ð½
ĠÐ´Ð¾ÑħÐ¾Ð´ Ð¾Ð²
Ġadvant ages
Ðµ Ð±
Ð»Ð° Ð¶Ð´Ð°
ĠI CE
ĠÐ¼Ðµ Ð±ÐµÐ»ÑĮ
ĠÐ·Ð½Ð° Ð½Ð¸Ð¹
Ġde le
ĠThe se
ĠÐ¤ Ð¾ÑĢ
Ġcomput ers
ĠÐ²Ð¾ÑģÑģÑĤÐ°Ð½Ð¾Ð² Ð»ÐµÐ½Ð¸Ñı
N ational
ch ang
ĠÑģÐ¾Ð± Ð»ÑİÐ´
Ġatt end
ĠÐ¼ÐµÐ¶Ð´ÑĥÐ½Ð°ÑĢÐ¾Ð´ Ð½ÑĭÐµ
ĠÐ¾ÑģÐ½Ð¾Ð²Ð° Ð½Ð¸Ð¸
ĠÐ°Ð´Ð¼Ð¸Ð½Ð¸ÑģÑĤÑĢÐ° ÑĨÐ¸Ð¸
ĠÑĢÐ°Ð·ÑĢÐµ ÑĪÐµÐ½Ð¸Ñı
ĠÐ²Ð·Ð°Ð¸Ð¼ Ð¾Ð´ÐµÐ¹ÑģÑĤÐ²Ð¸
M od
z ed
ĠS ant
ur ities
ĠH ere
Ðŀ Ðł
ĠÐļ Ð»Ð¸
ĠÑĢÐ¾ÑģÑģÐ¸Ð¹ ÑģÐºÐ¸Ñħ
ĠÐ³ÑĢÑĥÐ· Ð¾Ð²
Ġm il
ĠÐºÐ° Ð´
ĠJ SC
ĠÐ¾ÑĤÐºÑĢÑĭ Ð²Ð°ÐµÑĤÑģÑı
ĠÑĤÐ¾Ð½ Ð½
ĠCast le
Ð´ Ð¶Ð¸
ĠL og
ul ations
ost an
ÐµÐ´ ÑĮ
ĠÐĴÐ° ÑĪÐ¸Ñħ
ĠÑįÐºÐ¾Ð½Ð¾Ð¼Ð¸ ÐºÑĥ
Ġvis ion
ĠRad io
Ġs outhern
Ð»ÑĮ Ñı
Ð¢ ÑĢÐ¸
ĠÐ¿ÑĢÐµ Ð²ÑĢÐ°
ĠÐ¸Ð·Ð¼ÐµÐ½ ÐµÐ½Ð¸Ðµ
ĠÐ¿ Ð¾Ð»ÑĮ
it ter
Ġm ob
ĠÐ¡ Ð¾Ð»
Ġz u
Ġve get
r in
ult ane
Ð±Ð¸ Ð»Ð¸
ĠÐ½Ð¾Ð² Ð¾ÑģÑĤÐ¸
ĠÑĢÐ°ÑģÐ¿Ð¾Ð»Ð¾Ð¶ ÐµÐ½Ð¸Ðµ
ĠÑģÐº Ð¾Ð»ÑĮÐºÐ¾
ĠÐ¿ÑĢÐ¸Ð½Ð¸Ð¼Ð° ÐµÑĤ
Ġdeterm ined
Ġparent s
O b
n s
ÑĤ Ð½ÑĭÑħ
ÑĤ ÐºÐ¾Ð²
ro t
ĠÐ¿ÐµÑĢÐµÐ²Ð¾Ð´ Ð°
Ġpre t
ĠÐºÐ°ÑĢ ÑĤ
ĠÑĩÐ°ÑģÑĤ Ð½ÑĭÑħ
Ã© es
Ġsee k
-- --
ĠH or
Ðļ Ð¸ÑĤÐ°Ð¹
Ð¼ÐµÐ½ Ð°
ĠÐĳ Ð¾Ð³
Ġout standing
ĠEx ec
Ġed itor
Ġdirect ory
ĠÐ½Ð°Ñĥ ÐºÐ¸
ĠÐºÐ½Ð¸ Ð³Ð¸
Ñģ ÑģÐ°
ĠÐ´ Ð¾Ð¼Ð¸
Ġm el
ro b
ĠT reat
ĠDe ath
ĠRes earch
Ñĩ ÐµÑĢÐ°
ĠE xt
ĠÑħ ÑĢÐ¸ÑģÑĤÐ¸Ð°Ð½
ĠÐ¼Ð°ÑĢ ÐºÐ¸
ĠÐ²Ð°Ð¶ Ð½ÑĭÐ¼
Ġcharact ers
ĠÑģÐ¾Ð» Ð½Ðµ
Ò Ĳ
Ġt ree
ad ays
Ðľ Ð°Ð½
Ġ3 3
ĠÑģÐ¾Ð·Ð´Ð° Ð½Ð¸Ñİ
ĠÐ¿ÑĢÐ¾Ð² Ð¾Ð´Ð¸
Ġtour ists
Ġcou ple
Ġinstru ment
ĠAN D
Ġunemp loyment
Ñī ÐµÐ½Ð½ÑĭÑħ
Ñī ÐµÐ½Ð¸ÐµÐ¼
Ñį ÑĤÐ°
ĠM iss
ĠB ol
ĠÑĦ Ð°ÑĢ
Ġdevelop ers
Ġdep ending
ai res
ĠÑĥÑħÐ¾Ð´ Ñĥ
ĠÐ¸ Ñī
Ġm ix
ÑĪ Ð¸Ð½Ðµ
Ġg olf
ear s
Ġdep art
ĠEx hibition
ĠAg ain
ĠÐ²Ð°ÑĢÐ¸Ð°Ð½ ÑĤ
ĠLithuan ia
ĠExpl orer
O P
Ð½ ÐµÑĤÐ°
on ian
Ġc asino
ĠÐ¾ Ð´Ð¸Ð½Ð°
Ch rist
ĠÑĢÐ°ÑģÑģ Ñĭ
ĠÑģÑĩÐ¸ÑĤÐ° ÐµÑĤÑģÑı
Ġhouse hold
Ġc ry
Ġf ix
ĠG olf
ÑģÐ° Ð»
h y
Ġf rag
ĠÐ¿Ð¾Ð´ Ñģ
ĠÐł Ð¸Ð¼
ĠÑģÑĤÑĢÐ°Ð½Ð¸ÑĨ Ñĥ
ÑģÐ»ÐµÐ´ Ð¾Ð²Ð°Ð½Ð¸Ñı
ĠOb last
C omm
k l
er ry
ĠÐ·Ð° ÑģÐµÐ´Ð°
ÐĴ ÐµÐ»Ð¸
Ġcom ments
Ð°Ð¼ Ñĭ
Ġpay ments
ĠÐ¿ÑĢÐ¸Ð±Ñĭ Ð»Ð¸
ĠEmp ire
Ñĩ Ð¸Ð¼
ĠÑģ ÑĢÐ¾ÐºÐ°
ÐµÑģ Ð»Ð¸
ĠÐ½Ðµ Ð²ÐµÑĢ
ak ov
Ġus age
ose ph
ĠÑĤÐ¾Ñĩ Ð½Ð¾
ick ets
ĠÐ²Ð»Ð° Ð´Ðµ
Ġelect ed
comm unic
ÑģÐ¾ ÐµÐ´Ð¸Ð½
ĠÐ±Ð¾Ð»ÑĮÑĪÐ¸Ð½ ÑģÑĤÐ²Ðµ
Ġcy cle
ĠÐ¿ÑĢÐµÐ±Ñĭ Ð²Ð°Ð½Ð¸Ñı
ĠÐ½Ð°Ð¸ Ð»ÑĥÑĩ
4 8
ĠÐº Ð¸Ñģ
ÑĤÐ¸ Ð²Ð°
Ð»Ðµ Ð¶Ð°
Ð¡ ÐµÐ¹ÑĩÐ°Ñģ
ĠN etwork
Ġsh ape
Ðĵ Ð¾ÑĢ
ĠÐļÐ¾Ð½ ÑģÑĤÐ¸ÑĤÑĥ
ĠÐ´ÐµÐ»Ð¾Ð² ÑĭÑħ
ĠÐĲÑĦÑĢÐ¸ ÐºÐ¸
ĠÐ¿ÑĢÐµÐ´ÑĥÑģ Ð¼Ð¾ÑĤÑĢÐµÐ½
at uring
Ð¿ Ð¾Ð¼
Ġb reat
ro te
ÑģÐº Ð¾Ð²
Ð¡ Ð¾Ð·Ð´Ð°
Ġcomp lic
Ð°Ðº Ð¾Ð¼
ĠÑįÑĦÑĦÐµÐºÑĤÐ¸Ð² Ð½Ð¾
ĠÐ¾ÑĤÑĢÐ¸ ÑĨÐ°
Ð´ Ð½Ðµ
ĠÐ² ÑħÐ¾Ð´Ñı
ĠÑģ Ð»Ð°Ð±
ÑģÑĤÐ° Ñı
ĠÐ· ÐµÐ»ÐµÐ½
ĠP o
ak i
Ġcomp ris
Ð¢ Ð¸
Ġstud io
ĠÐ¿ÑĢÐ¾Ð²ÐµÐ´ ÐµÐ½Ð¸Ðµ
ĠÐ¿ÑĢÐ¾Ð²Ð¾Ð´ Ð¸ÑĤÑģÑı
ĠÐ¿Ð¾Ð¼Ð¾Ð³Ð° ÐµÑĤ
E m
ĠB ashk
Ġcomp osition
Ð¾Ñĩ Ð½Ð¾Ð³Ð¾
Ġleg it
Ġeffect ively
ĠAn n
ĠÑĢÐ°ÑģÑĪÐ¸ ÑĢÑı
ĠTechn ology
Ġupg rade
ĠÐ¿Ð¾ ÑģÑĤÐ°Ð½Ð¾Ð²
ĠÑĩ ÑĤ
ÐºÐ¾Ð² ÑĭÐµ
ĠÐ¸Ð½ÑĦÐ¾ÑĢÐ¼Ð° ÑĨÐ¸Ð¾Ð½Ð½ÑĭÑħ
Ġtechn iques
ĠÑģÐ¾ÑĤÑĢÑĥÐ´Ð½Ð¸ÑĩÐµÑģÑĤÐ² Ðµ
Ġmanag ers
ĠÐ¿ÑĢÐ¸Ð²Ð¾Ð´ Ð¸ÑĤ
ĠÐ¿Ð¸ÑģÑĮ Ð¼ÐµÐ½
Ġb urn
Ġd ownt
ent h
ĠI C
ĠW ork
ĠÐ¿Ð¾ÑģÐ»ÐµÐ´ Ð½ÐµÐµ
ĠÐ¾ÑĪÐ¸Ð± ÐºÐ¸
ĠÐ³ÑĢÐ° Ð½Ð¸ÑĨÑĭ
Ġmov ing
ĠOrgan ization
ĠT ool
ĠW alk
ÑĤÑĭ Ð¼Ð¸
so le
Ġread ing
Ġbeh avior
ĠÐľÐ¸Ð½Ð¸ÑģÑĤÐµÑĢ ÑģÑĤÐ²Ð°
am o
Ðļ Ð¾
Ġch ain
Ð¢ Ð¾
ok en
ĠÐºÐ¾ÑĢ ÑĢÑĥÐ¿
ĠÐĲÐ»ÐµÐºÑģÐ°Ð½Ð´ ÑĢÐ¾Ð²Ð¸Ñĩ
Ð°Ð¼ÐµÑĢÐ¸ ÐºÐ°Ð½
S I
ĠW ell
ĠÑģÐ¾Ð²ÑĢÐµÐ¼ÐµÐ½ Ð½Ð¾Ð³Ð¾
ĠÐ½Ð¸Ðº ÑĤÐ¾
ĠÐ¿ÑĢÐ¾Ð¸Ð·Ð¾ÑĪ Ð»Ð¾
ÐµÐ½ÑĤÐ° Ð¼
ĠÐ¿ÑĢÐ¸Ð±Ñĭ Ð»ÑĮ
Ġappoint ed
t able
ĠÐ² ÑģÑĤÑĥÐ¿Ð¸
ĠÐ½Ð° Ð²Ñĭ
ÑīÐ° ÑİÑĤÑģÑı
ĠÑģÐ¾ÑģÑĤÐ¾Ñı Ð½Ð¸Ñı
Ġgl ad
ĠFire fox
Ð½ ÐµÑĤÑģÑı
ed ding
ĠB et
ĠÑģÐ² ÐµÐ´ÐµÐ½Ð¸Ñı
Ð¼Ðµ ÑģÑĤÐ¾
ĠK ong
ĠÐ¿ÐµÑĢÐµ Ñģ
ik ing
ĠÐ²Ð¸Ð´ ÐµÑĤÑĮ
ĠÐļÐ°ÑĢ Ð»
ĠÐºÐ¾Ð¼Ð½Ð° ÑĤÐ°
Ä Ľ
We b
Ð¾Ð²Ð°Ð½ Ð½Ð¾Ð¹
Ġair craft
ĠÐ´Ð¾ÑģÑĤÑĥÐ¿ ÐµÐ½
Ðº ÐµÐ½
Ġs qu
Ġp un
ic hel
ĠÑģÑĥ Ð´Ð°
ĠÐ¤ÑĢÐ°Ð½ ÑĨÐ¸Ñı
ed s
el ine
ĠPl aza
ĠÐºÐ¾Ð½ÑĤÑĢ Ð¾Ð»
ĠÐ³Ð»Ð¾Ð±Ð°Ð»ÑĮ Ð½Ð¾Ð³Ð¾
Ð² Ð¾ÐºÐ°
ic ed
ĠS ome
ĠÐ¾Ð± Ð»ÐµÐ³
ÑĩÐ¸ ÑĤ
ĠÐļ ÑĢÐ¸
Ġ3 000
ÑĤÐ¾ÑĢ Ð¾Ð¹
ĠÐ¿Ð¾Ð»ÑĥÑĩÐ¸ Ð»Ð°
ĠÐ¿ÑĢÐ¾Ð²Ð¾Ð´ Ð¸ÑĤÑĮ
Ġdr inks
ĠÐ³Ð°ÑĢÐ°Ð½ÑĤÐ¸ ÑĢÑĥÐµÑĤ
E r
W orld
in er
on ym
Ð± ÐµÐº
Ð»Ñı ÑĨÐ¸Ñı
Ð¡ Ðķ
ÑĩÐ¸ Ðµ
Ðļ Ðĺ
ĠÐ»Ð¸ Ð½Ð¸Ñı
ik i
ĠÐ¸ÑģÐ¿Ð¾Ð»ÑĮÐ·Ð¾Ð²Ð° ÑĤÑĮÑģÑı
ĠÐ²Ð· ÑıÑĤÑĮ
a ud
Ġd ra
ĠÑĢÐµ ÑĦÐ¾ÑĢÐ¼
ĠÐ¶ Ð¸ÑĤÑĮ
ĠU RL
Ġun iversity
ĠÐºÑĢÐ° ÑģÐ¸
Ã° Ãł
ÑģÐ¸Ð¾Ð½ Ð½Ð¾Ðµ
it Ð¹
Ġst rict
ĠÐ¿ÑĢÐµÐ´ ÑĥÐ¿ÑĢÐµ
ĠÐł ÑĥÑģ
Ġind eed
Ð§ ÐµÑĢ
Ġadministr ative
ĠÐĵÐµ Ð¾ÑĢ
I K
Å Ľ
ĠÑĢÐ°Ð· Ð½ÑĭÐµ
ĠÐ¿ÑĢÐ°Ð²Ð¸ Ð»
ĠPro t
Ġprof ile
ÐĺÐ½ ÑĤÐµÑĢ
ĠÑĤÑĥÑĢÐ¸ ÑģÑĤÐ¾Ð²
ĠÐ¿ÑĢÐ¾Ð´Ð¾Ð»Ð¶Ð° ÐµÑĤ
ĠÐ¸Ð·Ñĭ ÑģÐºÐ°Ð½
ĠÑĤÐµÐº ÑģÑĤ
ipp ing
ĠÐ´ÐµÑĤ Ð°Ð»Ð¸
ĠÐ¿Ð°ÑĢÐºÐ¾Ð² ÐºÐ°
ĠR am
Ð»ÐµÐº Ð¾Ð¼
ĠÑįÑĤÐ° Ð¶Ðµ
Ġmembers hip
O B
ra v
ĠÐ¿Ð°Ðº ÐµÑĤÑĭ
ĠÐºÐ¾Ð½Ðµ ÑĩÐ½Ð¾Ð¼
Ð¾Ð» Ñĭ
Ġcharg es
Ġspect ac
h ost
Ð¸ re
ĠÑģ Ð°Ð½
ÐµÑģ Ð°
ĠF orm
ash ington
Ġdeb ate
Ġpropos ed
Ġmod er
ĠÐ¥ Ð¾ÑĢ
ĠÑģÐ¾Ð±ÑģÑĤÐ²ÐµÐ½ Ð½ÑĭÑħ
ĠÑįÐ½ÐµÑĢ Ð³Ð¸
uz zi
Ġreserv ation
ĠÐ¾Ð±Ð½Ð° ÑĢÑĥÐ¶Ð¸
ĠÐ¡Ð¾ÐµÐ´Ð¸Ð½ ÐµÐ½Ð½ÑĭÑħ
Ñ ŀ
Ġserv es
Ð¾ÑĢÐ¾ ÑĤÐ°
ĠÐ¼Ð½ ÐµÐ½Ð¸Ñİ
ĠÐ¿Ð¾ÐºÐ¾Ð» ÐµÐ½Ð¸Ñı
Ġtoile t
E s
Ġ ×
Ġin put
ĠÐ¿Ð¾ ÑıÐ²
ig ious
Ġcon crete
ĠÑĢÐ°Ð· Ð²Ð»Ðµ
Ġra ise
ĠÐ¼Ð½ ÐµÐ½Ð¸Ðµ
ĠÐ½Ð°Ñģ Ð»Ð°Ð´Ð¸
ĠÑģÐ¾Ð´ÐµÑĢÐ¶Ð° Ð½Ð¸Ðµ
Ġimmedi ate
ĠÐ¿Ð¾Ð´Ð²ÐµÑĢ Ð³Ð°
Ġunivers al
Ġdang erous
h i
Ġa w
Ñı ÑĤÑĮÑģÑı
ĠH is
Ð²Ðµ Ð»
ĠÐ½Ð¸ Ð¶
Ð½Ð¾ÑģÑĤ ÑıÐ¼
ĠÐµÐ² ÑĢÐ¾Ð·
Ġdeterm ine
ÑĢ Ð¾Ð¶
at ur
Ġf elt
le ts
ÐĶ Ð¾Ð±Ð°Ð²
ĠFl ore
ĠÑģÐ¾Ð² ÐµÑĤÐ°
ĠÑģÐ¾ÑģÑĢÐµÐ´ Ð¾ÑĤÐ¾
Ġm p
ĠÐ¿Ð¾Ð´ Ð¾Ð·
ÐµÐ· Ð¾Ð¿Ð°Ñģ
ĠÐ¾Ð±Ð»Ð° ÑģÑĤÑĮ
ĠÐ¾Ð±ÑīÐµÑģÑĤÐ² ÐµÐ½Ð½ÑĭÑħ
ĠÐ±Ð»Ð° Ð³Ð¾Ñģ
ĠÑĥÑģÐ¿Ðµ Ñħ
ĠÐ³Ð¾Ð² Ð¾ÑĢÐ¸ÑĤÑĮ
ĠÐĸ Ð°Ð½
ĠÑģÐ¾ÑģÑĤÐ¾ Ð¸ÑĤÑģÑı
ĠVers ion
Ġt ort
ÑĢÐ° ÑĨÐ¸Ñı
ing er
ĠÐºÐ¾Ð½ ÑĤÐ¸Ð½
ĠÐ¸Ð´Ðµ Ð°Ð»ÑĮÐ½Ð¾
ĠÐ·Ð°Ð¿Ð¸ ÑģÑĮ
Ġdecl ine
Ð´ Ð¶Ðµ
Ð¾ÑĢ Ð¾Ð¼
Ġhapp en
iforn ia
O pen
l is
Ð¸ Ð²
Ñħ Ð°Ð½
ĠÐ¿ÑĢÐµÐ´ Ð¿Ð¾Ñĩ
Ðł Ð°Ñģ
ub a
Ñĳ Ð³
ĠÐĺ Ñģ
ĠÑģÑĥ Ð¿ÐµÑĢ
ĠÐ¿ÑĢÐµÐ´Ð¾ ÑģÑĤÐ°Ð²Ð»ÐµÐ½
An other
ĠSw itzerland
ĠÑĨÐ²ÐµÑĤ Ð¾Ð²
Ph one
ĠÐŃÐº ÑģÐºÑĥÑĢ
P ort
ĠÐ² ÑħÐ¾Ð´ÑıÑĤ
Ġf Ã¼r
ĠÐ¿Ð¾ ÑģÑĤÑĥÐ¿Ð°
ĠÑĤÐµÐ»ÐµÑĦ Ð¾Ð½Ð°
p age
un er
Ð¡ ÑĢÐµÐ´Ð¸
ĠH ot
ÐµÐ² ÑĭÐµ
Ġconf ident
Ġclean ing
ĠÐ¸ÑģÑĤÐ¾Ñĩ Ð½Ð¸ÐºÐ¾Ð²
S ee
Ðµ Ð²Ðµ
Ð³ Ð¸Ð½
ÐºÐ¸ ÑģÑĤÐ°Ð½Ð°
ĠÐ¿ÑĢÐ°Ð² Ð»ÐµÐ½Ð¸Ñı
Ġconne ctions
ĠÑģÑĭ ÑĢ
ĠÐ¿Ð¾ÑģÑĤ ÐµÐ¿
ÃĲÂµ ÃĲ
Ġphil os
ĠVien na
ÑĢÐµ Ð³ÑĥÐ»Ð¸
ĠSh ine
ĠÐ´Ð¾ÑģÑĤÑĥÐ¿ Ð½Ñĭ
Ġthink ing
erson al
9 7
Ġw oman
Ð± ÑĢÐµ
Ġl ots
ĠÐ¿ÑĢÐµÐ´ ÑĬ
Ġcomp at
Ġqu art
Ġunder t
Ġinstru ments
Ġan g
Ġb attle
ĠS anta
ĠA SP
Ġsu c
ĠÐ¿ÑĢÐ¸ Ð±Ð»Ð¸Ð·Ð¸
ĠÐ¿ÑĢÐµ ÑģÑĤÐ¸
Ġra w
Ġoper ate
ĠÑģÐ¿ÐµÑĨÐ¸Ð°Ð»ÑĮ Ð½ÑĭÐµ
ĠÐºÐ¾Ð½ÐºÑĥÑĢ ÑģÐ°
Ġiniti ative
ĠÐ´ÐµÐ¼Ð¾Ð½ ÑģÑĤÑĢÐ°
e z
ĠÐ¿ ÑĤÐ¸
it age
ĠH ong
and r
ÐŃ Ð¡
Ġfil ter
ĠÐ´Ð¾ÑĢ Ð¾Ð³Ð¸
ĠÐ¼ÐµÑĤÐ¾Ð´ Ñĭ
ÐĳÐ¾Ð»ÑĮ ÑĪÐ¸Ð½ÑģÑĤÐ²Ð¾
ĠÐ´Ð¾ÑģÑĤÐ¾Ð¿ÑĢÐ¸Ð¼ÐµÑĩÐ°ÑĤÐµÐ»ÑĮÐ½Ð¾ ÑģÑĤÐµÐ¹
ou st
Ġh it
Ġn avig
ut ation
ĠÐ» Ð¸Ð½
ĠÑģ Ð²Ð°
ĠP op
Ġst ated
Ġcommunic ations
ĠSl av
ĠÐºÐ¾Ð½ÐºÑĥÑĢÐµÐ½ ÑĤÐ¾ÑģÐ¿Ð¾ÑģÐ¾Ð±
ĠÐ¸Ð½Ð²ÐµÑģÑĤ Ð¾ÑĢÐ¾Ð²
ĠÐ¼Ð¾Ð½Ð¸ ÑĤÐ¾ÑĢ
Ñĳ Ð·
ĠÐ¿Ð»Ð¾ÑīÐ°Ð´ ÑĮÑİ
ĠÐ¿ÑĢÐµÐ´ÐµÐ»Ð° Ð¼Ð¸
ĠÑģÐ°Ð¼Ð¾ÑģÑĤÐ¾Ñı ÑĤÐµÐ»ÑĮÐ½Ð¾
ĠÐ¿Ð¾ÑĤÐµÐ½ÑĨÐ¸ Ð°Ð»
d orf
Ðľ Ð¾ÑĢ
Ġ4 4
conom ic
ĠÐ²ÑĭÑģÐ¾Ðº Ð¸Ñħ
ĠÑĥÐ»Ð¸ ÑĨÐµ
ĠÐ² Ð¾Ð´Ð°
ĠÐ¾ ÑĩÐ°
Ġdevelop ments
ĠÐ±ÐµÑģÐ¿Ð»Ð°ÑĤ Ð½ÑĭÐ¹
ĠÑĤÑĭÑģÑı ÑĩÐ¸
ĠÐķÐ² ÑĢÐ¾ÑģÐ¾
ĠÐĽÐ° ÑĤÐ¸Ð½
ĠM oon
Ð²Ð¸ Ñı
Ġcont est
Ð¶Ð° ÑİÑĤ
ĠÐ´Ð¸ Ñģ
ÃŃ a
Ġpri me
Ġhealth y
ĠÑģÐ¿ÑĥÑĤ Ð½Ð¸ÐºÐ¾Ð²
d ers
Ðº Ð½Ð¾Ð²
ÑĮ ÐµÑĤ
ĠÐ¾Ð± ÑĪÐ¸ÑĢ
ĠB ur
ĠSt ock
Ġar med
Ðĵ Ðŀ
ĠÐ¼ÐµÐ¶Ð´ÑĥÐ½Ð°ÑĢÐ¾Ð´ Ð½ÑĭÐ¼
ĠÐ¿Ð¾ÑĤÑĢÐµÐ± Ð½Ð¾ÑģÑĤÐ¸
Ġrent al
Ġe ye
ĠS of
ĠH old
ĠÐ¾Ð¿ ÑĭÑĤÐ°
ĠÑĢÐµÑģÐ¿ÑĥÐ±Ð»Ð¸ ÐºÐ¸
ĠÐ²Ð·ÑĢÐ¾Ñģ Ð»ÑĭÑħ
B oth
F F
Ð½ ÐµÐ½
ĠN ever
Ð¸Ð· ÐµÐ¼
ect s
eder al
Ġpred ict
3 00
ĠM obile
ĠD ays
ell ed
ÐĶ Ð¾Ð±
Ġpl astic
ĠÐĽ Ð¸ÑĤ
Ð±Ð° Ñı
ĠÑĩÐ»ÐµÐ½ Ñĭ
Ġethn ic
Ġme ant
ĠÐ²Ð° ÑĪÐµÐ¼
ÐºÐ°Ð½ ÑĩÐ¸
ĠÐ½Ð°ÑģÑĤÐ¾Ñı ÑīÐ¸Ð¹
Ã° Ã®
ĠÑĢÑĥÐºÐ¾Ð²Ð¾Ð´ ÑģÑĤÐ²Ð¾
ĠÐ½Ð°ÑĢÑĥ ÑĪÐµÐ½Ð¸Ñı
Ġpie ces
Ġwait ing
ĠÐ¶Ð¸Ð²Ð¾ÑĤ Ð½ÑĭÑħ
ĠÑģÐ´ÐµÐ»Ð° Ð»
ĠÑģÐ´ÐµÐ»Ð° Ð»Ð¸
Ġweb sites
ĠÐ·Ð°ÑīÐ¸ ÑĤÑĥ
ili ar
Ġbor row
h ÑĦtel
p at
Â Ķ
he v
Ð³ ÑĢÐµÑģÑģ
ĠL ov
Ġbe aches
Ġun less
ĠÑĥÑģÐ»Ñĥ Ð³Ð°Ð¼Ð¸
ĠIs lamic
ĠWh o
ĠÑģÐ¸ÑĤÑĥÐ° ÑĨÐ¸Ñı
ĠÐ¿ÑĢÐµÐ´ÑģÑĤÐ°Ð²Ð»Ñı ÑİÑĤ
ĠÐºÐ¾Ð¼Ð¸Ñģ ÑģÐ¸Ð¸
ĠÐ°ÑģÑģÐ¾ÑĢÑĤÐ¸ Ð¼ÐµÐ½ÑĤ
Ð°ÑĢ Ð¾Ð´
Ðĺ Ð¼
Ã¨ re
Ġconst ant
ĠÐ¿ÑĢÐ¾Ð³ÑĢÐ°Ð¼Ð¼ Ð½Ð¾Ðµ
ĠÐ½ÐµÐ·Ð°Ð²Ð¸Ñģ Ð¸Ð¼Ð¾
Ð´ ÑĤ
ĠR estaurant
Ð·Ð° Ð¹Ð½
In ter
Ġob tained
ĠÐ¿Ð¾Ð²Ñĭ ÑĪÐµÐ½Ð¸Ðµ
ĠÐ¾Ð¿ÑĥÐ±Ð»Ð¸ ÐºÐ¾Ð²Ð°
at ar
ÑĤÐ¾ Ð½Ð¸
Ġal t
Ð±Ð¾ ÑĢÐ°ÑĤ
Ð´ÐµÑĢ Ð»Ð°Ð½
ĠÑģÐ¾Ð¾Ð± ÑīÐµÐ½Ð¸Ð¹
ĠÑģÑĤÐ¾Ð» ÐµÑĤÐ¸
ĠÐ·Ð°Ð²Ð¾Ð´ Ð°
R ed
ĠL o
ĠÐ»ÑİÐ± Ð¸Ð¼
ĠÑĤÑĢÐµÐ± Ð¾Ð²Ð°Ð½Ð¸Ð¹
Ġtr uth
ÐŀÑģ Ð¾Ð±
h ow
on na
ĠÐ¿ÑĢÐ¸ Ð±Ð¾ÑĢ
ĠÑĢÐ°Ð· ÑĥÐ¼
ial ly
ĠÐĵ Ð¾ÑĢ
ĠÐ¾ÑĤÐ½Ð¾ ÑĪÐµÐ½Ð¸Ðµ
ĠÐ·Ð° ÐºÐ°
Ġex hib
Ġspe ech
ÑıÑĤÐ¸ Ñı
ĠÑĪ Ð¸Ð½
Ġdec ide
Ġexpect ations
Ð²ÑĪÐ¸Ñħ ÑģÑı
p oint
w ater
ÑĢÑĥ ÑİÑīÐ¸Ñħ
ĠÐ¿ÑĢÐµ Ð¾Ð´Ð¾Ð»
ÐĽ ÑĥÑĩ
ĠÐ¿Ð¾ÑĤ ÑĢÑı
ÐµÑģÑı ÑĤÑĮ
ĠÑģÐ¾Ð±ÑģÑĤÐ²ÐµÐ½ Ð½Ð¾Ð¹
ĠÐ°Ð´ÑĢÐµÑģ Ñĥ
Ġdocument ation
Ġprep are
ĠÐ¿Ð°Ð½ ÐµÐ»Ð¸
ĠÐ·Ð°ÑĢÑĥ Ð±ÐµÐ¶
Ð´ Ñı
on i
art s
ĠÑĨÐµÐ½ÑĤ ÑĢÐ¾Ð¼
200 4
Ġfac ility
Ð»Ð¸Ð· Ð¼Ð°
ĠSystem s
ĠÐ¿Ð¾ÑĤ Ð¾Ðº
ĠFran c
ĠÐ¾ÑĤÐµ ÑĩÐµÑģÑĤÐ²
Ġdiscuss ion
ĠÐĽÑİ ÐºÑģ
ĠÑģÐµÑĢÐ²Ð¸ ÑģÐ°
ÑĤ Ð½ÑĭÐµ
in ental
Ġp ure
out s
ĠÐł Ð¤
ÑĢÐ¾Ð²Ð°Ð½ Ð½Ð¾Ðµ
ĠÐ¿ÑĢÐ¾ÑĨÐµÑģ ÑģÐ¾Ð²
Ð¾ÑĢÑı Ð´
ĠCont rol
vere ign
Ġ ric
Ġf ra
ig er
Ġse vere
ĠÐºÐ¾Ð½ ÑģÐµÑĢ
Ġcol ors
Ġman ner
ĠÐ¿ÑĢÐ¾ÑģÑĤ Ð¾Ð¹
Ġsw itch
Ġcontact s
P aul
el a
ia z
ap ter
Ð¾Ðµ Ð´Ð¸Ð½Ð¸
Ð±Ð¸ Ð¸
ĠÐ¼Ð¾Ð»Ð¾Ð´ ÑĭÑħ
ĠÑĥÑĩÑĢÐµ Ð¶Ð´ÐµÐ½Ð¸Ð¹
Ġprint ing
ÑĤÐ¾ Ð½Ð°
Ð¾Ð²Ð° Ð½Ð°
ĠÐ¿Ð¾ ÑģÑĤÐ°Ð²Ð»Ñı
ĠÑģÑĥÑīÐµÑģÑĤÐ² ÑĥÑİÑĤ
ĠÑģÐ¿Ð¾ÑģÐ¾Ð± Ð½Ð¾ÑģÑĤÑĮ
Ġfunction ality
Ġpictures que
Ġident ity
E P
ĠP ool
ĠÐ²Ñĭ Ð·ÑĭÐ²Ð°
ÑģÐµ Ð»
ĠÐ¼Ð° Ð³
ĠÑįÐºÑģÐ¿ÐµÑĢ Ð¸Ð¼
ĠÑģÐ¾Ð¿ÑĢÐ¾Ð² Ð¾Ð¶Ð´Ð°
ĠÐŀÑĢÐ³Ð°Ð½Ð¸ Ð·Ð°ÑĨÐ¸Ð¸
al ia
ĠE X
Ġmin ister
ÑīÐ¸Ð¹ ÑģÑı
Ġstart s
ĠC ome
ad ium
Ð³Ð¸ Ðµ
ÐĲ Ð¹
Ġlist en
Ġfunction al
ÐĺÐ½ ÑĦÐ¾ÑĢÐ¼Ð°
ĠÐ¿ÑĢÐµÐ¿Ð¾Ð´Ð° Ð²Ð°
Ð»Ð¸ Ð·Ð°ÑĨÐ¸Ñı
ĠÐ´ ÐµÑĤÐ¸
ĠÐĶ Ð¶Ð°
Ġshow ed
ĠÑĢÐ°ÑģÑĪÐ¸ ÑĢÐµÐ½Ð¸Ñı
ĠÐ¾ÑĤÐ»Ð¸ ÑĩÐ°ÐµÑĤÑģÑı
ĠAustral ia
ĠÐ¿Ð¾ ÑĤÐµÑĢ
Ġun f
Ð»Ð¾ Ð½Ð°
Ġcor ruption
Ġentre prene
9 8
b re
m od
ĠI van
ĠD uke
Ġhe ight
Ġgreat est
Ġabsol utely
Ð» ÑĭÐµ
ĠÐ¾Ð± ÑĥÑĩÐµÐ½Ð¸Ðµ
ĠÐ¡ Ð°Ð¼
ĠÐ¸Ð½ÑĤÐµ Ð³ÑĢÐ¸
ĠÑĦÐ¾Ð½ Ð´
ĠÐºÐ°Ð¼ Ð¿Ð°Ð½Ð¸Ð¸
ĠDiv ision
ĠCat hedral
ĠÐ°Ð´ÑĢÐµ ÑģÐ°
H igh
ĠÐ¿ÑĢÐ¾ ÑħÐ¾Ð´Ð¸ÑĤ
pp ing
ĠÐĵ Ð¾Ð»
20 12
ĠÐ¼ÐµÑģÑĤ Ð¾Ð¼
Ġaud ience
ĠHolid ay
ĠICE cat
Ġs elling
Ñħ ÑĥÐ´
Ð²Ð° ÑİÑīÐ¸Ðµ
ĠL y
ĠB ra
ĠN ord
Ð°Ð» Ð¾Ð½
Ġem issions
ĠÐ´ÐµÐ¹ÑģÑĤÐ²Ð¸ Ðµ
tt ers
ĠÐ°Ð¼ÐµÑĢÐ¸ÐºÐ°Ð½ ÑģÐºÐ¸Ñħ
ĠÐ¿Ð¾ÐºÑĥÐ¿ ÐºÐ¸
ĠÐ´Ð¾Ð±Ð¸ ÑĤÑĮÑģÑı
H er
ĠÑģ Ð½Ñı
ĠÐ³ ÑĢÐ°Ð½
ĠF air
Ġdo ors
Ġpol y
Ġ/ /
ĠÐºÐ¾Ð¼Ð¿ ÐµÐ½
Ð¦ ÐµÐ»ÑĮ
ĠÑĥÐ²ÐµÐ»Ð¸Ñĩ ÐµÐ½Ð¸Ñı
ikh ail
ĠÐ°Ð±ÑģÐ¾Ð»ÑİÑĤ Ð½Ð¾
S QL
Ġt ests
ÑĨ Ð¾
ort ostan
Ġexp lo
ĠÑģÑĤÐ¾ Ñı
ĠÑĢÑĥÐºÐ¾Ð²Ð¾Ð´ ÑģÑĤÐ²Ð¾Ð¼
ÑĢÐµ Ð´Ð°
Ġd ictionary
Ġn icht
ÑīÐµÑģÑĤÐ² Ð¾
ĠOn ly
ĠÐĲÐ¼ÐµÑĢÐ¸ ÐºÐ°
ĠÐ¾Ñģ Ð¾Ð·Ð½Ð°
Ġsub scrib
Ġlim its
Ġstat istic
Ġmag azine
6 8
in ery
Ð½Ð¾Ð¼ Ð¾ÑĢ
ĠFin land
ĠÐ¿ÐµÑĢÑģÐ¿Ðµ ÐºÑĤÐ¸Ð²
ĠÐ±Ð»Ð¾Ðº Ð¸
augh ter
Ð² ÑĮÑİ
re es
ÑĨ Ð°ÑĤ
Ġe ast
ĠÑį Ð½
ĠR ob
Ð¿Ð° Ðº
Ġdes ire
Ġcap able
Ġless ons
ĠÐºÐ¾Ð¼Ð½Ð° ÑĤÑĭ
ĠSund ay
Ñħ Ð°Ð¼
ĠÐ¿ÑĢ Ð¾Ð²Ð°
Ġfor get
ĠX X
Ġfact or
ĠPol icy
Ġclass es
ĠÐ¿ÑĢÐµÐºÑĢÐ° ÑģÐ½Ð¾
ĠÐºÐ²Ð°Ð»Ð¸ ÑĦÐ¸ÑĨÐ¸
she et
Ġsuc ceed
? ?
ÑĩÐ¸ ÑĤÑĮÑģÑı
ĠUS B
Ð¿Ð¾ ÑĤÐµ
ĠÐ·Ð°ÑīÐ¸ ÑĤÐµ
ĠÑĢÐ°ÑģÐ¿Ð¾Ð»Ð¾Ð¶ÐµÐ½ Ð½ÑĭÐ¹
ĠÑĤÑĭ Ñģ
ĠÐ³Ð»Ð° Ð·Ð°
Ġregul ations
ĠÐ¿Ð¾ÑĤÑĢÐµÐ±Ð¸ ÑĤÐµÐ»ÐµÐ¹
ĠÐ¿ÑĢÐ¸ÑĩÐ¸Ð½ Ð¾Ð¹
ĠL un
ĠF OR
Ðĳ Ð¸ÑĤÐ²Ð°
Ġprodu cers
ĠÐ½ÐµÐ¾Ð±ÑħÐ¾Ð´Ð¸Ð¼ ÑĭÑħ
ĠÑĦÐ¾Ð½ Ð´Ð°
Ð±ÑĥÑĢ Ð³Ð°
Ġvict ory
r ating
Ġout door
ĠÐ´Ð° Ð»ÐµÐµ
ĠÐ¾ÑĤÐºÑĢÑĭ ÑĤ
Ġspec if
Ġprevent ion
Ġpromot ion
Ġdivid ed
Ġwithd raw
Ã Ĵ
ĠÐ² Ð±Ð»Ð¸Ð·Ð¸
ĠÑĨÐ¸ Ð²Ð¸
ĠÐ²Ð½ÐµÑĪ Ð½ÐµÐ¹
Ġmass age
ĠÐĿÐ¸ÐºÐ¾Ð» Ð°Ð¹
ĠÑĤÑĢÐ°Ð´Ð¸ ÑĨÐ¸Ð¸
ĠVen ice
ĠÐ²ÐºÐ»ÑİÑĩÐ¸ ÑĤÐµ
Ñĭ ÑĪÐµ
ĠÑĢÐ° Ð²Ð½Ð¾
Ġcon vert
Ġco vers
Ġrece iving
ene z
Ġpriv ile
ÑĦ Ð¾Ð½
ĠM ult
Ġass ociation
ĠÐºÐ¾Ð¼ÑĦÐ¾ÑĢÑĤÐ°Ð±ÐµÐ»ÑĮ Ð½ÑĭÐ¹
ĠPrem ier
ĠÐĿÐ¾ÑĢ Ð²Ðµ
Ðº Ð¾Ð³
Ġs now
ĠÐ·Ð° Ð¼ÐµÑģÑĤÐ¸
ĠR os
ÐŁ Ð¾ÑĤ
Ðļ ÑĥÑĢ
Ġprodu cing
ÑĢÐ°Ð¶ ÐµÐ½Ð¸Ñı
Ġrep air
ĠÐ¶Ð¸ Ð»Ð¸
ÑĢÐ°Ð»ÑĮ Ð½ÑĭÐ¹
Ġinstru ctions
\\ \\
ĠÐ·Ð°Ð±Ð¾Ð»Ðµ Ð²Ð°Ð½Ð¸Ñı
ĠÐ¿ ÑĥÐ½Ðº
id el
ĠB ook
ul s
Ð¸Ð½ Ð³Ð¾Ð²
Ġun ion
ÐŁÑĢÐµ Ð·Ð¸Ð´ÐµÐ½ÑĤ
ĠÐ¾Ð±Ðµ ÑīÐ°
Ġmagnific ent
ĠÐŃÐºÑģÐºÑĥÑĢ ÑģÐ¸Ð¾Ð½Ð½Ð¾Ðµ
ĠÐ¼ ÑĥÐ»ÑĮÑĤÐ¸
ĠÐĳ Ð¾ÑĢÐ¸
ĠÐ´Ð¾ÑģÑĤÐ¸ ÑĩÑĮ
Ġlarg ely
ĠSc ience
ĠÑģÐ»ÐµÐ´ÑĥÑİ ÑīÐ¸Ð¹
Ġconsum ers
het ic
ĠÐ¾Ð¿ÑĥÐ±Ð»Ð¸ Ðº
Ð½Ð¸ÑĨÐ¸ Ð¿Ð°
he ther
ÑģÑĤÐ° Ð»
ĠÐ· Ð¾Ð½Ñĭ
Ð¾ÑĤ Ð²Ð¾ÑĢ
ĠÐ° ÑĤÐ°
Ġbe ar
Ġam azing
ĠÐŃ Ð´
Ð¸Ð» Ð¾ÑģÑĮ
Ï ĥ
Ð½ ÐµÐ½Ð½Ð¾
ĠA way
ag on
Ġunder st
ĠÐºÑĥÑĢ Ð¾ÑĢÑĤ
ĠÐ¿ÑĢÐ¾Ð²ÐµÑĢ ÐºÐ¸
ĠÐŁÑĢÐµ Ð·Ð¸Ð´ÐµÐ½ÑĤ
ĠÑĦÐ¸Ð½Ð°Ð½ÑģÐ¸ ÑĢÐ¾Ð²Ð°Ð½Ð¸Ñı
ĠÐ¸ÑĤ Ð¾Ð³Ðµ
Ġs aving
ĠÐ³ Ð»Ð¾Ð±Ð°
ĠA wards
Ġ( Â«
ĠÐ¾Ð± Ð¾Ð·Ð½Ð°
Ð¶Ð¸ ÑĤÐµ
ĠÐĵ Ð¾ÑģÑĥÐ´Ð°ÑĢÑģÑĤÐ²ÐµÐ½
ĠÐ¾Ð±ÑĬ ÐµÐºÑĤÐ°
ĠÐ¾ÑģÐ½Ð¾Ð² Ð½ÑĭÐ¼
AR T
ĠSm ith
ĠÐ·Ð´Ð° Ð½Ð¸Ðµ
U se
Ð³ ÑĢÑĥ
ĠS ad
ĠR iga
ĠÐ²Ñĭ Ð·Ð¾Ð²
Ðŀ ÐĽ
Ġle aving
ĠÐ¿ÑĢÐ¾ÑĨ ÐµÐ½ÑĤÐ°
ĠÑģÐº ÑĢÐ¸Ð¿
ĠBelarus ian
ĠÐ¿Ð°ÑĢÐ°Ð¼ÐµÑĤ ÑĢÐ¾Ð²
Ġterror ism
Ġcandid ates
ĠÐ´Ð¸Ð° Ð¿Ð°Ð·
w in
Ġb omb
Ð»Ð¸ Ð½Ð³
ĠP oint
Ðķ ÑīÐµ
Ġso vereign
ĠÐĽ ÑĮ
ĠÑĢÐ°ÑģÐ¿Ð¾Ð»Ð¾Ð¶ ÐµÐ½Ð°
ĠÐ²ÑĭÑģÑĤÐ°Ð² ÐºÐ°
Ġrelax ation
ĠÐ·Ð´Ð° Ð½Ð¸Ð¹
Ð²ÐµÐ¹ ÑĨÐ°
Ġsettle ment
ĠÐ¸Ð½ÑĤÐµÐ³ÑĢÐ° ÑĨÐ¸Ð¸
Will iam
Ġdoub t
Ð¾Ð´ ÐµÐ¹
ĠS U
ĠÑĢÐµ ÐºÐ¸
ĠÐ¿ÑĢÐ¸ Ð·
ĠÑģÐ¾ Ð¾ÑĢÑĥÐ¶
ĠÐ¾ÑĤÐºÑĢÑĭ ÑĤÐ¸Ñı
Ġsol ve
Ġstand s
ĠÐ¯ Ð½
ĠÑĥÐ³ Ð¾Ð»
rag on
ĠÐ´Ð²ÑĥÑħ Ð¼ÐµÑģÑĤ
ĠÐ½Ð°Ð¿ Ð¾Ð¼Ð¸Ð½Ð°
ĠÃ¯ Ã¥Ã±
ĠNor way
n ie
Î ½
ĠÐº Ð¾Ð´Ð°
ri age
Ġcon ferences
ĠÐ²Ñĭ ÑģÐºÐ°
ÑĢÐ¾Ð² ÑĭÑħ
ĠÑģÑĤÐ° ÑĢÐ¸Ð½
Ð½ÐµÐ¹ ÑĪÐ¸Ñħ
ĠÐ¿Ð°ÑĢ Ðº
Ġa head
Ġm o
Ġd ied
ĠÐ³Ð¾ÑĢÐ¾Ð´Ð° Ñħ
ĠÐ²Ð¾Ð» Ð¾Ñģ
ĠÐ·ÐµÐ¼ ÐµÐ»ÑĮ
oph istic
Ġlab el
Ð» ÐºÐ°
ÐµÐ¹ Ð½ÑĭÐµ
ÐºÐ¾Ð² Ð¾Ð¹
Ġimp ressive
ĠÐ¿Ð¾Ð² ÑĭÑĪ
Ġworks h
Ġexpert ise
ĠOper a
Ġsustain able
S ub
Ġc ells
Ð¶ ÐµÑĤ
ÑĪ ÑĤÐµ
ĠR om
ÑĨÐ¸Ð¾Ð½ Ð½ÑĭÐ¼
ĠÐ¼ÐµÑĤ ÑĢÐ°Ñħ
oo per
ĠÐ¿Ð°ÑĢÐ°Ð¼ÐµÑĤ ÑĢÑĭ
ĠÐ°Ð³ÐµÐ½ÑĤ ÑģÑĤÐ²Ð°
Ġclaim s
ĠÐºÐ¸Ð» Ð¾Ð¼ÐµÑĤ
b ia
ĠThe atre
ĠÐ´Ð¾Ð¿Ð¾Ð»Ð½Ð¸ÑĤÐµÐ»ÑĮ Ð½Ð¾Ð¹
ĠAg reement
ĠÑģÐ¾Ð¿ ÑĢÐ¾
ĠÐ¼Ð¾Ð½ ÑĤÐ°
ĠÐŁÑĢÐµ Ð·Ð¸Ð´ÐµÐ½ÑĤÐ°
c iation
ĠÐ¾ ÐºÑĢÐ°
ÐµÐ´ ÐµÐ½Ð¸Ðµ
Ġ4 2
ĠÐ½Ð¾Ð² Ð¾Ð¼
Ġrequ ests
Ġvar i
ÑģÑĤÑĢÐµ Ðµ
ĠÑħÐ¾ ÑĤÐµÐ»Ð¸
Ġflo ors
RO M
ĠCro at
ĠÑģ Ð´Ð°
Ġh ar
Ð»Ð° Ð¼ÐµÐ½ÑĤÐ°
um ber
Ġus ual
ĠÐºÐ°ÑĢ ÑĤÐ¸
ÐĹÐ° ÑĤÐµÐ¼
unicip al
ÑĢÐ°Ð½Ñģ ÑĦÐµÑĢ
m m
Ã ¹
Ñĥ ÑĪ
le vel
ĠSt ard
Ġper mit
ĠÐ¿ÑĢÐ¾Ð¸Ð·Ð²Ð¾Ð´ ÑģÑĤÐ²Ñĥ
ĠÐĲÐ² ÑģÑĤÑĢÐ°
ĠÐĺÐ·ÑĢÐ° Ð¸Ð»ÑĮ
icy cle
ĠÐĿÐ¸ÐºÐ¾Ð»Ð° ÐµÐ²Ð¸Ñĩ
ad s
ĠÐ¸Ð½ ÑĤÐµÐ½
Ġar ran
ĠWeb money
ĠÐºÑĢÐ°Ñģ Ð¾ÑĤÑĭ
ÑĢ Ð½ÑĭÐ¹
ĠT urn
ĠÐ¸ÑģÐ¿Ð¾Ð» Ð½Ð¸ÑĤÐµÐ»ÑĮ
Loc ation
ĠÐ¼Ð» ÑĢÐ´
ĠÐłÐ¾Ð± ÐµÑĢÑĤ
Ð» ÑĳÐ½
Ġl os
Ð¡ ÑĤÐ¾
ĠN ap
ĠÐ¿Ð¾Ð» Ð½ÑĥÑİ
ĠK now
ĠÐ³Ð»Ð°Ð² Ð½ÑĭÑħ
ĠÐ´Ð¾ÐºÑĥ Ð¼ÐµÐ½ÑĤ
Ġconcern ed
ĠÑıÐ´ÐµÑĢ Ð½Ð¾Ð³Ð¾
Ġfig ure
Ġmatt ers
Ð¾Ð²Ð° Ð½Ð¸Ñİ
ĠM ill
ĠL ab
Ġal ph
ĠW ars
Ġad equ
ĠÐ²Ð¾ ÐµÐ½Ð½Ð¾Ð¹
ĠÐºÐ¾Ð¼Ð¿ ÐµÑĤ
Ġsim ultane
ĠÑģÐµÐº ÑģÑĥ
chen ko
ÐĺÑģÐ¿ Ð¾Ð»ÑĮÐ·Ñĥ
ĠÐ±ÑĥÐ¼Ð° Ð³
Ġcorrespond ing
l ar
Ġm and
Ġdi am
clus ion
ĠÑģÑĤÐ¾ÑĢ Ð¾Ð½Ðµ
ĠÐĲÑģÑģ Ð¾ÑĨÐ¸Ð°
Å «
ĠÑĩ ÑĥÐ´
ĠM ax
ard in
Ġj our
Ġfeel ing
Ġtrans ition
ĠSh uttle
Ġjust ice
ĠÐ¾ÑĪÐ¸Ð± Ð¾Ðº
Ġimprov ing
Ð½ ÐµÐ½Ð¸Ð¸
Ġt ran
Ð² ÑĪÐ°Ñı
ĠÐ¿Ð¾ ÑģÑĤÑĢÐ°
ĠÑĤÐ° Ð»Ð°Ð½
ĠV is
Ġaddress es
ĠÐ½ÐµÐ´Ðµ Ð»Ð¸
ĠÐ½Ð°ÑģÐ¸ Ð»Ð¸Ñı
Ġa st
ĠE ducation
ĠÃ ¤
Ġsign al
ĠÐ²ÑĭÐ± ÐµÑĢÐ¸ÑĤÐµ
iy a
Ġneg ative
Ġsignific antly
Ðµ Ð³Ð¾
Ñĩ ÐµÐ·
Ð¿ ÑĢ
ĠÐ½Ð° ÑģÐ»Ðµ
if er
Ġexhibition s
ĠÐ¿ÑĢÐµÐ¸Ð¼ÑĥÑīÐµÑģÑĤÐ² Ð°
Ġcompon ent
ĠSwed en
Ġn orthern
ĠÑĩ Ñĥ
ĠÐ³ Ð¾Ð½
ĠÐ³Ð¾ÑĢ Ñĭ
ĠÐ¿ÑĢÐ¸Ð½ ÑıÑĤ
Des pite
Ġst ream
ÑģÐº Ð¾ÑĢÐµ
Ġch ief
Ð¼ÐµÐ½ Ñĭ
ĠÑĢÐµÐ· ÐµÑĢ
ĠÑģÐµÐº ÑĤÐ¾ÑĢÐµ
ras se
ĠÐ³Ð»Ð¾Ð±Ð°Ð»ÑĮ Ð½Ð¾Ð¹
alle l
ĠÐ¾Ð±Ð»Ð¸ Ð³Ð°
ÑģÑĤ Ð¾Ð½
Ġf le
ĠÐ° Ð²Ð¸
ĠÐ½Ð°ÑĥÑĩ Ð½ÑĭÑħ
9 6
ĠÐ½Ð° ÐºÐ¾Ð¿
Ġg lo
ĠT ur
ĠÐ²Ñĭ Ð¸Ð³ÑĢÐ°
ĠN ero
ÐĹ Ð½Ð°
ĠÐŃ ÑģÑĤÐ¾
Ã¡ s
Ġobject ive
ĠÐºÐ¾Ð½ÑĤÐ° ÐºÑĤ
J ean
ĠÐ¸ Ð´
ĠÐ¾ ÑģÑĤÐ°Ð²Ð¸
ĠÐ· Ð¾Ð½Ðµ
Ð²Ð° Ð´
ĠB ill
ĠT ire
ĠH and
ĠÐ¿Ð¾Ð»Ð¸ ÑĨÐ¸Ð¸
ĠÑģÐ¾ÑĨÐ¸Ð°Ð»ÑĮ Ð½ÑĭÑħ
ĠÑĤÐµÐ»ÐµÑĦÐ¾Ð½ Ñĥ
ĠÐĴÐµÐ»Ð¸ÐºÐ¾Ð±ÑĢÐ¸ÑĤÐ° Ð½Ð¸Ñı
ĠAff airs
ĠÐĴ Ð¸Ð½
Ðļ ÑĢÐ¸
Ð¾Ð²Ð°Ð½ Ð½ÑĭÐ¹
ĠIs lands
Ġprom pt
Ġrapid ly
Ġcrim inal
ĠÐĶÐ¶Ð¾ÑĢ Ð´Ð¶
Ð¸ Ðº
Ġt ut
Ġp roud
ol is
Ðŀ Ð´Ð¸Ð½
ÑģÑĤÐ¾ Ð¸Ð½
ĠÐĿ ÐĲ
ang o
ens us
ĠÐ²ÑĭÐ¿Ð¾Ð» Ð½Ð¸ÑĤÑĮ
ĠÑĢÐ°Ð·Ð¼Ðµ ÑīÐµÐ½Ð¸Ñı
ES S
ĠÑĨÐµ Ð»Ðµ
ĠAt l
ĠÐ½ÐµÑĦ ÑĤÑĮ
ĠÑģÐºÐ¾ÑĢÐ¾ ÑģÑĤÑĮ
ĠÑģÑĤÐ¾ÑĢ Ð¾Ð½Ð°
t ation
as se
ÑĢÑĥ ÑİÑīÐ¸Ðµ
ĠÑģÑĤÐ° ÑĤÑĥ
ĠÐ¸ÑģÐ¿ Ñĭ
Ð¶Ð° Ñħ
ÑĤÐ¸Ð² Ð½Ð¾Ðµ
Ġterm inal
ĠÐĺÐ²Ð° Ð½Ð¾Ð²Ð¸Ñĩ
os lav
ag an
ÐŁ ÑĢÐ°
ĠÐľ Ð¾ÑģÐºÐ¾Ð²
ÑĢÐ°Ð½ Ð´
ÐµÐ· Ð´Ðµ
ĠÐ¿Ð¾Ð¿ Ð¾Ð»
rodu ction
Ġjo ined
A re
Ġd ies
un s
ĠÑĤ ÑĢÐ°ÑĦÐ¸
ÑĩÐ° ÑģÑĤÐ¸
ĠÐºÐ°ÑĩÐµÑģÑĤÐ² Ñĥ
ĠÐ¿ÑĢÐ¾ÑĨ Ð²ÐµÑĤÐ°
ĠÐ¸Ñģ Ð»Ð°Ð¼
ĠÐ£ÐºÑĢÐ° Ð¸Ð½Ð°
Ġstate ment
Ð²Ð°ÐµÐ¼ ÑĭÐµ
Ġencou rag
F S
Ð¼ Ð¾Ð½Ð¸
Ġon to
ĠÐ¸Ð· Ð±ÑĢÐ°Ð½
ĠO d
Ðķ Ð²ÑĢÐ¾Ð¿ÐµÐ¹
Ġbathroom s
ĠÐ²ÐµÐ´ ÑĮ
ĠÐ½ÐµÐ´Ðµ Ð»Ñİ
ĠÑģÐ²Ð¸Ð´Ðµ ÑĤÐµÐ»ÑĮ
ch i
ĠÐ±ÑĥÐ´Ñĥ ÑīÐµÐ³Ð¾
Ġcar bon
ĠÐ²ÐºÐ»Ñİ ÑĩÐ°
AN D
Ġtru ly
ĠÑĥÐ»ÑĥÑĩ ÑĪÐµÐ½Ð¸Ñı
Ġsurround ings
Ñģ Ð»
or gan
ĠÐº Ð½Ñı
il ation
ĠÐ½Ðµ Ð·Ð½Ð°
ĠÐ¼Ð° ÑĤ
Ġdel icious
ĠÐ¿ÑĢÐ¾Ð´Ð¾Ð» Ð¶Ð°ÑĤÑĮ
ĠÐ°Ð²ÑĤÐ¾Ð¼Ð¾Ð±Ð¸ Ð»Ñı
ĠÐ²Ð»Ð¸Ñı Ð½Ð¸Ñı
re z
Ġf aster
ich ard
ĠÐ¿ÑĢÐ¾ÑĤÐ¸Ð² Ð¾ÑĢÐµ
ĠÑĥÐ³ Ð¾Ð»Ð¾Ð²
ĠOr der
ĠÑģÐ²Ð¾Ð±Ð¾Ð´ Ð½ÑĭÑħ
ĠÐ¾Ð±ÑıÐ·Ð° ÑĤÐµÐ»ÑĮÑģÑĤÐ²Ð°
Ġexec ution
Ġdiscuss ed
ĠÐ´ÑĢÑĥÐ· ÑĮÑı
ĠÑģÑħ ÐµÐ¼
Ð¿ ÐµÐ½
ĠÐ¼ Ð¾Ðµ
ĠÑĢÑĥ Ð±ÐµÐ¶
ĠÐ¾Ð¿ÑĢÐµÐ´Ðµ Ð»ÐµÐ½Ð¸Ñı
Ġscient ists
Se cond
Ġinvol ve
ÐłÑ ķ
ĠÐ¾ÑĤÐ¼ÐµÑĤ Ð¸ÑĤÑĮ
h us
ÐĿ Ðĺ
ĠÑĨ ÐµÐ½Ð½ÑĭÑħ
Ġr ating
Ġinst antly
Ġext ended
ĠÑģÐ¿ÐµÑĨÐ¸ ÑĦÐ¸
ĠÐ¤Ð¸Ð½ Ð»ÑıÐ½
ĠÐ± Ð¾Ðº
Ġe at
ir ing
ĠÑĤÐ° ÐºÐ°Ñı
Ðļ Ð°Ð½
ÐŃ ÐºÐ¾Ð½Ð¾Ð¼Ð¸
ĠÐ´Ð¸ ÑģÐºÐ°
ĠÑĢÐ°Ð·Ð»Ð¸Ñĩ Ð½ÑĭÐ¼Ð¸
ĠÐºÐ»Ð° Ð²Ð¸
ĠÑįÑĦÑĦÐµÐºÑĤÐ¸Ð² Ð½Ð¾ÑģÑĤÑĮ
ij a
ĠÑħÐ¾ÑĤÐµ Ð»
D em
Ð¸ ÑģÐ¿
an ov
Ġb an
Ð¾Ð± Ð»Ð°
ĠA k
ĠL is
ÐĴ Ð°Ð»ÑĮ
ĠÐ¿Ð°ÑĢ ÑĤÐ¸Ð¹
ĠÐ¿Ð¾Ð»Ð¸ÑĤÐ¸ ÑĩÐµÑģÐºÐ¾Ð³Ð¾
áĥ Ŀ
ĠÐ²Ð°Ð¶ Ð½ÑĭÑħ
Ð¸ÑĢ Ð¼Ð°
Ġdiplom atic
ĠÐ°ÑĤÐ¼Ð¾ÑģÑĦÐµÑĢ Ñĥ
8 8
ÑĪ Ð°Ð½
ĠT icket
ĠÑģÑĤÐ° Ð»ÐºÐ¸
Ġspe aking
Ġmod ule
ĠÑĢÐ°Ð·Ð²Ð¸ ÑĤÐ¸Ð¸
ĠÐºÐ°ÑĢ ÑĤÑĥ
Ð² ÑģÐµ
ĠÐ·Ð° ÐºÐ°Ð½ÑĩÐ¸
ÑĢÐ¾Ð²Ð° Ð½Ð¸ÐµÐ¼
ĠÑįÐ»ÐµÐ¼ ÐµÐ½ÑĤÑĭ
ĠÐ´ÑĢÑĥÐ· ÐµÐ¹
Ġ um
Ñı ÐµÑĤÑģÑı
ĠÑģÐ² ÑĭÑĪÐµ
ĠÑĢÑĥ ÐºÐ¸
Ġ7 00
Ġproduct ivity
ĠÐ½ÐµÐ·Ð° ÐºÐ¾Ð½
Ġcarry ing
Ġm ais
ĠM ary
ist ers
ĠÐĴ Ð¸Ð»ÑĮ
Ġ9 5
ĠÐ½Ð°Ð± Ð»ÑİÐ´
ĠEst onia
Ġwood en
Ġt ables
Ġp ed
ĠÐ´ Ð²Ð¾Ð¹
Ġv en
Ġup per
ĠÐ²Ð° ÑĪÐ¸Ð¼
Ð¿ÐµÑĢ Ð²ÑĭÑħ
ĠÐ¿ÑĢÐ¸Ð¼ ÐµÐ½Ð¸
ĠQ uality
Ġrecogn ition
Ġcrit ic
ĠÐ¿Ð¾Ð·Ð²Ð¾Ð»Ð¸ ÑĤÑĮ
R C
Ð² Ð¾Ð±Ð¾Ð´
Ġb re
Ð»Ñı ÑİÑĤ
ĠC ivil
Ð·Ð° ÑĢ
Ġse g
ĠK al
Ġres erve
ÑĢÑı Ð´Ñĥ
ĠÐ£ Ð¸Ð»ÑĮÑıÐ¼
Ð±Ð° Ð»Ð°Ð½
ĠÐ¸Ð³ÑĢÐ¾Ðº Ð¾Ð²
Ð¾Ð· ÐµÑĦ
ĠÐ¸Ð½ Ð´Ðµ
Ġrem ind
Ġsl ight
ĠÐ½ÐµÑĦ ÑĤÑı
Ġguarant ees
ĠÐ½Ð°ÑĢ ÐºÐ¾
M art
Ä Ĺ
Ġ urban
ĠL ine
ĠÐĲ Ð»Ð¸
Ġground s
ĠSy ria
f rom
Ã Ħ
om s
Ġl ose
ÑīÐ¸ ÐºÐ¾Ð²
ĠÐ¡ Ð°ÑĢ
ĠÐ»Ð¸ ÑĤÐµÑĢÐ°
ĠÐĺ Ð³
Ð¾ÐºÐ° Ñı
ĠÐ¿Ð¾ÑģÐ»ÐµÐ´ ÑĥÑİ
ĠÐºÐ°ÑĤÐ° ÑģÑĤÑĢÐ¾
ĠÐ¶ÐµÑģÑĤ Ð¾Ðº
ĠÐ´Ð¸Ð°Ð³ Ð½Ð¾ÑģÑĤÐ¸
N et
re ct
ost a
ÑĪÐµ Ð»ÑĮ
ord s
Ġman ual
ĠÐ¾ÑģÑĥÑīÐµÑģÑĤÐ²Ð»Ñı ÐµÑĤ
Ġkeep ing
Ġappear ance
ĠÐ¿ÑĢÐµÐ´ÑĥÑģ Ð¼Ð°ÑĤÑĢÐ¸
Ð´ÑĨÐ° ÑĤÑĮ
l ife
Ġs ophistic
ÐºÐ° Ðº
ĠS ite
ĠD utch
Ã¥ ÃŃ
Ġcare fully
ÑģÑĤÐ²Ð¾Ð²Ð° Ð»
ĠÐ²Ð¾Ðº Ð·Ð°Ð»Ð°
en ry
it ely
Ð¾Ð¶ Ð´Ðµ
am in
Ġst ores
ĠÐ½ÐµÑģ ÐµÑĤ
ĠÑĢÐ°Ñģ ÑĩÐµÑĤ
ĠÑıÐ·Ñĭ ÐºÐ°Ñħ
Am ong
D ie
ard o
ĠÑģÐ¾Ð² Ð¼ÐµÑģÑĤÐ¸
ĠÑģÐ¾Ð²ÑĢÐµÐ¼ÐµÐ½ Ð½ÑĭÐ¹
ĠÑģÑĩÐ¸ÑĤÐ° ÐµÑĤ
ĠÐ´Ð¾ÑĢ Ð¾Ð¶
ĠÑĤÐµÐºÑĥ ÑīÐµÐ³Ð¾
Ð½Ð° ÑĩÐ°
Ġtrans mission
ĠÐ»ÑİÐ± ÑĥÑİ
Ch arles
Ð±ÑĥÑĢ Ð³Ðµ
Ġjournal ists
ĠÐ°ÑģÐ¿ ÐµÐºÑĤ
ĠT est
ĠO R
ren ce
Ġsupport ing
200 3
ĠÑĥÐ½Ð¸ Ð²ÐµÑĢÑģ
ĠÑģÐ¼Ð¾Ð³ Ð»Ð¸
ĠÐĺÑĤÐ° Ð»Ð¸Ñı
Ġenh ance
ĠStard oll
b ut
h att
Ñĥ ÑĢÐµ
Ð¾Ð¼ ÐµÑĢ
Ġis ol
Ġacc ue
ah n
ĠÐ¾ÑģÐ½Ð¾Ð²Ð° Ð½Ð°
ĠÐľÐµÐ¶Ð´ÑĥÐ½Ð°ÑĢÐ¾Ð´ Ð½Ð¾Ð³Ð¾
Ġfocus ed
ĠÐ¿Ð¾Ð»Ð½Ð¾Ð¼ Ð¾ÑĩÐ¸
i ar
ĠÐ¿ Ð»Ð¾Ð´
ĠP L
ĠÑĤÐ° Ð¼Ð¾Ð¶
ĠÐ±Ñĭ ÑģÑĤÑĢÐµÐµ
ÐĶ ÐµÐ½ÑĮ
ck now
ĠÑĦÐ¾ÑĢ Ð¼
ĠÐ²Ð¾Ñģ Ð¿ÑĢÐ¾
Ġdef e
ĠÐºÐ°Ð¶Ð´ Ð¾Ð¼Ñĥ
ĠÐ´Ð°Ð»ÑĮ ÑĪÐµ
Ġexec uted
Ġcharacter istics
ĠÑĢÐµÐ±ÐµÐ½ ÐºÐ°
n ew
Ġb ien
Ð¾Ð»ÑĮÐ·Ð¾Ð²Ð° Ð½Ð¸Ðµ
ÑģÐ¾Ð² ÐµÑĢÑĪÐµÐ½
ĠÐ¿ÑĢÐ¸Ð¼ÐµÐ½ ÐµÐ½Ð¸Ðµ
rad ing
Ġtren ds
b ur
n ia
ĠB os
ell ers
ap se
Ð°Ð» Ð¾Ð²Ð°ÑĤÑĮ
Ġra ce
ĠÑĩÐµÐ¼ Ð¿Ð¸Ð¾Ð½Ð°
ĠÐ¼ÐµÑĤ Ð¾Ð´Ð¸
Ð¾ÑĢÑĤÑĥ Ð³Ð°
ĠÐ¿ÑĢÐ¸Ñĩ Ð¸Ð½Ðµ
7 7
Ð¾Ð½ ÑĤÐ¸
ĠM ond
ag a
ell i
Ġacc um
Ġext ent
gy z
ĠÐĿÐ¸ Ð´ÐµÑĢÐ»Ð°Ð½
ÑĮÐµ Ð²Ð¸Ñĩ
ĠÑģÐ¾ÑģÑĤÐ° Ð²Ðµ
ÐµÐ½ Ñģ
Ð³ ÐµÐ½ÑĤÐ¸
Ġne ither
Ġfinan cing
ĠÐºÐ¾Ñģ Ð¼Ð¸
Ġlands cape
re al
Ñĩ ÐºÑĥ
Ð± Ñİ
Ġin hab
ĠÐ³ ÑĢÐ¸
ĠM oz
ĠP en
Ġst ored
ÐĴ ÐĲ
Ð³Ð¸ Ð¹
ĠÐĹ ÐĲÐŀ
Ġ198 4
ĠÐ¼Ð°ÑĤÐµÑĢÐ¸ Ð°Ð»
ĠPh ot
ĠBro thers
ĠC ry
ĠÐ¾ÑĤ Ð²ÐµÑĢ
ÐºÐ¾ Ð½Ð°
Ðł Âµ
Ġdis appe
Ġrel iability
ĠÐ¿ÑĢÐµÐ´Ð»Ð°Ð³Ð° ÑİÑĤ
ĠÐ½ÐµÐ¼ ÐµÐ´
Situ ated
Ġcircum stances
G E
N A
Ġp ush
ic an
ÑĪ Ð»Ð°
ĠÐ· Ð¾Ð½Ð°
ri f
Ðŀ Ð¿
Ġex ports
Ġr ural
ĠÐ¾ÑĤÐºÑĢÑĭ ÑĤÑĮ
yr gyz
ĠÐ¿ÑĢÐ¸Ð²ÐµÐ´ ÐµÑĤ
Ð¾Ð±Ð¾ÑĢ Ð¾ÑĤ
Ġdefic it
I l
Ð¾ÑĢ ÑĤÐ¾Ð²
ĠS ym
ĠP ocket
ĠE yes
ÑīÐ¸ Ð½Ð°
ÐĿ ÐĲ
are st
ĠÑģÐ¾Ð·Ð´Ð° ÐµÑĤ
Ġperfect ly
ĠÐ¼Ð¾Ð»Ð¾Ð´ Ðµ
ĠÑģÑĥÐ¼ Ð¼Ñĭ
ĠÐ¿ÑĢÐ¾ÑĨÐµÐ´Ñĥ ÑĢÑĭ
Ġlegis l
A c
C or
Ġc argo
ĠÐ¾ Ð·Ð´Ð¾ÑĢÐ¾Ð²
ĠR a
Ġun c
Ġsupp osed
ĠFin ancial
Ġbroad cast
aren ko
Ġtal ks
u er
in ity
ĠÐ¿ Ð¾Ð³Ð¸
ĠS et
ĠÐ½Ðµ ÑģÑĤÐ°Ð±Ð¸
ĠP DF
Ð¸Ð½ ÑģÐºÐ¸Ð¹
Ðĵ Ð¾Ð»
Ġtra dem
ĠÐĴÐ° ÑĪÐµ
Ġconf ront
Ġpract ices
Ġhapp ened
Ġtradem ark
ĠÐ½Ð° Ð¿Ð¾Ð»
ĠÐ° ÑĢÐµÑģÑĤ
Ð¨ Ð°
ĠCon vention
Ġple ased
ĠÐ·Ð°Ð²ÐµÑĢ ÑĪÐ¸
Ġconsult ing
ĠÐ¿Ð¾Ð²ÐµÑĢÑħ Ð½Ð¾ÑģÑĤÐ¸
Ġl ift
Ġre cre
ĠÐ½Ðµ Ð¶Ðµ
Ð¾Ðº Ð¾Ð½
ĠÑĤ Ð²ÐµÑĢ
ĠT en
Ð½Ñı Ð¼Ð¸
Ðł Ñĳ
ĠÑĨÐµÐ½ÑĤ ÑĢÐ¾Ð²
ĠÐ¿Ð¾Ð»ÑĮÐ·Ð¾Ð²Ð° ÑĤÐµÐ»ÑıÐ¼
Ġeng aged
ĠÐ±Ð»Ð°Ð³ Ð¾Ð¿ÑĢÐ¸ÑıÑĤ
E B
Ñħ Ð¼Ð°
Ġw ife
ic ian
ĠÐ¾Ð± Ð¾ÑĢÐ¾Ð½Ñĭ
ĠW ashington
ÐºÐ¾ Ð¸Ð·
Ġsh uttle
ĠÐ¿ÑĢÐµ ÑģÑĤÑĥÐ¿Ð»ÐµÐ½Ð¸Ñı
ĠÐĵ Ð¾Ð½
Ġpan el
ĠÐ¿ÑĢÐ¾Ð¸Ð·Ð²Ð¾Ð´Ð¸ÑĤÐµÐ»ÑĮ Ð½Ð¾ÑģÑĤÐ¸
ĠÐ¼Ð¸Ðº ÑĢÐ¾
v ol
Ð¹ Ð´ÐµÑĢ
Ġb ra
Ġb orders
Ġm a
ÑĢÐµÐ´ Ð¸ÑĤÐ°
ĠB ridge
Ð¡ ÐµÐ²ÐµÑĢ
Ġcl im
Ġj u
ĠÐºÐ¾Ð¼Ð¿Ð° ÐºÑĤ
Ġent it
ĠX ML
ĠÐ¿ÑĢÐ°Ð²Ð¸ÑĤÐµÐ»ÑĮ ÑģÑĤÐ²
ĠAre a
Ġanim als
S al
Ġc er
Ġl ounge
Ġg ather
ĠD j
ĠÐŁ ÐłÐŀ
ÑģÑĤÐ²ÐµÐ½ Ð½Ð¾Ðµ
Ð¥ Ð°ÑĢ
Ġ0 1
ĠÐ¶Ð¸ Ð²Ñĥ
ĠÐľÐ¸ ÑħÐ°Ð¹
ĠÐ²ÑĭÐ¿Ð¾Ð» Ð½ÑıÑĤÑĮ
Ġmanufacture r
M ay
P P
V ladimir
Ð¾Ð²Ð° ÑĤÐµÐ»ÑĮÐ½Ð¾
ĠM and
ir al
Ġte aching
ĠÑĦÐ¸ Ð»Ð¾Ñģ
Ġ8 5
Ġpriv acy
Ġbo ost
Ġmanufact ured
oph y
Ġsy nt
Ã¥Ãª Ã±Ã²
Ð¶ ÐµÐ½Ð¸ÐµÐ¼
ĠM ight
ĠÐ¿ÑĢÐ¸ Ð²Ñĭ
ĠÐĵ Ð°ÑĢ
ĠÐ¼Ð¸Ð½ ÐµÑĢÐ°
ĠÑģÐ¾Ð´ÐµÑĢÐ¶Ð° Ð½Ð¸Ñı
ĠÐ°Ð½Ð³Ð»Ð¸Ð¹ ÑģÐºÐ¾Ð¼
ÐµÐ¼Ð¾Ð½ ÑģÑĤÑĢÐ¸
Ð»Ñı ÑİÑĤÑģÑı
Ð¾Ð½ ÑĥÑģ
ĠL anguage
ess a
Ð²Ð°Ñı ÑģÑĮ
Ð²Ñı Ð·
ĠMed ical
ĠÑģÑĢÐ¾Ðº Ð¸
Ġhom es
ĠÐ½ Ð¾Ð¼Ð¸Ð½Ð°
ĠÐ²Ð° Ð»Ñİ
ĠÐ²Ðµ ÑīÐ¸
Ġpresent s
ann er
Ġcustom s
Ġaccount ing
Ġarchitect ural
Ġ ille
in en
ĠÐº ÑĢÑĥÐ³
ic ks
ĠÐ½Ðµ Ð³Ð°
Ð¾Ðº Ð»Ð°ÑģÑģ
ĠÑı Ð´
Ðķ Ð²
ĠÑģÐ¾Ð·Ð´Ð° Ð½Ð°
Ġprovid er
ÑĢÐ°Ð±Ð¾ÑĤ ÐºÐ¸
room s
AN K
ĠÐ¸Ð´Ðµ Ñı
ĠÐĲÐ½Ð´ ÑĢÐµÐ¹
Ð½ Ñĳ
ÑģÑĤ ÑĢÐ¾Ð¼
re b
qu is
Ð¼ÐµÐ½ ÑĤÐ¸
Ġsur g
Ġfound ation
ĠÐº Ð¾ÑģÑĤ
ĠÐ¿ÑĢ Ñı
Ã© t
ÐµÑĢÐ¸ Ñı
ĠÐ²ÑĭÐ¿Ð¾Ð» Ð½ÐµÐ½Ð¸Ðµ
ĠÐ´ÐµÐ¼Ð¾Ð½ ÑģÑĤÑĢÐ¸
Ġfig ures
ĠÑĤÐµÐ¿ Ð»Ð¾
ĠFri day
M ax
h aus
Ð¢ ÐĲ
ÑĥÐ½ Ð´
ĠÐ¨ Ð²Ðµ
ĠÐºÑĥ Ð´Ð°
ĠÑĤÐ¾ÑĢÐ³Ð¾Ð² Ð¾Ð¹
ĠÑģÑĤÐ¸ Ð»ÑĮ
ĠÐµÐ²ÑĢÐ¾Ð¿ÐµÐ¹ ÑģÐºÐ¾Ð¹
Ġexpl ain
ĠÑģÑĤÐ°Ð½Ð¾Ð² ÑıÑĤÑģÑı
ĠÑĪÐµ ÑģÑĤÐ¸
ĠÐ´ÐµÑĢÐµÐ² ÑıÐ½
ĠÐ½Ð°Ð»Ð¸ÑĩÐ¸ Ð¸
4 2
P resident
z es
ĠÐ» Ð°Ð³
ÐµÐ½Ð¸Ñı Ð¼Ð¸
op les
Ġch a
ĠÑĢÑĥÐºÐ¾Ð²Ð¾Ð´ ÑģÑĤÐ²Ð°
ĠÐ·Ð°ÐºÐ°Ð·Ð° ÑĤÑĮ
proof ed
A Z
A ct
s m
ĠH y
ĠÐĶ Ðµ
ĠÐ¢ Ð¾ÑĢ
ĠÐ¿ÑĢÐ°Ð²Ð¸ Ð»ÑĮÐ½Ð¾
ĠÑģÐ»Ðµ Ð²Ð°
ÐłÐ° ÑģÐ¿Ð¾Ð»Ð¾Ð¶
ĠExec utive
M oney
Ġs and
ÐµÐ¼ ÑĭÐ¼
ĠT ower
ier a
ĠÑĩÐ»ÐµÐ½ Ð¾Ð¼
Ġrecogn ize
l ia
ĠÑģ Ð¾Ð»Ð¸
Ġs yn
Ð¿ ÑĢÐ¾Ð¼
us al
Ðł Ðķ
ĠÐºÐ¾Ð½ÑĦÐ»Ð¸ ÐºÑĤÐ°
4 9
ĠÐ² ÐµÐ½ÑĤÐ¸
us ter
ĠÐ·Ð° ÑĤ
ĠÐ¡ Ð¾Ð³Ð»Ð°
ĠÑģÐ² ÐµÑĢÑħ
Ġacc ident
ĠÐ½Ð°ÑĩÐ¸Ð½Ð° ÐµÑĤÑģÑı
Ġdyn am
wh ich
Ġc ir
ĠÐ½Ðµ ÑĥÐ´Ð°
ĠÂ ĵ
ĠÑģÐ»Ð¾Ð²Ð° Ð¼
ĠÐ£ Ð½Ð¸Ð²ÐµÑĢÑģÐ¸
Ġact s
ĠÐ¾ÑĤÐºÑĢÑĭ ÑĤÐ¾
ĠÐ¸Ñģ ÑĩÐµÐ·
ĠÐºÑĢÐµ Ð¿
ĠÐķÐ² Ð³
Ġbr ings
Ġbran ches
Ġa cknow
Ġg ardens
ÐĴ Ðŀ
ÐŁ Ð¾ÐºÐ°
ĠN et
ĠK os
ĠÐŀ Ð±Ñĥ
Ġph arm
in cluding
Ġm oral
ĠM erc
ÑĢÐ¾Ð² Ð¸
Ġstat istics
ĠÐ³ÑĢÐ°Ð¶Ð´Ð°Ð½ ÑģÐºÐ¾Ð³Ð¾
ĠÑģÐ¾Ð» Ð½
ĠÐ°Ð²ÑĤÐ¾ Ð½Ð¾Ð¼
& #
in ent
ir gin
Ġsu it
Ġrun s
Ġdev oted
ĠÐ¾Ð±ÑıÐ·Ð° ÑĤÐµÐ»ÑĮÑģÑĤÐ²
Ġeuro zone
Ġmuseum s
Ð´Ð½Ðµ Ð²Ð½Ð¾
A v
f urt
ĠM ain
ĠD ance
ĠT ro
erv ed
ÐŃ ÐĻ
ĠÐ²Ð¾Ñģ ÑĮ
ĠÐ¼ÐµÐ¶Ð´ÑĥÐ½Ð°ÑĢÐ¾Ð´ Ð½ÑĭÐ¹
Ġdecl ared
S A
l ich
Ñĥ Ð»Ð¸
Ð¼Ð° Ñģ
ĠÐ´Ð¾ ÑģÑĤÐ¾Ð¸Ð½
Ð¿Ð¾ ÑĩÐ¸ÑĤÐ°
ĠÐ²ÑģÑĤÑĢÐµ ÑĤÐ¸
ĠÐ¾Ð±ÐµÑģÐ¿ÐµÑĩÐ¸ Ð²Ð°ÑİÑĤ
Ġlink ed
Ø §
Ñĥ Ð°Ð½
ar o
ĠÐ· ÑĥÐ±
ĠÑĤÐµ Ð¼Ð°ÑĤÐ¸
ĠF A
ÑĪÐ¸ ÑĤÐµ
19 5
c ou
ĠÑģ Ð°Ð´
ĠÐ½Ð° Ð¶Ð°
ĠÑĢÐµ ÑĪÐ°
ĠÐļ Ð¾Ñģ
ib et
ĠÑĢÐ°Ð±Ð¾ ÑĩÐµÐ¹
ĠÐ¿ÑĢÐ¾Ð´ ÐµÐ¼Ð¾Ð½ÑģÑĤÑĢÐ¸
Ġproper ly
Ġinstit utional
Ġexec utive
ĠÐ´Ð¾Ð±Ð° Ð²Ð»Ñı
ĠMark et
Ġpie ce
f in
Â ©
ÑĢÐ° Ð½ÐµÐµ
Ġd ance
ĠM D
ĠB u
ÐĴ Ð°Ð¼
ÐŁ Ð¾Ð·
ĠF ace
Ġ- >
ĠÐ¡ Ð¿Ðµ
ÐºÐ¾Ð½ Ðµ
Ġagree ments
Ġconsider able
ĠÐ¿ÑĢÐ¸ÑħÐ¾Ð´ Ð¸ÑĤÑģÑı
4 6
Ð¸ Ð»Ð¾
Ðº ÑĨÐ¸Ð¹
ĠÐ¾ ÐºÐµ
Ġf asc
Ð¾ÑĤ Ð²Ð¾ÑĢÐ¸
ut ing
ÐµÑĢÐµ Ð¼Ð¾
ĠÐ¾Ð±ÑĬ ÐµÐ´Ð¸
Ġpros per
Ġfight ing
ĠÑģÐ¿ÑĢÐ°Ð²ÐµÐ´ Ð»Ð¸Ð²Ð¾
ĠÑģ ÑĦÐ¾ÑĢÐ¼Ð¸
ÑĤÐµ Ð¼Ð°ÑĤÐ¸
ĠÑĩÐ° ÑīÐµ
ĠÐ¿ÐµÑĢÐ² Ð¾Ðµ
Ð¾Ð³ÑĢÐ°ÑĦÐ¸ Ð¸
is i
Ð¾Ð» Ðµ
Ð¶ Ð½Ð¾ÑģÑĤÐ¸
ĠR un
ÐµÐµ Ð²
Ġsh ares
ĠÐ´Ð¾Ð» Ð³Ð°
ĠÐ²Ð° ÑĪÐµ
sc ale
ĠÐºÑĢÐ°Ð¹ Ð½Ðµ
Ġprevious ly
Ð³ Ð¾Ð¼
Ð²Ð° Ð»ÑģÑı
ĠÐºÐ° ÑĦÐµÐ´
Ð½Ð¸ÑĨ Ðµ
ĠÐ»Ðµ ÑĩÐµÐ½Ð¸Ðµ
ĠÐ¾ÑģÑĤÐ° ÑİÑĤÑģÑı
ĠÑĦÑĥÐ½Ðº ÑĨÐ¸Ð¹
ĠÐ³Ð»Ð°Ð² Ð½Ð¾Ð¹
ĠÐ¶ÐµÐ»Ð° Ð½Ð¸Ðµ
Ġdistrib uted
ĠÐļÐ¸ ÐµÐ²Ðµ
ĠÐĴÐ¸ ÐºÑĤÐ¾ÑĢ
Ġentire ly
Ġexc iting
ĠÐ¿ÑĢÐ¸Ñģ Ð¾ÐµÐ´Ð¸Ð½Ð¸
Ð¾Ð¿ ÑĢÐµÐ´Ðµ
ĠÐ¿Ð¾Ð» ÑĥÑĩÐµÐ½Ð¸Ðµ
ĠÐ¿ÐµÑĢÐ² Ð¾Ð½Ð°ÑĩÐ°
Ġresult ing
Ġele v
rodu ct
ÑİÑīÐ°Ñı ÑģÑı
ĠÐ¿ÑĢÐ¸Ð»Ð¾Ð¶ ÐµÐ½Ð¸Ð¹
Â ±
Ñģ ÐµÑģ
is y
ĠB ang
ĠÐ±Ñĭ ÑģÑĤÑĢ
Ð»ÐµÐ½ Ð½Ð°Ñı
ĠÑģÐ¿ Ð¾ÑĢÑĤ
ĠÐ¿ÑĢÐ¸Ð½ ÐµÑģ
ĠAl b
AT ION
ĠApp le
ĠStand ard
ĠÑĤÑİ ÑĢÑĮ
Ð° Ñı
ĠL ibrary
ĠB all
ĠÐ¿ÑĢÐ¸ Ð·Ð²Ð°
Ġwas te
pect ed
Ġ0 7
ÐŁÑĢÐ¾ ÐµÐºÑĤ
Ġgr at
ÑģÐ°Ð¹ ÑĤ
ĠÑĢÐµÑģÑĤÐ¾ÑĢÐ°Ð½ Ð¾Ð²
Ġremov ed
ĠJew ish
ĠÐ²Ð¾Ð¿ Ð»Ð¾
C al
M ont
h and
Ġcont ents
Ġfil ms
ĠAd obe
ĠÐ¿ÑĢÐ¸Ð¾Ð± ÑĢÐµÑĤÐ°
app y
Ġord inary
ĠÐ¼Ð°ÑģÑģÐ¾Ð² Ð¾Ð¹
Ñģ Ð¼
Ð¶ Ð°Ð½
ÐµÐ² Ð½Ð°
Ġoper ator
Ġcollect ive
ĠÐ±ÑİÐ´Ð¶ ÐµÑĤÐ°
at z
ÐµÑĢ Ð¾Ð¼
ĠÐ¿Ð¾ ÑģÐ»Ñĥ
Ðĳ Ðµ
Ð¨ Ð¸
Ġinf o
ĠÑĦÐ° Ð±ÑĢÐ¸
ĠÐ¾Ð·Ð½Ð° ÐºÐ¾Ð¼Ð¸ÑĤÑĮÑģÑı
Ġ196 8
Ġrecord ed
" ).
is ch
ĠP oker
em ic
ĠÐºÐ¾Ð½ ÑĨÐµÐ½ÑĤ
ĠV PN
ĠSh oe
!! !
ĠÐ¾Ð¿Ð¸ÑģÐ° Ð½Ð¸Ðµ
Ġvictim s
ĠÃ¯Ã¥Ã± ÃŃÃ¨
Ñı Ð½Ñı
at on
en ko
Ġw ild
Ġm arg
Ġd raft
ÐĴ Ð¾ÑĤ
ĠR ain
Ð´Ñĥ Ð¼Ð°
Ġnot ed
Ġar bit
Ġdes ktop
ĠÐ¿Ð»Ð° ÑģÑĤÐ¸
Ġfam iliar
ĠÑģÐ¾Ð±ÑģÑĤÐ²ÐµÐ½ Ð½ÑĭÐ¹
ĠÑģÐ° Ð¼Ð°Ñı
Be fore
ĠÐ¿ÑģÐ¸ Ñħ
Ð¾Ð² ÐµÐ´
Ð¾Ñģ Ðµ
ist or
ĠÑĤÐµ Ð¿Ð»
ĠT R
Ġhe ard
Ġwor se
ĠÐ»ÑİÐ± Ð¾Ð²
ĠÐ´ÐµÐ¹ ÑģÑĤÐ²Ð¾Ð²Ð°ÑĤÑĮ
U D
j our
ĠÐ½Ð° ÑĤÑĥ
ÐµÐ¼ Ð¾Ðµ
id ae
im edia
ĠR A
ĠÐ¿ÑĢÐ¾ ÑıÐ²Ð»Ñı
ĠU AH
ÑĢÐ¾Ð± Ð»ÐµÐ¼
Ġredu cing
ĠÐ»Ð¸ÑĨ Ð¾
ĠÑģÑĥÐ¼ Ð¼Ð°
Ġdrug s
' .
ĠA V
op y
Ġcopy right
ĠÐĲÐ½Ð³ Ð»Ð¸Ð¸
Ġbon us
Ġstim ul
F e
S a
y pe
Ð¼Ð¸ ÑĢ
ĠS ie
ĠÐ²Ðµ ÑīÐµÑģÑĤÐ²
Ġem ot
sp aper
ĠÐ´Ð°Ð² Ð»ÐµÐ½Ð¸Ðµ
ÐŁÐµÑĢÐ² ÑĭÐ¹
ĠÐĶÐ°Ð½ Ð½ÑĭÐ¹
Ġf ishing
Ġre cession
ol as
ĠÐ½Ðµ ÑĢÐ°Ð²
ÑĩÐ¸ Ñħ
Ñĳ Ð·Ð´
ĠÑĩÐ°ÑģÑĤÐ¸ ÑĩÐ½Ð¾
ĠG r
Ð°ÑĢ Ð»ÑĮ
ĠÐľ Ð°Ðº
Ġrel ative
ĠÐ°Ð¿ Ð¿Ð°ÑĢÐ°ÑĤ
ĠÐ´Ð¸Ð·Ð°Ð¹ Ð½Ð°
Ġexception al
Ġestim ated
ĠFlor ida
ĠÐ¼Ð¾Ð´Ðµ Ð»ÐµÐ¹
Ġstra ight
ĠFoot ball
ĠÐ¸ÑģÐ¿Ñĭ ÑĤÑĭ
m ade
Ġs Ð¹
ĠD ave
end ar
ĠÐ±Ð° Ð·Ð°
ĠÑģÐ²Ð¾Ð¹ ÑģÑĤÐ²Ð°
ĠÐ°ÑĢÑħÐ¸ÑĤÐµÐºÑĤÑĥ ÑĢÑĭ
hatt an
R ep
n ament
Ð° Ð´Ð°
ĠÐ¿Ð¾ ÑģÑĤÐ°Ð²Ð»ÐµÐ½
im o
ĠÐ¤ Ð¸Ð»Ð¸
ier re
ÑĢÐ°Ð±Ð¾ÑĤ ÐºÐ°
Ġext reme
Ġcontrib ute
ĠÑģÐµÐ½ÑĤ ÑıÐ±ÑĢÐµ
ĠASP s
Ðµ ÑīÐ°
ÑĤ ÐºÐ°
ĠÐº Ð¾Ð¶Ð¸
Ġw ishes
Ð¾ÑĤ ÑĢÑĥÐ´
Ð¸Ð½ ÑĮ
ĠÐ¿ÑĢÐµÐ´ Ð¿Ð¾ÑĩÐ¸ÑĤÐ°
ific ations
Un fortunately
ĠÐ²Ð¾ÑģÐ¿ Ð¾Ð»ÑĮÐ·Ñĥ
esh ops
Ġsuppl ies
ĠStud io
Ġresist ance
Ġcollabor ation
E K
N ET
ÑĤÐ° ÑĢÐ¸
Ð²Ð° ÐµÐ¼ÑĭÑħ
ÐĴ Ð¼ÐµÑģÑĤÐ¾
if ts
cre en
ĠÐºÐ»Ð¸ ÐµÐ½ÑĤÑĭ
ĠAr m
ĠÑģÐ¾Ð¾ÑĤÐ²ÐµÑĤ ÑģÑĤÐ²ÐµÐ½Ð½Ð¾
Ġ0 6
pro f
ĠÐ¿Ð¾Ð¼Ð¾Ð³ ÑĥÑĤ
ĠÐ²Ð¾Ð·Ð³Ð»Ð° Ð²Ð»Ñı
. ).
it Ã©
Ð½Ð¾ ÑģÐ¸ÑĤ
ĠÐ± ÑĢÐ¾Ñģ
ÐĲ Ð¼ÐµÑĢÐ¸ÐºÐ°Ð½
Ġle ather
ĠÑħ Ð°
ÐºÐ¾Ð¼ Ñĥ
ĠÐ¿Ð»Ð° Ð½Ðµ
Ġass um
Ġdef end
ĠÑģÐ¿Ð¾ÑģÐ¾Ð± Ð½Ð¾ÑģÑĤÐ¸
Ġenjoy ed
ĠÐĳÐµÐ»Ð°ÑĢÑĥ ÑģÑĮ
ĠÐ¿ÐµÑĩÐ° ÑĤÐ¸
ÐµÑħÐ° ÑĤÑĮ
D ue
S erv
a o
Ġf illed
ÑĨ ÐºÐ¸Ð¹
ÑĪ ÐµÐ½Ñĭ
ĠÐĶ Ð¶Ðµ
Ġreg ulation
Ġdiffere nces
Ġed ition
ĠÑĥÐ³ ÑĢÐ¾Ð¶Ð°
Ġexpl ore
ĠBashk ortostan
Ñģ Ð°Ð¼
Ð»Ñı ÑĤÐ¾ÑĢ
Ð¾Ð¿ Ð¾
ĠH D
Ġcomp ens
ÑģÑģ Ñĭ
Ġkn ows
Ġsee king
ĠAn y
ĠÐ½ÐµÐ·Ð° Ð±Ñĭ
ĠÑĢÐ°Ð·Ð¼Ðµ ÑĢÐ°
ĠÐ¾Ð¶Ð¸ Ð´Ð°Ð½Ð¸Ñı
ĠSoc iety
Ġbri ef
A ng
k u
ĠÐ¸ Ð½Ð°
The ir
Ġsu d
og ether
ĠSt r
Ðĵ Ðµ
ux e
ĠÑħÐ¾ÑĢÐ¾ ÑĪÐ¸Ð¹
aster y
Ġaim s
ĠÐľÐ¾Ð» Ð´Ð¾Ð²
Ġt ail
ĠÐ¿ ÑĭÑĤ
Ġb reed
ĠÑĥ ÑĤÑĢÐ°
ĠÑĥ ÑģÐ¾Ð²ÐµÑĢÑĪÐµÐ½
Ð´Ð° Ð½Ð¸Ðµ
Ġv ide
Ġra ised
Ð·Ð²ÐµÐ·Ð´Ð¾Ñĩ Ð½ÑĭÑħ
ĠÑĥÑĩÐ¸ÑĤÑĭ Ð²Ð°Ñı
Ġincor por
R obert
ĠS om
Ð´Ð° Ð²
ch t
av al
In stead
cy cl
ĠÐºÐ¾ ÑĢÐ°Ð±
ĠÐ·Ð´Ð° Ð½Ð¸Ð¸
ĠÐĵÑĢÑĥ Ð·Ð¸Ð¸
7 6
ĠS ud
ot he
Ð°Ð½ Ð´Ð°
ĠÐ¡ Ð¿Ð°
ÑĥÑĤ Ñĭ
ĠÑĢÑĭ Ð±
ÐļÐ¾Ð¼ Ð¿
rem lin
ĠÑģÐ¿ÐµÑĨÐ¸Ð°Ð»ÑĮ Ð½ÑĭÑħ
ĠÑģÐ½Ð¸ Ð¶ÐµÐ½Ð¸Ðµ
ĠÐ¾ÑģÐ½ Ð¾Ð²Ð°Ð½Ð¸Ñı
ĠÐ°Ð³ÐµÐ½ÑĤ ÑģÑĤÐ²Ð¾
ĠÐļÐ°Ð·Ð°Ñħ ÑģÑĤÐ°Ð½
B reakfast
en i
ĠM ov
ĠN az
Ġloc ations
ĠDe c
Ġsur f
ĠÐ¾ÑģÑĤÐ° Ð²Ð¸ÑĤÑĮ
ĠÐ»ÑĥÑĩ ÑĪÐ¸Ð¹
ĠÐ°ÐºÑĤÐ¸Ð² Ð¾Ð²
Ġfa ith
Ġrom antic
Ðĺ Ñħ
ĠÐ¿ÑĢÐµ ÑĤÐµÐ½
ĠÐ¿ÑĢÐµÐ´Ð»Ð°Ð³Ð° ÐµÑĤÑģÑı
Ð¼Ð¸Ð½Ð¸ ÑģÑĤÑĢ
Ġcreat es
wh ile
ĠÐĴÐ¾ÑģÑĤ Ð¾ÐºÐµ
Ġteac hers
Ñĥ Ð¶Ðµ
Ð°ÑĢ Ð¾Ð²
Ġag enda
ĠÐ¿Ð°ÑĢ Ð¾Ð»ÑĮ
ĠÑģÐ¾Ð±ÑģÑĤÐ²ÐµÐ½ Ð½Ð¾Ð³Ð¾
ĠÐľÐ°ÑĢÐ¸ Ñı
Ġloss es
Ġexpress ed
ĠÑĩ Ð¸Ð½Ð¾Ð²
ĠÐºÐ° Ð·Ð°
ĠÐļ ÑĢÑĭ
ĠÐ¿Ð° Ð»Ð°
Ã¶ n
Ġparticip ated
ĠÐ¿Ð¾ÑĢÑıÐ´ Ð¾Ðº
ĠÑĢÐ°ÑģÐº ÑĢÑĭ
ĠIndust ry
Ġencou rage
Pe ople
ĠÐ¼Ð¾Ð½Ð° ÑģÑĤÑĭ
ĠÐ§Ð¸ ÑģÑĤÐºÐ°
ÐŃÐĻ ÐĶÐ¡
M ed
Ġ rough
ing vo
ĠÐ·Ð° Ð´ÐµÑĢÐ¶
Ġle ct
ĠÐ´Ð¾Ð» Ð³Ð¾
ĠÐ¿ÐµÑĢ Ð²Ð°Ñı
Ġreal ize
Ġintrodu ction
ĠEnter prise
Ġnar row
ouven irs
M C
m ony
at ics
Ð½Ð¸ Ð·
Ġin cent
ĠÐ´ ÐµÑģÑıÑĤÑĮ
Ð¾Ð²Ð° Ð½Ð¸Ð¸
st yle
ĠC ert
Ð°Ð» Ð»Ð¸
Ġlead s
With in
clus ive
ĠÐĲÐ·ÐµÑĢÐ±Ð°Ð¹ Ð´Ð¶Ð°Ð½
Ġprest igious
ĠÐĽÐ°ÑĤÐ¸Ð½ ÑģÐºÐ¾Ð¹
ĠÐŀÐ±Ñĥ Ð²Ð¸
ĠÑģ ÐµÑĤÐµÐ¹
Ġc ategories
or is
Ġd ates
ĠÐ½Ð° ÑĨÐ¸Ð¾Ð½Ð°
Ġn ights
Ð¸Ð½ Ð¾Ð¹
Ðŀ ÑĩÐµÐ½ÑĮ
ĠÐĲ Ð¼
Ġprov ed
ĠÐºÑĢÐ¸ ÑĤÐµÑĢÐ¸
ÑıÐ± ÑĢÑĮ
ĠÐ¾ÑĤÐµ Ð»ÐµÐ¼
Ġaff ected
ÐľÐ¸ Ð½Ð¸ÑģÑĤÐµÑĢ
o j
t ical
ĠM unicipality
ĠÐ¾ÑĤ Ð´ÐµÐ»Ð°
ĠL ib
Ġcon vent
oc a
Ðł ÑĥÑģ
Ġpat ient
Ġseem ed
ĠÑģÐ¾ÑħÑĢÐ° Ð½Ñı
ĠÐ¾ÑĤÐ½Ð¾ÑģÑı ÑĤÑģÑı
Ġsav ed
Ġtro ops
l ong
Ñħ ÑĤ
Ġf ran
Ġm or
ĠS av
ÑĢÑĥ Ð¹ÑĤÐµ
ail and
Ġass et
ĠSe cond
ÐŁÑĢÐµÐ´ Ð»Ð°Ð³Ð°
Ġ els
ĠÐ¼ Ð¾Ð´Ð¸
ĠÐºÐ° Ð·
Ġad m
Th anks
ĠÐ¸Ð¼ Ð¼Ð¸
Ġorgan ize
Ġsuper ior
ĠÑĢÐ°Ð´Ð¸ ÐºÐ°
P et
ĠÐº ÑĢÑĥÐ³Ð»
ad ow
Ġv ess
ĠÃ §
Ġlo ans
ĠÐ¼Ð°ÑģÑĪÑĤÐ° Ð±
ĠÑģÐ´ÐµÐ» ÐºÐ¸
ĠÑĢÑı Ð´Ð°
Ġvalu able
Ġin j
ĠÐºÐ° Ð±Ð¸Ð½
ĠT ake
ak u
ĠÐ¿ÑĢÐ¾ ÑĪÐµÐ´
ĠÑģÐ¾ ÑĢÐµÐ²
Ġad vent
ĠÐ¿Ð¸ Ñī
ĠLatv ian
g t
it ar
Ð± ÐµÑĤ
ĠÃ ²
ĠÑĢÐµÐ³Ð¸ Ð¾Ð½Ð¾Ð²
ĠRe f
ÑĢÐ°Ð·Ñĥ Ð¼Ðµ
Ser ge
Ġconfir med
h in
i est
m ad
Ġc m
el ly
ĠS earch
Ð¾ÑĤ Ð¾Ð¹
oc ation
Ġrec ip
ĠPro per
Ġtransfer red
A ss
Ġpro pose
Ð³Ð¾ ÑĤÐ°
Ðľ Ð°Ð¹
ĠCh airman
je ction
ĠAp artments
Ġcontain ing
ĠÐºÐ¾Ð¼Ð¿ÑĮÑİÑĤÐµ ÑĢÐµ
ĠMount ain
Ġcontroll ed
Ð¼ ÑıÐ½
Ġw estern
Ð»Ðµ ÑĢÐ°
ĠÐ¾ÑĤ ÐºÐ»Ñİ
qu ip
con ds
ĠÐ¼Ð¾Ð³ Ð»Ð°
Ġrep utation
ÐµÐ¿ Ð°ÑĢ
ĠEn vironment
ĠÐ¿ÑĢÐ¾Ð¼ÑĭÑĪÐ»ÐµÐ½ Ð½ÑĭÑħ
ĠÐ´ÐµÐºÐ°Ð± ÑĢÐµ
ĠÐĵÑĢÐµ ÑĨÐ¸Ð¸
Ġemerg ency
t p
Ġp ow
ĠÐ¼ Ð»Ð°Ð´
ĠÐ¡ ÑĤÐµ
Ġhelp ing
ĠÑįÐºÑģÐ¿ Ð¾ÑĢÑĤÐ°
ĠÐ¿Ð¾Ð½ ÑıÑĤ
ĠBab ys
Ġfol der
ĠÐ¿Ð¾Ð²ÑĭÑĪÐµÐ½ Ð½ÑĭÐ¼
Ġ` `
O K
Ġb ure
ĠÐ²Ñĭ Ð·ÑĭÐ²Ð°ÐµÑĤ
ÑīÐ¸ Ðº
Ð¼Ñĥ Ð½Ð¸ÐºÐ°
Ġtrans action
ÑĢÐ¾Ð²Ð°Ð½ Ð½ÑĭÐ¼Ð¸
ĠÑĢÐ°ÑģÑĪÐ¸ ÑĢÐµÐ½Ð¸Ðµ
ĠÐ»Ð° Ð±Ð¾ÑĢÐ°ÑĤ
Ġcontinu ous
G eneral
m aking
Ù Ĩ
Ð² Ð¾ÑģÑĤ
Ġf if
Ð´Ð° Ð³
ĠD ar
ĠW C
ÐĿ Ð¾Ð²Ð°Ñı
ĠÐĲ Ð½Ð°ÑĤ
Ġinst ance
ĠÐ¿ÑĢÐ¾Ð¸Ð·Ð²Ð¾Ð´ Ð¸ÑĤ
ĠÑģÐµÐº ÑĢÐµÑĤÐ°
ĠÑĪÐ° Ð±
ĠÑģÐ¾ÑģÑĤÐ°Ð²Ð»Ñı ÑİÑĤ
ĠÑįÐ»ÐµÐºÑĤÑĢÐ¾ ÑįÐ½ÐµÑĢ
ĠÑīÐµ Ð»
K h
Ġv illa
con s
ĠÐĵ ÑĢÐ¸
ĠÐ¿Ð¾ÑģÐ»ÐµÐ´ Ð½Ð¸Ð¹
ĠÐ¼Ð¾ ÐµÐ¹
ĠÑģÑĭ Ð³ÑĢÐ°
ĠÐ¿ÑĢÐµÐ² ÑĢÐ°ÑĤÐ¸
Ð½ Ð¾ÑĢÐ¸
ĠÑģ Ð¿ÑĢÐ°Ð²
Ġg one
Ġen l
ĠÐŀ Ðĳ
ĠÐ²Ð¾ ÐµÐ½Ð½ÑĭÐµ
ĠÐ´Ð° ÑİÑĤ
ĠMan hattan
ĠÐ³Ð¾ÑģÑĥÐ´Ð°ÑĢÑģÑĤÐ²ÐµÐ½ Ð½ÑĭÐ¹
Ġtem porary
pre ad
ĠÐ¾ÑģÑĥÑīÐµÑģÑĤÐ²Ð»Ñı ÑĤÑĮ
Ġexam ples
Ġaccom pl
ĠÐ²Ð·Ð³Ð»Ñı Ð´
D avid
Â ģ
Ġ {
ĠÐ² ÐµÐ½
ĠÐ½Ð° Ð¿ÑĢÐ°Ð²Ð»Ñı
ĠÑĥ ÑģÑĤÐ°
ĠE nt
and on
ĠV el
ĠÐ´Ð¸ Ð²Ð¸
ÑĨÐ¸Ð¾Ð½ Ð½Ð¾Ðµ
Ġdist inct
Ġsur vey
Ġstay ing
ĠÑĨÐµÑĢ ÐºÐ²Ð¸
Ġs ac
Ġb aby
Ðļ ÑĢÐ°
ĠÐ¶ Ð¸Ð»ÑĮ
Ġed ge
ĠÑģÐ¸ÑĤÑĥÐ° ÑĨÐ¸Ñİ
Ġposs ess
Ġstrugg le
J o
ĠÐ² ÑģÑĤÑĢÐ¾
ĠR et
ĠH ard
Ġinter view
Ġhapp ens
Ð´Ð¸ÑĨÐ¸ Ð¾Ð½Ð¸
ĠÑģÐ¿Ð° Ð»ÑĮ
ĠÐĲÑĦÑĢÐ¸ ÐºÐµ
ĠÐ°Ð²ÑĤÐ¾Ð± ÑĥÑģ
ÐŁÐ¾Ñĩ ÐµÐ¼Ñĥ
or der
ÑĢÐµ Ð»Ð¸
Ġw are
ĠÐ· Ð¾Ð»
ĠÐ¿Ð¾Ð» Ð½Ð¾Ð³Ð¾
ap est
ĠÐ·Ð½Ð° ÐµÑĤ
ĠÐ¿ÑĢÐ¾Ð³ Ð½Ð¾Ð·
Ð³Ð¾Ð´ Ð°ÑĢ
ĠSw imming
ĠCal ifornia
Ġprem ises
D E
ÑĤ Ð¾Ð»
ou red
Ð¶ ÑĥÑĤ
Ð´Ð° Ð»ÑĮ
ĠÑĢÐ° Ð´Ð¾
ĠM as
ĠF ort
ÑģÑĤÐ²ÐµÐ½ Ð½Ð°Ñı
ÐŃ Ð½
lic ation
Ġapp arent
Ġreal ization
Ġmus ical
ĠÐ½Ð°Ð·ÑĭÐ²Ð° ÐµÑĤÑģÑı
Ð½ Ð½ÑĭÐµ
in cess
on der
at in
Ġd ella
ĠÐ½Ð° Ð²ÐµÑĢ
Ġh at
ĠÐ¿Ð¾ Ð¾Ñī
Ġg ained
ĠI l
ĠT al
Ġen orm
Ġdri vers
ĠÑģÐ¾ÑħÑĢÐ° Ð½Ð¸
Ð·Ð²ÐµÐ·Ð´Ð¾Ñĩ Ð½Ð¾Ð¼
ĠÐ¿Ð¾Ð¶ Ð°Ð»Ð¾Ð²Ð°ÑĤÑĮ
ĠÐ´Ð¸ÑĢÐµ ÐºÑĤÐ¾ÑĢÐ°
ĠÑģÑĤÐ¾Ð»Ð¸ ÑĨÑĭ
Ġt ickets
an z
Ðĳ ÐµÑģÐ¿
Ġr Ã©
ÑĢÐ°Ð²Ð¸ ÑĤÑģÑı
ÑĥÑį ÑĢ
ĠÑģÐ²Ð¾Ð± Ð¾Ð´Ñĥ
ÐµÐ½ ÐºÐ¾
ĠC E
ÑģÑĤÐ¸ ÑĩÐµÑģÐºÐ¸Ñħ
Ġst ress
Ġle tters
Ð»Ñİ Ð±
ĠÐ½Ð°Ð¸Ð± Ð¾Ð»ÑĮ
ĠZ h
li ers
ĠÐ¾ÑģÐ¾Ð± ÐµÐ½
ĠÐ½Ð°Ð¹ Ð´
ĠÐ³Ð»Ð°Ð² Ð½Ð¾Ðµ
ĠÐ¿Ð¾ÑĤÑĢÐµÐ± Ð»ÐµÐ½Ð¸Ñı
ĠÐ¿ÑĢÐ¸Ð½Ð°Ð´Ð»Ðµ Ð¶Ð°
ĠÑĤÐµÐ»ÐµÐ²Ð¸ Ð·Ð¾ÑĢ
ĠÐ¿Ð¾Ð´ÑĢÐ°Ð· Ð´Ðµ
ÐľÐ¸Ð½Ð¸ÑģÑĤÐµÑĢ ÑģÑĤÐ²Ð¾
Ġt ank
Ġthe rapy
ĠÐ¼ Ð¾Ð·
ÐŁ ÐŁ
ĠÐ¤ ÐµÑĢ
Ð¿ÑĢÐ°Ð² Ð»ÐµÐ½Ð¸Ðµ
ĠÑģÐ¾ÑģÑĤÐ¾Ñı Ð»Ð°ÑģÑĮ
ĠÐ·Ð°ÐºÐ¾Ð½ ÑĩÐ¸
Ġstruct ural
ĠÐ¿ÑĢÐµÐ´Ð¾ÑĤ Ð²
Ġoffic ers
ĠÐľÐ¸ÑħÐ° Ð¸Ð»
S pe
b as
y t
200 1
ĠÐ¨ Ð²ÐµÐ¹ÑĨÐ°
ĠSc iences
ÑİÑīÐµÐ³Ð¾ ÑģÑı
Ġdire ctions
Ġcandid ate
Ġsophistic ated
g el
Ġb es
Ð»Ð¸ Ðµ
Ġd ict
om y
Ġl ived
ĠÑĤ ÑĢÐ°Ð²
ĠÐ¿ÑĢÐ¾ ÑĦ
Ġv ille
Ð¢ ÑĥÑĢ
ail able
ÑĨÐ¸Ð¾Ð½ Ð½ÑĥÑİ
Ð±Ðµ Ð»Ð¸
Ġob ser
ĠYou th
ĠÐĿÐ° ÑĨÐ¸Ð¹
ĠÐ¸Ð½ÑĤÐµÑĢ Ð²ÑĮÑİ
b i
Ġre ject
Ġsh ift
ren d
Ġvis ual
ĠÐ¸Ð³ ÑĢÐµ
ĠÑĤÐ¾ÑĢ Ð¶ÐµÑģÑĤÐ²
Ð¹l Ð¹
Ð½Ð° Ð±
st ruct
ĠÐºÐ¾Ð½ Ð´Ð¸ÑĨÐ¸Ð¾Ð½ÐµÑĢ
ĠÑģÐºÐ° Ð·Ð°
Ġover looking
Ð»Ð°Ð½ Ð´Ð¸Ñı
Ġinter vention
ĠÐ³ÑĢÑĥÐ¿ Ð¿Ñĥ
ĠÐ¾ÐºÑĤ ÑıÐ±ÑĢÐµ
Ġre act
ra c
ĠB urn
ĠÐĴ Ð¾Ð·
ÐĲ Ðº
ĠÐ´Ðµ Ð¿ÑĥÑĤÐ°
ĠÐ¿Ð¾Ð»ÑĮÐ·Ð¾Ð²Ð° ÑĤÐµÐ»Ð¸
ĠÐºÑĥÑħ Ð½Ñı
Ġcrim es
ĠFlore nce
h ors
Ġf ans
ĠÐ½Ð° Ð»Ð¸Ñĩ
Ð»ÑĮ Ð½Ð¾ÑģÑĤÐ¸
ÑģÑĤÐ° Ð¸
ĠB lood
Ġ3 9
ĠÐ¼ÐµÑģÑĤ Ð½ÑĭÐµ
ĠÑĤÐµÑħÐ½Ð¸ ÑĩÐµÑģÐºÐ¸Ñħ
ĠÑĥÑģÐ¸ Ð»Ð¸Ð¹
ĠÑģÐºÐ¾ÑĢÐ¾ ÑģÑĤÐ¸
ĠÐ¸Ð½ÑĤÐµÑĢÑĦÐµÐ¹ Ñģ
ÐŁÐµ ÑĢÐµÐ´
Ġmedic ine
Ġgrant ed
F urther
ĠP ress
ab ul
ĠÐ¿Ð¾Ð´ ÑĢÐ°Ð·ÑĥÐ¼Ðµ
ĠÐ¿Ð¾Ð» ÑĥÑĩ
og en
ÑĤÐ¸Ð² Ð½Ð°Ñı
dition al
ÑĢÐ°Ð»ÑĮ Ð½Ð¾Ð³Ð¾
ĠTe x
ĠÐ°Ð¼ÐµÑĢÐ¸ÐºÐ°Ð½ ÑģÐºÐ¾Ð¹
ĠÐºÐ¾Ð½ÐºÑĥÑĢ ÑģÐµ
Ġmov ie
ĠÐ´ÑĥÐ¼Ð° Ñİ
as p
ĠÑĥ Ð´Ð°ÑĢ
ĠÐ³ ÑĢÐ¾Ð¼
ĠÑĦ ÑĢÑĥ
Ġen abled
ĠÐ´Ðµ ÑĦ
ÑģÑĤÑĥÐ¿ Ð»ÐµÐ½Ð¸Ðµ
ÑħÐ¸ Ð¸
Ġcall ing
ĠTe le
Ġport fol
ĠÐ±ÑĢÐ¾Ð½Ð¸ ÑĢÐ¾Ð²Ð°Ð½Ð¸Ñı
ĠÐ¤Ð¾Ð½ Ð´Ð°
6 2
ĠM agn
ĠÐºÐ¾Ð½ Ð²ÐµÑĢ
Ġeng ines
ĠÐ¿ÑĢÐ¾Ð³ÑĢÐ°Ð¼Ð¼ Ð¾Ð¹
ĠÐ¿ÑĢÐµÐ´Ð¾ÑģÑĤÐ°Ð² Ð»ÐµÐ½Ð¸Ðµ
ĠÐĴÐ»Ð°Ð´Ð¸Ð¼Ð¸ ÑĢÐ¾Ð²Ð¸Ñĩ
áĥĿ áĥ
V ol
Å Ļ
Ñı ÑĢ
ĠÐ¿ Ð»ÐµÐ½
ĠÐ´ Ð¶Ð°
ĠÑĥ Ð²ÐµÐ´Ð¾Ð¼
ĠÐ¿ÑĢÐµÐ´ ÑģÐºÐ°
ĠÐĴÐ° ÑĪÐµÐ¼
Ġinv ited
ĠÐ¿Ð¾Ð¿ ÑĭÑĤÐ°
ĠÐ¾ÑģÑĥÑīÐµÑģÑĤÐ² Ð»ÐµÐ½Ð¸Ñı
T urk
ĠÐº Ð¾ÑĤ
ĠÑĤÐ°Ðº Ð¾Ð¼
ĠÑı Ðº
Ġ3 50
Ð°ÑĤ ÑĢÐ¸
Ġwell ness
Ġph ones
Ġupd ates
ĠÑħÐ¾Ð»Ð¾Ð´ Ð¸Ð»ÑĮ
Ä Ł
Ñĥ ÑĢÐ°
Ñı Ð·Ñĭ
ĠÑģ ÐºÐ»Ð°
or ough
Ġd ro
ĠT ai
Ð¿Ð¸ Ð¸
ĠÐ¾Ñģ Ð»Ð°Ð±
Ġcl othes
Ġcomm od
ĠÑģÐº Ð¾ÑĢ
ĠÑĤÑĥ ÑĢÐµÑĨ
ĠMet ro
ĠÐ³Ð¾Ð»Ð¾Ñģ Ð¾Ð²
ĠÐ½ÐµÐ²Ð¾Ð· Ð¼Ð¾Ð¶
ĠÑħÐ¾ÑģÑĤ ÐµÐ»Ñĭ
Ġarrest ed
ingvo Soft
T H
Ñĩ Ð»ÐµÐ½
ĠF our
Ġex it
Ðľ ÐµÐ½
ĠK iss
ĠK remlin
Ġatt rib
ĠOr thodox
Ġsum mit
ĠÐ¾Ð¿Ð»Ð° ÑĩÐ¸
ĠÐ¼Ð°Ð³Ð°Ð·Ð¸Ð½ Ð¾Ð²
ĠÐ¾ Ð²
Ġf ederal
um s
ĠJ ames
here d
Ð¾Ð»Ð¾Ð³Ð¸ ÑĩÐµÑģÐºÐ¸Ñħ
ĠÑįÐº ÑĢÐ°Ð½
Ġbel ief
Ã¥ Ã°
ĠAd d
Ġprot est
ĠÐĺÐ½ÑĤÐµÑĢ Ð½ÐµÑĤÐµ
Ð½Ð°Ð´ ÑĨÐ°
ĠÐ¶ÑĥÑĢ Ð½Ð°Ð»Ð°
Ġcontract s
Ġfram e
ĠÑĢÐµÐ¹ ÑĤÐ¸Ð½
ÑįÑĦ ÑĦÐµÐºÑĤÐ¸Ð²
Ġrepe ated
Ġw ines
Ġm ilit
ĠÐ½Ð° Ð³ÑĢÑĥÐ·
Ð¼Ð° Ð½Ð°
ÐµÐº ÑĨÐ¸Ð¸
Ġcent res
Ġreal ized
ĠÐ¼ÐµÐ¶Ð´ÑĥÐ½Ð°ÑĢÐ¾Ð´ Ð½Ð¾Ð¼
ĠÐ°Ð´ Ð²Ð¾ÐºÐ°
ĠÑĦÐ¸Ð½Ð°Ð½ÑģÐ¾Ð² ÑĭÐ¹
ĠÑĥÑĩÐ°ÑģÑĤ Ð½Ð¸ÐºÐ¸
ĠRes erve
ĠÑģÑĤÐ°ÑĤÑĮ Ðµ
ĠÐ½Ð°ÑģÐµ Ð»ÐµÐ½Ð¸Ðµ
ĠÐ´Ð¸ÑģÐº ÑĥÑģ
ĠÑħÐ¸ ÑĢÑĥ
ÃĴ Ã¥ÃªÃ±Ã²
Ð´ Ð»Ñı
ĠÐº Ð¾Ð¶
ĠA h
ĠL ord
est yle
Ð·Ð° Ð²Ð¸Ñģ
Ġv ital
em s
ĠÐ½Ð¾ ÑıÐ±ÑĢÐµ
Ġdep os
ys elf
ĠÐ³ÑĢÑĥÐ¿ Ð¿Ðµ
ĠÑĩÐ°ÑģÑĤ ÐµÐ¹
Ġlaw y
ES T
ÑĪÐ¸Ð½ Ð³
Ġsex ual
Ġhospit ality
Ñİ ÑīÐµ
ÑĤÐ¸ ÐºÐ¾Ð²
ac ific
Ġk ing
ĠJ ul
Ġsub sequ
ĠÑģÐµ ÐºÑĥ
ĠÑĦÐ¾ÑĢ ÑĥÐ¼Ð°
ĠÑģÑĢÐµÐ´ Ðµ
ĠÐ°ÑĢ ÑĤÐ¸
Ġins p
ĠÑĥÑĩÐ°ÑģÑĤÐ¸ ÐµÐ¼
Ġaccom pan
Ġsen ior
Ġtran qu
P rov
Ð¾Ð¼ Ð½ÐµÐ½Ð½Ð¾
ĠÐ¿Ð¾ ÑĤÐµÑĢÐ¸
ĠM ake
ÐĶ Ð¾Ð»
ĠJ o
ĠÐ¼Ð° Ðµ
Ð¾Ð²Ð°Ð½ Ð½Ð°Ñı
ĠÑģÐ»ÐµÐ´ÑĥÑİ ÑīÐ¸Ðµ
Ġbus y
ĠÑĥÐ¿ÑĢÐ°Ð²Ð»Ñı ÑĤÑĮ
Ġfrequ ently
ĠÐ¿ÑĢÐ¸Ð¾ÑĢÐ¸ ÑĤÐµ
or row
ĠM id
ĠL ie
ĠE qu
Ġpart ition
Ð¸Ð» Ð»Ð°
Ġsal on
Ġcaus es
ĠP S
ĠW ant
ĠÐ¿Ð¾Ð´ Ð½Ñı
ĠO p
ĠK arl
ĠÐ¤ Ð°
ĠÑĢÐµÐ³Ð¸ Ð¾Ð½
ĠÐºÐ¾Ð½ÑĦÐµÑĢÐµÐ½ ÑĨ
** **
ĠÑıÐ½Ð²Ð° ÑĢÐµ
ĠÑģÐ½Ð° ÑĩÐ°Ð»Ð°
ĠÐ´ÐµÑģÑıÑĤÐ¸Ð»ÐµÑĤÐ¸ Ñı
ĠHam as
D ep
V is
or ter
ĠÐ° Ð·Ð¸Ð°ÑĤ
ĠÑĤÐµ ÑĢÑı
Ġv it
ĠÐ²Ðµ ÐºÐµ
ĠÐĳÐ° ÑĪ
Ġsatisf y
ÐŀÑĢ Ð³Ð°Ð½Ð¸
c are
Ġ ....
ĠÐ½ ÐµÐ½Ð°
ĠC ON
ĠÐ·Ð° ÑĢ
ĠÐ¶ Ð°Ð»
ÑĢÐ¾Ð²Ð° Ð»Ð°
ĠÑĨ ÐµÐ¿
Ðĳ ÑĥÐ´
ÐŃ Ð»ÑĮ
ĠÐºÐ¾Ð¼Ð¿Ð° Ð½Ð¸Ñİ
Ġprogram ming
ides pread
ĠÐ¸Ñİ Ð»Ðµ
Ġadop t
Ġconstruct ed
Ġp i
ĠÐ· Ð¾Ð»Ð¾ÑĤ
ot ive
ĠC re
ĠÐºÐ° Ð¼ÐµÑĢ
Ð¿Ñĥ ÑģÐº
ĠÐ¿ÑĢÐ¾Ð±Ð»ÐµÐ¼ Ð¾Ð¹
St aff
ĠPl ant
ĠÐ³Ð»Ð°Ð² Ð½ÑĭÐ¹
ĠÐ²ÐµÐ´ ÐµÑĤ
ĠAut om
Ġremark able
Ñī Ð°Ð»
ĠÑĤÐµ Ð¼Ñĥ
ĠÑģÐ¸ÑģÑĤÐµÐ¼ Ð°Ñħ
ĠÑĦÐ¾ÑĢ ÑĥÐ¼
Ð¸Ð» Ð»Ð¸
Ġsm ooth
Ġpack aging
ĠÐĲÑĢ Ð³ÐµÐ½ÑĤÐ¸
ĠÐ½Ð°ÑĩÐ¸Ð½Ð° ÐµÑĤ
Ġclos er
ĠÐ¿Ð°ÑĢÐ° Ð»Ð»Ðµ
ĠÐŀÐ±ÑĬÐµÐ´Ð¸Ð½ ÐµÐ½Ð½ÑĭÑħ
c ious
ĠÑĤÐ°Ðº ÑĥÑİ
ĠK ur
Ġgovern ance
Ġaccess ories
Ð´Ð¸Ð½ Ð³
enn y
Ġstrateg ies
ĠÑģÐ¿ÑĢÐ¾Ñģ Ð°
ĠÐ² Ð°ÑĢ
is p
ĠA qu
ĠD er
ĠÐ²Ñĭ Ð¸Ð³ÑĢÑĭ
ĠÐ´Ð¾ ÑģÑĤÐ¾Ð¹
ĠÐ¼Ñĭ ÑĪÐ¸
Ð±Ð° Ð¼Ð°
uz z
ĠÐ¼ÐµÑĤÐ¾Ð´ Ð¾Ð²
ĠÑģÐ¼Ñĭ ÑģÐ»Ðµ
auc as
ĠÐ´ÐµÑĦÐ¸ÑĨÐ¸ ÑĤ
ĠÐ¡ÐµÐ¼ ÐµÐ¹Ð½ÑĭÐµ
Ġfem ale
Ġs ending
Ġb oom
ĠÐ½Ð° Ðº
Ð»ÑĮ Ð½Ð¾ÑģÑĤÑĮ
ÐŁ Ð¾Ð¿
Ġdo ctor
for get
Ġsuper b
ĠÐºÐ¾Ð¼Ð¼ÐµÑĢ ÑĩÐµÑģÐºÐ¸Ñħ
ĠÑĢÐµÐºÐ¾Ð¼ÐµÐ½Ð´Ñĥ ÐµÐ¼
ĠÑĥ ÑĢÐµÐ³ÑĥÐ»Ð¸
ĠS M
ĠK yrgyz
Ð¶Ð¸ ÑĤÐµÑģÑĮ
Ġbu ying
iss ance
Ġdist ingu
ĠAl t
Ġenjoy s
Ġtem pl
ĠÐ¸Ð½ÑģÑĤÑĢÑĥ Ð¼ÐµÐ½ÑĤÑĭ
Ġcoll apse
ÐºÐ¾Ð¸Ð· Ð¾Ð»Ð¸
G old
M us
n ed
ÑĢÐ¸ Ð¼Ð¸Ð½Ð°
ĠP onom
ÐĿ ÐµÑĤ
ÑĩÐ°ÑĤÑĮ ÑģÑı
Ġcol on
ÑĨÐ¸Ð°Ð»ÑĮ Ð½ÑĭÐµ
Ġsc hed
Ġevery where
ĠÐ²ÐºÐ»Ñİ ÑĩÐ°ÑİÑĤ
ĠÐ¾Ðº Ð½Ð¾
ĠÑĦÐ° ÐºÑĤÐ¸ÑĩÐµÑģÐºÐ¸
Ġran k
ĠTreat y
ĠÑĢÑĥÐ±ÐµÐ¶ Ð¾Ð¼
A ir
ĠÑģÑĢÐµÐ´ Ñĥ
Ġfind ing
ĠÑĢÐµÐ·ÑĥÐ»ÑĮÑĤÐ° ÑĤÐ¾Ð¼
ĠÑģÐ¿Ð¾ÑģÐ¾Ð± ÑģÑĤÐ²Ð¾Ð²Ð°ÑĤÑĮ
Ġguarant eed
ĠÐ¿Ð»Ð°Ð²Ð° ÑĤÐµÐ»ÑĮÐ½ÑĭÐ¹
G erm
P ress
ÑģÑĤ Ð½Ð°Ñı
ang er
ussi an
ĠÐ¿Ð»Ñı Ð¶Ð°
rel ated
Ġappreci ate
b el
r Ð¹
Ġt ennis
Ġre fere
ĠÐ²Ñĭ ÑħÐ¾Ð´Ð°
ĠÐ¿ÑĢÐ¸ Ð²Ð¸
iz er
ĠJ ean
Ðĵ Ð°ÑĢ
Ġnew spaper
Ġcomb ines
Ġru b
ĠÐ·Ð°Ð½Ñı ÑĤÐ¾
ĠÐ¶ÑĥÑĢ Ð½Ð°
Ġansw ers
Ġadvert ise
Ġrepl aced
ĠÐ½ÐµÐ¸Ð· Ð±ÐµÐ¶
ĠÐ¿ÑĢÐ¾ÑģÑĤÑĢÐ°Ð½ ÑģÑĤÐ²Ð°
ĠÐ¼Ð½Ð¾Ð³Ð¾ÑĩÐ¸ÑģÐ»ÐµÐ½ Ð½ÑĭÐµ
ĠÐ·ÐµÑĢ ÐºÐ°
ĠÐ½Ð°ÑģÐ»Ð°Ð´Ð¸ ÑĤÑĮÑģÑı
ÑģÑĤ ÐºÐ¸
Ġp ron
ĠÐ¾ Ð´Ð¸Ð½Ð¾
Ð´Ð° ÑĤ
ÐºÐ¾ ÑĢÐ°
ann ing
ĠÐ¶Ð¸ Ð´
Ġocc asion
ĠÐ¸ÑģÐ¿Ð¾Ð» Ð½Ð¸
ĠÐ¿ÑĢÐ¸Ð½Ñı Ð»
ĠÐľÐµÐ¶Ð´ÑĥÐ½Ð°ÑĢÐ¾Ð´ Ð½Ð¾Ð¹
ĠÐ¨ÑĤÐ° ÑĤÑĭ
Ð³Ð¾ÑĤÐ° Ð²Ð»Ð¸
h ard
Ñı Ð²Ð¸ÑĤÑĮ
Ġc in
ut t
ĠÐ½Ðµ Ð¾Ð±
ĠÑģÑĤÐ° Ð´Ð¸
Ġform al
Ġfl ights
ĠEx per
ÑĢÐ°ÑĤ Ð½Ð¾
Ġlo an
ĠKore an
Ġdiv ision
Ġpet it
Ġtar iff
R ad
S M
ÑĮ ÑıÐ½
Ð¾Ð¼ Ñı
un ting
ag g
ĠD ata
Ġprov ision
Ġlist s
Ġdef ine
ĠÐ¿ÑĢÐ¾Ð²Ð¾Ð´ Ð¸ÑĤ
ĠÐºÐ¾Ð½ÑĦÐµÑĢÐµÐ½ ÑĨÐ¸Ñı
ĠÐ¿ÑĢÐ¾ÑĦÐµÑģÑģÐ¸Ð¾Ð½Ð°Ð»ÑĮ Ð½ÑĭÑħ
ĠÐķÐ²ÑĢÐ¾Ð¿ÐµÐ¹ ÑģÐºÐ¸Ð¹
Ñģ Ð¸Ð½
ect or
Th ose
ĠÑĢÐµÐ³Ð¸Ð¾Ð½Ð° Ñħ
ĠÐ³Ð¾ÑģÑĤÐ¸Ð½Ð¸ÑĨ Ðµ
ĠÐĶÐ¼Ð¸ÑĤÑĢÐ¸ Ð¹
Ġt ur
Ð¼ ÑĥÑİ
Ġw ars
Ġd ress
ĠC ode
ĠÐ¾ÑĤ ÐºÐ°Ð·
ĠE dition
ĠÑģÐ² ÐµÑĤÐ°
Ġdis m
Ġthan k
Ð¸ÑĤÐµÐ»ÑĮ Ð½ÑĭÐ¹
ĠÑĢ Ð¾Ð¶Ð´ÐµÐ½Ð¸Ñı
ĠÐ½ÐµÐ±Ð¾Ð»ÑĮ ÑĪ
Ġdispos al
Ï Ģ
Ġb ought
il ton
Ġpro ven
ĠÑĢÐ°Ð· Ð»Ð¸ÑĩÐ¸
ack s
Ġpol l
ĠÐ¿Ð° Ð½Ð¾
ĠSer ge
ĠÐ¿ÑĢÐ¾Ð²ÐµÑĢ Ð¸ÑĤÑĮ
ĠÑģÐ¼ÐµÑĢ ÑĤ
A z
ĠÐ² ÑģÐ»ÐµÐ´
or b
ĠS C
ĠÐ» Ð°Ð½
ĠÐ» ÐµÐ²
Ġcol ours
Ð¾ÐºÑĥ Ð¿
ĠÐĺÐ½ ÑģÑĤÐ¸ÑĤÑĥ
ĠÑĢÐ°ÑģÑģ Ð¼Ð¾ÑĤ
Ġinstit ution
ĠÐłÐµÑģÐ¿ÑĥÐ±Ð»Ð¸ ÐºÐµ
ÐºÐ¾Ñģ ÑĢÐ¾
ĠÐ¿ÑĢÐ¾Ð³Ñĥ Ð»ÐºÐ¸
I B
Ù Ĭ
ĠÐ± ÑĢÐ°ÑĤÑĮ
Ġsign s
ĠÑģÐ¾Ð²ÑĢÐµÐ¼ÐµÐ½ Ð½ÑĭÐ¼
ĠÐ¸Ñİ Ð½Ðµ
Ġregular ly
ĠÑģÐµÐ· Ð¾Ð½Ðµ
ĠÑĢÐ°ÑģÐ¿ÑĢÐ¾ÑģÑĤÑĢÐ° Ð½Ñı
ĠS on
ĠG er
Ġv os
ÐµÑĢÐ° Ñħ
ĠÐ¾Ð¿ ÑĢÐ¾Ñģ
Ġprogram mes
Ġcour ts
ĠÐºÑĢÑĥÐ¿ Ð½ÑĭÐµ
ĠÐ·Ð°Ð±Ð¾Ð» ÐµÐ²Ð°
ĠÐ·Ð°ÑĢÑĥ Ð±Ðµ
L ast
P at
P ublic
Ġf est
ĠÐ¾ÑĤ ÐºÐ°Ð·ÑĭÐ²Ð°
ĠÐ¿Ð¾Ð´ ÑĬÐµÐ¼
Ġwor ry
ord inary
Ġsp oken
ĠÐ²Ð¾Ð·Ð¼Ð¾Ð¶Ð½Ð¾ÑģÑĤÑĮ Ñİ
Ġform ation
ĠÐºÐ¾ Ð°Ð»Ð¸
ĠÐ´ÑĢÑĥÐ³ ÑĥÑİ
the less
Ġclos ely
ĠÐ¸Ð½Ð´ÑĥÑģÑĤÑĢÐ¸ Ð¸
ĠÑģÐ¿Ð¾Ñģ Ð¾Ð±Ð°
ĠS ac
ch o
op p
ĠÐ²Ð¸ Ð½Ð°
ÑĨÐ¸Ð¾Ð½ Ð½Ð¾
Ġmin eral
Ġph ase
ĠUS SR
ĠVal ley
Ġelectric ity
Ð²ÑĪÐ¸ ÐµÑģÑı
ĠÐ¿ÑĢÐ¸Ð±Ð»Ð¸Ð·Ð¸ ÑĤÐµÐ»ÑĮÐ½Ð¾
P eters
b ul
i at
Ðº Ð½Ð¸ÑĤÐµ
ĠÐ¸ ÑģÑĤÐ¸Ð½
it ative
ĠC ir
ĠÐ° ÑĦÑĢÐ¸ÐºÐ°Ð½
ĠG re
Ðŀ Ð±Ñĭ
ĠÑĤÑĢÐµÐ± ÑĥÑİÑĤ
ÑĥÐ· ÐµÐ¹
Ġeng lish
ĠCar l
ĠÐ¿ÑĢÐ°ÐºÑĤÐ¸ ÐºÐµ
Pl ay
ĠÑģÐ¾ÐµÐ´Ð¸Ð½ ÐµÐ½Ð¸Ñı
ĠÐ´Ð¸Ð·Ð°Ð¹ Ð½ÐµÑĢ
ĠÐĴÐ°ÑģÐ¸ Ð»ÑĮ
ĠÑģ ÑĬ
ut er
ĠÐ¿ÑĢÐµÐ´ Ð¼
ÐºÐ¾Ð² Ð¾Ð´
ĠÐ¸Ð¼ Ð¿ÐµÑĢÐ°
ĠÐ¼ÐµÑĤ Ð¾Ð´Ð°
ĠÑģÐ¾ÑĤ Ð½Ð¸
ĠÑĥÐ²ÐµÑĢ ÐµÐ½Ñĭ
ĠÐ·Ð°ÑĤÑĢÐ° ÑĤÑĭ
ĠBabys itting
4 1
ÑĮ Ð±Ð°
Ġf ell
ÑĪ ÐµÐ½Ð°
et c
op ol
ĠN orthern
ĠÐ¸ÑģÐ¿ Ð°Ð½
ÑģÑĤÑĢÐ¾Ð¹ ÐºÐ¸
ĠÑĢÐ°ÑģÑĪÐ¸ ÑĢ
Ġexist ence
ĠÑĩÑĢÐµÐ· Ð¼ÐµÑĢ
s ch
ĠÑĥ Ð¿ÑĢÐ¾
Ð¾Ð²Ð° ÑĤÑĮÑģÑı
ra f
Ðĺ Ð¼Ðµ
ĠÐ²Ð¸ Ð´Ñĥ
ĠÐľÐ¸ Ð½Ð¸
ĠÐ·Ð°ÑıÐ² Ð»ÐµÐ½Ð¸Ñı
ĠÐ¾ÑĤÐ½Ð¾ÑĪÐµÐ½Ð¸Ñı Ñħ
ĠÐĴÐ°ÑĪ ÐµÐ¼Ñĥ
ĠÐ¾Ð¿Ð¸ ÑģÑĭ
Ġgirl s
ĠÑĤÑĥÑĢÐ½Ð¸ ÑĢ
ĠÐĳÑĢÐ°Ð·Ð¸ Ð»Ð¸Ð¸
Ġtherm al
4 3
Ð± ÐµÑĢÑĤ
Ð¾ÑĢ Ñĥ
ĠÐ± ÑĥÑĢ
Ð¡ Ð¨ÐĲ
Ġag ents
ĠÐ¿Ð°ÑĢ ÐºÐ°
ĠÐ¿Ð¾ÑģÐ»ÐµÐ´ Ð½ÐµÐ³Ð¾
Ġel ite
ĠÐ³Ð¾ÑģÑĥÐ´Ð°ÑĢÑģÑĤÐ²ÐµÐ½ Ð½ÑĭÐµ
Ġcover ing
h at
ĠÑĢÐ° Ð´
Ġst uff
Ġind oor
Ð¥ Ð¾
Ġens uring
ĠÑģÐ»Ð¾Ð² Ð¾
r ite
le m
et ch
Ġ19 30
ĠY O
Ġfl ash
Ġdisc overed
Ġpri ze
ĠÑħÐ¾ ÑĤÐ¸Ð¼
ĠÐ±ÐµÐ´ Ð½ÑĭÑħ
ĠÐ´ÐµÐ»Ðµ Ð³Ð°
ĠQue en
Ġpret ty
H el
ÑĤÐµ Ð»Ðµ
ĠC ru
ÐĴ Ð¾Ð»
ĠÑı Ð´ÑĢÐ°
ÑĢÐµÐ¼ ÑĮÐµÑĢ
ÑĨÐ° Ñħ
ĠÐ¯Ð¿Ð¾ Ð½Ð¸Ñı
Ð¿ ÑĥÑģ
Ð¾Ð¼ Ð°Ð½
ĠÐ· ÑĢÐ¸
ĠR ight
ill es
ĠÐĲ Ð¹
ĠÑĤÐ¸ Ð¿Ð¾Ð²
Ġteam s
ĠÐ¾ÑĤÐ²Ðµ ÑĩÐ°
ĠÐ¸Ð½ÑĤÐµÐ½ ÑģÐ¸Ð²
Ñģ Ð¾Ð½Ð°
Ð¶ ÐµÐ½Ñĭ
ro d
ĠÐ¾Ð± ÑĢÐµ
ĠB ir
ĠO N
Ġun forget
ect ive
Ð¤ Ð¸ÑĢÐ¼Ð°
Ġcons olid
Ġap art
ĠÑģÑĤÐ°Ð½Ð´Ð°ÑĢ ÑĤÐ¾Ð²
Ġsay ing
ĠÐºÐ¾Ð¼ÑĦÐ¾ÑĢÑĤÐ°Ð±ÐµÐ»ÑĮ Ð½ÑĭÑħ
ĠAdminist ration
ĠÑģÐ¿Ñĥ ÑģÑĤÑı
c al
Ð½ Ð¾Ð²Ð°Ð½Ð¸Ñı
Ð³ ÑĥÑĢ
ĠÐ· Ð»Ð¾
ĠA B
ĠÐ¿ÑĢÐ¾ ÑĩÐ¸ÑĤÐ°
ÐºÑĥ Ð·Ð¸
ĠU r
Ġun able
ÑģÑĤÐ²ÐµÐ½ Ð½ÑĭÐ¼
ĠÐĿ ÑıÐ½Ñı
ĠÑģÐ¾ÑĨÐ¸Ð°Ð»ÑĮ Ð½Ð¾Ð³Ð¾
ĠÐľÐ¾ÑģÐº Ð²Ñĭ
Ġdriv ing
e h
Ï ģ
Ð»Ð° ÑģÑĤÐ¸
ĠÑį Ð¼Ð¾
Ġst abil
Ġst unning
ĠÑģÐ»Ñĥ ÑĪÐ°
Ġsim pl
Ġdom in
Ġtax i
app oint
ĠÐ¸Ð½ÑĦ Ð»ÑıÑĨÐ¸Ð¸
Ġrelig ion
ĠÑĢÐ°ÑģÐ¿ÑĢÐ¾ÑģÑĤÑĢÐ°Ð½ ÐµÐ½Ð¸Ðµ
T or
Ð³ Ð¾Ð»ÑĮ
Ġl unch
ĠÐ·Ð° Ð²Ð¾Ðµ
Ġ1 10
Ð»ÐµÐ½ Ð½ÑĭÐ¼
Ġun w
ĠÑħ Ð²Ð°
Ð¼Ñĭ ÑĪ
ÐºÑĢÐ° Ñģ
ĠÐ¿Ð¾Ð· Ð¶Ðµ
ĠÐ¿ÑĢÐ¾Ð´Ñĥ ÐºÑĨÐ¸Ñı
ĠÐ¿ÑĢÐ¾ÑĤÐ¸Ð² Ð¾ÑģÑĤÐ¾Ñı
Ġhead s
ĠÑĥÑģÑĤÑĢÐ¾Ð¹ ÑģÑĤÐ²Ð¾
ÑĥÑģÐ»Ð¾Ð² Ð½Ð¾
4 00
j u
Ġt icket
ĠÐ² Ð´Ð¾Ñħ
ĠÐ¾ ÑģÑĤÐ°Ð²Ð»Ñı
ĠÐ³ Ñĥ
Ð¾Ð¿ ÐµÑĢÐ°
od a
Ġv ary
ÑĢÐ¾Ð² ÑĭÐµ
Â» )
ĠÐĺ Ð¸Ñģ
Ðĵ Ñĥ
ĠÐ¿Ð¾Ð² ÐµÑĢ
Ġend ed
ÐŀÐ´ Ð½Ð°
ĠÐ¿Ð¾ÑĤÑĢÐµÐ± Ð½Ð¾ÑģÑĤÐµÐ¹
Ġexperien ces
ĠÐ¼Ð¸Ð½Ð¸Ð¼Ñĥ Ð¼
Ð³ ÐµÐ½ÑĤ
et a
ĠM ichael
ĠO k
Ð¢ ÑĢÐ°
ĠÑįÑĤÐ¸ Ð¼Ð¸
Ġbl ocks
ĠÐ§ Ð°
ĠÑģÐ¾Ð¾ÑĤÐ²ÐµÑĤÑģÑĤÐ²ÑĥÑİ ÑīÐ¸Ðµ
An n
ÑĦÐµÑģ ÑģÐ¸
ĠÐ¾ÐºÐ°Ð·Ð° ÑĤÑĮÑģÑı
ĠÑģÑĤÐ°Ð² Ð¾Ðº
ĠÐ´ÐµÐ¹ ÑģÑĤÐ²ÑĥÐµÑĤ
ĠÐ¿ÑĢÐ¾Ð¿ Ð°
ĠArgent ina
ÐµÐ·Ð¾Ð¿Ð°Ñģ Ð½Ð¾ÑģÑĤÐ¸
D own
Ġ ]
Ġs oul
ĠÐ·Ð° Ð¼ÐµÐ´
ĠÐ¸Ð· Ð¾Ð±
ĠW ood
ÐºÑĥ Ð¿Ð°
ĠN G
ach t
ĠÑĨÐµÐ½ Ñĥ
ĠÐ¿Ð¾Ð²Ñĭ ÑģÐ¸ÑĤÑĮ
ĠPortug al
8 00
L ou
v in
Ø ±
Ð´ Ð¾Ð½Ðµ
ri ers
ĠÐµ Ð´
un es
un ior
ĠP ap
ric al
ast ing
Ð¾Ñĩ ÐºÐ¸
Ñĸ Ð¹
ĠÑģÐ¿Ð¾ÑģÐ¾Ð± ÑģÑĤÐ²ÑĥÐµÑĤ
Ġevent ually
Ġlearn ed
ĠÐ·Ð°ÑĤÑĢÐ° ÑĤ
Ñĩ Ñĳ
Ð´Ð° Ð»
ĠÐ½Ðµ Ð¾ÑĤ
ĠÐ¢ ÑĢÐ°Ð½ÑģÑĦÐµÑĢ
ĠÐ·Ð½Ð° ÑİÑĤ
ĠÐ¼Ð½ ÐµÐ½Ð¸Ñı
ĠEx po
ĠÐŀÐ± Ð°Ð¼Ñĭ
ĠÑģÐ»ÐµÐ´ÑĥÑİ ÑīÐ¸Ñħ
ĠÐ±ÐµÐ´ Ð½Ð¾ÑģÑĤÐ¸
ĠÑĢÐµÐºÐ»Ð° Ð¼Ñĭ
ĠÑĨÐµÐ½ÑĤÑĢÐ°Ð»ÑĮ Ð½Ð¾Ð¹
ĠÐ¿Ð¾ÑĢÑıÐ´ ÐºÐ°
ĠÐºÐ¾Ð½ÑĦÐ»Ð¸ ÐºÑĤ
Ġhor se
Ġels ewhere
P O
ÑĢ ÑįÐ½
Ð¾Ð¼ ÐµÐ½
ÑĨ Ð°ÑĢ
Ġm ouse
ĠÐ½Ð° Ð·Ð½Ð°ÑĩÐµÐ½
ur day
ĠÐ±Ñĭ Ð²ÑĪÐµÐ³Ð¾
ud io
ÑĦÐ¾ÑĢ Ð´
ÐĽ Ð¬
ĠÐ¿Ð¾Ð· Ð°
ĠÑģÑĥÑīÐµÑģÑĤÐ² Ð¾Ð²Ð°Ð½Ð¸Ñı
ĠÐ°ÑĢ Ð³Ñĥ
Ġpri mar
ĠÑĥÐ³ÑĢÐ¾Ð· Ñĥ
ĠÐ¿ÑĢÐ¸Ð²Ðµ Ð»Ð¾
ĠAcc ount
Ġspectac ular
ÐµÐ½ ÑĤÐµ
ar ation
ĠÑģÑĤ Ð¾Ð¹
ÐĲ Ð¼
ĠÑģÑĤÐ° Ð´Ð¸Ð¸
ron ics
ĠÐ²Ð¾Ð¹ Ð½Ðµ
ĠÐ¿Ð¾ÑģÑĤÐ°Ð² ÐºÐ¸
Ġsav ings
ĠÑħÐ°ÑĢÐ°ÐºÑĤÐµÑĢÐ¸ ÑģÑĤÐ¸
ĠMil an
ĠÐ¾ÑħÑĢÐ° Ð½Ñĭ
Ġparliament ary
T TP
ÑĦ Ð°Ð¹
ĠÐ½Ðµ Ð´ÐµÐ»ÑĮ
ch ant
ĠM os
Ġpro ve
ÑĢÑĭ Ð¹
ĠÑģÑĢÐµÐ´ Ð½ÐµÐ¼
Ġcap abilities
Ġdial og
W hether
Ð¿ Ð»Ð¾Ð¼
ed a
per or
Ġtra cks
ĠEurope ans
ĠTh ailand
Ġtechn ique
pr us
ĠÑĨÐµÐ½ Ð½Ð¾ÑģÑĤÐ¸
ĠÐ¸Ð·Ð²ÐµÑģÑĤ Ð½ÑĭÐ¹
ĠÐ¿ÑĢÐµÐ´ÑģÑĤÐ°Ð² Ð»ÐµÐ½Ð¸Ñı
Ġpro sec
ĠK ey
Ġtw ice
ĠÐ¿Ð¾Ñģ Ð»Ð°
ĠÐ²Ð°Ð¶ Ð½ÑĭÐµ
ĠÐºÐ¾Ð½ÐºÑĥÑĢ Ñģ
Ġagricult ure
ĠPonom arenko
c u
ĠÑģ Ð¾Ð·Ð½Ð°
or p
Ð¶ Ð½Ð¾Ð¼
Ð²Ð¸ Ð»Ð¸
ĠÐŁ Ð¾ÑĢÑĤÑĥÐ³Ð°
Ġacc eler
ĠÐ¸Ð¼Ðµ Ð»Ð¸
arn a
ĠÐ´Ð¾ÑģÑĤÐ° ÑĤÐ¾Ñĩ
Ġvac ation
Ġhosp ital
Ġcast le
M al
e conomic
vel oper
ass y
ĠÑĨÐµÐ½ Ð°Ð¼
ĠCount ry
Ġcare er
ÑģÐ°Ð¹ ÑĤÐ°
Ġsemin ars
Ð ħ
ĠC are
ĠH oly
ĠÐŃ ÑĢ
ĠÐ¥ Ð¾Ð»
ĠÑĥÑģÑĤÐ°Ð½Ð¾Ð² ÐºÐµ
ĠÑģÐ¾Ð¾Ð± ÑīÐ°ÐµÑĤ
ĠÐ´Ð¾Ð¼ Ðµ
ĠTra vel
ĠÐļÐ¾ÑĢÐµ Ð¸
ĠÐ¾ÑĢÐ³Ð° Ð½Ñĭ
ĠA lp
Ð»Ð¾ ÑīÐ°
ÑģÑĤÐµÐ¼ Ñĭ
ĠPl ayer
ĠÐ·Ð°ÐºÐ¾Ð½ Ð¾Ð¼
Ġdeal ing
ĠÐ±Ð»Ð°Ð³ Ð¾ÑĤÐ²Ð¾ÑĢÐ¸
Ð¿Ð¾Ñģ Ð»ÐµÐ´
Ð¾Ð±ÑĢÐ°Ð·Ð¸ Ðµ
H ar
k m
y o
ĠÐ´ ÑĢÐ°Ð¹
ĠÐ± Ð»Ð°Ð½
Ð»Ð° Ð²Ð°
ri k
ĠÑį Ð»Ð¸
Ġ1 30
ĠG BP
ÐĶ Ð¾Ð¿Ð¾Ð»
ĠÐ²Ð¾Ð·Ð¼Ð¾Ð¶ Ð½Ð¾ÑģÑĤÑıÐ¼Ð¸
Ġadv is
Ġtre ated
Bl ack
Ð¡Ð¾Ð² ÑĢÐµÐ¼ÐµÐ½
Ð² Ð¾ÑĢÐ¸ÑĤÑĮ
Ñİ ÑĢÐ¸
om o
ĠÑĥ ÑħÑĥÐ´
ĠL ady
ĠSt ra
ord an
Ġdet ention
Ð¾ÑĢÐ° Ñħ
Ġcontrol s
ĠÐ·ÐµÐ¼ Ð»Ðµ
ĠÐ¿Ð¾Ð·Ð¸ ÑĨÐ¸Ñİ
ĠÐĳÐ°Ð½ ÐºÐ°
Ge orge
ĠFil m
ÐŁÐ¾Ð¼ Ð¸Ð¼Ð¾
ĠÐ°Ð¿Ð°ÑĢÑĤÐ° Ð¼ÐµÐ½ÑĤÑĭ
Ġt ub
ÑĤÐ¸ Ðº
Ñī Ð°Ð¹
ess ions
ÑĩÐµÐ½ Ð½ÑĭÐ¹
Ġme at
Ġloc k
ĠCl ient
ĠÐ»ÐµÐ³ ÐµÐ½
Ġunforget table
D A
en h
Ġd ating
ĠÐ·Ð° ÑĢÐ°Ð½ÐµÐµ
ĠD V
Ðĳ Ð¾ÑĢ
Ġpl enty
ĠÐºÐ°ÑĩÐµÑģÑĤÐ² Ð¾Ð¼
ĠÐ±Ð¾Ð»ÑĮÑĪ ÐµÐµ
Ġstand ing
ER S
ĠÑĤÐ¾ÑĢÐ³Ð¾Ð² Ð»Ðµ
Ġglobal ization
ĠPe ace
ĠÐµÐ¶Ðµ Ð´Ð½ÐµÐ²Ð½Ð¾
ĠÐ¿Ð¸ÑģÑĮ Ð¼Ð¾
ĠÐ±ÐµÐ·ÑĢÐ°Ð±Ð¾ÑĤÐ¸ ÑĨÑĭ
Ð²Ð° ÑİÑīÐµÐ¹
Ġg rown
ĠÐļ ÑĢÐ°Ñģ
Ð·Ð¸ Ñģ
ind ing
ĠÑģÐµ Ð³
fere nt
Ġmin ing
Ġcomb ine
Ġmanag ing
ival ent
Ge org
G erman
p ath
ÑĢÐ° ÑģÐ¿
Ġc art
Ġf ont
ÐµÑĢ Ð¶Ð°
ĠÐ·Ð° Ð»Ðµ
ÑģÐ¸ Ð±Ð¾
ĠN ic
ĠÑģÐ¾ ÑİÐ·Ð°
Ġsc ope
Ġeconom ics
Ġdel ight
Ġdial ogue
ĠÐºÐ¾Ð¼Ð¿Ð¾Ð½ ÐµÐ½ÑĤÐ¾Ð²
Ġcere mony
C urrent
ĠÑģ ÑĩÐ°
ĠÐ¾Ð± ÑīÐµ
ĠÐºÐ¾Ð½ Ð´Ð¸ÑĨÐ¸Ð¾Ð½Ð¸
Ġprodu ces
eg a
ĠPart ners
Ã« Ã¼
ĠÐºÐ°ÑĤÐ° Ð»
ĠÐĿÐ°ÑĨÐ¸Ð¾Ð½Ð°Ð»ÑĮ Ð½Ð¾Ð³Ð¾
ĠLou is
ĠÐ¸Ð½ÑĦÑĢÐ°ÑģÑĤÑĢÑĥÐºÑĤÑĥ ÑĢÑĭ
Ðµ Ð»ÐµÐ·
Ð´Ð° Ð¼Ð°
ĠI d
ĠÑįÑĤ Ð½Ð¸
Ġext ract
Ð¾Ð¶Ð´ ÐµÐ½Ð¸Ð¸
Ġ: :
ĠÑĤÑĢÑĥ Ð´Ð¾Ð²
ĠÑģÐ½Ð¸ Ð¶ÐµÐ½Ð¸Ñı
Ġconsider ation
ĠÑĢÐ°Ð±Ð¾ÑĩÐ¸ Ðµ
ĠÐ±ÑĥÑħ Ð³Ð°Ð»
Ġentit led
o i
ĠÐ³ ÑĥÐ¼Ð°
Ð³Ð° Ð·
cl aim
Ġpar ad
EC T
ÐĲÑĢ ÑħÐ¸
ĠÐ¿ÑĢÐ¸Ð½ÑĨÐ¸ Ð¿
ĠÑĢÐµÑĪÐ¸ Ð»Ð¸
ĠMot or
H aving
N or
ÑĤ Ð»Ð°Ð½
ĠÐ¿ Ð»Ñİ
In t
ĠSt art
ÑģÐ»Ñĥ Ð¶
ĠÐ½Ð¾Ð² ÑĭÐ¼Ð¸
Ġmod ules
ĠÐ²Ð¾Ð´ Ð¾Ð¹
ĠÐºÐ¾Ð¼Ð¿Ð°Ð½Ð¸Ñı Ð¼Ð¸
Ġplan et
go vernment
ĠÑģÑĤÐ°ÑĢ ÑĪÐµÐ³Ð¾
ĠÐ¼ÐµÑĤÐ°Ð» Ð»Ñĥ
ĠÐ¾ÐºÐ¾Ð½ÑĩÐ° Ð½Ð¸Ñı
F ollow
Ġw aters
Ð¾ÑĢ Ð¾ÑĤ
Ð¡ Ð¸Ð¼
Ðľ ÐµÑĢ
ÐŃ Ð»ÐµÐºÑĤ
ĠÐ¼Ð°ÑĢ ÑĤÐµ
Ġi Phone
iev ing
Ð»Ð¾Ðº Ð¸
Ġintrodu ce
Ġrequest ed
ĠÐłÑĥ Ð¼Ñĭ
ĠÐ²Ð¾Ð·Ð´ÐµÐ¹ÑģÑĤÐ²Ð¸ Ðµ
ĠÑĢÐµÐ³ÑĥÐ»ÑıÑĢ Ð½Ð¾
Ġquant ity
le an
ÑĤÐ° Ð½Ð°
ĠÐ¿Ð¾ ÑģÑĤÐ°
am er
ran e
Ġtra m
Ġout come
Ð¦ Ðĳ
ĠAd v
ĠÐ·Ð°Ð³ ÑĢÑıÐ·
Ġwar rant
Ġtown s
ĠÐ½Ð°Ð·ÑĭÐ²Ð° ÑİÑĤ
ĠÐ¿ÑĢÐµÐ´ÑģÑĤÐ°Ð² Ð»ÐµÐ½Ð¸Ðµ
ĠÃ® Ã²
Fin ally
ĠÑĢÑĥÐ± Ð»ÐµÐ¹
f ront
in sky
ĠH at
ew ater
Ðľ Ðŀ
ren cies
Ġinv ent
ĠÐĹ Ð²Ñĥ
aut y
Ġdirect ed
ĠÐ¾Ðº Ð½Ðµ
ĠPal m
ĠÐ¿ÑĢÐµÐ´ÑģÑĤÐ°Ð²Ð¸ ÑĤÐµÐ»ÑĮ
ĠÐ¼ÑĥÐ·Ñĭ ÐºÐ°Ð½
Ġcal m
ĠÐ¾Ñħ Ð»Ð°
ĠÑĢÐ°ÑģÑģÑĤÐ¾Ñı Ð½Ð¸Ð¸
Ġsh oot
ĠÑĩÐµÐ¼ Ð¿Ð¸Ð¾Ð½Ð°ÑĤ
Ġexp ression
ĠÐ±Ð° ÑĪ
ĠÑĢÐ°Ð·Ð¼Ðµ ÑīÐµÐ½Ð¸Ðµ
Ġrad ical
F re
O l
ĠÐ² Ð»Ð¾Ð¶
Ð¾Ð± Ð±Ð¸
Ð¾Ð²Ð° Ð»Ð°
ĠÐ¾ÑĤ Ñģ
ag ues
ht ml
ĠÑĨ ÐµÑĢÐµÐ¼Ð¾
Ð¤ ÐµÑĢ
ĠÐ¿Ð¾ÐºÐ° Ð·ÑĭÐ²Ð°
ÑĢÐ°Ð»ÑĮ Ð½Ð¾Ð¹
Ġoper ators
ĠÑĤÐ¸ Ð¿Ð¸
ĠÐ¾Ð±ÑĢÐ° Ð±Ð°ÑĤÑĭ
ĠÐºÐ°Ð¿Ð¸ÑĤÐ° Ð»
Ġspeak ers
Ġprimar ily
M in
Ġw idespread
Ð¾Ðº ÑĢÐ°
ĠÐ° ÑĢÐ¾Ð¼
ĠB i
ĠB ern
ĠB rand
ÐŁ Ð¾Ð»Ð¸ÑĤÐ¸
ĠÑĢÐµ ÑĩÑĮ
ĠV as
Ġtri ps
Ð¸Ð» Ð»
ĠAr ts
ĠSp ring
ĠÐ°ÑĢ Ð¼Ð¸Ð¸
Ġold est
ĠÐ²Ð¾Ð¹ ÑģÐºÐ°
ĠÑĤÐ¾Ð²Ð° ÑĢÐ°
ĠÐ¿ÑĢÐ¾Ð²Ð¾Ð´ ÑıÑĤÑģÑı
ĠBro wn
ĠÐ±Ð¾Ð» Ð³Ð°ÑĢ
ĠAut o
ĠÑĢÐ°ÑģÐ¿ÑĢÐ¾ÑģÑĤ ÑĢÐ°Ð½ÐµÐ½Ð¸Ñı
Ð¹ÑĤÐ¸ Ð½Ð³
ĠÐ°Ð¿ÑĢÐµ Ð»Ðµ
ĠÐ¶ÐµÐ»ÐµÐ·Ð½Ð¾Ð´Ð¾ÑĢÐ¾Ð¶ Ð½Ð¾Ð³Ð¾
ĠÐ¾ÑħÐ²Ð° ÑĤÑĭ
is ely
ĠÐ¾ ÑģÑĤÐ°Ð²
Ñį Ð»
ag ne
Ġdel ay
Ġactiv ely
Ġmot iv
ĠÐºÑĢÐ°ÑĤ ÐºÐ¾ÑģÑĢÐ¾
D an
P M
Ġ ÑĢÐ¸ÑĤ
ĠÑģ Ð½Ðµ
Ð¾ÑĢ Ð³Ð°Ð½Ð¸
Ġg ift
Ġbe at
em ble
ÑģÐµ Ð»ÑĮ
ÐºÑĥ Ð´Ð°
ĠÐ½Ð°Ñģ Ð»Ð°Ð¶Ð´Ð°
ĠÐ¸Ð½ÑĤÐµÑĢ ÑĮÐµÑĢ
Ã¤ r
Ġhand ling
Ġcru cial
ĠÐļÐ¾Ð¼Ð¸ Ñģ
ĠLeb an
Ġnov el
Ġadequ ate
ÐºÐ¾Ð¸Ð·Ð¾Ð»Ð¸ ÑĢÐ¾Ð²Ð°Ð½Ð½ÑĭÐµ
Peters burg
U C
ÑĤÐ¸ ÑĩÐµÑģÐºÐ¸Ðµ
Ð¸Ð¼ ÑĭÐµ
ov an
ĠÑĪ Ð¾Ñĥ
ĠÑĢÐµÐ· ÐºÐ¾
ĠÑģÑĤÐ¾Ð» ÐºÐ½Ñĥ
ĠÑĤÐµÑħÐ½Ð¸ ÑĩÐµÑģÐºÐ¾Ð¹
ĠÐ½Ð¸ÐºÐ° ÐºÐ¾Ð¹
ĠÐ¿ÑĢÐµÐ´Ð¿Ð¾Ð» Ð¾Ð¶
ĠÐºÐ¾Ð½ÑģÑĥÐ»ÑĮÑĤÐ° Ð½
H O
M inist
c ar
g ot
ĠÐ¿Ð¾ ÑģÑĤÐ°Ð²Ð¸
ÑĢÐ¾Ð¿ Ð¸
de f
Ġtw enty
ars h
ĠÑĤÐµÑħÐ½Ð¾Ð»Ð¾Ð³Ð¸ Ñı
ĠWar craft
ĠÑĥÐ»ÑĥÑĩ ÑĪÐ¸ÑĤÑĮ
ĠÐ½ÐµÐ·Ð°Ð²Ð¸Ñģ Ð¸Ð¼Ð¾ÑģÑĤÐ¸
Ġabs ence
Ġut ility
Ġmonu ments
ĠMach ine
R el
S D
e le
ĠÐ¸Ð½ ÑĦÐ¾ÑĢÐ¼Ð¸
Ðĺ Ðķ
ĠAl so
ÐµÑĢÐ¸ Ð¹
Ġsk y
ĠÑģÐ¾ÑģÑĤÐ¾Ñı Ð½Ð¸Ñİ
Ġtransl ations
ĠÐŃÑģÑĤÐ¾ Ð½Ð¸Ð¸
S ur
Ð»Ð° Ð±Ð¸
ri x
Ð¡ ÐµÐ¼
ĠÑĢÐ°Ð· Ð´ÐµÐ»Ð°
Th rough
Ġcol umn
amp s
ĠÐ¿Ð»Ð° Ð½ÐµÑĤ
ĠÑĢÐ°Ð·Ð²Ð¸ ÑĤÑĭÑħ
eep ing
ĠÐ¼Ð¸Ð½Ð¸ ÑģÑĤÑĢ
ĠÑģÐ²Ð¾Ð±Ð¾Ð´ Ð½Ð¾Ð³Ð¾
Ð¢Ð° ÐºÐ¸Ðµ
ĠÑĢÐµÑĪ ÐµÐ½Ð¸ÐµÐ¼
ĠÐ´Ð¸ÑģÐº ÑĢÐ¸Ð¼Ð¸Ð½Ð°
Ġflex ibility
ĠSat urday
E xt
S pecial
b orn
l aw
Ð» ÑĭÐ¹
Ð² ÑĤÐ¾ÑĢ
ĠC it
ĠC OM
ĠÑĤÐµ Ð»ÐµÐºÐ¾Ð¼
ĠÑı ÑģÐ½Ð¾
ĠÐŁ ÐµÑĢÐµ
pt y
Ðĵ ÑĢÐ°
Ð¿ÑĢÐ°Ð² Ð»ÐµÐ½Ð¸Ñı
eng ers
ĠRes idence
ĠÑģÐ¾ÑĨÐ¸Ð°Ð»ÑĮ Ð½Ð¾
Ġbring ing
ÐĶÐ°Ð½ Ð½ÑĭÐ¹
ĠÐ¿Ð¾Ñħ Ð¾Ð¶Ðµ
ÑĢ Ð¾Ð¼Ð¸
ĠÐ¿ÑĢ Ð¾Ð¹ÑĤÐ¸
ĠC annes
Ð»Ðµ Ð±
Ð¡ Ð¸Ð½
qu art
Ġqu eries
Ġprodu cer
pl an
ĠÑĥÑĩÐ° ÑģÑĤÐ²Ð¾Ð²Ð°ÑĤÑĮ
ĠÐ´Ð¾ÑģÑĤÑĥÐ¿ Ð½Ð°
ot al
ĠÐ¿Ð¾ Ð½Ð¸
ĠM un
ĠL iz
ÑģÐ¸ Ð´
Ġse ctions
ĠÐĲ Ð»ÐµÐº
Ġcons erv
Ġsupp liers
ĠÐ²Ð½ÑĥÑĤÑĢÐµÐ½ Ð½ÐµÐ³Ð¾
tain ment
Ex cellent
ÐºÐ¾ÑĢ ÑĤÐ¾
ĠÑģÐ¾Ð¾Ð±ÑīÐµÑģÑĤÐ² Ð¾
ĠÑĢÐµÐ´Ð° ÐºÑĤÐ¸
ĠÑģÐ¾Ñħ ÑĢÐ°Ð½ÐµÐ½Ð¸Ñı
ĠFrank furt
W ork
Ð¾Ð¼ Ðµ
ĠM i
ĠÐ·Ð° ÐºÐ»Ð°Ð´
ĠÐ» Ð¾Ð´
op ers
Ð°Ð» ÐµÐ¹
ĠÑĩÐµ ÑģÑĤ
Ġext ension
ĠComm unic
ĠÐ²Ð½ÑĥÑĤÑĢÐµÐ½ Ð½ÐµÐ¹
ĠÑĢÐ¾ ÑģÑĤÑĥ
ĠÐ¸Ð½Ð¸ ÑĨÐ¸
Ġneighb or
ĠÐºÐ°Ð½Ð´Ð¸Ð´Ð° ÑĤÐ¾Ð²
P eter
ĠÑģ Ð´ÐµÑĢÐ¶Ð¸Ð²Ð°
ĠÐ½Ðµ Ð¾Ð´
Ġany where
Ġ4 6
Ġgener ated
ĠÐ¿ÑĢÐ¾Ð¶Ð¸ Ð²Ð°Ð½Ð¸Ðµ
ÐŁÐ¾Ð´ Ð¾Ð±
ĠÑĥÐ¿ Ð¾ÑĤÑĢÐµÐ±
Ġcontinu ing
ĠÐ¸ÑĤ Ð¾Ð³
ĠÐ²ÑĭÐ±ÑĢÐ¾Ñģ Ð¾Ð²
ĠÃŃ Ãł
Ġf at
ĠÐ¾ÑĤ Ð´Ð¾Ñħ
Ġpurch ased
Ġident ify
ĠÐºÐ¾Ð¼ÑĦÐ¾ÑĢÑĤÐ°Ð±ÐµÐ»ÑĮ Ð½ÑĭÐ¼Ð¸
ĠÑĥÐ»Ð¸ ÑĨÑĭ
ĠÐŁÐ¾Ð»ÑĮ ÑĪÐ¸
Ð´Ð¶Ð° Ð½Ð°
Ġinvestig ation
ĠÑģÐ¸Ð³ Ð½Ð°
isse ment
G B
ĠÐ± Ð¸ÑĤ
im m
ĠÑĤÐµ Ñģ
ĠF ive
ĠÐķ Ð³Ð¾
Ð½Ð¸ÐºÐ° Ñħ
ÐµÑĢÐ¸ Ð¸
ÑģÐ»ÐµÐ´ Ð¾Ð²Ð°Ð½Ð¸Ðµ
ĠÐ±Ð»Ð° Ð³Ð¾Ð´Ð°ÑĢ
ĠÑįÑĤÐ° Ð¿Ðµ
Ġshow ing
Ġvot ers
ĠÑĢÐµÐ° Ð³Ð¸
ĠCustom er
Ð¾Ñģ Ð»Ð°Ð²
ĠR oll
Ġk ill
ĠÑģÐ¸ Ð»ÑĮ
ĠÑĦÐ° ÐºÑĥÐ»ÑĮ
ĠÑĦÐ¸Ð»ÑĮ Ð¼
ĠÐ¾ÐºÐ°Ð·ÑĭÐ²Ð° ÐµÑĤ
Ġsold iers
ĠÑģÑĤÐ°ÑĤÐ¸ ÑģÑĤÐ¸
ĠÐ¿ÑĢÐ¸Ð¾ÑĢÐ¸ ÑĤÐµÑĤ
Ð¡ÑĥÑīÐµÑģÑĤÐ² ÑĥÐµÑĤ
ĠÐ½ÐµÐ·Ð½Ð° ÑĩÐ¸
x x
Ġg ym
ĠÑĢÐ°Ð· Ð²ÐµÐ´
Ġpur s
Ġgener ate
ĠÐ¿ÑĢÐ¾Ð¸Ñģ ÑħÐ¾Ð´
ĠÑģÑĢÐµÐ´ÑģÑĤÐ²Ð° Ð¼Ð¸
ĠRoman ia
ĠÑģÐµÐ· Ð¾Ð½
ĠÑģÑģÑĭÐ» ÐºÑĥ
r ally
Ġ ur
Ġw inner
ĠÐĴ ÐµÐ½Ðµ
ail s
Ġtrans fers
ĠÐ¼Ñĥ Ð½Ð¸ÑĨÐ¸Ð¿Ð°
Ġconven ience
Ġren der
Ġacqu ired
ĠÐŁÐ¾Ð»ÑĮ ÑĪÐµ
ĠHung ary
ĠÐ¿Ð¾ÑģÑĤÐµÐ¿ ÐµÐ½Ð½Ð¾
R oute
a ire
Ñģ ÐµÐ½Ð¸Ñı
Ġt on
Ð¾Ð² ÑĭÐ¹
Ġb ub
ĠÐ³ Ð»Ñĥ
ĠG ot
Ġcomp rom
ĠJ ud
Ðĵ Ð¸
ĠÐ·Ð´Ð¾ÑĢÐ¾Ð² ÑĮÐµ
Ġill ust
ĠÐ¸Ð·Ð±Ð¸ÑĢÐ° ÑĤÐµÐ»ÐµÐ¹
ĠÐ»Ð¸ÑĨÐµÐ½ Ð·Ð¸Ð¸
ĠÐĶÐ¶ÐµÐ¹ Ð¼Ñģ
. -
ĠÐ¸ Ð»
Ġn ut
ĠL as
ÐĿ Ð°Ð¼
Ġ" .
ĠÑĩÐµÐ¼ Ð¿Ð¸
ĠÐ²ÐµÐ»Ð¾ÑģÐ¸Ð¿Ðµ Ð´Ð¾Ð²
or o
Ġf old
Ġth ick
ĠÐļ Ð°Ð»Ð¸
Ġsh ap
are t
Ġar ts
int s
ĠÐºÐ¾Ð» Ð¾Ð½
ĠÑģÐ°Ð¹ ÑĤÑĭ
ĠÐĺÐ½ Ð´Ð¸Ñı
Ġsec urities
Ġrecord s
ĠÐ´Ð²ÐµÑĢ Ð¸
r ative
w eg
Ġw rote
Ġb atter
Ð½Ð° ÑģÑĤÐ¸
ĠI ts
ĠH on
ru ck
pl ay
Ġdisc rim
Ġpay ing
Ġbro ken
Ġsound s
ÐĴÐ¾Ð· Ð¼Ð¾Ð¶
Ġmut ual
ÑģÑĤ ÐµÑĢÐ°
et o
ĠA z
ĠD est
ĠÑĦ Ð°Ð½ÑĤÐ°
ind er
ĠÑģÑĢÐµÐ´ Ð½Ðµ
ÑĤÐ¾Ð² Ð¾Ð¹
ple x
ĠÑĢÐ°Ð·ÑĢÐ°Ð±Ð¾ÑĤ ÑĩÐ¸ÐºÐ¾Ð²
ĠÐ²Ð°ÑĪ Ñĥ
ĠÑĢÐµÑģÑĤÐ¾ÑĢÐ° Ð½Ð°
C ast
b ass
Ðµ Ð¿ÑĢÐ¸
ÑĢÐ° Ð¶Ð°
Ġb ot
ĠP av
ail ing
ĠBl ues
ĠÐ½Ð°Ñģ ÑĩÐ¸ÑĤÑĭ
ĠÐ³Ð° Ð»ÐµÑĢÐµ
Ġmach inery
ĠÐºÐ¾Ð½ÑĨ ÐµÑĢÑĤ
ĠÑĥÐ´Ð¾Ð²Ð»ÐµÑĤÐ²Ð¾ÑĢ Ñı
Ġth orough
ĠâĢ Ŀ
Ġj ur
lic it
Ġ4 9
ĠÑĤÐ¾ÑĢÐ³Ð¾Ð² ÑĭÐµ
Ġport al
Ġord ered
Ġmac ro
Ġspecif ically
Ġportfol io
y g
Ð¾Ð² Ð¸
Ġw inning
Ġn u
Ð²Ð° Ð½Ð³
ut ies
ĠÑģÐ² ÐµÑĢ
ĠÑģÐ¾ Ð¾ÑĤÐ½Ð¾
ĠÃ ¼
Ð£ Ð¶Ðµ
Ġgu ard
ĠÐ²Ð¾Ð¿ÑĢÐ¾Ñģ Ñĥ
aut iful
Ġdi verse
Ġbeg ins
ĠSound proofed
ĠÐ¸Ð´ÐµÐ½ ÑĤÐ¸ÑĦÐ¸ÐºÐ°
ĠÐ¼ Ð³
ĠÐ¾ÑĤ ÑĢÐµ
ĠÑģÑĥ Ð²ÐµÑĢ
ĠÐ½Ð°Ð¿ÑĢÐ°Ð² Ð»ÐµÐ½Ð¸Ðµ
ij ing
Ġindic ated
ĠÑħÐ°ÑĢÐ°ÐºÑĤÐµÑĢÐ¸ Ð·
ÐŃÐº ÑģÐ¿
ĠTex as
W here
ĠÐ± ÐµÐ½
ĠC ooper
Ð²Ð° ÑİÑīÐ¸Ð¹
ĠÐ·Ð° ÑĢÐ°Ð±Ð¾ÑĤ
ĠÑĢÐµ ÑĨÐµÐ¿
Ðĺ ÐĿ
ound s
ĠÐ·Ð½Ð° Ñĩ
ĠÐ·Ð½Ð° Ñİ
ĠÐ¤ Ð¸
ĠÑįÐº ÑģÑĤÑĢÐµ
ÑģÐ¿Ðµ Ð´Ð¸
Ġide ally
ĠÑĥÑĩ ÐµÐ½Ð¸
Ġwel coming
Ð²ÑĪÐ¸Ð¹ ÑģÑı
Ġunivers ities
ĠGen eva
ÐĲÐ´ Ð¼Ð¸Ð½Ð¸ÑģÑĤÑĢÐ°
Ġsemin ar
ĠÐĹÐ²Ñĥ ÐºÐ¾Ð¸Ð·Ð¾Ð»Ð¸ÑĢÐ¾Ð²Ð°Ð½Ð½ÑĭÐµ
P ont
Ġc u
ĠÐ¿ÑĢÐ¸ Ð´ÐµÑĢÐ¶Ð¸Ð²Ð°
ÑĦÐ¾ÑĢ Ð¼Ñĥ
Ġspecial ly
ĠÐ·Ð½Ð°ÑĩÐ¸ ÑĤÐµÐ»ÑĮÐ½Ð¾Ð¹
ĠSer ies
ĠÐ²ÑĤÐ¾ÑĢ Ð¾Ð³Ð¾
ĠÑĢÐ°ÑģÑĤ ÐµÑĤ
ĠÑĢÐ¾Ð· Ð½Ð¸
Us ing
b en
Ñı Ð³
ÑĨ Ð²ÐµÑĤ
ig o
ĠÐ» Ñĥ
ĠF inn
ĠN ob
ous es
Ġtreat ments
ĠÐ¾Ð³ÑĢÐ°Ð½Ð¸ ÑĩÐµÐ½Ð¸Ð¹
ĠÐ¾ÑĢÐ³Ð°Ð½Ð¸Ð· Ð¾Ð²Ð°ÑĤÑĮ
ĠÑĪÐµ ÑģÑĤÑĮ
ĠÑģÐ¾ÐºÑĢÐ°ÑĤÐ¸ ÑĤÑĮ
N ever
Ġw est
ĠM ir
Ð¾Ð· Ñĭ
ul ed
ÐŁ ÐµÑĤ
Ð¾Ð¿ Ð¾Ð»ÑĮ
ĠÐĺ Ð²Ð°Ð½
hen omen
ĠÐ»Ðµ ÑĩÐµÐ±
ĠÐ·Ð°Ð´Ð° ÑĩÐµÐ¹
Ġopt imal
Ã« Ã¨
Ġcontrib ution
W ell
Ġd ur
ĠÐ¾ÑĤ ÑģÐ»Ðµ
Ð¸Ð¼ ÑģÑı
ĠÐĳ ÐµÐ»ÑĮ
du le
ry pt
ÐĿÐ° Ð¸Ð±
ĠÐ·Ð½Ð° ÐµÐ¼
Ġcur rencies
ĠÐ»Ð¸Ð´ÐµÑĢ Ð¾Ð¼
ĠÐ½Ð¸ÐºÐ° ÐºÐ¾Ð³Ð¾
ĠFore st
ĠÐ¼Ð½Ð¾Ð³ Ð¾Ð»ÐµÑĤ
Ġparam eter
Ġsuppl ied
ĠÐŀÐ´ Ð½Ð°ÐºÐ¾
S am
Ð»Ð¸ Ñİ
ro id
ĠÐ± Ð»ÑİÐ´
ÑĨÐ¸ Ð½
ĠS QL
Ð»Ðµ ÑģÑĤÐ¸
Ðĺ Ðĺ
Ġadd ing
ĠÐºÐ¾Ð»Ð¸ÑĩÐµÑģÑĤÐ² Ð¾Ð¼
Ġcert ified
Ġhard ly
ĠÐºÑĢÐµÐ´Ð¸ÑĤ Ð½Ð¾Ð¹
ĠÑĪÐºÐ¾Ð» Ð°
ĠÐ²Ð¾ÑģÑģÑĤÐ°Ð½Ð¾Ð² Ð¸ÑĤÑĮ
Ġclub s
ĠÐ¿ÑĢÐ¾ÑģÑĤÑĢÐ°Ð½ ÑģÑĤÐ²Ð¾
ĠÐ¿Ð¾ÐµÐ·Ð´ ÐºÐ¸
ĠÐ¸Ð½Ð° ÑĩÐµ
N ikol
Ä ĩ
Ġs am
Ġb en
ÐµÐ¹ ÑĤ
ĠÐ» Ð°Ð·
Ð¡ ÐºÐ°
ĠJ er
ĠÐ´Ð¾Ð»Ð¶ Ð½Ð¾ÑģÑĤÐ¸
ĠPro tection
Ġins ert
Ġhost ing
Ġwhe el
Ġthreat s
ĠÑĥÐºÐ°Ð·Ð° ÑĤÑĮ
ĠÑĤÑĢ ÑĳÑħ
ĠÐ¼Ð½Ð¾Ð³Ð¾ÑĩÐ¸ÑģÐ»ÐµÐ½ Ð½ÑĭÑħ
Ġtransp arent
Ġep is
Ð¸Ð·ÐµÐ¼ Ð½Ð¾Ð¼Ð¾ÑĢ
Ġaccompan ied
ĠÐ¿Ð¾ ÑģÑĤÑĥÐ¿Ð¸
Ġst ages
ĠÐºÐ°Ðº Ð¾Ð³Ð¾
du ction
Ġj ew
Ġet h
200 2
ĠÑģÑĥÑīÐµÑģÑĤÐ² ÑĥÑİÑīÐ¸Ñħ
ĠÑıÐ·Ñĭ ÐºÐ¸
ĠGo vern
Ġens ures
ÐŁÑĢÐ¾ Ð¸Ð·Ð²Ð¾Ð´
cent ury
ĠÐ»Ð¸ÑĨ Ð°Ð¼
Ġhold s
ĠÐĲÐ·ÐµÑĢÐ±Ð°Ð¹ Ð´Ð¶Ð°Ð½Ð°
ĠÑģÐµÑĢÐµÐ´ Ð¸Ð½Ðµ
ÑĮ ÐºÐ¾Ð²
Ġp ul
Ġf an
ĠÑĤÐµ Ð¼Ñĭ
Ð·Ð¸ Ð½Ñĭ
Ð±Ð¾ ÑĤÐ¸
Ġmonth ly
Ġtest ed
ÐĳÐ¾Ð»ÑĮ ÑĪÐ¾Ð¹
ĠÐ¾Ð±ÑĬÐµÐºÑĤ Ñĭ
ĠÑģÑĥÐ± ÑĬ
ĠÐ¿Ð¾Ð´ÐºÐ»Ñİ ÑĩÐµÐ½Ð¸Ñı
Ð¾Ð» Ð¸ÑĤ
Ġin ev
ĠÐ½Ð° Ð¿ÑĢÐ¾ÑĤÐ¸Ð²
ĠA T
ĠÐ·Ð° Ñħ
ĠL ev
Ġal arm
Ġfe es
ÑĤÐ¸Ð² Ð½ÑĭÐ¼
Ġpar allel
ĠÐ±Ð°Ð· Ñĥ
ĠÑģÐ¾ÐºÑĢÐ° ÑīÐµÐ½Ð¸Ðµ
ĠÐ¿ÑĢÐ¸ÑıÑĤ Ð½Ð¾
Ġfrequ ency
ÑĢÐ¸Ð´ ÑĢÐ¸Ñħ
ÑĮ ÐµÐ²
Ġc atch
ic ing
Ð»Ðµ ÑĨ
ĠP ain
ĠÐ¼Ð¾Ð³ Ð»Ð¾
ĠÐ¸ÑģÐ¿Ð¾Ð»ÑĮÐ·Ñĥ ÐµÐ¼
ĠÐ´Ð°Ð² Ð»ÐµÐ½Ð¸Ñı
ĠÐ´Ð¾Ð¿ ÑĥÑģÐºÐ°
ĠÐ¿Ð¾Ð¶ÐµÐ»Ð° Ð½Ð¸Ñı
Ġmere ly
Ð¸ Ñİ
Ġp od
Ġw ave
ar ov
ad t
ĠÑĢÐµ Ð¹ÑĤÐ¸Ð½Ð³
Ġse ats
Ðł Ñĭ
Ġar rive
ĠÐ¼ÐµÑģÑĤ Ð¾ÑĢ
Ġdesign s
ĠÐļÐ° ÑĢÐ°
Ġsitu ations
lim ited
ĠÐĳÐ°Ð½ Ðº
ÐĺÑģÐ¿ Ð¾Ð»ÑĮÐ·Ð¾Ð²Ð°Ð½Ð¸Ðµ
Ġcam era
ĠÐ¿Ð°ÑĢÑĤÐ½Ðµ ÑĢÐ°Ð¼Ð¸
Ġinhab it
6 9
f eld
z o
ĠC aucas
ĠR uss
ĠÐ¿ÑĢÐ¾ ÑħÐ¾Ð´ÑıÑĤ
ÐĿ Ð°Ñģ
Ðĺ Ð¢
ĠSp ace
ĠÐ¿Ð¾Ð´Ð´ÐµÑĢÐ¶ ÐºÐ¾Ð¹
Ġachieve ments
ĠÑĩÑĢÐµÐ·Ð²ÑĭÑĩÐ°Ð¹ Ð½Ð¾
7 8
Ð¸ ÑģÐ°
Ð¾Ð» Ð¾Ð³
ĠH ell
ĠÐĲ ÐºÐ°Ð´ÐµÐ¼Ð¸
ĠV enez
ĠÃ ¡
ĠÑĢÐ¸ Ð¼
uel a
Ð³Ð¾ÑĢ Ð¸ÑĤ
P rivate
U K
m i
ÑģÐ¸ Ð»
ÑĢÐ¾Ð² Ð¾Ð³Ð¾
ÐĽ ÐĲ
ĠÑģÐ°Ð¼ Ð¾Ñĥ
ĠÑĩÐµ ÑģÑĤÑĮ
Ġfac ed
ĠDep uty
ĠAb out
ĠSl ov
Ð¾Ð³ÑĢÐ° Ð½Ð¸
ĠÐ¾ÑĢÑĥÐ¶Ð¸ Ðµ
Ġforest s
ĠÐĴÐµÑĢ ÑħÐ¾Ð²
Ð»Ð¸ ÑģÑĤ
ĠÐ²Ð¾Ñģ Ðº
Ġspecial ist
ĠÑĢ Ð¾Ð±
ĠÑģÑĥÑīÐµÑģÑĤÐ² ÐµÐ½Ð½Ð¾
ĠÐ²ÑģÐ¿ Ð¾Ð¼
Ġgraph ics
ĠÐ½ÐµÐ¿ÑĢÐµ ÑĢÑĭÐ²
ÑģÐ»ÐµÐ´Ð¾Ð²Ð° ÑĤÐµÐ»ÑĮ
ĠÐ¡Ð²ÑıÑĤ Ð¾Ð³Ð¾
Ġdepart ure
ĠÐ¸Ð½Ð¸ÑĨÐ¸ Ð°ÑĤÐ¸
Ð³ ÑĢÐµ
ĠL iving
Ð»Ð¾ Ð½Ñĭ
Ġen force
Ġup load
ÑİÑī ÐµÐ¼
Ġdesign er
ĠÐ¿ÑĢÐ°Ð²Ð¸ÑĤÐµÐ»ÑĮ ÑģÑĤÐ²Ð¾Ð¼
ĠÑģÐ¾Ð´ÐµÑĢ Ð¶Ð¸Ð¼
ÐµÐ¿ÑĢÐ¸ Ð¸Ð¼
Ð¾ ÑĪÐ°
Ðº ÑĢ
Ġc abin
Ð¿ Ð»Ð°ÑĤ
ĠÐ¾ Ð·ÐµÑĢ
el o
ĠÐ° Ð½Ð¾
ĠT el
qu est
ĠÐ´Ð¾ ÑħÐ¾Ð´Ð°
Ð¾ÑĢÐ¸ Ñİ
ĠÐ¸Ð³ ÑĢÐ¾ÐºÐ°
ĠÐ¦ ÐµÑĢ
Ã² Ã®
ĠÐĲÐ»ÐµÐºÑģ ÐµÐ¹
ĠÑĤÐ¾Ð¿ Ð»Ð¸Ð²Ð°
Ġtren d
'''''''' ''''''''
Ð£ÐºÑĢÐ° Ð¸Ð½Ð°
ĠConstit ution
F orm
ĠA venue
Ġst ories
Ġle aves
Ġ18 0
af e
ĠSw eet
Ġlic ens
ĠÑģÑĤÑĢÐµÐ¼Ð¸ ÑĤÑģÑı
ĠSte el
ĠÐ´Ð¾Ð²ÐµÑĢÐ¸ Ñı
ĠÑģÐ¾Ð¿ÑĢÐ¾ ÑĤÐ¸Ð²
Ġt Ð¹lÐ¹
al se
ic i
Ġre nd
ĠÐ¾ÑĤ Ð¾Ð±ÑĢÐ°Ð¶
ĠR ot
ĠÐ´Ð° ÑĤÑĭ
Ġ9 9
Ġevery day
Ġac id
ÐĿÐµ Ð¾Ð±ÑħÐ¾Ð´
ĠÐ¸Ð·Ð²ÐµÑģÑĤ Ð½ÑĭÐµ
Ġbo at
Ġbook ed
Ġer rors
Ġbrand s
ĠPalestinian s
ĠÐ®ÐĿ ÐŃÐĻÐĶÐ¡
' d
g ra
l ights
ce ived
ĠP a
ĠÐ¿ÑĢÐ¸ Ð³Ð¾Ð²
Ð»ÐµÐ½ Ð´
ĠCh amber
ĠÐ¿ÑĢÐ°Ð²Ð¸ Ð»ÑĮÐ½ÑĭÐ¹
ĠÐ³Ð°ÑĢÐ°Ð½ ÑĤÐ¸Ð¸
EL L
ĠÐ´ÐµÐ½Ðµ Ð¶Ð½ÑĭÑħ
ĠÐ¼ÑĥÐ· ÐµÑı
aren cy
ÐľÐµÐ¶Ð´ÑĥÐ½Ð°ÑĢÐ¾Ð´ Ð½ÑĭÐ¹
ĠÐ³Ð¾Ñģ Ð¿Ð¾Ð´
Ġenorm ous
ĠÐ¸ Ð´ÐµÐ¹
ĠÐ·Ð° ÑıÐ²Ð»Ñı
ĠP lease
Ðļ Ð»Ð°
Ð¿Ð° Ñħ
Ð²Ðµ Ð´Ð¸ÑĤÐµ
hen ko
ĠHe aven
Ġpass enger
ĠÐ¾ÐºÐ°Ð·Ð° Ð»Ð¸ÑģÑĮ
ĠSo ft
ĠÐ´Ð¸ÑģÐº Ð¾Ð²
gor ith
ĠÑģÐ²ÑıÐ· ÐµÐ¹
ĠÑĦÐ°ÑĢ Ð¼Ð°
r one
Ð»Ð¸ Ð·Ð¸
ac iÃ³n
Ġex ists
Ġch at
ĠÐĳ ÐµÐ½
Ð·Ñĭ Ð²
Ġro t
Ġag ent
ĠÐ¿ÐµÑĢÐµÐ²Ð¾Ð´ Ð¾Ð²
ÑĩÐ°ÑģÑĤ ÑĥÑİ
ĠÐ´Ð¾Ðº Ð»Ð°Ð´
ĠÑģÐ´ÐµÐ» Ð¾Ðº
Ġaccur ate
Ð´ Ð¾ÑĢÐ¾Ð²
Ñī ÑĳÐ½
ÑģÑĤÐ² Ð¾Ð²Ð°Ð½Ð¸Ñı
Ġse conds
og rap
int on
de v
Ð½Ñĥ Ð»Ð¸
Ġsur prise
ĠÐ±Ð°Ð½ ÐºÐ¾Ð¼
ÑĦÐ¸ÐºÐ° ÑĨÐ¸Ñı
ĠÐ³Ð»Ð° Ð²Ðµ
Ġamount s
je uner
ĠHow ever
Ð¾Ð² ÑĤÐ¾ÑĢ
Ġh op
Ġis n
Ð¾Ð³Ð¾ ÑĤÐ¸
ĠC ross
ĠG aza
Ðĺ Ð¡
ĠÐŀ Ð½Ð¸
In ternet
ĠÐ»ÐµÑĤ Ð¾Ð¼
Ð¶ÐµÐ½ Ð½Ð¾ÑģÑĤÐ¸
ĠÑĤÑĢÐ°Ð½ÑģÐ¿ Ð¾ÑĢÑĤÐ¸
ĠÐ¿Ð¾Ð´Ð¾Ð± Ð½ÑĭÑħ
ĠÑįÐºÑģÐ¿ÐµÑĢ ÑĤÐ¾Ð²
ĠÐ±Ð¾Ð³Ð°ÑĤ ÑĭÑħ
ĠÐ¿Ð¾ÑĤÑĢÐµÐ±Ð¸ ÑĤÐµÐ»ÑĮ
Ġrestrict ions
Ð½Ð¸ Ð½Ð°
ÑĦ Ñĥ
ĠÐ° ÑĤÐ¾Ð¼
if orm
od ing
and om
Ġcl ock
Ġpe oples
Ġhigh light
ĠÐ²ÑĭÑģÐ¾Ðº ÑĥÑİ
ĠÐ²ÑģÑĤÑĢÐµ Ñĩ
Ð¾Ð·Ð° ÑīÐ¸ÑĤ
ĠÐ¾Ð¿ÑĢÐµÐ´ÐµÐ»Ñı ÐµÑĤ
ĠÐ²Ð°Ð½ Ð½Ð¾Ð¹
olit ical
ĠBud apest
b reak
Ðº Ð²Ð¸Ð´
Ġthe atre
Ġb ridge
Ġg od
ly s
ĠÐ¾Ð± Ð¾Ñģ
ĠL ee
Ð¼Ð° ÑĤ
Ġnot re
ĠÐĲ ÑĢÐ°Ð²Ð¸
Ġpl ays
ace ut
ÐĽ Ð¸Ð½
Ġunder m
ann el
ĠÐ¾ÑģÑĤÐ° Ð²Ð°ÑĤÑĮÑģÑı
Ġfore cast
ĠÐĹÐ° Ð¿Ð°Ð´Ð°
iev al
Ġweek end
Ġremain ing
Ġresident s
ĠSup reme
ĠÐ¾Ð´Ð¸Ð½Ð° ÐºÐ¾Ð²
ĠÐ·Ð°Ð±Ð¾Ð»ÐµÐ²Ð° Ð½Ð¸Ð¹
M at
l on
ĠÐ² ÑĸÐ´
âĢ ¹
ÐµÐ¹ Ð·Ð°
ĠÐºÐ° Ð¶Ð´Ð°Ñı
ĠÐļ ÑĢÐµÐ¼
In f
ĠÐ¸Ð³ÑĢÐ° ÐµÑĤ
ĠÐ²Ð¿Ðµ ÑĢÐµÐ´
ĠÐ·Ð°ÑĢÑĥÐ±Ðµ Ð¶Ð½ÑĭÑħ
r ats
ĠÑģ Ð½Ð¸Ð¼
Ð²Ð° Ð»Ð¾ÑģÑĮ
Ġ" ,
Ðł ÐµÐº
Ð§ Ð¸
Ġinst ant
ĠÐ¿Ð»Ð° Ð½Ð°
Ġ197 6
Ġchamb re
Ġconflic ts
Ġexc urs
ĠProgram me
+ +
S ec
l at
Ġw itness
ĠÐ¾Ð± ÑīÐµÐ¼
ĠU ser
Ð¿Ðµ Ð»
ĠÐł ÐĲ
vel y
Ġme als
ĠÐ¼Ñĭ Ñģ
ĠÐ½ÐµÐ¾Ð±ÑħÐ¾Ð´Ð¸Ð¼ Ñĭ
Ġclass ical
ĠÐ¼Ð¸Ð½Ð¸ ÑģÑĤÐµÑĢ
ĠÐ¼ÐµÐ´Ð¸ÑĨÐ¸Ð½ ÑģÐºÐ¸Ñħ
ĠÐ°ÑĥÐ´Ð¸ ÑĤ
J oh
in ces
ĠÑģ ÐºÐ»Ð°Ð´
it ate
Ġl atter
ÑģÑĤÐ° ÑĤÐ¸
ĠÐºÐ° Ð±ÐµÐ»ÑĮ
ĠÐ» Ð¾Ð¶
Ð»Ð¾Ð² ÑĭÑħ
Ð³ÑĢÐ° Ð´
Ġfl owers
ĠÐ¾Ð±ÑīÐµÑģÑĤÐ² ÐµÐ½Ð½Ð¾ÑģÑĤÐ¸
ĠÑģÐ»ÐµÐ´ÑĥÑİ ÑīÐµÐ¼
Ġfour th
Re al
Ġdraw ing
ĠÑĦÐµÐ²ÑĢÐ° Ð»Ðµ
5 6
u ous
ĠÐ½ ÐµÐ¼Ñĥ
Ġl i
ÐŁ ÑĢÐ°Ð²
ĠF igure
Ð½Ðµ ÑģÑĤÐ¸
ĠÐĳ ÐµÐ·Ð¾Ð¿Ð°ÑģÐ½Ð¾ÑģÑĤÐ¸
au f
ĠÐŁÐ° Ð²
ĠÐµÐ² ÑĢÐµÐ¹
ĠÑĦÐ¸Ð»ÑĮ ÑĤ
ĠÐ°ÑĢÐµÐ½ Ð´Ñĥ
ĠÐ¿ÑĢÐµÐ´ÑģÐµÐ´Ð° ÑĤÐµÐ»ÑĮ
5 4
Ġs izes
ed e
ĠV iew
Ġ19 20
ÃŃ n
IL L
ĠÐ²Ð¾Ð·Ð´ÐµÐ¹ÑģÑĤÐ²Ð¸ Ñı
ĠÐ²Ð¾ÑģÐ¿ÑĢÐ¸ Ð½Ð¸Ð¼Ð°
Ġacadem ic
ĠMond ay
A f
b es
c ard
Ð° Ð½Ð¾
ion i
ÑĨ ÐµÑĢ
ĠS ki
ĠI B
ĠO pt
ĠÐ¿Ð¾Ð» Ð½Ð¾Ðµ
Ð»Ð¾ ÑĤÐ°
Ġri d
ĠÐ³ÑĢÑĥÐ¿ Ð¿Ð¸
ĠÑħÐ¾ÑĢÐ¾ ÑĪÐ¸Ðµ
ĠÐ´Ñĥ ÑĪÐµ
ĠSw iss
ĠÐ¿Ð¾ÐºÐ°Ð·Ð° ÑĤÑĮ
ĠÑģÑĥÐ´ Ð¾Ð²
ĠÑĥÑĤÐ²ÐµÑĢ Ð¶Ð´
ĠCons ult
ĠÐ¿Ð¾Ð±ÐµÑĢÐµÐ¶ ÑĮÐµ
ĠÐµÐ²ÑĢÐ¾Ð· Ð¾Ð½Ñĭ
ĠÐ°Ð²Ð¸ Ð°ÐºÐ¾Ð¼
ĠÐ¤Ð¸Ð½Ð»ÑıÐ½ Ð´Ð¸Ð¸
b uilding
g ers
ĠÐ¿ Ð»ÐµÐ¼
Ð°Ð½ ÑĤ
ĠW as
Ðļ ÑĢÐ°Ñģ
ell es
ĠÑĨ Ð°ÑĢ
ÑĪÐµÐ½ Ð¾
ĠCon dition
ĠÐ¾Ð±Ð¾ÑĢÑĥÐ´ Ð¾Ð²Ð°Ð½Ð¸ÐµÐ¼
ĠÐ½ÐµÐ¾Ð±ÑħÐ¾Ð´Ð¸Ð¼ ÑĥÑİ
ĠÐ½Ð°ÑĢÐ¾Ð´ Ð¾Ð²
leks andr
ÐĶÐ¾Ð± ÑĢÐ¾
M ichael
Ġo l
Ġc raft
Ð¾Ðº Ð¾Ð¼
ĠÑĤ ÑĥÑĤ
ad ies
ĠR iv
ĠF un
ĠÐ¼Ðµ Ð´Ð¸
Ġstr ing
ĠÐ¿Ð¾ÑĤÑĢÐµÐ± ÑĥÐµÑĤÑģÑı
ĠÑĦÐ¾ÑĤÐ¾Ð³ÑĢÐ°ÑĦÐ¸ Ð¹
ĠCor p
Ġpromot ing
ĠÐ²Ð¸Ð· Ñĥ
ĠDemoc ratic
Ġille gal
h ome
Å £
ĠD et
az e
ĠÑģÐµÐ»ÑĮ ÑģÐºÐ¾Ð³Ð¾
ÐļÐ¸ ÐµÐ²
ĠÐ¾Ð· ÐµÑĢÐ°
ĠÐĳÐ»Ð¸Ð¶ Ð½ÐµÐ¼
ĠÐ¾Ð±Ñģ ÑĥÐ¶Ð´Ð°
Ġarran ged
ĠÑģ ÑĩÐ°ÑģÑĤ
ĠÐº Ð³
ou lev
Ġb onds
ĠÐ½Ð° ÐºÐ°Ð·Ð°
Ð»Ð° Ñı
ÐŁ ÑĢÐ¾Ð±Ð»ÐµÐ¼
Ð³Ð° ÑĤÑĮ
ru p
ĠÑģÐ°Ð¼ ÑĭÐ¼Ð¸
Ð¾Ñĩ Ðµ
Ġmet all
Ġsm art
Ġphot ograph
Ġ197 2
ĠÐºÐ¾ÑĢÐ¿Ð¾ÑĢÐ° ÑĨÐ¸Ð¸
ĠÑģÐ¾ÐºÑĢÐ° ÑīÐµÐ½Ð¸Ñı
Ukra ine
ĠÐ¾ÑĤÐ¼ÐµÑĤÐ¸ Ð»
Ġsubstant ial
ĠÐ»Ð°Ð½ ÑĩÐ¸
Ð¸ ÑĤÐµÐ»ÐµÐ¹
Ð²Ð° Ð»Ð°ÑģÑĮ
ĠÐ¾Ð± ÑīÐµÐµ
ĠL ist
ĠÐľ ÐµÑĢ
Ġexp enses
Ð²Ð°ÑĢ Ð´
Ġtransl ated
ĠÐ½ÐµÐ´Ðµ Ð»Ðµ
Ġrecon struction
Ġspirit ual
Ðµ ÑĩÐ°
ĠÑģ ÐµÑģ
Ð»Ð¸ ÑģÑĤÐ¸
il arly
ĠP u
ĠT at
ÐµÐ½ÑĤ Ñĥ
ĠO h
Ġ19 50
ĠÐ¾Ñģ Ð²Ð¾
ĠÐ¾Ð±ÑĬ ÐµÐ¼Ð°
ĠÐ²Ð¾Ñģ ÑħÐ¸
Ġ0 8
ĠSu ites
Ph il
Ġobject ives
Ġrou tes
Ġgen u
ĠÐŁÐ¾Ñģ Ð»Ðµ
ĠÑĢÐ¾Ð¼ Ð°Ð½ÑĤÐ¸
Ġsimultane ously
E lect
Ð³ Ñĭ
Ġd os
Ġh idden
ĠÑĥ Ð¼Ðµ
ĠS n
st a
ÐĿ Ð¾ÑĢ
Ð±Ð¸ Ð¹
ĠCon stant
rov ider
Ġ198 5
ÑģÑĤÐ°Ð½ ÑĨÐ¸Ð¸
ĠÐĺÑĢÐ° ÐºÐ°
ĠÐľÐµÐ¶Ð´ÑĥÐ½Ð°ÑĢÐ¾Ð´ Ð½ÑĭÐ¹
ĠÐ´Ð¾ÑģÑĤÐ°Ð² ÐºÐ¸
ĠÑĥÑīÐµÑĢ Ð±
ĠÐ¿ÑĢÐµÐ´Ð¾ÑĤÐ² ÑĢÐ°ÑĤÐ¸ÑĤÑĮ
r ine
in os
ĠÐ² ÐµÐº
ĠI mp
ad os
ad ian
ĠR oma
em en
ĠÐŁ ÑĢÐ°Ð²
Ð¢ Ð¡
Ġpl ate
ĠÐ²Ð¾Ð·Ð¼Ð¾Ð¶ Ð½ÑĭÐ¼
ans k
ĠÐ¿ÑĢÐ¾Ð¸Ð·Ð²Ð¾Ð´ Ð¸ÑĤÑĮ
Ġdet er
ĠÐ¾Ð³ÑĢÐ¾Ð¼ Ð½Ð¾Ðµ
ĠÐ¦ÐµÐ½ÑĤ ÑĢÐ°
ĠReg ional
ĠMount ains
ĠÑģÑĦÐµÑĢ Ñĭ
Ġdepos its
Ġthe ore
ÑĢÐ° ÑģÐ¿Ð¾Ð»Ð¾Ð¶
Ð¾Ð¿ ÑĢÐ¾Ð²Ð¾Ð´
Ġun us
Ðł ÐµÐ¹
ĠÐ¼Ñĭ ÑģÐ»Ð¸
ĠÑĩÐµÐ¼ Ñĥ
Ġmain tained
ĠÐ¾ÑĤÐ´ÐµÐ»ÑĮ Ð½ÑĭÐµ
ÑĢÐ°Ð±Ð¾ÑĤÐ° ÑĤÑĮ
ĠAnt on
ĠÐļÐ¾Ð¼ Ð¿Ð°Ð½Ð¸Ñı
ĠÐµÐ¶ÐµÐ³Ð¾Ð´ Ð½Ð¾
Ð²ÑĪÐµÐ¹ ÑģÑı
ĠÐ²Ð¾Ð² Ð»Ðµ
ÐłÐµÐ· ÑĥÐ»ÑĮÑĤÐ°
Ġw edding
ÑĦ ÐµÑĢÐµ
ÐµÐ· Ð¶Ð°
ĠÐ¢ ÐĴ
ĠÑĦÐ¸ ÐºÑģÐ¸
ÐŁÑĢÐ¸ Ð³Ð»Ð°
ĠÐłÐ¾Ñģ ÑģÐ¸ÐµÐ¹
ĠÐ¾Ð±ÑīÐµÑģÑĤÐ² Ðµ
ĠÐ½ÐµÐ¾Ð±ÑħÐ¾Ð´Ð¸Ð¼ ÑĭÐ¼
ĠÐ¿Ð¾ÐºÐ°Ð·Ð° ÑĤÐµÐ»Ð¸
AC O
ĠÑĤÑĥÑĢÐ¸ Ð·Ð¼Ð°
ĠÐ¢Ð° Ð¸
Ð³Ð¸Ð¿ ÐµÑĤ
Ġconv in
ĠÑģÑĩ ÐµÑĤÐµ
Ð¿Ð°Ðº Ð¾Ð²Ð°Ð½Ð½ÑĭÐµ
T ake
ÑĢÐ° Ð´
ÑĤÐµ Ñģ
ĠL u
ĠK ub
ĠÐ£ Ð¿Ð°ÐºÐ¾Ð²Ð°Ð½Ð½ÑĭÐµ
Ġfac es
Ġterm in
Ġreport ing
ĠÐ¿ÑĢÐ¾Ð²ÐµÐ´ ÐµÐ½Ð¸Ð¸
ĠOlymp ic
ĠÐ¾Ð±ÑģÑĥ Ð¶Ð´ÐµÐ½Ð¸Ñı
ĠPack ed
p ower
ĠS SL
Ġhe ro
rou s
Ġaff ili
ĠÐ¿ÑĢÐµÐ·Ð¸Ð´ÐµÐ½ÑĤ Ð¾Ð¼
ĠÐ¿Ð¾Ð´Ð¾Ð± Ð½ÑĭÐµ
ĠÑĢÐµÑĪÐ¸ Ð»
ÑħÐ°Ð¹ Ð¼
ĠÐ·Ð°Ð³ÑĢÑĥ Ð·Ð¸ÑĤÑĮ
ĠLun ches
ĠÐ¿ÑĢÐ¸Ð²Ð¸ Ð»Ðµ
U P
p ack
ĠÐ·Ð° ÑģÐµ
ĠÐ° ÑĥÑĤ
ĠÐ° Ð¿Ð°ÑĢ
Ġpro xy
ĠT ar
Ð¡ Ð»Ðµ
ĠÐ¿ÑĢÐµÐ´ ÑĪÐµÑģÑĤÐ²
Ġwh atever
Ġsp are
ĠÑħÐ¾ ÑĩÑĥ
Ġlook ed
Ad ded
Ġcut s
Ġtele communic
ĠÑĢÐ°Ð·Ð¼ÐµÑĢ Ð¾Ð²
ĠÐºÐ¾Ð½ÑģÑĥÐ»ÑĮÑĤÐ° ÑĨÐ¸Ð¸
ĠÐ¿ÐµÑĢÑģÐ¿ÐµÐºÑĤÐ¸ Ð²Ñĭ
ĠÐ¸ÑģÑģÐ»ÐµÐ´Ð¾Ð²Ð° ÑĤÐµÐ»ÑĮ
Ġpanor amic
ĠÐ±Ð»Ð°Ð³Ð¾Ñģ Ð¾ÑģÑĤÐ¾Ñı
ĠÐĳÐ°ÑĪ ÐºÐ¾ÑĢÑĤÐ¾
D S
Ñģ Ð»Ð¾Ð²Ð¸
Ġt s
Ġm yst
ĠP res
ĠT u
Ðľ Ð¸ÑĢ
Ġab andon
ĠÐ¥ ÑĢÐ¸
ĠÑĢÐ°ÑģÑģ ÑĩÐ¸ÑĤÐ°
ĠÐ·Ð°Ð²ÐµÑĢ ÑĪÐµÐ½Ð¸Ñı
ĠÑĢÐµÐ³ÑĥÐ»Ð¸ ÑĢÐ¾Ð²Ð°Ð½Ð¸Ñı
ĠÐ´ÐµÑģÑıÑĤÐ¸Ð»ÐµÑĤÐ¸ Ð¹
ĠÐµÐ· Ð´Ñĭ
Ġvide os
ĠÐ² Ð²ÐµÑģÑĤÐ¸
Ġg un
ĠM ade
os ure
ĠÐľ Ð¾ÑĢ
ĠÑģÑĤÐ° Ð½ÑĥÑĤ
Ġcomp ress
Ġ4 7
Ð¥ Ð¾ÑĢÐ¾
Ġfl ag
ĠÐ¿ÑĢÐµÐ´Ð»Ð°Ð³Ð° ÑİÑĤÑģÑı
Ġart istic
ĠÐ¿ÑĢÐ¾Ð´Ð° Ð¶Ñĥ
ĠÑĤÐµÐ½ Ð½Ð¸
ĠÐ³Ðµ Ð¾Ð³ÑĢÐ°ÑĦÐ¸
ĠÑģÐ½Ð° Ð±
ĠÐ¿Ð¾Ð´Ð²ÐµÑĢ Ð³
8 9
C ap
P G
ÑĤ Ð½ÐµÑĢ
Ġp il
ĠÐ¾ Ð¿Ð°
ĠÐ·Ð° Ð´ÐµÑĢÐ¶Ð°
id en
ĠÐ¾Ð± ÑīÐ¸Ð¹
ĠÐ´Ð¾Ð» Ñİ
ĠÐ¼Ð° ÑĤÐµÐ¼Ð°ÑĤÐ¸
Ġequ ity
Ġoper ational
Ġsoc ieties
ĠÐ´Ð¾Ð¿Ð¾Ð» Ð½ÐµÐ½Ð¸Ðµ
Ġofficial ly
ĠÐºÐ¾Ð¼Ð½Ð° ÑĤ
ĠÐ¿Ð¾Ð¿ÑĭÑĤ ÐºÐ¸
Ġic on
ĠCroat ia
ĠÐ²Ð¾ÑģÐº ÑĢÐµÑģ
C ard
ĠI ce
ĠB an
Ð´Ðµ Ðº
ÐŁ Ð°ÑĢÐ°
ÑĩÐ¸ Ð¹
ĠÂ ©
Ġcont ained
ik tor
ult y
ĠÐ»ÑĥÑĩ ÑĪÐµÐµ
Pro f
ĠÑĥÐ³ÑĢÐ¾Ð· Ñĭ
olit an
Ð²ÑĤÐ¾ÑĢ ÑĭÑħ
K ar
Ġw ur
Ġf oll
ĠÑĥ ÑģÐ¿
ÑĤÐµÐ»ÑĮ Ð½Ð¾Ð¼Ñĥ
ak ed
ĠH istory
ĠN ig
ĠJ an
ĠÐ´Ð¾Ð»Ð¶ Ð½Ð¾ÑģÑĤÑĮ
Ġass ign
ÑģÑĤÐ²ÑĥÑİ ÑīÐ¸Ñħ
Ġvis ible
Ġste am
ĠÑİÑĢÐ¸Ð´Ð¸ ÑĩÐµÑģÐºÐ¸Ñħ
ĠFe el
ĠJust ice
ĠÐ¸Ð·Ð¼ÐµÑĢ ÐµÐ½Ð¸Ñı
friend ly
. "
Ġin com
Ġm unicipal
Ð¾Ð´ Ðµ
ĠS ay
ĠÐ¿Ð¾ ÑĩÑĥÐ²
ĠÐĵ Ð¾ÑģÑĥÐ´Ð°ÑĢ
ank a
Ġaut hors
ĠÐ¾ÑģÑĤÐ° Ð»ÑĮÐ½ÑĭÐµ
Ġappe al
ĠUN AIDS
Ġexpl an
Ġsearch ing
ĠSa udi
Ġtrou ble
ĠÐĿÐ¾ÑĢÐ²Ðµ Ð³Ð¸Ð¸
b an
Ġp ra
ion es
ĠC N
Ð²Ð¸ Ð²Ð°
ĠL ind
ÐĴ Ð¸Ð½
ĠT oo
ĠÐŁ Ð°Ð½
ĠÐĳ ÑĥÑĢ
ap ore
ĠÃ ¬
ĠÐ´Ð° ÑĤ
ĠUn ivers
ev ich
ĠÐºÑĥÑĢ ÑģÑĭ
iev es
AS T
ĠÑģÐ¾Ð¾Ð±ÑīÐ¸ ÑĤÑĮ
ĠÑĢÐ°Ð¹Ð¾Ð½Ð° Ñħ
ĠÐ½Ð°Ð· Ð²Ð°Ð½Ð¸Ñı
ĠÐ²ÐµÑĢÐ½Ñĥ ÑĤÑĮÑģÑı
ĠÐ¿Ð¾Ð¿ÑĢÐ¾Ð± Ð¾Ð²Ð°ÑĤÑĮ
H istory
L D
m ond
n esty
v iv
Ġt un
ĠÐ¿ Ð»Ð¾Ñģ
ĠÑĩ Ð°Ð¹
ĠÐºÐ¾Ð¼ Ñĥ
Ġour selves
Ġint ens
Ġ5 2
Ã© l
Ġequ ivalent
St art
Ġpublic ation
Ð²Ð°Ð»Ð¸ ÑĦÐ¸ÑĨÐ¸
ĠÐ¿ÑĢÐ¾ÑĪ Ð»Ð°
ÑĩÐ¸ÑĤÑĭ Ð²Ð°Ñı
ĠÐ²ÐµÐ´ ÐµÐ½Ð¸Ñı
Ġwarm ing
Ġcompl iance
l ock
am an
ĠH ave
ĠW ik
ĠÐľ ÐµÐ½
ĠÐ²Ð¸ ÑĢÑĥ
Ġmin imal
ĠÑĢÐ°Ð±Ð¾ÑĤÐ° Ð»
ĠÑģÐº Ð»Ð¾Ð½
ĠÑĢÐ°Ð¹ Ð¾Ð½Ð¾Ð²
Ġcollect ed
gor od
ĠÐºÑĢÐ¾Ð²Ð° ÑĤÐ¸
ĠEC B
Ġexerc ise
J ames
v re
ÑĢÐ¸ Ð¼
ĠD ont
ĠF ile
ĠE mb
Ġsh aring
Ñĳ ÑĤÐµ
Ġatt itude
ĠAr k
elf are
Ġhand le
ĠCol le
Ġvill ages
Ġprint ed
Ġalph abet
S outh
ĠÐº Ð»Ñİ
Ġl ingu
ĠÑĥ ÑĤÐµ
ĠF a
ĠT ay
ĠÐ¿ÑĢÐ¸ ÑĪÐ»Ð¸
Ġhe t
Ðł Ð£
Ð°Ð¹ Ð½
Ð°Ñħ Ð°ÑĢ
ĠÐ¿Ð¾ÐºÐ° Ð·ÑĭÐ²Ð°ÑİÑĤ
Ġtext s
ĠÐ½ÐµÐ´Ð¾ÑģÑĤÐ° ÑĤÐ¾ÑĩÐ½Ð¾
ĠSP A
Ġoblig ations
Ġowners hip
Ġalle ged
B ad
t r
Ġ â
er d
ÑĢÐµ Ð»
ĠM ove
ir ts
ĠD av
ĠH TTP
ÐŃ ÑĢ
Ð³ÑĢÐ° ÑĨÐ¸Ð¸
ock ey
ĠÑĥÑģ Ð»Ñĭ
Ġstrong ly
Ġrelations hips
ĠÐ¨ÑĤÐ° ÑĤÐ¾Ð²
ĠÑĥÐ¶ Ð°Ñģ
ĠÐ²Ð¿ÐµÑĩÐ°ÑĤ Ð»ÐµÐ½Ð¸Ðµ
Ġhon or
Ġcolle ctions
ĠÐ´Ð¾Ð²ÐµÑĢÐ¸ Ðµ
Ukra inian
Ġcomplic ated
Ġin g
ĠÐ´ Ð°Ð»
ĠÐ¿ÑĢ Ð¾Ð¹Ð´ÐµÑĤ
ĠD iam
ĠÐ¸Ð· Ð±Ð°
em e
um i
ĠÑı Ð²Ð½Ð¾
Ð¢ Ð°Ð¼
ÐºÐ¾Ð² Ð¸Ñĩ
ĠÐĳ Ð¸
ĠÐ»ÑİÐ± Ð²Ð¸
ĠÐ¿ÑĢÐ¾Ð¸Ð·Ð²Ð¾Ð´ ÑģÑĤÐ²ÐµÐ½Ð½ÑĭÑħ
ĠÐ¿ÑĢÐµÐºÑĢÐ°Ñģ Ð½ÑĭÐ¹
ĠÐºÐ¾Ð½ÐºÑĥÑĢÐµÐ½ ÑĨÐ¸Ð¸
ĠÑģÐ¼Ñĭ ÑģÐ»
Ġarrange ments
ĠÐ¥Ð¾ÑĢ Ð²Ð°
h our
Ġn ine
Ðŀ Ð½Ð¾
Ġserv ing
Ġno isy
Ġsw eet
ĠÐ¾Ð¿ÑĢÐµÐ´ÐµÐ»Ñı ÐµÑĤÑģÑı
ĠÃ¯ Ã®
Ġreflect s
Âº ÃĲ
Ð» Ñĸ
Ġs ind
Ð¾Ð»ÑĮ Ð½ÑĭÑħ
ĠW olf
Ðł Ðħ
ÑĩÐµÐ½ ÐºÐ¾
ll a
Ð´Ð°ÑĢ ÑĤ
ÐĹÐ° Ð¿Ð°Ð´
ĠÐ¸Ð³ Ð½Ð¾ÑĢÐ¸
ÑīÐµÐ½ Ð½ÑĭÐµ
ĠÐ°Ðº ÐºÑĥ
Ġtot ally
ĠÐ¿ÑĢÐ°Ð²Ð° Ð¼
ĠMon itor
ĠÐ¾Ð±ÑĢÐ°ÑĤÐ¸ ÑĤÑĮÑģÑı
ĠÐµÐ¶Ðµ Ð´Ð½ÐµÐ²
ĠMart in
ĠCy prus
ĠÐ¿ÑĢÐ¸ÑĩÐ¸Ð½Ð° Ð¼
Ð¾Ð² ÑĭÐ¼
Ġp henomen
ĠD ictionary
ĠT un
ĠÐļ Ð»Ð°
ĠÐļ ÑĢÐ¾Ð¼Ðµ
ĠU l
ĠÐĵ ÑĢÑĥÐ¿
ÐĽ Ð°Ð½
Ġbel ieved
Ġopp on
Ġsubject s
ĠMin sk
ĠÑĨÐµÑĢ ÐºÐ¾Ð²ÑĮ
ĠEnter tainment
BP rovider
ĠDen mark
B u
Ġ \
ĠÐ± Ð¾Ð½ÑĥÑģ
Ð¾Ð½ Ð¾Ð¼
st ate
ĠB ed
Ð°Ð¼ ÐµÑĤ
ĠÐļ ÑĢÐ°
Ð¸Ð· Ð²ÐµÐ´
Ðĳ Ð°Ð½
Ġper mission
ĠÑģÐ¾Ð·Ð´Ð° ÑİÑĤ
ÑĤÐ¾Ð² ÑĭÑħ
ÑİÑī ÐµÐ¼Ñĥ
ĠÐ³Ð»Ð° Ð·
ĠÐ»Ð¸ÑĨ Ð¾Ð¼
Ġdest ruction
ĠÐ°Ð» Ð»ÐµÑĢ
ĠÐ´Ð¾ÐºÑĥÐ¼ÐµÐ½ÑĤÐ° ÑĨÐ¸Ð¸
ĠÐ³ÐµÐ½ ÐµÑĤÐ¸
ĠÐ¾Ð±ÑĢÐ°ÑĤ Ð½Ð¾
ĠÑĤÑīÐ° ÑĤÐµÐ»ÑĮÐ½Ð¾
Ġdownt own
N ov
re i
Ġm iles
Ð¾Ð²Ð° Ð»Ð¾
im ately
Ðĳ ÐµÐ½
Th ree
ĠÑģÐ¾Ð·Ð´Ð° Ð»Ð¸
ĠÐ¿ÐµÑĢÐ² Ð¾ÐºÐ»Ð°ÑģÑģ
ĠÐ³Ð¾ÑģÑĤ ÐµÐ¿ÑĢÐ¸Ð¸Ð¼
ĠÐ¾Ðº ÑĢÐµÑģÑĤ
Ġtour nament
ÐŁÐµÑĤÐµÑĢ Ð±ÑĥÑĢÐ³
ĠÑįÐ¿Ð¸ Ð´ÐµÐ¼Ð¸
Ġentreprene urs
D om
ĠÐ¾ÑĤ Ð¿ÑĢÐ°Ð²Ð¸ÑĤÑĮ
Ð²Ð¸ Ð»
if ies
ant on
Ð»ÐµÐ½ Ð½Ð¾Ðµ
Ð¢ Ð¾Ð³Ð´Ð°
ish ment
Ð°Ð» ÐµÑĤ
Ð¾Ñĩ Ð½Ð¾
ĠÐ²ÑĭÑģÐ¾Ðº Ð¾Ð¼
ĠÐ²Ð¾Ð¹ Ð½Ñĥ
ĠÐ¼Ð¾Ñī Ð½Ð¾ÑģÑĤÐ¸
Co opers
Cent ral
Ġintellig ence
Ġunderst ood
G rand
Ã ħ
Ðµ ÐºÑĤÐ¸Ð²
Ñĩ ÐµÐ²
ou b
ot ion
Ġth row
im p
ÐĴ ÐµÐ½
ĠSh ak
Ġdet ained
ĠÑģÐ¾Ð²ÑĢÐµÐ¼ÐµÐ½ Ð½ÑĭÐ¼Ð¸
Ð°Ð´ Ð¶Ð¸
Ġspec ify
ĠÑĢÐ°Ð·ÑĢÐ°Ð±Ð¾ÑĤ ÐºÐ°
Ġmove ments
ĠÐ¿ÑĢÐ¸Ð¼ÐµÑĢ Ñĥ
Ġcrit eria
ĠÐ¿Ð°Ð¼ ÑıÑĤÑĮ
Ġrecommend ations
ĠÐ´Ð¾Ð± ÑĢÐ¾Ð²
wood y
ĠCult ure
ĠÐ´Ð¾Ð¼Ð¸ Ð½Ð¸
ĠÐ³ÑĥÐ¼Ð° Ð½Ð¸ÑĤÐ°ÑĢ
ĠÐ¾ÑĤÑģÐ»Ðµ Ð¶Ð¸Ð²Ð°
ÑĢ Ð½ÑĭÑħ
Ġc up
ĠÐ½Ðµ Ð´Ð¾Ð²
ĠM ost
ab ri
ĠN T
ĠK l
ĠÐ¾Ð´ Ð½Ð¾Ð¼Ñĥ
ĠÑĥÐ³ Ð»Ðµ
ĠÑĩÐ°ÑģÑĤ Ð½Ð¾Ð³Ð¾
ĠÐ³Ð»Ð°Ð² Ð½Ð¾Ð³Ð¾
ĠÑģÐ²Ð¾Ð±Ð¾Ð´ Ð½Ð¾
ĠÐ¦ÐµÐ½ÑĤ ÑĢ
Ġdemand ing
ĠÐ¸ÑģÑĤÐ¾Ñĩ Ð½Ð¸Ðº
ĠÐ²Ð¾ÑģÑģÑĤÐ°Ð½Ð¾Ð² Ð»ÐµÐ½Ð¸Ðµ
Ġscre ens
ÐĶÐ°Ð½ Ð½ÑĭÐµ
ĠÐĹÐ°Ð¿Ð°Ð´ Ð½Ð¾Ð¹
ĠSof ia
( )
Y es
Ġt ip
ĠÐ¼ Ð¾ÑģÑĤ
ÑĩÐ° ÑĢÐ´
Ġsh ot
ĠV ery
ĠÑģÐ²Ð¾ Ñĳ
Ġaut o
ĠÐ¾Ðº ÑĢÑĥÐ³
ament e
ĠInd ones
ĠSer bia
Ġeuro s
ĠÐ±Ð»Ð¸Ð· Ð¾ÑģÑĤÐ¸
Ġconfirm ation
Ġjour ney
aceut ical
v ar
al o
ĠÐ½Ð° ÑģÑĭ
el i
ad i
ÐĴ Ð¾Ñģ
ÑĩÐ¸ ÐºÐ¾Ð¼
Ð°Ð»ÑĮ Ð½Ð¾Ð¼
ĠÐ½Ð¾Ð² Ð¾ÑģÑĤÐµÐ¹
Ġmin im
Ġra ising
ĠÐ»Ðµ Ð³Ð¸
ĠÐ¸Ñģ ÑħÐ¾Ð´Ñı
Ġadv oc
ĠAn other
ĠÑģÐµÑĢÑĮ ÑĳÐ·
ĠÐ²Ð¸Ð½ Ð¾Ð³ÑĢÐ°
ĠÐ¼ÐµÐ´Ð¸ÑĨÐ¸Ð½ ÑģÐºÐ¾Ð¹
ĠÐ´ÐµÐ² Ñĥ
ĠÑĢÐ°ÑģÐ¿Ð¾ÑĢÑı Ð¶ÐµÐ½Ð¸Ð¸
ĠWilliam s
Ġtort ure
B ay
Ġt u
ĠÐ² ÑģÐºÐ¾ÑĢÐµ
Ġo wing
ÐµÐ¼ Ð¾ÐºÑĢÐ°ÑĤÐ¸
ur as
os Ã©
ĠL T
ĠÐ¿ÑĢÐ¸ ÑĩÐ¸Ð½Ñĭ
ĠÐ»Ð¸ ÐºÐ²Ð¸
Ġown ed
ĠÑģÐ¾Ð²ÑĢÐµÐ¼ÐµÐ½ Ð½Ð¾Ð¼
Ġlog o
ĠÐºÐ½Ð¸ Ð³
Ġfarm ers
ĠÑĢÐµÐ²Ð¾Ð»Ñİ ÑĨÐ¸Ð¸
B o
M er
Ġo k
ct u
im ov
Ġpro of
ÑĦÐ¸ Ð»ÑĮ
ĠJ am
ĠÐĶ Ð°ÑĢ
Ġme al
ÑĢÐ¾Ð´ Ð¾Ð»
Ġform ats
Ġent hus
Ã¼ h
Ġcomb at
house Coopers
ĠGi ants
ĠÐĲÐ²ÑģÑĤÑĢÐ° Ð»Ð¸Ð¸
I E
P ay
Ã ī
Ð½ Ð½ÑĭÑħ
Ġt ight
Ġc ul
om ic
Ġpro port
Ð½Ðµ Ð¿
ĠÐľ Ð°Ð»Ð°
ÑģÑĤÐ¾ Ð¸ÑĤ
ĠÐ¿ÑĢÐ¾Ð¸Ð· Ð¾
ĠÐ¿Ð»Ð° Ð½Ñĭ
ĠÐ¾ÑģÐ½Ð¾Ð² Ñĥ
Ġ198 6
ĠÑĢÐ°ÑģÑģ ÑĩÐ¸ÑĤÑĭ
ĠÐ¿ÑĢÐµÐ´Ð¾ÑģÑĤÐ°Ð²Ð»Ñı ÐµÐ¼
ĠÐ´Ð¾Ð»Ð»Ð° ÑĢÐ°
ĠÐ¾ÑĦÐ¸ÑĨÐ¸Ð°Ð»ÑĮ Ð½Ð¾
Ġski ing
Ġs ight
Ġc rime
Ġb att
Ð¡ ÑĢÐµÐ´
ÑħÐ¾Ð´ Ð¾Ð²
ĠV irgin
ĠÐ¿Ð»Ð° ÑĤÑĭ
Ġcal endar
ĠMet al
Ġdefin itely
ĠJac uzzi
ĠÐ²ÑģÐ»ÐµÐ´ ÑģÑĤÐ²Ð¸Ðµ
X X
Ġs ought
ĠÐ½Ð° ÑĢÑıÐ´Ñĥ
il der
âĢ ĺ
Ð¾Ð»ÑĮ Ð½ÑĭÐ¹
ain ts
ĠO cean
Ñĳ Ð²
Ġpers pective
ĠÑĢÐ°Ð±Ð¾ÑĤÐ° ÑİÑīÐ¸Ñħ
Ã² Ã¨
ĠMy SQL
ĠÑĢÐ°Ð·ÑĢÐ°Ð±Ð¾ÑĤ ÐºÑĥ
ÐłÐ° Ð±Ð¾ÑĤÐ°
ĠÐ¿ÑĢÐ¸Ð½ÑĨÐ¸ Ð¿Ñĭ
ĠFin ance
__ __
I van
l iness
Ð¾Ð² Ðµ
ÑģÑĤÑĮ Ñı
Ð°ÑĤ Ð¾Ð²
ĠÐ¿Ð¾Ð»Ð¸ ÑĨÐµÐ¹
ĠUn known
ĠÐ¿Ð»Ð° ÑĤÑĥ
Ð¾Ð²Ð°Ð½ Ð½Ð¾Ð³Ð¾
Ġz ero
ĠÑģÑĤÐµÐ¿ ÐµÐ½ÑĮ
ĠÐ¾Ð±Ð²Ð¸ Ð½ÐµÐ½Ð¸Ñı
ĠÐ¾ÑĨÐµÐ½Ð¸ ÑĤÑĮ
ĠÐ²ÑĭÐ³Ð»Ñı Ð´Ð¸ÑĤ
ĠÐ°Ð´Ð° Ð¿
ĠÐ¿ Ð»Ðµ
er b
ĠÑģ ÑĢÐ¾
oun der
Ð¸Ð· Ð¾Ð½
Ð¾Ñĩ Ð½Ð°Ñı
ĠÐłÐ¾Ñģ ÑģÐ¸Ñİ
ĠÑĤÐ¸ Ð¿Ñĭ
ĠÑģÐ¾Ð³Ð»Ð° ÑģÐ¸Ñı
ĠÐ·Ð°ÑīÐ¸ ÑĤÐ¸ÑĤÑĮ
Ġleg end
ĠÐºÐ¾Ð½Ñģ Ð¾Ð»Ð¸
ĠIndust rial
ĠÑĥÐ´Ð¾Ð±ÑģÑĤÐ²Ð° Ð¼Ð¸
Ð¿ ÑĢÐ¾Ð´Ð°
Ġin ner
ĠS oul
ĠÐ» Ð¾Ð²
Ð¿Ð° Ð¼Ð¸
ĠÐ¿Ð¾Ð´ Ð·ÐµÐ¼
ÑĢÐ¾Ð´ Ðµ
ĠRussi ans
ick ing
Ð»Ð¾Ð¶ ÐµÐ½Ð¸Ðµ
ĠBl izz
ĠÐ·Ð°ÑīÐ¸ ÑĤ
ĠÐ³Ð¾ÑĢÐ¾Ð´ ÑģÐºÐ¾Ð¹
Ġapplic able
ĠÑģÐ° Ð¼Ð°
ĠÐ°Ð´Ð¼Ð¸Ð½Ð¸ÑģÑĤÑĢÐ° ÑĨÐ¸Ñı
Ġoccur red
ĠÐ¸ÑģÐºÐ° ÑĤÑĮ
Ġ Äģ
Ġl iability
ĠT on
ĠN ext
ÑĢÑĭ Ð²Ð°
iz ations
ĠÐ´Ðµ ÐºÐ¾ÑĢÐ°
Ġ4 1
Ġ4 3
ĠÑĢÐ°Ð±Ð¾ ÑĩÐµÐ³Ð¾
ĠÐ¼ÐµÑģÑĤ Ð½Ð¾ÑģÑĤÐ¸
ĠÐºÐ»ÑİÑĩÐµÐ² ÑĭÑħ
IN E
enn ium
ĠÑįÐ»ÐµÐºÑĤÑĢÐ¾Ð½ Ð½ÑĭÑħ
Ġestablish ing
Ġpossib ly
ĠCommun ity
V ill
p m
or ient
ĠM u
Ġal gorith
ĠÑģÑĤÐ° ÑĤÐµÐ¹
ĠÐ¸ÑģÐ¿Ð¾Ð»ÑĮÐ·Ð¾Ð²Ð° Ð½Ð¸Ñİ
Ð±Ð¸ Ñı
ÑĢÐ¾Ð²Ð°Ð½ Ð½ÑĥÑİ
Ġpo et
Un ited
ĠÐºÐ¾Ð¼Ð°Ð½ Ð´Ñĥ
ĠÐ¿ÑĢÐ¸Ð½Ñı ÑĤÐ¾
ĠÑĤÐµÐ½ Ð½Ð¸Ñģ
ĠÐºÐ¾Ð½ÑģÑĤÑĢÑĥ ÐºÑĨÐ¸Ð¸
ĠÐ°Ð²Ð³Ñĥ ÑģÑĤÐµ
] ,
k ow
Ġ ÑĢÐ¾Ðº
Ð» Ð¾ÑĢÐ¸
ĠÐ¿ ÐµÐ¹Ð·Ð°
ric ewater
Ġst ake
ĠF ood
est e
ĠW here
ĠÐ¿Ð¾Ð´ Ð½Ð¸Ð¼Ð°
ian g
ĠÐ»Ð¸ Ð´ÐµÑĢÐ°
ÐĴÑĭ ÑģÐ¾Ðº
Ġ5 8
ĠÐ´Ð¸ ÐºÑĤÐ°
Ġed it
ĠÑĤÐµÑħÐ½Ð¸ ÑĩÐµÑģÐºÐ¾Ð³Ð¾
Is rael
ĠTechn ologies
ĠÑĢÐµÐ± ÑĳÐ½
ĠÐĿÐ°ÑĨÐ¸Ð¾Ð½Ð°Ð»ÑĮ Ð½Ð¾Ð¹
ĠÐ¿ÐµÑĢÑģÐ¿ÐµÐºÑĤÐ¸ Ð²Ðµ
ĠPlan et
ĠÐ¢Ð¾Ð¼ Ð°Ñģ
ÑĭÑĢ Ð³Ñĭ
ĠWell ness
ÑĨ Ð¾Ð¼
ĠÑĤ ÑĢÐ°Ð¼
ĠL ic
ĠB ell
ĠF TP
Ð¼Ð° Ð·
ÐĿ Ð¾Ð²ÑĭÐµ
ĠÐļ Ð°Ð½
Ġ6 7
Ġrest ore
ĠÐ¿Ð¾ÑģÐ»ÐµÐ´ Ð½ÐµÐ¹
orn o
Ġfund ing
ĠÑĤÐµÑħÐ½Ð¸ ÑĩÐµÑģÐºÐ¸Ðµ
Ġop ens
ĠÐ¿ÑĢÐ¾ÑĨÐµÐ½ÑĤ Ð½ÑĭÐµ
Ġdefic its
ĠÐ¸Ð¼Ð¿ÐµÑĢ Ð¸Ð¸
ÐµÐ½ ÑĮÑİ
ÐµÐ½ Ð½Ð¾Ð¼Ñĥ
ĠÐºÐ° ÐºÐ¾Ðµ
ĠÐ¸Ð· Ð¾Ð»Ñı
se y
ĠÑı Ñģ
ĠÑĪ Ð°Ð½Ñģ
urs day
ĠÑģÐ¾Ð¾Ð±ÑīÐ¸ Ð»
ĠÑģÑĤÐ°Ð±Ð¸Ð»ÑĮ Ð½Ð¾ÑģÑĤÑĮ
ĠÐºÐ»Ñĥ Ð±Ð°
ĠÐ¿ÑĢÐ¾Ð²Ð¸Ð½ ÑĨÐ¸Ð¸
ĠÐ±ÑĭÑģÑĤÑĢ Ð¾Ð³Ð¾
ricewater houseCoopers
p any
Ġf ax
ĠP y
ĠR en
ĠÐ¿Ð¾Ð´ Ð»Ð¸Ð½
hen s
ĠÑĤÐµÑĢ ÑĢÐ°
ĠÐ»Ðµ Ð¶Ð¸ÑĤ
AN T
omet imes
ĠÑģÐ²ÑıÐ·Ð° ÑĤÑĮÑģÑı
ĠÐ¿ÑĢÐµÐ²Ñĭ ÑĪÐ°ÐµÑĤ
ĠÑģÐ¾Ð¼ Ð½ÐµÐ½Ð¸Ñı
Ġexcess ive
5 2
Ù Ī
Ġp ension
ot es
ĠC rime
ĠÑĤÐµ Ð¾ÑĢÐ¸Ð¸
ak ia
ĠÑĢÐµ ÑĦÐ¾ÑĢÐ¼Ð°
ĠÐ¿ÑĢÐ¸ ÑģÐ¿Ð¾ÑģÐ¾Ð±
Ġex chang
ee ing
ĠÑģÑĤÑĢÐ° Ð½Ð¾Ð¹
Ð¼Ñĭ Ð¼
Ġass embly
Ġref urb
ĠÐ¾ÑĤÐºÑĢÑĭ ÑĤÐ¸Ðµ
ÐĹÐ° ÐºÐ¾Ð½
ĠÐ¸Ð·Ð¾Ð±ÑĢÐ°Ð¶ ÐµÐ½Ð¸Ð¹
ĠÐ½ÑĥÐ¶ Ð½Ñĭ
ĠÐºÐ¾ÑĢÐ¿Ð¾ÑĢÐ° ÑĤÐ¸Ð²Ð½ÑĭÑħ
ĠÑģÐ¾ÑĩÐµÑĤÐ° Ð½Ð¸Ð¸
Ġslight ly
Ġsud den
. )
K az
v y
ĠÐº ÑĢÑĥÐ³Ð»Ð¾ÑģÑĥ
Ġan imal
ĠM other
ĠÑĤ ÑĢÐµÐ½
ĠH oll
ĠÐŁ ÐµÑĤÐµÑĢ
ĠÐ¿Ð¾Ð² Ð»Ð¸Ñı
ĠÑĦÐ° ÐºÑĤÐ¾ÑĢÐ¾Ð²
ĠÐ¾ÑĢÐ³Ð°Ð½Ð¸Ð·Ð° ÑĨÐ¸ÑıÐ¼Ð¸
ĠÐ²ÑĭÑģ ÑĪÐµÐ³Ð¾
ĠÐ´ÐµÑĢÐµ Ð²Ð°
ĠÐ²Ð°ÑĪ ÐµÐ¼Ñĥ
ĠFore x
ĠÐ¾ÑĤÐ´Ðµ Ð»ÐµÐ½Ð¸Ñı
C arl
ÐµÐ½ ÑĨÐ¸Ð¸
or ate
Ġn os
st one
ĠC a
ĠÐ¿ÑĢÐ¾ ÑĤÐ¸
ĠÐĳ Ð¾Ð³Ð°
ĠÐŀ Ð±Ð°Ð¼Ð°
Ġdes ired
ĠX IX
ĠÐ¿ÑĢÐ¾Ð±Ð»ÐµÐ¼ Ð°Ð¼Ð¸
ĠÐ¾ÑģÑĤÐ° Ð»ÑĮÐ½ÑĭÑħ
ĠCon c
ĠÐ¿Ð¾Ð»Ð¾Ð¶ ÐµÐ½Ð¸Ð¸
ĠÐµÐ²ÑĢÐ¾Ð¿ÐµÐ¹ ÑģÐºÐ¾Ð³Ð¾
ĠÐ´ÐµÑĤ Ð°Ð»ÐµÐ¹
ĠÐ´Ð¾Ð² ÐµÑĢ
Ex per
ĠÑįÐºÑģÐ¿Ð»ÑĥÐ°ÑĤÐ° ÑĨÐ¸Ñİ
Ġsil ver
ĠÐ½Ð°Ð¿ÑĢÑı Ð¼ÑĥÑİ
ĠMoz illa
ĠÐ½ÐµÐ¼ÐµÐ´ Ð»ÐµÐ½Ð½Ð¾
ĠÐ¿Ð°Ð½Ð¾ ÑĢÐ°Ð¼
s a
ÑĤÐ° Ð¹
ĠÑĥ ÑģÑĤÑĢÐ°
ĠM ah
od ge
ÐĴÑĭ Ð±
ren a
ĠÐ¿Ðµ ÑĩÐ°ÑĤ
Ġconst ru
ĠÐŀÑĤ ÐºÑĢÑĭ
ĠÐ½ÐµÐ¾Ð±ÑħÐ¾Ð´Ð¸Ð¼ Ð°
Ġpost ed
Ġhead ed
ĠÐ¶Ð¸Ð² ÑĥÑĤ
ĠÐ¾Ð±ÑĢÐ° ÑīÐµÐ½Ð¸Ñı
ĠÑģÐ»ÑĥÐ¶ Ð±Ð°
ĠÑĩÑĥÐ² ÑģÑĤÐ²Ð¾
ĠTechn ical
ĠÐ¿Ð¾ÑĤÐµ Ð¿
ĠÐ½ÐµÐ¸Ð· Ð²ÐµÑģÑĤ
k et
k ins
ĠÑģ Ð±
Ð· Ð¾ÑĢÐ°
ĠÐ½Ð° ÐºÐ°
ÐµÑģ Ð¸
ĠÐ·Ð° Ð±Ð¾ÑĤ
ĠÐ¾ÑĤ Ð¼ÐµÐ½
Ġcan cell
Ð¿Ð¸ ÑģÑĭ
Ð¢ ÑĢÐµ
ĠÐĺ Ð¼
Ġprovid ers
Ġdep th
ĠÐ²Ð»Ð° Ð´
ĠÑĢÐ°Ð·Ð¼Ðµ ÑģÑĤÐ¸
ĠÑģÐ²Ð¾Ð±Ð¾Ð´ Ð½Ð¾Ð¹
ĠÑĩÐ»ÐµÐ½ Ð°Ð¼Ð¸
ĠÐ·Ð°Ð½Ð¸Ð¼Ð° ÑĤÑĮÑģÑı
ĠÐ¡Ð° ÑĥÐ´Ð¾Ð²
ĠÐ´Ð°Ð»ÑĮÐ½ÐµÐ¹ ÑĪÐµÐ¼
ĠÑĢÐ°ÑģÑĤ ÐµÐ½Ð¸Ð¹
Su per
ĠCommun ist
ĠÑĢÐµÐ¼Ð¾Ð½ ÑĤ
Ġfoll ows
o es
ĠÐ¸ ÑĢÐ°Ð½
ĠÐ± Ð¾Ð¹
ĠÐ¾ÑĤ Ð»Ð¸ÑĩÐ¸
ĠT alk
ÐºÐµ Ð»ÑĮ
ĠÐ°ÑĢ Ð¼ÑıÐ½
ĠÐ¾ÑĢÐ³Ð°Ð½Ð¸Ð·Ð° ÑĨÐ¸ÐµÐ¹
ley ball
Ġstrong er
ĠÑĨÐµÐ½ÑĤÑĢÐ°Ð»ÑĮ Ð½Ð¾Ð³Ð¾
ena issance
ĠÐ±Ðµ Ð¶ÐµÐ½
Ġsymb ols
Ġcolle agues
ĠÐ»ÑİÐ±Ð¸ ÑĤÐµÐ»ÐµÐ¹
ĠÐ°ÑģÑģÐ¾ÑĨÐ¸Ð° ÑĨÐ¸Ð¸
Ġdestroy ed
ÐĵÐ¾ÑģÑĤÐ¸ Ð½Ð¸ÑĨÐ°
6 1
Ð½ ÑģÐºÐ¸Ð¹
ĠÑĥ Ð´ÐµÑĢÐ¶Ð¸Ð²Ð°
Ġg i
ĠI ll
ul ui
ĠE M
ÐµÑĢÐµ Ð±
ÑĢÐ¾Ð² ÐºÑĥ
Ġen viron
ict ed
ĠÐĹ Ð´ÐµÑģÑĮ
Ġorgan is
ÐŀÑĤ Ð²ÐµÑĤ
ĠÐ¿ÑĢÐ¸Ð½Ð¸Ð¼Ð° ÑİÑĤ
ĠÐ¼ÑĥÐ·Ñĭ ÐºÑĥ
ĠÑĢÐ¾ÑģÑģÐ¸Ð¹ ÑģÐºÐ¾Ð¹
cel ona
Ð°ÑģÑģÐ° Ð¶
ĠÐ¸Ð·Ð³Ð¾ÑĤÐ¾Ð² Ð»ÐµÐ½Ð¸Ñı
ÃĲÂµ Ãĳ
lik ely
ĠTai wan
ĠÐ¾ÑĤÐ´Ð¾Ñħ Ð½ÑĥÑĤÑĮ
5 9
D el
ÑĤÑĮ Ðµ
ĠC oll
ĠÐºÐ° Ð¼ÐµÐ½
ĠÐľ ÐµÑĤ
Ġ5 1
Ð±Ð° ÑĢÐ°
ĠÐ½ÐµÐ¾Ð±ÑħÐ¾Ð´Ð¸Ð¼ Ð¾Ðµ
ĠÑĢÑĥÑģ ÑģÐºÐ¾Ð¼
ĠÐ·Ð°ÑıÐ² Ð»ÐµÐ½Ð¸Ðµ
ĠÐ¸Ð¼Ð¿ Ð¾ÑĢÑĤ
ĠÐĶÐ¸ Ð·Ð°Ð¹Ð½
ĠÐĲÑĦÐ³Ð°Ð½Ð¸ ÑģÑĤÐ°Ð½Ðµ
Ġphilos ophy
ĠÐ¸Ð´ ÑĤÐ¸
ĠÐ¿ Ð¾Ð¹
ĠÑĥ ÑģÐº
Ġcon form
ĠH it
Ðĳ Ð¾Ð»
ord e
ĠÑĦÐ¸ Ð³ÑĥÑĢ
ĠÑģÐ»Ñĥ Ð¶Ð¸ÑĤ
ĠÐ¡Ð¾ ÑĦÐ¸
Ġpark s
ĠÐºÑĢÐ¾Ð² Ð¸
ĠÐľÐ¸ÑħÐ°Ð¹ Ð»Ð¾Ð²Ð¸Ñĩ
Ðº ÑĢÑĥ
Ð² ÐºÐ°Ð·
Ñħ ÐµÐ½
ĠÑĥ Ð±Ñĭ
ĠÑģÑĤ Ð¾Ð»ÑĮÐºÐ¾
ĠÑĢÐµ Ð¿ÑĥÑĤÐ°
ĠV iet
Ġpresent ations
ĠÑĥÑģÑĤÐ°Ð½Ð¾Ð² ÐºÐ°
Ġfav our
ĠÐ»ÑĥÑĩ ÑĪÐ¸Ð¼
ĠÑģÑĤÐ°Ð½Ð´Ð°ÑĢ ÑĤÑĭ
ĠÐ¶ÐµÐ»Ð° Ð½Ð¸Ñı
Ġelectric al
ĠÐ¿Ð¾Ð´ÑĩÐµÑĢ ÐºÐ¸
ĠÑĤÐµÐ»ÐµÐºÐ¾Ð¼ Ð¼ÑĥÐ½Ð¸ÐºÐ°
6 3
F A
Ġc row
ĠÐ» Ð¾Ð³Ð¾ÑĤÐ¸
ĠÐ¼ÐµÑģÑĤ Ð½Ð¾Ð³Ð¾
Ð¾Ð¶Ð¸ Ð´Ð°Ð½
ĠÐºÑĥÑĢ ÑģÐ¾Ð²
Ġcho osing
Ġcert ification
ES CO
Ġbo asts
ĠÑģÑĤÑĢÐ¾Ð¸ÑĤÐµÐ»ÑĮ Ð½ÑĭÑħ
ĠÐ¿Ð¾Ð¼Ðµ ÑīÐµÐ½Ð¸Ð¹
ĠÐºÐ²Ð°ÑĢÑĤÐ¸ ÑĢ
ĠÐ±ÐµÐ» Ð¾ÑĢÑĥÑģ
ĠÑĦÐ¾ÑĢÐ¼Ð¸ ÑĢÐ¾Ð²Ð°Ð½Ð¸Ñı
ĠÑĤÐµÐ¼Ð¿ÐµÑĢÐ° ÑĤÑĥÑĢÑĭ
ĠÑĤÐµÐ½Ð´ÐµÐ½ ÑĨÐ¸Ð¸
Ġspl end
ĠÐ¿Ð¾ÑģÐ»ÐµÐ´ÑģÑĤÐ²Ð¸ Ð¹
Ġproxim ity
N EW
ÑģÑĤ ÐµÑĤÐ¸
Ġw inners
Ð½Ð° Ð³ÑĢÐ°
ÑģÑĤÐ° ÑĢ
ÑĤÐ¾ ÑĢÐ°Ð¼
Ð¾Ð»ÑĮ ÑĦÐ°
ĠP ers
ĠÐ¶ Ð¸Ð»ÑĮÑı
ĠÑģÐ²Ð¾ ÐµÐ²
Ð²ÐµÑĢ Ñħ
ĠÐ´Ð¸ ÑģÐ¿
ĠÐ¿ÑĢÐ¾ÑĤÐ¸Ð² Ð¾Ð¿Ð¾Ð»Ð¾Ð¶
ĠÐ¸ÑģÐ¿Ð¾Ð»ÑĮÐ·Ñĥ Ð¹ÑĤÐµ
Ġbig ger
ĠÐ¿ÑĢÐ°ÐºÑĤÐ¸ ÐºÐ¸
ĠÐ¾Ð³ÑĢÐ¾Ð¼ Ð½ÑĭÐµ
Ġtyp ically
ĠÐ¿ÑĢÐ¾Ð´Ð¾Ð»Ð¶Ð° ÑİÑĤ
Ġrespect ive
iff el
Ġfol k
ĠÑħÐ²Ð° ÑĤÐ°
B er
C L
ĠÐ± Ð¾Ð¼
ur ches
Ð²Ð° ÐµÑĤÐµ
ĠÐ¾Ð± ÑīÐ¸Ñħ
si vely
ĠO ther
Ġr ing
act ory
ĠÐ²Ð¾ ÐµÐ½Ð½Ð¾
ÐºÐ¾Ð¼ Ð¿
ph a
ĠEx cel
ins ula
ĠÐ´Ð¾Ð¿Ð¾Ð»Ð½Ð¸ÑĤÐµÐ»ÑĮ Ð½ÑĥÑİ
Ġtop ic
ĠÐ·Ð°ÐºÐ°Ð· ÑĩÐ¸ÐºÐ°
Ã£ Ã®
ĠÐºÐ¾Ñģ Ð¼ÐµÑĤÐ¸
ĠÐ½Ð°ÑģÑĤÑĢÐ¾ Ð¸ÑĤÑĮ
Ġmaintain ing
ĠÐ±Ð¾Ð»ÐµÐ· Ð½Ð¸
ÐķÐ¡ ÐļÐŀ
ĠÑģÑĤÑĢÐ°Ñħ Ð¾Ð²Ð°Ð½Ð¸Ñı
J ul
Ð· ÐµÐ½
Ġf er
Ġh ill
ĠS ar
ĠU se
ÐĶ Ð²Ð°
ĠÑĪ Ð°Ð½
Ġrest ored
ĠÐ¿ÑĢÐµÐ´Ð»Ð¾Ð¶ ÐµÐ½Ð¸Ð¹
Ġauthor ized
ĠÐ¸Ð¼ÐµÐ½ ÐµÐ¼
ĠÑģÐ²ÑıÐ·Ð° Ð½Ð¾
uck y
ĠAut hor
ĠÐ»ÐµÑģ Ð°
ĠÐ²Ð¸Ð· Ð¸ÑĤ
Ð¾Ð³ÑĢÐ° ÑĦ
ĠÐµÐ´Ð¸Ð½ÑģÑĤÐ²ÐµÐ½ Ð½ÑĭÐ¼
ĠÐļÐ¾Ð» ÑĥÐ¼
ĠJew s
ĠÐ³Ð°ÑĢ Ð¼Ð¾Ð½Ð¸
Ð° Ð¿
Ġb at
Ġb oy
Ġm ira
Ð¾Ð´ ÐµÐ»ÑĮ
ĠÑĥ ÐºÑĢÐµ
ut or
Ġon going
ĠÐ¤ Ð¾Ð½Ð´
Ġimp ression
Ġexper im
Ġpur su
Ġ198 7
ĠÐ¾Ð³ÑĢÐ¾Ð¼ Ð½ÑĭÐ¹
ĠÐ³Ð¾ÑģÑĤÐ¸ Ð½Ð¸
ĠTrans l
ĠÐ¿Ð¾Ð¿ÑĥÐ»ÑıÑĢ Ð½ÑĭÑħ
Ġhab it
ÑĭÑĢÐ³Ñĭ Ð·
Ð¾ Ð½Ð¾Ñģ
ĠÑģ Ð¿Ð°Ð´
Ð¿ ÑĥÑĢ
ĠÐº ÑĢÐµÐ´Ð¸ÑĤÐ°
ĠÐ¾ ÑģÑĤÐ°Ð²Ð»ÑıÐµÑĤ
ĠT oday
ĠÐ¿Ð¾Ð´ ÑĬ
Ġhe ct
ÐºÐ¾Ð² Ð¾Ð³Ð¾
ie ux
ÑīÐµÐ½ Ð½ÑĭÐ¹
ĠÐ¿ÐµÑĢÐ¸ Ð¾Ð´Ð¸
ĠÐ¾ÑĪÐ¸Ð± ÐºÐ°
ĠÐ±Ð°Ð½ÐºÐ¾Ð² ÑģÐºÐ¸Ñħ
ĠÐ¿ÑĢÐ¾Ð¸Ð·Ð²Ð¾Ð´Ð¸ÑĤÐµÐ»ÑĮ Ð½Ð¾ÑģÑĤÑĮ
ĠÐ¸Ð½ÑģÑĤÐ¸ÑĤÑĥÑĤ Ð¾Ð²
r ity
ÐµÐ½ ÑģÑĤÐ²Ð°
ĠÐ° ÐºÑĥ
id ency
ĠÐ¾Ð± ÑīÐµÐ½Ð¸Ñı
ĠF inal
ĠÑģÐ¾ ÑĨÐ¸Ð°Ð»Ð¸
Ġse qu
Ġwor st
ĠÐ¿ÑĢÐµ Ð¼Ð¸
ĠÑģÐ» Ñĭ
ĠCh o
Ð¼Ñĭ Ñģ
ĠÐ²Ðµ ÑīÐµÐ¹
Ð³Ð¾Ð² Ð¾Ð¹
ĠÑģÑĢÐµÐ´ ÑģÑĤÐ²Ð¾
iss on
Ġsit ting
ĠLe on
ĠÑįÑĦÑĦÐµÐºÑĤÐ¸Ð² Ð½Ð¾Ð¹
ĠÐ·Ð°ÐºÐ»Ñİ ÑĩÐµÐ½Ð¸Ñı
ĠSc ott
ĠÑĢÐ°ÑģÑĪÐ¸ ÑĢÐµÐ½
ĠÑĢÐµÑĪ ÐµÐ½Ð¸Ð¸
ĠPri ze
ĠÐ¿Ð¾Ð´Ð³Ð¾ÑĤÐ¾Ð² ÐºÐµ
ĠÑĦÑĥÑĤ Ð±Ð¾Ð»ÑĮ
ĠÐ³Ð°ÑĢÐ°Ð½ÑĤÐ¸ ÑĢÐ¾Ð²Ð°ÑĤÑĮ
ĠÐµÐ´Ð¸Ð½ÑģÑĤÐ²ÐµÐ½ Ð½ÑĭÐ¹
ĠSwed ish
ester day
Ġmechanism s
V ict
ÑĦ Ð°Ð½
us ing
ĠS ax
Ġfor th
ÐŁ ÐĲ
ĠÐ¿Ð¾Ð´ Ð²Ð¾Ð´
ĠV ideo
ĠÐł Ð¾Ð´
ĠÐ°Ð²ÑĤÐ¾Ð¼ Ð°
ĠÑĤÑĢÐµ Ð²
Ġprot ocol
ĠÐµÐ²ÑĢÐ¾Ð¿ÐµÐ¹ ÑģÐºÐ¸Ðµ
ĠÐ³Ð»Ð¾Ð±Ð°Ð»ÑĮ Ð½ÑĭÑħ
ĠÐ±ÑĥÐ¼Ð° Ð³Ð¸
ĠÑģÑĥÐ± ÑģÐ¸
ĠElect ric
ĠÐ¿ÑĢÐ¾ÑĦÐµÑģÑģÐ¸Ð¾Ð½Ð° Ð»Ð¾Ð²
ĠÐ¿ÑĢÐ¸ÑĪ Ð»Ð¾ÑģÑĮ
ĠÐ¿ÐµÐ½ ÑģÐ¸Ð¾Ð½
Ġmir ror
n ic
w est
ĠÐ² Ð¾Ð´Ñĥ
ÐµÐ½ Ð½Ð¾ÑģÑĤÑĮÑİ
Ð¾Ð» ÐµÐ¹
Ġto m
as a
Ġal co
Ð·Ð° ÑĨÐ¸ÐµÐ¹
ant o
Ð»ÐµÐ½ Ð½Ð¾ÑģÑĤÐ¸
Ġun known
clud e
ific ial
Ġrec ording
Ġprof iles
ĠÐ¿ÑĢÐ°Ð² Ð¾Ð¼
Ġcomfort ably
ĠÑģÑĤÐ¸ Ð»Ñı
Ġenter ing
ĠÐ²ÑĤÐ¾ÑĢ Ð¾Ð¼
ĠCont est
Ġpropos als
ĠÐºÐ¾Ð¼Ð¿ÐµÐ½ ÑģÐ°
B R
W est
É Ļ
Ù ħ
Ġc a
Ġb read
Ð»Ðµ Ñı
ĠÐ¡ ÑĤÑĢÐ°
Ð»Ð¾ ÑģÑĤ
ov y
ÑĪÐµÐ½ ÐºÐ¾
ĠÑĤÐ¾ÑĢÐ³Ð¾Ð² Ð¾Ð³Ð¾
ÐŀÐ´ Ð½Ð¸Ð¼
Ġcommit tee
ĠÑĢÐµÐ³Ð¸Ð¾Ð½Ð°Ð»ÑĮ Ð½ÑĭÑħ
Ġpros pects
ĠÐ¸Ð½ÑģÑĤÐ¸ÑĤÑĥ ÑĤÐ°
ĠÐ¶ÑĥÑĢÐ½Ð°Ð»Ð¸ ÑģÑĤÐ¾Ð²
Ġunc ertain
L ong
e lect
ÐºÐ¸ Ð½Ð°
ĠL LC
ĠÑģÑĤ ÑĢÐ¾ÐºÐ¸
ÐĿ Ñĥ
ĠN ik
ip t
ĠÐ¸Ð¼Ðµ ÐµÐ¼
Ġsc ene
Ð¾Ð²Ð°Ð½ Ð½ÑĭÐ¼
ĠÑĥÑģÐ»Ð¾Ð²Ð¸ ÑıÐ¼Ð¸
ĠÐ¿ÑĢÐ¾Ð´Ð° Ð¶Ð°
ĠÑĢÐ¾ÑģÑģÐ¸Ð¹ ÑģÐºÐ¾Ð³Ð¾
ĠÑĥÐ½Ð¸ÐºÐ° Ð»ÑĮÐ½ÑĭÐ¹
Ġindic ate
ĠÐ¾Ð±Ðµ Ð¸Ñħ
Ġcoal ition
ĠÐ¾Ð±ÑģÑĤÐ¾Ñı ÑĤÐµÐ»ÑĮÑģÑĤÐ²Ð°
ĠÐ¼ ÐµÑĤÐ°
as ure
Ġg allery
ĠV il
ian ces
any a
Ġ197 8
ĠÐ¿Ð¾ÑıÐ²Ð¸ ÑĤÑģÑı
ĠÐ¿ÑĢÐ¾Ð¸Ð·Ð²ÐµÐ´ ÐµÐ½Ð¸Ñı
ĠÐºÐ¾Ð½ÑĤÑĢÐ¾Ð»Ð¸ ÑĢÐ¾Ð²Ð°ÑĤÑĮ
Ġgar age
f all
re v
Ð¹ t
if ferent
Ð´Ð¸ Ñİ
Ðĳ Ðŀ
ĠÐ½Ð°ÑģÑĤÐ¾Ñı ÑīÐµÐ³Ð¾
ĠÑģÑĩÐ¸ÑĤÐ° ÑĤÑĮ
Ġroad s
Ġexpand ed
ĠÐ·Ð°ÑħÐ²Ð° ÑĤÑĭ
ĠÐ¼Ð¾Ðµ Ð³Ð¾
E A
e i
ĠÐº Ð²Ð°Ð´
Ġd ivers
Ð»Ð° Ð½Ð°
ĠS H
st en
um ps
ĠÑģÐ¸ Ð»Ð°
ĠÃ °
ater ing
Ġcons ent
sk iy
ener ation
ĠÐ´ÐµÑıÑĤÐµÐ»ÑĮ Ð½Ð¾ÑģÑĤÑĮÑİ
ĠÐ¶ÐµÐ»Ð° Ð½Ð¸Ñİ
Ġaff airs
ĠÐ´Ð¾ÑĢ Ð¾Ð³Ð¾
ĠChamp s
ĠÐ´Ð°Ð»ÑĮÐ½ÐµÐ¹ ÑĪÐµÐ³Ð¾
Ġterror ist
ĠÑģÐ¸Ð» Ð¾Ð¹
Ġvulner able
ĠÐ»Ð¸Ð½ ÐµÐ¹
5 1
O G
Î ¼
Ð² ÐµÐ½Ð¸
ro ph
ĠM arg
ĠÐ¾Ð± Ð¾
Ġun likely
Ð½Ð¾Ð² Ð¾
ĠÐ¿ÑĢÐµ Ð¼Ð¸Ð¸
te chn
Ġthere by
ĠÑģÐ¾Ð± Ð»ÑİÐ´Ð°
Ð²ÐµÐ´ ÑģÐºÐ¸Ð¹
ĠÐ²ÑĭÑģÐ¾Ðº Ð¾Ðµ
Ġvis a
Ġfl ows
ĠAir lines
ĠÑĥÐ´Ð° Ð»Ð¸ÑĤÑĮ
Ð¼Ð¾ ÑģÑĤÑĮ
ĠÐ´Ð¾ÑħÐ¾Ð´ Ñĭ
Ġacqu is
ĠÐĴÐ¾ÑģÑĤ Ð¾ÐºÐ°
Ġstrengthen ing
ĠÐ·Ð°Ð´ Ð¾Ð»
ĠCaucas us
it ime
Ġf ert
Ð¾Ð´ Ð¾Ð²
Ð¶ ÐµÑĢ
ÑĪ Ð»Ð¾
ÑĦ ÑĥÐ½Ðº
ĠÐºÐ° Ð½Ð°Ð»
ĠÐ¾Ð± ÐµÐ´
ĠÑĦ ÑĢÐ¾Ð½
Ð´Ñĥ ÑĪ
ĠÐºÐ¾Ð½ ÑĤ
ĠÐł Ð¸Ð¼Ð°
Ġ7 2
ĠSc ot
emb ourg
Ġsurg ery
p ons
Ġn one
ÐŁ Ð°Ð½
ÑĤÐµÐ»ÑĮ Ð½Ñĭ
ĠÐ±Ñĭ Ð²ÑĪÐ¸Ð¹
Ð½Ðµ ÑĨ
Ð¢ ÐµÐ½
Ġwe aken
Ðĵ ÑĢÑĥÐ¿Ð¿Ð°
ĠÐ±ÐµÑģÐ¿ Ð¾ÐºÐ¾Ð¹
ĠÐ½Ð°Ñģ Ð¾Ñģ
ĠÑĥÐ¿ÑĢÐ°Ð² Ð»ÐµÐ½Ð¸ÐµÐ¼
sh ore
reed om
Ġregard less
ÑİÑīÐ¸Ð¼Ð¸ ÑģÑı
Ġlabor atory
ĠÐ¿Ð¾ÐºÑĢÑĭ ÑĤÐ¸Ñı
ĠBal J
ĠÐķÐ²ÑĢÐ¾ÑģÐ¾ ÑİÐ·Ð°
t rans
Î »
× Ļ
ÑĢ Ñį
Ðº Ð¾Ð²Ð°Ñı
al and
ve z
ĠÐ²Ñĭ Ð³
ill o
ĠH ey
ĠÐ¿ÑĢÐ¸ Ð±Ð»Ð¸
ÑģÐµ Ð´Ð½ÐµÐ²
Ð¸Ð± ÐµÑĢ
Ġkey s
Ġ9 00
ĠÐºÐ°ÑĢ ÑĮÐµÑĢ
ĠBe ijing
ĠÐ¿ÑĢÐ¾ÑĦÐµÑģ ÑģÐ¾ÑĢ
ĠÑĢÐµÐ°Ð»ÑĮ Ð½Ð¾Ð³Ð¾
ĠÐ²Ð´ Ð¾Ð»ÑĮ
5 8
Ñĩ ÐµÐº
ĠS port
ĠÐ³ Ð°Ð¼
ĠR ing
ĠH osp
em on
Ġcl imb
Ġfe et
ĠÑįÐºÐ¾Ð½Ð¾Ð¼Ð¸ ÐºÐ¾Ð¹
ĠÑĪ ÑĥÐ¼
ĠTh ree
ÃŃ Ã»
ĠÑĥÑģÐ»Ð¾Ð²Ð¸ Ð¸
Ġren owned
ĠÐ¼Ð¾Ð±Ð¸Ð»ÑĮ Ð½ÑĭÑħ
ĠÐ¿Ð¾Ð·Ð´ Ð½ÐµÐµ
Ġinhabit ants
p ie
Ġe en
ĠÑģÐµÑĢ Ð¸Ð¹
Ġmin ib
Ð¸Ñģ ÑģÐ»ÐµÐ´Ð¾Ð²Ð°ÑĤÐµÐ»ÑĮ
ĠÐ¾ÑĤÐºÑĢÑĭ ÑĤÑĭÐ¼
ĠÑįÐºÑģÐ¿ Ð¾Ð·Ð¸
Ġpass engers
ĠÑĪÐ° Ð³Ð°Ñħ
ĠComm on
199 9
Ġextra ordinary
Ġpropos al
u ing
Î ¯
Ð½ Ð½ÑĭÐ¹
Ġin equ
Ð¶ Ð¸Ð½
Ġg ate
ĠÑĦ Ð¸ÑĤÐ½ÐµÑģ
ÑĢÐ¾ ÑĪ
ĠÐ²Ð¾Ð¿ÑĢÐ¾Ñģ Ð¾Ð¼
ĠÑģÐ¾Ð±ÑģÑĤÐ²ÐµÐ½ Ð½ÑĥÑİ
Ðĸ ÐµÐ»ÐµÐ·
ĠÐ°Ð¼ÐµÑĢÐ¸ÐºÐ°Ð½ ÑģÐºÐ¾Ð³Ð¾
ĠTrans fer
serv ice
Ġharm on
o ft
ĠÐ¸ Ð¿Ð¾ÑĤÐµ
Ġin n
Ġe gg
Ð¾Ð½ Ð³
Ġis lands
ĠÑĦÐ¾ÑĢ ÑĥÐ¼Ðµ
ert o
che stra
Ġpolic ym
ĠÑģÐ¾ÑģÑĤÐ¾Ñı Ð»ÑģÑı
ĠÐ´ÑĢÐµÐ² ÐµÑģ
ĠÐļÐ°Ð·Ð°Ñħ ÑģÑĤÐ°Ð½Ð°
ĠÐ¿Ð°ÑĨÐ¸ ÐµÐ½ÑĤÐ¾Ð²
Ġlegit im
Ġnavig ation
Ñİ Ð»ÑĮ
Ġm ale
Ġm yself
Ð½Ð¾ ÑģÐ¸ÑĤÑĮ
Ġh ang
ĠÐºÐ° Ð»ÐµÐ½
Ġsh arp
Ðĵ Ð¾ÑĢÐ¾Ð´
ĠÐ²ÐµÑĢ ÑģÐ¸Ð¹
Ġter rasse
ĠÐ½Ð°ÑĨÐ¸Ð¾Ð½Ð°Ð»ÑĮ Ð½ÑĭÐµ
ĠÐ¾Ð¶Ð¸ Ð´Ð°ÐµÑĤ
ĠÑģÐ¾Ð±Ñĭ ÑĤÐ¸Ðµ
ĠÑĦÑĥÑĤ Ð±Ð¾Ð»
ĠÐ¿Ð¾ÑģÑĤÐ°Ð² Ð¾Ðº
ĠÐ¿ÑĢÑıÐ¼ Ð¾Ð¹
ĠÐ½Ð¸Ð· ÐºÐ¸Ð¼
ĠÑĥÐ´Ð¾Ð²Ð»ÐµÑĤ Ð²Ð¾ÑĢÐ¸ÑĤÑĮ
ĠÐ¾Ð¿Ð¸ÑģÐ° Ð½Ð¸Ñı
ĠÐºÐ»Ð¸ÐµÐ½ÑĤ Ñĥ
Ġconstit utional
ĠÅ ł
Ġneighb our
ĠÐ¿ÐµÑĢÐµÐ²Ð¾Ð· ÐºÐ¸
ĠWin Route
ĠÐ¿ÑĢÐ¾Ðº ÑģÐ¸
Ġinterpre tation
ĠÐ¾ÑĩÐµÐ²Ð¸Ð´ Ð½Ð¾
ĠÐŁÑĢÐ¾Ð³ÑĢÐ°Ð¼ Ð¼Ñĭ
Ġsche dule
Ġargu ment
ĠÐ·Ð°Ð¿Ð»Ð° Ð½Ð¸
ĠRail way
l ay
Æ Ĵ
Ðµ ÑĪ
Ġm ur
ĠC r
ĠÐ·Ð° ÑĩÐ°ÑģÑĤÑĥÑİ
Ð¼Ð° Ð¹
ĠK r
ĠÐ¾Ñģ Ð¾Ð±Ñĭ
ĠÐ±Ð° Ð·Ð¸
Ġput ting
irt ual
Ġvirt ually
Per haps
h ai
z ing
ĠÐ½ Ð¾Ð³
Ð¾Ð» Ð»
ĠÐ½Ð° Ð²Ð¸Ð³Ð°
ĠC reat
ĠB icycle
Ð¾Ð¿ Ð¾Ð»Ð¸
ĠSt aff
ĠÐ²Ð¾Ð¿ÑĢÐ¾Ñģ Ð°Ñħ
ĠÐ²Ð¾Ð·ÑĢÐ° ÑģÑĤ
ĠÐ¾Ð¿ÑĢÐµÐ´ÐµÐ»ÐµÐ½ Ð½ÑĭÑħ
ĠÑĥÐ¼ÐµÐ½ÑĮ ÑĪÐ¸ÑĤÑĮ
Ġdefin ition
ĠÑĢÑĥÐºÐ¾Ð²Ð¾Ð´Ð¸ ÑĤÐµÐ»ÐµÐ¹
Ð¡Ð¿Ðµ ÑĨÐ¸Ð°Ð»Ð¸
b us
ÑģÑĤ ÐµÐ½
ĠÑģ ÐºÐ¾Ð½
Ġb ain
ĠÐ·Ð° Ð´Ð°Ð½
ĠÐ» ÐµÐ´
ĠÐ¿ÑĢÐ¸ ÐµÐ¼Ð°
oc ial
ry er
Ð§ ÐµÑĢÐµÐ·
Ġfin ish
ĠÐ³Ð¾ÑģÑĥÐ´Ð°ÑĢ ÑģÑĤÐ²Ð¾Ð¼
ĠÐ§ ÐµÐ¼
Ġpar ish
ĠÐ¿ÑĢÐ¾Ð´Ð° Ð²
ĠÐ¿Ð¾ÑģÑĤÐ¾ÑıÐ½ Ð½Ð¾Ð³Ð¾
ĠÐ¸ÑģÐ¿Ð¾Ð» Ð½ÐµÐ½Ð¸Ñı
ĠÐ¾Ð±ÑĬÐµÐ´Ð¸Ð½ ÐµÐ½Ð¸Ñı
ĠÑģÐ¾ÐµÐ´Ð¸Ð½ ÐµÐ½Ð¸Ðµ
Ġlov ed
ĠÐ¸ÑģÐ¿ÑĭÑĤÐ° Ð½Ð¸Ñı
C ount
S ol
r ings
Ġe pid
am as
Ð´Ð¸ Ðµ
Ġcomp lim
Ð¿Ðµ Ð»ÑĮ
ĠÐķÐ²ÑĢÐ¾Ð¿ Ñĥ
ĠÐºÐ°Ð¶Ð´ ÑĭÐ¼
Ð²Ð¸Ð´ Ð¸Ð¼
ĠÑħÐ°ÑĢÐ°Ðº ÑĤÐµÑĢÐ°
Ð¡Ð°Ð½ ÑĤÐ°
En ter
Ġcatal og
ĠÐºÐ¾Ð½ÑģÐµÑĢ Ð²Ð°
c ut
p rom
Ġto ler
Ð¾ÑĢ ÑĤÐ¾Ð¼
ĠM ak
Ġst ret
ĠG allery
Ð¶Ð¸ Ð½Ð°
ĠÐ¿ÑĢÐµ Ñĥ
Ġ5 4
Ġmy th
ĠÐ¶Ð¸ ÑĤÐµÐ»Ð¸
ĠÐ±Ð»Ð° Ð³Ð¾
ĠSu pport
Ġsecond ary
Ġbeg un
ĠÐ¸Ð¼ÐµÐ½ Ð°
Ð³Ð¾ÑĢ ÑĮ
ĠÐºÐ¾Ð½ÑĨ Ñĥ
ĠÐ¸ÑģÑĤÐ¾Ñĩ Ð½Ð¸ÐºÐ¾Ð¼
Ġconvenient ly
Ġsatisf action
ĠÑĥÐ´Ð¾Ð²Ð¾Ð»ÑĮ ÑģÑĤÐ²Ð¸Ðµ
ÐŀÑĤÐºÑĢÑĭ ÑĤÑĭÐ¹
ĠEngine ering
Ġcompat ible
P ost
k el
Ð»Ð¸ ÐºÐ°
Ġh ung
ĠÐ·Ð° Ð¿Ð°Ñģ
ĠR io
ĠT ibet
ĠÑģÐ¸ Ð´
Ġatt ended
ĠFor ce
Ġ14 0
ĠÐ²Ð½ÐµÑĪ Ð½Ð¸Ñħ
ried rich
Ġcommunic ate
Ġprosper ity
d is
ĠÑģ Ð¿ÑĢÐ°Ð²Ð¸
ĠÐ¸ ÑĢÐ°Ðº
ĠÐ¿Ð¾ ÑģÑĤÐ°Ð²Ð¸ÑĤÑĮ
Ġcon g
od or
Ġv ic
ÐĶ Ð¶Ð°
ĠÐ¿ÐµÑĢÐµ Ð·Ð°
ru its
ĠÐŀ Ð¡
ĠÐ»Ð¸ ÐºÐ²Ð¸Ð´
Ġsp oke
St ep
ung en
Ġ198 1
Ġelect oral
ĠÐ½Ð°Ð¿ÑĢÐ°Ð² Ð»ÐµÐ½Ð¸Ð¹
Ġher itage
for ced
oz y
epend ent
ĠÐ¸Ð½Ð´Ð¸ ÐºÐ°
Ġpurch asing
ĠAp ache
ĠÐ¼Ð°ÑĪÐ¸ Ð½Ð°
ĠMc C
Ġhor iz
ĠÐ¿ÑĢÐ¾ÐºÐ° ÑĤ
Ġmil k
Ð¿Ð¾ÑģÐ»ÐµÐ´ ÑģÑĤÐ²Ð¸Ð¸
L ike
S ever
s b
Ġp ill
Ð¾Ð²Ð° ÑĢÐ¸
ĠÐ» ÑĳÐ³
ĠÑĤÐµ ÑĩÐµÐ½Ð¸Ð¸
ÑīÐ¸ ÐºÐ¸
ĠÐ´Ð¾Ð» Ñı
ĠÐ»ÑİÐ± ÑĭÐ¼
Ġco verage
ÑĢÐµÑģ ÑģÐ¸Ð¸
ĠÐ¿ÑĢÐ¾ÑĨÐµÑģ ÑģÑĭ
Ġ16 0
Ġrepresent ation
Ġshe l
ĠÑģÐ¾ÑĨÐ¸Ð°Ð»ÑĮ Ð½ÑĭÐµ
Ġfire wall
ĠÑģÐ²Ðµ Ð¶Ð¸
Ġabsol ute
Ġconcert s
Ġdra wn
ĠÐ½ÐµÐ·Ð°Ð±Ñĭ Ð²Ð°ÐµÐ¼
b ra
Ð¶ Ð½ÑĭÐ¼
ri ble
un te
ul pt
ÐĴ Ð¸Ð»ÑĮ
ĠE le
ĠN eed
Ðľ Ð¾Ð¶ÐµÑĤ
ĠK ill
Ð¶Ð´ ÐµÐ½Ð¸ÐµÐ¼
Ð£ ÑĩÐ°ÑģÑĤ
ĠÐ¼Ð°ÑĢ Ð¾Ðº
ÑĤÐ°Ð¼ ÐµÐ½ÑĤÐ¾Ð²
ĠÐ³Ð°ÑĢÐ°Ð½ ÑĤÐ¸Ð¹
ĠÑģÐ¾ÑĤÑĢÑĥÐ´Ð½Ð¸ÑĩÐµÑģÑĤÐ² Ñĥ
ĠÐ°ÑĥÐ´Ð¸ Ð¾
ĠÐ·Ð°ÐºÐ¾ Ð½Ñĭ
Ġtrav ellers
P an
Ġt ou
Ġb ay
ĠÐ½Ð° Ð¾Ð±Ð¾ÑĢÐ¾ÑĤ
Ð»Ð° Ñģ
ra zy
Ġg rew
ÑĢÑĥ Ð¼
ĠB oys
ir y
ĠT ok
ĠÐ²Ñĭ ÑıÑģ
Ð¡ Ð¾ÑĤÑĢÑĥÐ´
ĠÐ¿ÑĢÐ¸ Ð²ÐµÑĢ
ÑīÐ° ÐµÐ¼
Ġpre v
ĠÐ¸Ð¼Ðµ ÑİÑīÐ¸Ñħ
ĠÐ¿Ð¾Ð»Ð¸ÑĤÐ¸ ÑĩÐµÑģÐºÐ¸Ð¹
Ġeas tern
ĠÐ¿ÑĢÐ¸ÑĢÐ¾Ð´ Ð½ÑĭÑħ
OM E
ĠÐ¼ÐµÑĤÐ°Ð» Ð»Ð¸
Ġfall ing
ĠÐ¿ÑĥÐ½ ÐºÑĤÐ¾Ð²
ĠKos ovo
Ġ ÑģÑĤÐ²
Ñĩ ÑĳÑĤ
ĠR ose
Ð¡ Ð¾Ð»
Ð·Ð° Ð¿
Ð½Ñı ÑİÑĤ
te en
ĠÐ¿Ñĥ Ð·Ñĭ
Ġexclus ively
ÐĶÐ°Ð½ Ð½Ð°Ñı
Ġexpand ing
Ġchamp ions
ĠÐ¿Ð¾ÑĤÑĢÑı ÑģÐ°
S anta
Ðº Ð½ÑĥÑĤÑĮ
ĠÑģ Ð½Ð¸Ð¼Ð°
ÐĴ Ð°Ð½
ĠD un
ĠG ate
ĠK ol
Ð¼ÐµÐ½ Ð¾Ð²
ĠÐ´Ð¾ ÑĩÐµÑĢ
ĠÐ¿Ð¾Ð² ÑģÐµÐ´Ð½ÐµÐ²
ĠÑĢÑĥ Ðº
ss on
Ġeffect iveness
Ġtreat y
Ġarch ive
ĠÐĺÑĢÐ° Ðº
Ġprec isely
Ġcos met
ĠEgypt ian
Ġdriv es
ĠBelg ium
abul ary
b ro
i u
as is
Ġh us
ÐºÐ¸ Ñģ
ĠÐ° ÐºÑĤ
ĠSt ory
ĠÐ¢ Ð¸
Ġtra ined
Ġtrans formation
Ġresult ed
ĠÐ¿Ð¾Ð»ÑĮÐ·Ð¾Ð²Ð° Ð½Ð¸Ñı
ĠÐ²Ð°Ð¶ Ð½ÑĥÑİ
ĠÐ¾Ð¿ÐµÑĢÐ° ÑĨÐ¸Ð¾Ð½Ð½Ð¾Ð¹
Ġpost s
ĠÑģÐ»Ð¾Ð¶ Ð½ÑĭÑħ
Ġcris es
ĠÐ¿Ð¾Ð³ Ð»Ð¾
Ġprem ium
ĠÑĢÐµÑģÐ¿ÑĥÐ±Ð»Ð¸ ÐºÐ°Ð½
ĠÐ¸Ð½Ð¶ÐµÐ½ ÐµÑĢ
ĠÐºÐ¾Ð¼Ð¿ÐµÑĤ ÐµÐ½ÑĤ
ÑĦÐµÑģÑģÐ¸ Ð¾Ð½Ð°Ð»ÑĮ
Ġwur de
I mp
ĠÐ¿ Ð»Ð¾ÑĤ
ĠE iffel
ĠV I
ĠSt op
ign e
ÐµÐº Ñģ
ĠÐ³Ð¾ÑĢ Ð¸Ð·Ð¾Ð½
Ġfunction ing
ĠÑĨÐ¸ ÑĢ
alt a
ĠÐ¾ÑĤÑĢÐ° Ð¶Ð°ÐµÑĤ
ĠÐ¿ÑĢÐ¾ÑĦÐµÑģÑģÐ¸Ð¾Ð½Ð°Ð»ÑĮ Ð½Ð¾Ð¹
Ġshare holders
osh op
ĠÑģÑĭÑĢ ÑĮÑı
Ð» ÑĭÐ¼
ic ide
ÑĦ ÐµÐ½
Ġre ven
Ð¼Ð° Ð¼
ĠG ulf
ĠÐĴ Ð¾Ð»
Ġk g
ÑģÐ° Ð¹ÑĤÐµ
Ġsur pl
Ġ15 00
ĠÑģÐ¾ÑģÑĤÐ¾Ñı Ð»Ð¾ÑģÑĮ
ÐĿÐµ Ð´Ð°
ÐĺÐ½ ÑĤÐµ
ĠÑĢÐ¾Ð´ ÑģÑĤÐ²ÐµÐ½
Ġserious ly
Ġsuppl ier
ĠMat the
ĠÐ²ÑĭÑģÐ¾ ÑĩÐ°Ð¹
D eb
U G
l ow
z burg
Ġt a
le k
ÑĢÑĥ ÐµÐ¼ÑĭÑħ
un ity
Ð°Ð½ Ðµ
Ġcont rary
Ġcorrect ly
ĠÐ¸Ð½ÑĤÐµ ÑĢÐ°
ues e
be ing
Ð¶ÐµÐ½ Ð½Ð¾ÑģÑĤÑĮ
ĠÐ²Ð½ÑĥÑĤÑĢÐµÐ½ Ð½Ð¸Ð¹
Ġengine ers
ĠÐ½ÐµÐ±Ð¾Ð»ÑĮ ÑĪÐ¸Ñħ
ĠÐ¡Ð¸ ÑĢÐ¸Ð¸
condition ed
Ð´ÑĨÐ° ÑĤÐ¸
Ġfulf ill
5 3
P A
ÑĪ ÐµÑĤ
ĠP rim
ĠÐ» Ð¾ÑĪÐ°
if est
Ðŀ Ð¿ÐµÑĢÐ°
Ð¼Ðµ Ð»ÑĮ
Ġse at
ĠK en
ĠÑĪ ÐºÐ¾Ð»ÑĮ
ĠÐ½ÐµÑģ Ð¾Ð¼Ð½ÐµÐ½Ð½Ð¾
ĠÐºÐ°ÑĢ ÑĤÐ°
ĠÐ¿Ð¾Ð´Ð´ÐµÑĢÐ¶Ð¸Ð²Ð° ÑİÑĤ
arb our
ĠÐļÐ¾ÑĢ Ð¾Ð»ÐµÐ²
ĠÑģÐµÐ²ÐµÑĢ Ð¾
ĠÐĶÑį Ð²Ð¸Ð´
7 9
d on
u ct
ĠÑģ Ð¾Ð±Ð°
ĠÑģ ÑĬÐµÐ¼
Ñħ Ð¾Ð¶Ð´ÐµÐ½Ð¸Ðµ
ĠB ath
ad ed
ul ating
[...]
