{"<s>":0,"<pad>":1,"</s>":2,"<unk>":3,"<mask>":4,"!":5,"\"":6,"#":7,"$":8,"%":9,"&":10,"'":11,"(":12,")":13,"*":14,"+":15,",":16,"-":17,".":18,"/":19,"0":20,"1":21,"2":22,"3":23,"4":24,"5":25,"6":26,"7":27,"8":28,"9":29,":":30,";":31,"<":32,"=":33,">":34,"?":35,"@":36,"A":37,"B":38,"C":39,"D":40,"E":41,"F":42,"G":43,"H":44,"I":45,"J":46,"K":47,"L":48,"M":49,"N":50,"O":51,"P":52,"Q":53,"R":54,"S":55,"T":56,"U":57,"V":58,"W":59,"X":60,"Y":61,"Z":62,"[":63,"\\":64,"]":65,"^":66,"_":67,"`":68,"a":69,"b":70,"c":71,"d":72,"e":73,"f":74,"g":75,"h":76,"i":77,"j":78,"k":79,"l":80,"m":81,"n":82,"o":83,"p":84,"q":85,"r":86,"s":87,"t":88,"u":89,"v":90,"w":91,"x":92,"y":93,"z":94,"{":95,"|":96,"}":97,"~":98,"¡":99,"¢":100,"£":101,"¤":102,"¥":103,"¦":104,"§":105,"¨":106,"©":107,"ª":108,"«":109,"¬":110,"®":111,"¯":112,"°":113,"±":114,"²":115,"³":116,"´":117,"µ":118,"¶":119,"·":120,"¸":121,"¹":122,"º":123,"»":124,"¼":125,"½":126,"¾":127,"¿":128,"À":129,"Á":130,"Â":131,"Ã":132,"Ä":133,"Å":134,"Æ":135,"Ç":136,"È":137,"É":138,"Ê":139,"Ë":140,"Ì":141,"Í":142,"Î":143,"Ï":144,"Ð":145,"Ñ":146,"Ò":147,"Ó":148,"Ô":149,"Õ":150,"Ö":151,"×":152,"Ø":153,"Ù":154,"Ú":155,"Û":156,"Ü":157,"Ý":158,"Þ":159,"ß":160,"à":161,"á":162,"â":163,"ã":164,"ä":165,"å":166,"æ":167,"ç":168,"è":169,"é":170,"ê":171,"ë":172,"ì":173,"í":174,"î":175,"ï":176,"ð":177,"ñ":178,"ò":179,"ó":180,"ô":181,"õ":182,"ö":183,"÷":184,"ø":185,"ù":186,"ú":187,"û":188,"ü":189,"ý":190,"þ":191,"ÿ":192,"Ā":193,"ā":194,"Ă":195,"ă":196,"Ą":197,"ą":198,"Ć":199,"ć":200,"Ĉ":201,"ĉ":202,"Ċ":203,"ċ":204,"Č":205,"č":206,"Ď":207,"ď":208,"Đ":209,"đ":210,"Ē":211,"ē":212,"Ĕ":213,"ĕ":214,"Ė":215,"ė":216,"Ę":217,"ę":218,"Ě":219,"ě":220,"Ĝ":221,"ĝ":222,"Ğ":223,"ğ":224,"Ġ":225,"ġ":226,"Ģ":227,"ģ":228,"Ĥ":229,"ĥ":230,"Ħ":231,"ħ":232,"Ĩ":233,"ĩ":234,"Ī":235,"ī":236,"Ĭ":237,"ĭ":238,"Į":239,"į":240,"İ":241,"ı":242,"Ĳ":243,"ĳ":244,"Ĵ":245,"ĵ":246,"Ķ":247,"ķ":248,"ĸ":249,"Ĺ":250,"ĺ":251,"Ļ":252,"ļ":253,"Ľ":254,"ľ":255,"Ŀ":256,"ŀ":257,"Ł":258,"ł":259,"Ń":260,"ĠÐ":261,"Ð¾":262,"Ðµ":263,"Ð°":264,"Ð¸":265,"ÑĤ":266,"Ð½":267,"Ñģ":268,"ÑĢ":269,"Ð¾Ð":270,"Ð»":271,"Ġt":272,"Ðº":273,"Ñĥ":274,"Ġa":275,"Ñĭ":276,"in":277,"Ð¼":278,"he":279,"Ñı":280,"Ð²":281,"ÑģÑĤ":282,"ĠÐ¿":283,"ÑĮ":284,"re":285,"Ð´":286,"on":287,"er":288,"ĠÐ²":289,"Ġthe":290,"Ñĩ":291,"ÐµÐ½":292,"ĠÑģ":293,"ÑĢÐ°":294,"Ġo":295,"Ð¾Ð²":296,"ĠÐ¸":297,"at":298,"Ġs":299,"an":300,"en":301,"Ġc":302,"or":303,"ĠÐ½":304,"Ð·":305,"Ñħ":306,"es":307,"it":308,"Ð¹":309,"is":310,"Ð¿":311,"ĠÐº":312,"Ġp":313,"ÑĢÐµ":314,"ĠÐ¾":315,"Ġw":316,"Ġf":317,"al":318,"ou":319,"Ġof":320,"ic":321,"Ġan":322,"ÑĤÐµ":323,"Ð±":324,"ar":325,"Ð½Ð¸":326,"Ġb":327,"ed":328,"Ð¾Ð»":329,"Ð½Ñĭ":330,"Ġin":331,"Ð³":332,"ion":333,"Ñİ":334,"Ð¾Ð¼":335,"ing":336,"Ð»Ð¸":337,"Ġto":338,"Ġand":339,"ĠÐ´":340,"ÑĨ":341,"Ġm":342,"Ð¾ÑĢ":343,"le":344,"Ð¾Ð´":345,"Ġd":346,"ĠÐ¼":347,"ÐµÑĤ":348,"ĠÐ½Ð°":349,"om":350,"as":351,"Ð½Ð¾":352,"Ð¶":353,"ÑĪ":354,"Ð»ÑĮ":355,"Ð¾Ð³":356,"ÑĤÑĮ":357,"ÐµÑĢ":358,"ent":359,"ÑĤÐ°":360,"ÐµÑģ":361,"Ð½Ð°":362,"el":363,"Ġh":364,"ÐµÐ½Ð¸":365,"ĠÐ¿ÑĢ":366,"ro":367,"ÐºÐ¸":368,"Ð¾Ð¹":369,"Ġl":370,"ĠÐ±":371,"Ð»Ð°":372,"il":373,"ÑĦ":374,"ct":375,"us":376,"ÑģÑĤÐ°":377,"ÐºÐ°":378,"ÑĤÐ¸":379,"Ñī":380,"ÑĤÐ¾":381,"Ġre":382,"ÑģÑĤÐ²":383,"ÐµÐ¼":384,"et":385,"Ð¾Ð¶":386,"Ġn":387,"ĠÑĥ":388,"ÑĨÐ¸":389,"ĠÐ·":390,"Ð»Ñı":391,"Ð¼Ð¸":392,"Ð¾Ð±":393,"Ġe":394,"Ð¾Ð²Ð°":395,"ĠS":396,"ot":397,"ÑģÑı":398,"Ġth":399,"Ð¾Ð½":400,"Ñį":401,"ur":402,"ation":403,"st":404,"âĢ":405,"Ġy":406,"ĠÐ¿Ð¾":407,"Ġis":408,"Ð¾Ð³Ð¾":409,"ĠÑĩ":410,"ol":411,"ĠÐ³":412,"ÐµÐ¹":413,"ĠC":414,"ve":415,"Ġfor":416,"Ð¾ÑĤ":417,"The":418,"Ð²Ð°":419,"ra":420,"ÑĢÐ¸":421,"ĠA":422,"Ð´Ð°":423,"Ġyou":424,"ut":425,"ri":426,"ĠÐºÐ°":427,"Ġg":428,"ĠÑĢÐ°":429,"ver":430,"ce":431,"ow":432,"ly":433,"ĠÐ½Ðµ":434,"ĠÐµ":435,"ch":436,"ÑĢÑĥ":437,"ĠM":438,"ĠÐ·Ð°":439,"Ð¾Ðº":440,"ĠÑį":441,"Ð»Ðµ":442,"ĠÐ°":443,"ÑĢÐµÐ´":444,"un":445,"Ð¾Ð»ÑĮ":446,"Ġon":447,"ÑģÑĤÐ¸":448,"id":449,"Ð¾Ñģ":450,"ĠP":451,"ĠÐ¾ÑĤ":452,"Ġ(":453,"im":454,"Ð²Ð¸":455,"ĠÑĤ":456,"Ġ1":457,"ĠÐ¾Ð±":458,"os":459,"ĠL":460,"ĠI":461,"am":462,"Ġbe":463,"ÑĩÐ°":464,"ric":465,"ĠB":466,"ÑģÑĤÑĮ":467,"ay":468,"Ð½ÑĭÑħ":469,"ad":470,"ig":471,"Ð¾Ð·":472,"ith":473,"Ġst":474,"ir":475,"ul":476,"00":477,"Ġ2":478,"ĠÐ»":479,"ÐĴ":480,"Ġas":481,"ist":482,"Ð¸Ð½":483,"ÐµÐ½Ð¸Ñı":484,"Ġpro":485,"ĠR":486,"ers":487,"Ð°Ð½":488,"ag":489,"Ġcon":490,"Ġwith":491,"ĠD":492,"ĠÑĤÐµ":493,"Ġde":494,"Ð´Ðµ":495,"ÐŁ":496,"ÑĤÐµÐ»ÑĮ":497,"ĠF":498,"Ġare":499,"ĠT":500,"ment":501,"Ð¸Ð¼":502,"ĠÑĤÐ°":503,"ÑģÐ¿":504,"est":505,"ÑģÐº":506,"..":507,"Ð½Ð¾Ð¹":508,"Ð½ÑĭÐµ":509,"Ġal":510,"ĠE":511,"ĠâĢ":512,"Ð¼Ð°":513,"ĠÑģÑĤ":514,"if":515,"ter":516,"ĠG":517,"ĠÐ²Ñĭ":518,"Ð¾Ð¿":519,"rics":520,"ill":521,"ak":522,"yrics":523,"Ð¡":524,"ĠÐĴ":525,"ab":526,"Ġthat":527,"qu":528,"res":529,"Ġcom":530,"ĠÐ¼Ð¾Ð¶":531,"Ġsu":532,"Ġby":533,"ess":534,"ÑĩÐ¸":535,"ort":536,"od":537,"ĠÑĢÐµ":538,"Ġit":539,"per":540,"ÑĥÑİ":541,"ĠÐ¿ÑĢÐµÐ´":542,"ĠÐ¸Ð·":543,"Ð½Ð¾Ð³Ð¾":544,"Ð·Ð°":545,"ĠÑĦ":546,"ĠÐ¿ÑĢÐ¾":547,"ĠH":548,"ate":549,"ĠÐ±Ñĭ":550,"Ġv":551,"ĠÐ¿ÑĢÐ¸":552,"Ð°Ð¼":553,"ac":554,"Ð½ÑĭÐ¹":555,"op":556,"ÑĩÐµÑģ":557,"and":558,"ĠÑĤÐ°Ðº":559,"oun":560,"ÐµÑģÑĤÐ²":561,"ĠW":562,"em":563,"Ð»Ñĥ":564,"ity":565,"ÑģÐ¸":566,"Ġ-":567,"ÑīÐ¸":568,"ĠÐ´Ð»Ñı":569,"oc":570,"Ðŀ":571,"Ġor":572,"ction":573,"rom":574,"um":575,"ÐµÑĢÐµ":576,"ies":577,"ÐµÐ½Ð¸Ðµ":578,"Ð°ÑĢ":579,"ant":580,"art":581,"pe":582,"ht":583,"Ð½Ðµ":584,"Ġex":585,"Ð³Ð¾":586,"her":587,"Ðļ":588,"ÑĪÐ¸":589,"Ð»ÐµÐ½":590,"Ð½Ð¸Ñı":591,"Ġwh":592,"Ð´Ð¸":593,"ee":594,"ĠÐ¿ÐµÑģ":595,"ĠÐ¶":596,"ÐĿ":597,"ÑģÐµ":598,"si":599,"ld":600,"ĠÐ¡":601,"ÐºÑĥ":602,"Ġus":603,"ĠÑģÐ²":604,"Ġha":605,"ain":606,"ÑģÐ»Ð¸":607,"Ð³Ð°":608,"Ġat":609,"Ð²Ð»Ñı":610,"ÐµÑĤÑģÑı":611,"ore":612,"ÑİÑĤ":613,"ew":614,"Ð¾ÑĤÐ¾ÑĢ":615,"ere":616,"ÑĨÐ¸Ð¸":617,"ĠN":618,"Ð¿Ð°":619,"Ð³Ð¸":620,"ĠÑĢÐ°Ð·":621,"Ġ\"":622,"ĠÑģÐ¾":623,"ÑĢÐ¾Ð²":624,"ÑģÐºÐ¸":625,"ĠÐľ":626,"ĠÐļ":627,"Ð´Ñĥ":628,"ÐµÐ½ÑĤ":629,"ĠÑĩÑĤÐ¾":630,"ÐºÐ¾":631,"iv":632,"ÐĲ":633,"ÑħÐ¾Ð´":634,"Ġfrom":635,"ĠÐ¿Ð¾Ð´":636,"ÑĢÐ¾":637,"Ð²Ðµ":638,"Ġhave":639,"Ð¶Ðµ":640,"ĠO":641,"ĠÐ¿Ð¾Ð»":642,"pp":643,"ĠU":644,"Ð½Ñı":645,"Ġnot":646,"ÐµÑĤÐµ":647,"ĠÑģÑĤÐ°":648,"se":649,"Ġ.":650,"ial":651,"ÐµÐµ":652,"ĠÐ¸Ð½":653,"ĠÐºÐ¾ÑĤÐ¾ÑĢ":654,"Ġcan":655,"ÑĭÐµ":656,"Ð½Ð¾ÑģÑĤÑĮ":657,"Ð°Ñģ":658,"Ð¿Ð¸":659,"ÐºÑĤ":660,"Ġwas":661,"Ġun":662,"Ð¾Ð»ÑĮÐ·":663,"Ðľ":664,"ÑĢÐ°Ð½":665,"Ġlyrics":666,"our":667,"ÑĤÐ¾Ð¼":668,"ÑĢÑĭ":669,"ust":670,"âĢĻ":671,"ÑģÑĤÐ¾":672,"age":673,"Ð¼Ðµ":674,"all":675,"ĠâĢĵ":676,"ÑĢÐ¾Ð²Ð°":677,"Ð¸Ð·":678,"ĠÐºÐ¾Ð¼":679,"Ġse":680,"Ð¸ÑĤ":681,"ĠÑı":682,"Ð»Ð¾":683,"end":684,"ard":685,"ÑĭÑħ":686,"Ġch":687,"Ġhe":688,"ĠÂ":689,"ÑĦÐ¸":690,"ast":691,"Ð°Ð»ÑĮ":692,"ĠÐ²Ð¾Ð·":693,"ge":694,"th":695,"Ð½Ð¾Ð²":696,"ure":697,"Ġcomp":698,"ĠÐĲ":699,"Ġk":700,"ĠÑĤÐ¾":701,"ĠK":702,"ble":703,"ĠÐŁ":704,"ran":705,"ive":706,"Ġ200":707,"ine":708,"Â»":709,"Ð¼ÐµÐ½":710,"Ġthis":711,"ia":712,"ell":713,"Ġwill":714,"ost":715,"Ġle":716,"rou":717,"Ð½Ð°Ñı":718,"ree":719,"ated":720,"ĠÐ¸ÑģÐ¿":721,"Ð²Ð¾Ð´":722,"Ð½ÑĭÐ¼":723,"ĠÐºÐ¾Ð½":724,"Ð½Ð¸Ðµ":725,"ĠÐµÑģÐ»Ð¸":726,"ĠThe":727,"Ġsh":728,"ÐĶ":729,"ĠÐ¸Ð»Ð¸":730,"ĠÐ¿ÐµÑĢÐµ":731,"Ġyour":732,"Ð»Ñİ":733,"otel":734,"ĠÂ«":735,"Ð·Ð¸":736,"ĠÐ¼Ðµ":737,"Ð¢":738,"og":739,"ĠÐ´Ð¾":740,"ip":741,"ĠÐºÐ°Ðº":742,"ÑģÐ°":743,"Ð½ÑĭÐ¼Ð¸":744,"ÑĩÐµÑģÐºÐ¸":745,"Ð¾Ð±Ñĭ":746,"ÐºÐ¾Ð²":747,"ĠV":748,"ÑģÑĤÐ°Ð²":749,"ud":750,"ase":751,"Ġwor":752,"...":753,"Ġcor":754,"Ð¿ÑĢÐ°":755,"Ðł":756,"ÐºÑĤÐ¸":757,"iz":758,"ong":759,"ĠÑģÑĤÑĢÐ°":760,"ĠÑĨ":761,"ĠÑģÐºÐ°":762,"Ð¾Ð»ÑĮÐ·Ð¾Ð²Ð°":763,"cc":764,"ff":765,"ok":766,"Ð½Ð¾Ðµ":767,"pt":768,"Ðĺ":769,"ov":770,"Ð½Ð¾ÑģÑĤÐ¸":771,"ich":772,"Ð¿Ðµ":773,"Ġwe":774,"Ġall":775,"ĠÐµÑģÑĤÑĮ":776,"Ġad":777,"ÑĩÐµÑģÑĤÐ²":778,"ÑĩÐ°ÑĤÑĮ":779,"Ð¾Ð´Ð°":780,"Ð½Ð¾Ð¼":781,"Ġhas":782,"ÑĥÐ´":783,"ake":784,"ical":785,"ĠÐ¿ÐµÑģÐ½Ð¸":786,"Ð¼Ð¾Ð¶":787,"ous":788,"Ðĳ":789,"ÑĥÑĤ":790,"ount":791,"ian":792,"ĠÑĤÐµÐº":793,"ÑĪÐµ":794,"ite":795,"able":796,"ĠÐ¶Ðµ":797,"Ð¾Ð»ÐµÐµ":798,"ĠIn":799,"Ġ19":800,"Ġen":801,"Ġpl":802,"ĠÐ¼Ð¾Ð¶ÐµÑĤÐµ":803,"are":804,"ice":805,"Ðķ":806,"Ð¾Ð½Ð°":807,"ĠJ":808,"ĠÐ²ÑģÐµ":809,"ĠÐ¸Ñħ":810,"ĠÑħ":811,"Ġne":812,"Ð±Ð¾":813,"ĠÐĳ":814,"du":815,"ire":816,"ÑĥÑģ":817,"ght":818,"ÐµÐ²":819,"eeper":820,"ĠLyrics":821,"Ġthem":822,"ÑĭÐ¹":823,"Keeper":824,"ru":825,"av":826,"Ġcont":827,"Ð»Ð¾Ð²":828,"Ġour":829,"ap":830,"ition":831,"ÑģÑĮ":832,"ÑĤÐ¾Ð±Ñĭ":833,"ind":834,"Ð¶Ð°":835,"Ġ3":836,"ect":837,"ÑĥÑĢ":838,"Ð¾ÑĢÐ¸":839,"ĠÑģÐºÐ°ÑĩÐ°ÑĤÑĮ":840,"Ġcorre":841,"ry":842,"ĠÑĤÐµÐºÑģÑĤÐ°":843,"ie":844,"ĠÐŀ":845,"erv":846,"ĠÑģÐ²Ð¾":847,"ub":848,"out":849,"Ñĳ":850,"ĠÐ¼Ð¸":851,"Ð¶Ð¸":852,"ĠÐł":853,"Ġany":854,"ide":855,"ĠÑĩÑĤÐ¾Ð±Ñĭ":856,"ĠÐ¾Ñģ":857,"ÐµÐ·":858,"orm":859,"ĠÐ»Ð¸":860,"ber":861,"ĠÐĶ":862,").":863,"Ġsub":864,"In":865,"Ð·Ñĭ":866,"ÐºÐµ":867,"Ġro":868,"ary":869,"Ġim":870,"We":871,"der":872,"ome":873,"ĠÐĺ":874,"ĠÐ¿ÑĢÐµ":875,"ĠÐ¿ÑĢÐ°":876,"ÑģÐ»Ðµ":877,"ĠSt":878,"ĠÐ²Ð¾Ð·Ð¼Ð¾Ð¶":879,"ould":880,"Ð°Ð¹":881,"ark":882,"very":883,"tern":884,"lo":885,"ik":886,"ĠÐ´Ðµ":887,"Ġint":888,"ÐºÐ¾Ð½":889,"up":890,"ĠÐ¸ÑģÐ¿Ð¾Ð»ÑĮÐ·Ð¾Ð²Ð°":891,"ail":892,"ther":893,"Ġwhich":894,"any":895,"ult":896,"Ġpos":897,"ÐµÐ´":898,"ĠÑģÐ¸":899,"Ġr":900,"Ġcl":901,"ations":902,"port":903,"con":904,"ĠÑįÑĤÐ¾":905,"Ġits":906,"ear":907,"ign":908,"ÑĤÑĮÑģÑı":909,"Ġif":910,"Ð½Ð¸ÑĨ":911,"ÑĤÑĭ":912,"ish":913,"ĠÑģÐ»":914,"'s":915,"ight":916,"Ġres":917,"ÑģÑĤÐ²ÐµÐ½":918,"ÑĨÐ¸Ñı":919,"Ġgo":920,"vel":921,"Ð½Ð¸Ð¸":922,"ÑģÑĤÐ²Ð°":923,"Ġoff":924,"ord":925,"Ġar":926,"ĠCh":927,"ĠÐĿ":928,"Ġqu":929,"),":930,"cl":931,"Ġpart":932,"ational":933,"so":934,"mit":935,"ÐŃ":936,"Ġj":937,"nt":938,"one":939,"Ð°Ðº":940,"Ġfree":941,"ĠÐ¼Ð¾Ð¶Ð½Ð¾":942,"Ð¾Ð´Ñĥ":943,"lic":944,"ound":945,"Ġab":946,"form":947,"ack":948,"ÑĢÐµÐ¼":949,"ace":950,"ĠÐ»Ñİ":951,"Ð¾Ð³Ð¸":952,"ach":953,"ctions":954,"ÑīÐµÑģÑĤÐ²":955,"ash":956,"Ġfe":957,"ÑĦÐ¾ÑĢ":958,"ĠÐºÐ°ÑĩÐµÑģÑĤÐ²":959,"ĠÐĵ":960,"hen":961,"ÑĪÐ°":962,"ÑıÑĤ":963,"ÑĢÐ°Ð¼":964,"ĠÐ±ÑĭÐ»Ð¸":965,"Ð¸Ð±":966,"ions":967,"Ð¼ÐµÑĢ":968,"ue":969,"Ð²ÐµÑĤ":970,"Ð¾Ðµ":971,"Ðĵ":972,"Ġacc":973,"ĠÑįÑĤ":974,"Ð²ÐµÑĢ":975,"ĠÐ¢":976,"Ð°Ð»":977,"mer":978,"Ġtheir":979,"ĠÐºÐ¾ÑĢ":980,"ÑĢÐ¾Ñģ":981,"ĠÐ¾Ð´":982,"Ġmake":983,"Ð´ÐµÐ»Ð°":984,"ÑĩÐµÑģÐº":985,"ÑģÐºÐ°":986,"âĢĿ":987,"Ð½ÑĥÑİ":988,"ÐĴÑĭ":989,"Th":990,"ÑĢÑı":991,"ÐµÐº":992,"ÑģÑĤÐ°Ð²Ð»ÐµÐ½":993,"ĠÐ´Ð¾Ð»":994,"ĠÐ¿Ð¾Ð¼":995,"ÑĤÐ¾Ð¼Ñĥ":996,"ance":997,"sible":998,"ass":999,"ÑĩÐµÐ½":1000,"Ġhow":1001,"Ġ,":1002,"Ġper":1003,"act":1004,"ang":1005,"ĠÑģÐ»Ð¾Ð²Ð°":1006,"Ġte":1007,"Ġtra":1008,"Ġme":1009,"ÐºÐ¸Ðµ":1010,"ÐµÑģÑĮ":1011,"ks":1012,"Ð¾Ð¼Ð¸":1013,"ose":1014,"ÑģÑĤÑĥ":1015,"ĠÑģÐ´ÐµÐ»Ð°":1016,"Ġnew":1017,"Ð¹ÑĤÐµ":1018,"Ð»ÐµÐ½Ð¸Ñı":1019,"ever":1020,"ĠÐ´ÑĢÑĥ":1021,"ual":1022,"Ġmore":1023,"Ð´ÐµÑĢ":1024,"ĠÑĤÐ°ÐºÐ¶Ðµ":1025,"ÐµÑĢÐ°":1026,"reat":1027,"ÐĽ":1028,"Ġbut":1029,"ĠÐ·Ð´":1030,"Ġhotel":1031,"Ġone":1032,"ime":1033,"ÑīÐ¸Ñħ":1034,"Ð¼Ñĭ":1035,"ĠÐ½Ð°Ð¼":1036,"Ġ4":1037,"ĠÐ²Ð°Ð¼":1038,"ep":1039,"Ġ5":1040,"Ġdo":1041,"ÑĢÐ°Ð·":1042,"Ð¶Ð´":1043,"Ð¾Ð»ÑĮÐºÐ¾":1044,"ors":1045,"lease":1046,"ÑĤÑĥ":1047,"ĠâĢľ":1048,"ence":1049,"ile":1050,"Ġdis":1051,"Ġsp":1052,"Ð±Ð¸":1053,"ĠÐ²Ð¾Ð·Ð¼Ð¾Ð¶Ð½Ð¾ÑģÑĤÑĮ":1054,"own":1055,"ÐµÐ½Ð¸Ð¸":1056,"cial":1057,"ĠÐ¾Ð¿":1058,"ÑģÑĤÐ²Ð¸":1059,"ook":1060,"ĠÐ±Ð¾Ð»ÑĮ":1061,"ĠÐ²Ð¸":1062,"ÑīÐ°":1063,"ĠY":1064,"Ġso":1065,"ÑģÐ»Ñĥ":1066,"com":1067,"te":1068,"ĠÐ¼Ð°":1069,"ĠÑıÐ²Ð»Ñı":1070,"ities":1071,"ĠÐ²ÑĢÐµÐ¼":1072,"Ġpossible":1073,"Ġtri":1074,"ĠÐ¿ÐµÑĢ":1075,"ÑĢÐ¾Ð´":1076,"Ġother":1077,"ame":1078,"ĠÐ¸ÑģÐ¿Ð¾Ð»ÑĮÐ·Ð¾Ð²Ð°ÑĤÑĮ":1079,"gh":1080,"Ð±Ð¾ÑĤ":1081,"ments":1082,"ress":1083,"ÑģÐºÐ¸Ð¹":1084,"ussi":1085,"ĠÐĴÑĭ":1086,"ÑĮÑİ":1087,"Ġdes":1088,"ĠÑĤÐ¾Ñĩ":1089,"ÑİÑĤÑģÑı":1090,"ĠÃ":1091,"Ġprodu":1092,"Ð»ÐµÐ¹":1093,"yst":1094,"ĠFl":1095,"uro":1096,"ÑĨÐ¸Ñİ":1097,"Ġserv":1098,"ĠÐ¼Ð¸Ð½":1099,"ven":1100,"ÑĤÐµÑĢ":1101,"ÐĿÐ°":1102,"ĠÑģÐ°Ð¼":1103,"Ġalso":1104,"ely":1105,"ÑīÐµ":1106,"ĠÐ½Ð¾Ð²":1107,"ÑĩÑĥ":1108,"ĠÐĽ":1109,"rans":1110,"Ġroom":1111,"ĠÐ´Ð¸":1112,"ÐµÐ»ÑĮ":1113,"ÑįÑĤÐ¾Ð¼Ñĥ":1114,"Ð¾Ð¶Ð°":1115,"ĠÐķ":1116,"Ġag":1117,"ll":1118,"ne":1119,"Ġloc":1120,"ĠÐ¿ÑĢÐµÐ´ÑģÑĤÐ°Ð²Ð»ÐµÐ½":1121,"ÑĬ":1122,"ĠÐ²Ð°Ñģ":1123,"ĠÐ½Ð°Ð¸Ð±":1124,"ÑģÑĤÐ¾Ñı":1125,"ÑģÐºÐ¾Ð¹":1126,"ĠÐºÐ°ÑĩÐµÑģÑĤÐ²Ðµ":1127,"Ġup":1128,"ĠÐ¿Ð¾ÑģÐ»Ðµ":1129,"ĠÑģÐ´ÐµÐ»Ð°ÑĤÑĮ":1130,"Ð¿ÑĢÐ°Ð²Ð»Ñı":1131,"ĠÐ£":1132,"ÑģÑĤÐµÐ¼":1133,"Ġyear":1134,"ĠÐ¿ÐµÑĢÐµÐ²Ð¾Ð´":1135,"ĠÐ·Ð´ÐµÑģÑĮ":1136,"ÑģÑĤÐ²Ð¾":1137,"ĠÐ²Ð¾":1138,"Ġspe":1139,"Ð¾ÐºÐ°":1140,"ient":1141,"Ð¾Ð»Ð¸":1142,"Ġwere":1143,"Ġout":1144,"Ġrel":1145,"ĠÐ½Ð¸":1146,"Ġsubmit":1147,"Ġcent":1148,"ĠÐ½Ð¾":1149,"ÑĥÐ»ÑĮ":1150,"ĠÐ½Ð°Ð¸Ð±Ð¾Ð»ÐµÐµ":1151,"Ð¸Ð¼Ð¾":1152,"Ð£":1153,"Ġ20":1154,"rought":1155,"ft":1156,"Ġfeel":1157,"Ġpre":1158,"ĠÐ²Ð°":1159,"Ġreg":1160,"ÑĢÐ¾Ð¿":1161,"Ġbrought":1162,"ystem":1163,"ÐĹ":1164,"ÑĤÐ¾ÑĢ":1165,"Ð½Ð¸Ð¼Ð°":1166,"Ð¶Ð´Ñĥ":1167,"ÑĨÐ¸Ð¾Ð½":1168,"ÐµÐ¼ÑģÑı":1169,"ren":1170,"ÑĤÐ¸Ð²":1171,"ĠÐºÐ¾ÑĤÐ¾ÑĢÑĭÐµ":1172,"Ġadd":1173,"ern":1174,"ĠÑĦÐ¸":1175,"Ġplease":1176,"Ġcount":1177,"ÐµÐ½Ð¸Ð¹":1178,"ĠÐ¼Ñĭ":1179,"ild":1180,"ĠÐ·Ð½Ð°":1181,"erm":1182,"ĠÐµÐ³Ð¾":1183,"ram":1184,"ĠÐ¿Ð¾ÑįÑĤÐ¾Ð¼Ñĥ":1185,"ĠÑģÑĤÑĢÐ°Ð½Ð¸ÑĨ":1186,"Ġhowever":1187,"Ð»ÐµÐº":1188,"ÐµÐ½Ð¸Ñİ":1189,"Ġpe":1190,"ĠRussi":1191,"ove":1192,"ÑģÑģ":1193,"ĠÑģÑĥ":1194,"Ġind":1195,"Ð»ÑĥÐ¹":1196,"Ð¸ÑĤÑĮ":1197,"Ð¾Ð¶Ð°Ð»ÑĥÐ¹":1198,"ĠÑģÐ¾Ð²":1199,"ĠÐ¤":1200,"Ã©":1201,"ĠÐ¿ÑĢÐ¾Ð¸Ð·":1202,"ory":1203,"Ġthey":1204,"ÑĥÑĩ":1205,"ĠÑģÐ¿":1206,"Ð¾Ð¶Ð°Ð»ÑĥÐ¹ÑģÑĤÐ°":1207,"vers":1208,"Ð¾ÐºÐµ":1209,"Ġla":1210,"Ġcorrect":1211,"Ð»ÐµÐ¼":1212,"Ð¾Ð±Ð°":1213,"Ð´Ð°ÑĢ":1214,"pl":1215,"ans":1216,"Ð¿ÑĢÐ¸":1217,"This":1218,"ĠÑģÐ¸ÑģÑĤÐµÐ¼":1219,"ces":1220,"ey":1221,"Ð²Ð¸ÑĤÑĮ":1222,"ens":1223,"ĠÑģÐµ":1224,"Ġapp":1225,"Ð¨":1226,"ĠÐ²Ðµ":1227,"Ġcol":1228,"wn":1229,"Ġpol":1230,"ÑĢÐ¾Ð²ÐºÐ¸":1231,"ÑģÐºÐ¾Ð³Ð¾":1232,"ĠÑĩÐ°":1233,"ĠÐ²ÑĢÐµÐ¼Ñı":1234,"Ġonly":1235,"ater":1236,"ĠÐºÐ¾Ð¼Ð¿Ð°":1237,"ÑģÐºÐ¸Ñħ":1238,"ings":1239,"ĠÐľÑĭ":1240,"Ð³ÑĢÐ°":1241,"ĠÐºÐ°ÐºÐ¸Ðµ":1242,"Ð¤":1243,"ful":1244,"ĠÐ´Ð°":1245,"ck":1246,"Ð±Ð°":1247,"ĠÐ¿ÑĢÐ¾Ð³":1248,"velop":1249,"ĠÐºÐ¾ÑĢÑĢÐµ":1250,"ĠÑģÑĤÐ°ÑĢÐ°":1251,"ĠÐ¿Ð¾Ð¶Ð°Ð»ÑĥÐ¹ÑģÑĤÐ°":1252,"Ġtried":1253,"Ð²Ñĭ":1254,"Ġthere":1255,"ĠFlash":1256,"ages":1257,"resent":1258,"ÑĥÐ½":1259,"ĠÐ±ÑĥÐ´":1260,"ĠÐ½Ð°ÑĪ":1261,"ÑģÑĤÐ°Ð½Ð¾Ð²":1262,"Ġtime":1263,"ÑĤÐµÐ»Ñı":1264,"ÐºÐ¾Ð¼":1265,"ĠÐ¾ÑĤÐ¿ÑĢÐ°Ð²Ð»Ñı":1266,"Ð¾ÑģÑĤ":1267,"ib":1268,"ÐķÑģÐ»Ð¸":1269,"Ð¾Ñĩ":1270,"ÑĢÐ¾Ð¼":1271,"ÑģÑĤÑĢÐ°":1272,"Ġbeen":1273,"ÑĥÑģÐ¾Ð²":1274,"Ġprov":1275,"ont":1276,"Ġwork":1277,"ĠÐºÐ°ÑĢÐ°":1278,"ates":1279,"ĠÐ³Ð¾Ð´Ð°":1280,"ĠÐ¿ÑĢÐµÐ´ÑģÑĤÐ°Ð²Ð»ÐµÐ½Ð°":1281,"ph":1282,"iew":1283,"ÑģÐ¾Ð²":1284,"int":1285,"here":1286,"ĠÑģÑĤÐ°ÑĢÐ°ÐµÐ¼ÑģÑı":1287,"ĠÐºÐ¾ÑĢÑĢÐµÐºÑĤÐ¸":1288,"Ð¼Ñĥ":1289,"Ġabout":1290,"Ġvery":1291,"Ġtrans":1292,"ĠÑĢÐ°ÑģÐ¿":1293,"Ġcorrections":1294,"Ð½Ð¸Ð¹":1295,"ÑģÐ¾Ðº":1296,"ĠÐ¿ÐµÑģÐ½Ðµ":1297,"ĠÐºÐ°ÑĢÐ°Ð¾ÐºÐµ":1298,"Ð¾Ð·Ð´Ð°":1299,"ÐºÑĢÐ°":1300,"ÑĦÐ¸ÑĩÑĥ":1301,"Ġwho":1302,"ious":1303,"It":1304,"ÐºÐ»Ñİ":1305,"ĠÐºÐ¾ÑĢÑĢÐµÐºÑĤÐ¸ÑĢÐ¾Ð²ÐºÐ¸":1306,"ÐŁÐµÑģ":1307,"ĠÐ¾ÑĤÐ¿ÑĢÐ°Ð²Ð»ÑıÐ¹ÑĤÐµ":1308,"ĠÐ¼Ð¸Ð½ÑĥÑģÐ¾Ð²":1309,"ĠÑĤÐ¾ÑĩÐ½ÑĭÐ¼Ð¸":1310,"Ġsystem":1311,"ĠÐ¼Ð¸Ð½ÑĥÑģÐ¾Ð²ÐºÑĥ":1312,"ĠÐ³Ð¾ÑĢ":1313,"de":1314,"ĠÐĴÐ°":1315,"igh":1316,"ĠÐ±Ñĥ":1317,"ÐŁÐµÑģÐ½Ñı":1318,"Ġthan":1319,"ĠÑģÐ¾Ð±":1320,"Ġman":1321,"ĠÐ±Ð¾Ð»ÐµÐµ":1322,"ays":1323,"Ð°Ð»Ð¸":1324,"ÐºÐ¾Ð½Ð¾Ð¼Ð¸":1325,"cess":1326,"ĠEuro":1327,"Ð¾Ñī":1328,"Ð»ÐµÐ½Ð¸Ðµ":1329,"red":1330,"ĠÑıÐ²Ð»ÑıÐµÑĤÑģÑı":1331,"If":1332,"ÑĢÐ°Ð¶":1333,"Ð¾Ð½Ð°Ð»ÑĮ":1334,"Ð±Ðµ":1335,"ĠÐ±ÐµÐ·":1336,"ÑģÑĤÐ°Ð²Ð»Ñı":1337,"Ġuse":1338,"Ġno":1339,"ÑıÑĤÐ¸":1340,"ÐµÐ½Ð¸ÐµÐ¼":1341,"Ð¾Ð³Ð´Ð°":1342,"old":1343,"Ð§":1344,"Ġmod":1345,"ÑĦÐ¾ÑĢÐ¼Ð°":1346,"Ð°ÑĤ":1347,"ĠÑĤÐµÑħ":1348,"ĠÐ°Ð²":1349,"Ġmost":1350,"lect":1351,"Ð³Ð¾Ð´":1352,"ĠÐ»ÑİÐ±":1353,"ĠÐ¸Ð¼Ðµ":1354,"ng":1355,"ĠÑģÐ¾Ð·Ð´Ð°":1356,"ĠÐ½Ð¾Ð¼":1357,"irst":1358,"fere":1359,"Ġworld":1360,"ject":1361,"ĠÐ±ÑĥÐ´ÐµÑĤ":1362,"Ð¿ÑĢÐ°Ð²":1363,"Ð³Ð¾Ð²":1364,"ina":1365,"Ġform":1366,"ĠÑĢÐ°Ð±Ð¾":1367,"10":1368,"ÐµÐ½ÑĤÐ°":1369,"Ġbu":1370,"Ġdevelop":1371,"ĠÐ¼ÐµÐ¶Ð´Ñĥ":1372,"ĠÑĦÐ¾ÑĢ":1373,"cre":1374,"ĠÐ¿Ð¾Ð»Ð¸":1375,"fter":1376,"ob":1377,"ĠÐ´Ð¾Ð»Ð¶":1378,"Ġlist":1379,"ÑĥÐ±":1380,"Ð²Ð¾":1381,"ise":1382,"les":1383,"ĠÐ¿ÑĢÐ¾Ð²":1384,"ĠÐ¿Ð¾Ð·":1385,"ĠÑģÐ²Ñı":1386,"ĠHotel":1387,"ÑĭÐ¼":1388,"Ð½ÐµÐ¹":1389,"ĠUn":1390,"ÑĤÐµÐ»ÑĮÐ½Ð¾":1391,"ÐµÑĤÐ¸":1392,"Ġri":1393,"hed":1394,"clud":1395,"Ġam":1396,"ople":1397,"ows":1398,"ternational":1399,"Ġco":1400,"ĠÐ¼Ð¾Ð¶ÐµÑĤ":1401,"Ġover":1402,"Ð·Ð½Ð°":1403,"ÐµÑģÐ¿":1404,"ĠÑģÑĢÐµÐ´":1405,"ices":1406,"olog":1407,"nd":1408,"ĠÑįÑĤÐ¾Ð¹":1409,"conom":1410,"Ġ6":1411,"ĠÐ¾ÑĢ":1412,"Ġwell":1413,"use":1414,"Ð¾ÑģÑĥ":1415,"Ġinst":1416,"ĠÑģÐ»Ñĥ":1417,"az":1418,"ÑĢÑĥÐ¿":1419,"amp":1420,"ÑĢÐµÐ±":1421,"ÐµÐ½ÑĮ":1422,"Ð½Ñĥ":1423,"ĠÐ¿Ð¾Ð»Ñĥ":1424,"ĠÐ¿Ð»Ð°":1425,"ĠÐ¿ÑĢÐ¾Ð³ÑĢÐ°Ð¼":1426,"Ġet":1427,"xt":1428,"ĠDe":1429,"Ġcons":1430,"ures":1431,"ĠÑĤÐ¾Ð»ÑĮÐºÐ¾":1432,"ics":1433,"ets":1434,"etw":1435,"ĠÑĤÐ¾Ð³Ð¾":1436,"ÑĤÐ¾Ð²":1437,"Ð¾ÑĢÐ¾":1438,"ÑĩÐµ":1439,"Ġent":1440,"oy":1441,"ĠÐ¿ÑĢÐ¾Ð¸Ð·Ð²Ð¾Ð´":1442,"Ġsupp":1443,"cy":1444,"ÑĤÐ¾ÑĢÐ°":1445,"Ð½Ð¸ÐºÐ°":1446,"ert":1447,"ĠÑįÐºÐ¾Ð½Ð¾Ð¼Ð¸":1448,"ublic":1449,"iness":1450,"Ġimp":1451,"ĠEurope":1452,"ating":1453,"Ð¾Ð»Ð¾Ð³Ð¸":1454,"Ð¸ÑĤÐ°":1455,"ĠÑģÐµÑĢ":1456,"ÑĪÐ¸Ñħ":1457,"ower":1458,"ĠÐŃ":1459,"ced":1460,"ath":1461,"ood":1462,"Ð²ÑĢÐ¾Ð¿":1463,"ĠÐ¿Ð°ÑĢ":1464,"ĠÐ´Ð°Ð½":1465,"chn":1466,"dition":1467,"Ð¶Ð¸Ð²Ð°":1468,"ÑĨÐ°":1469,"Ġinform":1470,"Ġ/":1471,"ax":1472,"Ġmin":1473,"ĠÑĪ":1474,"Ġneed":1475,"ally":1476,"Ð´Ð¾Ð²":1477,"Ġinv":1478,"ÑģÑĭ":1479,"io":1480,"ade":1481,"Ġmark":1482,"ÑĤÐµÐ»ÐµÐ¹":1483,"Ġph":1484,"Ñĸ":1485,"Ð¥":1486,"ĠÐ¼Ð¾Ð³":1487,"ility":1488,"ific":1489,"ĠÐºÐ¾Ð»":1490,"ÑĨÐ¸Ð°Ð»ÑĮ":1491,"ÑīÐ¸Ðµ":1492,"urn":1493,"Ð¾Ð²Ð°Ð½Ð¸Ñı":1494,"ĠÐºÐ»Ð¸":1495,"ons":1496,"Ð³Ð°Ð½Ð¸":1497,"ĠÑĩÐµ":1498,"ĠÐ¿Ð¾Ð²":1499,"Ġbec":1500,"ries":1501,"Ð¸Ð»":1502,"Ġact":1503,"Ġpeople":1504,"ÑĢÐµÐ½":1505,"iss":1506,"Ð¿Ð¾Ð»":1507,"ÐµÐ»":1508,"ike":1509,"Ġ10":1510,"Ġsc":1511,"Ġgu":1512,"sk":1513,"ĠÐ¸Ð½ÑĦÐ¾ÑĢÐ¼Ð°":1514,"ĠâĢĶ":1515,"Ð¾ÑĢÐ¸Ð¸":1516,"Ġatt":1517,"row":1518,"ĠÐ¿Ð¾Ð»Ð¸ÑĤÐ¸":1519,"Ġcomm":1520,"eg":1521,"Ġinclud":1522,"ĠTh":1523,"ick":1524,"Ġunder":1525,"ĠÑįÐº":1526,"Ġhis":1527,"ĠÐºÐ¾Ð¼Ð¿":1528,"Ð»Ð¾Ð¶":1529,"ug":1530,"Ġwould":1531,"rit":1532,"Ð·ÑĭÐ²Ð°":1533,"ĠÐ¥":1534,"ÐµÑĤÐ°":1535,"ÑĪÐµÐ¹":1536,"Ġra":1537,"Ð³Ñĥ":1538,"ĠÐ¸Ð¼":1539,"ĠÑģÐ²Ð¾Ð¸":1540,"ÑĢÐ¾Ð²Ð°Ð½":1541,"ict":1542,"vent":1543,"ĠÐºÐ¾":1544,"ĠÐ¿Ð¾Ð¼Ð¾Ñī":1545,"ĠÐ²Ñģ":1546,"usiness":1547,"Ð¾Ð±Ð°Ð²Ð¸ÑĤÑĮ":1548,"Ġfirst":1549,"ĠÐ´ÑĢÑĥÐ³Ð¸":1550,"ÐºÑĢÑĭ":1551,"ident":1552,"Ġinto":1553,"ĠÐ½ÐµÑģ":1554,"ÑĢÐµÐ¼ÐµÐ½":1555,"ĠÑĤÐ¾Ð¼":1556,"ÐºÑĤÐ¸Ð²":1557,"Ð¸Ñģ":1558,"ÑĩÐµÑģÐºÐ¸Ñħ":1559,"ank":1560,"ĠÐ¾Ð½":1561,"ÐºÐ¾Ð¹":1562,"ĠÑĢÑĥ":1563,"gan":1564,"uring":1565,"Ġ199":1566,"ÑĢÐ¾Ðº":1567,"ÑģÐºÐ°Ñı":1568,"ĠÐ²ÐµÑĢ":1569,"Ġeconom":1570,"Ġpo":1571,"ux":1572,"Ġtw":1573,"Ġrec":1574,"ĠÑĢÑĭ":1575,"ÑĥÐ¶":1576,"riv":1577,"ĠÐ¾ÑĤÐ½Ð¾":1578,"ied":1579,"oll":1580,"ĠÐĹ":1581,"Ð»Ð¸Ñĩ":1582,"Ġ7":1583,"ĠÐ»ÐµÑĤ":1584,"arg":1585,"ĠÑĢÐ°Ð±Ð¾ÑĤ":1586,"ĠÐ¿ÑĢÐ°Ð²Ð¸":1587,"ÑĢÐµÑģ":1588,"ution":1589,"ÐµÐ½Ð°":1590,"Ð´Ñĭ":1591,"iet":1592,"ĠÐ¿Ð°":1593,"ality":1594,"ÑĨÐ¸Ð¹":1595,"ÑİÑī":1596,"ĠAr":1597,"lish":1598,"ÑĭÐ¼Ð¸":1599,"Ð¾Ð¼Ð°":1600,"ĠCom":1601,"áĥ":1602,"pen":1603,"ÑĨÐµ":1604,"Ġsome":1605,"ÑħÐ°":1606,"Ð¾ÑĤÐ²ÐµÑĤ":1607,"ĠÐ¼Ð½":1608,"ĠÑĢÐ°Ð·Ð²Ð¸":1609,"Ð±Ñĭ":1610,"Ġhigh":1611,"ĠÑģÐ¿Ðµ":1612,"Ġsa":1613,"vern":1614,"und":1615,"ÐµÐ»Ð¸":1616,"Ġsong":1617,"Ġwhen":1618,"ĠÐ¾Ð±ÑĬ":1619,"lp":1620,"ond":1621,"Ð¾Ð±ÑħÐ¾Ð´":1622,"Ð²Ñĥ":1623,"ĠÐ½Ð°ÑħÐ¾Ð´":1624,"ec":1625,"Ġpers":1626,"000":1627,"ÐµÐ½Ñĭ":1628,"Ġpresent":1629,"Ġ...":1630,"Ð½Ð°ÑĢÐ¾Ð´":1631,"Ġsuch":1632,"Ð¾ÑģÑĥÐ´Ð°ÑĢ":1633,"ĠÑĨÐµÐ½ÑĤ":1634,"Ġdif":1635,"ĠÐ±ÑĭÑĤÑĮ":1636,"Ð°Ð·":1637,"ĠÑįÑĤÐ¸":1638,"ĠUS":1639,"ÐµÐ¹ÑģÑĤÐ²Ð¸":1640,"Ð´Ð¾":1641,"ÑĪÐµÐ½Ð¸Ñı":1642,"ĠÐ³Ð¾Ð´Ñĥ":1643,"ĠÑģÐ¾Ð¾ÑĤÐ²ÐµÑĤ":1644,"Ð¸ÑĤÑģÑı":1645,"Ġfin":1646,"ited":1647,"Ð²Ð¾Ð»":1648,"ĠÑĥÑĩÐ°":1649,"Ġyears":1650,"ÑģÑĤÑĥÐ¿":1651,"Ġinformation":1652,"ock":1653,"ines":1654,"Ġ8":1655,"Ġgood":1656,"ener":1657,"ĠÐ½ÐµÐ¾Ð±ÑħÐ¾Ð´":1658,"Ġem":1659,"ĠPro":1660,"Ġkn":1661,"Ð»Ð¸ÑģÑĮ":1662,"Ġass":1663,"ular":1664,"ann":1665,"Ġafter":1666,"ĠSh":1667,"ÑĢÐ°ÑĤÐ¸":1668,"Ð½Ð¾ÑģÑĤ":1669,"ption":1670,"Ġhad":1671,"gram":1672,"Ġaut":1673,"ÑģÐ¸Ð¸":1674,"Ġrest":1675,"¿½":1676,"ï¿½":1677,"ÑħÐ¸":1678,"lection":1679,"oth":1680,"ĠÐ¾Ð±ÑĢÐ°Ð·":1681,"ĠÑĩÐµÐ¼":1682,"ÐºÐ¸Ñħ":1683,"ÐµÐºÑĤ":1684,"Ġmany":1685,"ative":1686,"Ġkey":1687,"ss":1688,"ris":1689,"Ġeff":1690,"ĠÑĢÐµÐ·":1691,"ÑīÐ¸Ð¹":1692,"ĠÑģÐ¿Ð¸":1693,"ÃĲ":1694,"Ð½ÐµÑĢ":1695,"ĠÑĢÐ°Ñģ":1696,"Ġhelp":1697,"Ġmay":1698,"ĠÐ¿Ð¾Ð¼Ð¾ÑīÑĮÑİ":1699,"ÐµÑģÐ¿Ðµ":1700,"ĠÐ¾Ð½Ð¸":1701,"ÑģÑĤÐ²ÑĥÑİ":1702,"ier":1703,"Ð±Ð¾ÑĢ":1704,"ÐŃÑĤÐ¾":1705,"Ð¸Ð»ÑĮ":1706,"Ġav":1707,"ĠRussian":1708,"Ð½Ð°Ð½":1709,"ÑģÐºÐ¸Ðµ":1710,"uc":1711,"arm":1712,"rough":1713,"Ð»Ð°Ð½":1714,"Ġmet":1715,"ĠÑĥÑģÑĤÐ°Ð½Ð¾Ð²":1716,"ÑĩÐµÑģÐºÐ¾Ð¹":1717,"ĠÐºÐ¾ÑĤÐ¾ÑĢÑĭÐ¹":1718,"Ġproduct":1719,"ism":1720,"ĠÐ¾ÑĢÐ³Ð°Ð½Ð¸":1721,"ĠÑĢÐµÐ³Ð¸":1722,"hip":1723,"Ġcompany":1724,"ÑĩÐ½Ð¾":1725,"ts":1726,"ĠÐ±ÑĥÐ´Ñĥ":1727,"que":1728,"ants":1729,"Ġ9":1730,"ased":1731,"Ð°Ñħ":1732,"19":1733,"ĠÐ¾ÑģÐ½Ð¾Ð²":1734,"ÑĢÑĥÐ´":1735,"ty":1736,"Ġright":1737,"land":1738,"als":1739,"Ġdist":1740,"ĠÐ¿Ð¾ÑĤ":1741,"Ġtechn":1742,"een":1743,"ĠÐ³Ð¾Ð´":1744,"Ġtwo":1745,"Ð½ÐµÑģ":1746,"way":1747,"Ð»Ð¾Ñģ":1748,"Ð»ÑİÑĩ":1749,"Ð¾Ð»Ð¾Ð¶":1750,"its":1751,"Ð²ÐµÐ´":1752,"ange":1753,"ink":1754,"ĠÐ¾Ð±ÐµÑģÐ¿Ðµ":1755,"ĠÐ¿Ð¾Ð´Ð´ÐµÑĢ":1756,"ĠÐ±Ð¾Ð»ÑĮÑĪ":1757,"ĠÐ¿ÑĢÐ¸Ð½":1758,"rib":1759,"ÐµÐ½ÑĤÐ¾Ð²":1760,"Ð¼Ð¾ÑĤ":1761,"Ġown":1762,"Ġcre":1763,"Ð·Ð°Ð½":1764,"Ġshould":1765,"Ġcountries":1766,"ral":1767,"ĠÐ¿ÑĢÐ¾ÑĨ":1768,"ÐµÐ¼Ñĥ":1769,"roup":1770,"Ð½Ð¸ÐºÐ¾Ð²":1771,"ars":1772,"Ġrequ":1773,"ĠÑĥÑģÐ»Ñĥ":1774,"uch":1775,"Ġlead":1776,"Ġrem":1777,"ÑĤÐµÑĢÐ¸":1778,"ÐºÐ¾Ð»":1779,"Ð¸ÑĤÐµÐ»ÑĮ":1780,"ĠÑĩÐµÐ»Ð¾Ð²":1781,"ÑĤÐ¸Ñı":1782,"ustom":1783,"Ġsee":1784,"ÑĩÐµÐ½Ð¸Ðµ":1785,"Ġsit":1786,"ork":1787,"Ġest":1788,"ÐºÐ°Ð½":1789,"Ð²Ð°ÑĤÑĮ":1790,"Ð¨ÐĲ":1791,"ince":1792,"Ġdec":1793,"Ġsur":1794,"che":1795,"ĠÐ¿ÑĢÐµÐ´Ð¾":1796,"Ð»ÐµÐ´":1797,"kra":1798,"Ð¾ÑĤÐ¾Ð²":1799,"Ġbusiness":1800,"Ġjust":1801,"Ġset":1802,"Ġnum":1803,"Ð»Ð°Ð³Ð°":1804,"ÐµÑģÑı":1805,"Ġevery":1806,"ĠÐ¿Ð¾Ñģ":1807,"ists":1808,"tle":1809,"Ġap":1810,"ĠÐ²ÑĭÑģÐ¾Ðº":1811,"ĠÑĢÑĭÐ½":1812,"Ġmain":1813,"ÑĤÑĢÐ°":1814,"ÑĪÐµÐ³Ð¾":1815,"ĠÐºÐ°ÑĢ":1816,"ily":1817,"ĠÐ³Ð¾ÑģÑĥÐ´Ð°ÑĢ":1818,"meric":1819,"ĠÐ¿Ð¾ÑģÐ»ÐµÐ´":1820,"ted":1821,"arch":1822,"ÑĤÑģÑı":1823,"Ð¿Ð¾":1824,"ĠÐ¾Ð±Ð»Ð°":1825,"ĠZ":1826,"eb":1827,"ÑĥÐ»ÑĮÑĤÐ°":1828,"ĠX":1829,"ract":1830,"ered":1831,"ĠÑĤÐµÑĢ":1832,"ĠÐ¿ÑĢÐ¾Ð´Ñĥ":1833,"ÑģÑĤÑĢÐ¾":1834,"Ġob":1835,"Ġvis":1836,"ĠÐ»Ðµ":1837,"ting":1838,"ÑĨÐ¸Ð¾Ð½Ð°Ð»ÑĮ":1839,"Ġequ":1840,"irect":1841,"ateg":1842,"Ð¾ÑģÐ¾Ð±":1843,"Ġrep":1844,"ĠÐ±ÑĭÐ»Ð¾":1845,"Ð¾Ð¿ÑĢÐ¾Ñģ":1846,"ien":1847,"ĠÐ¿ÑĢÐ¾Ð±":1848,"ten":1849,"pect":1850,"ÑıÑħ":1851,"ause":1852,"me":1853,"Ġthese":1854,"ix":1855,"reak":1856,"Ð»ÐµÐºÑĤ":1857,"ÑĦÐµÑĢ":1858,"ÐŁÑĢÐ¸":1859,"ĠÑĢÐ°Ð±Ð¾ÑĤÐ°":1860,"ĠÐ¿ÐµÑĢÐ²":1861,"ĠÐ¼ÐµÐ½":1862,"Ð»Ñĭ":1863,"Ð¾ÐºÑĥ":1864,"Ġsm":1865,"Ð¿Ñĥ":1866,"Ð½Ð¸Ñİ":1867,"ah":1868,"Ð»Ð°Ð²":1869,"ĠÐ¡Ð¨ÐĲ":1870,"els":1871,"ĠAl":1872,"Ð·Ð°ÑĨÐ¸Ð¸":1873,"Ġeven":1874,"ÑĩÐµÐ½Ð¸Ñı":1875,"ĠÐ±ÑĭÐ»":1876,"20":1877,"air":1878,"Ġexper":1879,"Ġprovid":1880,"ÑıÐ¼":1881,"ĠÐ²Ð¾Ñģ":1882,"Ġgovern":1883,"Ð¿ÐµÑĢ":1884,"Ġrooms":1885,"Ġwhere":1886,"Ġdem":1887,"ooking":1888,"ÐµÐ½Ð½ÑĭÑħ":1889,"Ð¾Ð½Ðµ":1890,"Ġsupport":1891,"ĠÐ½ÐµÑĤ":1892,"fort":1893,"ÑĪÑĮ":1894,"ĠIt":1895,"Ġmon":1896,"Ġfind":1897,"ward":1898,"ĠÐķÐ²ÑĢÐ¾Ð¿":1899,"ÑĩÐµÑģÐºÐ¸Ðµ":1900,"aur":1901,"ĠÐ±ÐµÑģÐ¿":1902,"Ġservice":1903,"Ð¾Ð²Ð°Ð½":1904,"Ġprogram":1905,"Ġlike":1906,"ĠÐ¼Ð¾Ð³ÑĥÑĤ":1907,"ĠÐ¿Ð¾ÑĢ":1908,"Ð½Ð¸Ðº":1909,"inn":1910,"Ġcomple":1911,"ÑĩÐµÑģÐºÐ¾Ð³Ð¾":1912,"ÑģÐºÐ¾Ð¼":1913,"word":1914,"Ð½Ð³":1915,"ÃŃ":1916,"aff":1917,"Ġfl":1918,"ĠÐ¿ÑĢÐ¸Ð¼":1919,"ĠÐ²ÑģÐµÑħ":1920,"ĠÑģÐ»ÑĥÑĩÐ°":1921,"Ġthrough":1922,"oom":1923,"ĠÐ´Ð¾Ð±Ð°Ð²Ð¸ÑĤÑĮ":1924,"Ġ&":1925,"ÑģÑĤÑĢ":1926,"Ġnow":1927,"ale":1928,"ĠÑįÑĤÐ¾Ð¼":1929,"Ð½Ð¾Ð¼Ñĥ":1930,"ÑĥÐµÑĤ":1931,"Ð¿Ñĭ":1932,"Ġ15":1933,"Ġspecial":1934,"ÑİÑīÐ¸Ñħ":1935,"Ġperson":1936,"Ġdep":1937,"ĠÐºÐ»ÑİÑĩ":1938,"Ġref":1939,"ĠÐ¼ÐµÑģÑĤ":1940,"Ġreal":1941,"ÃĹ":1942,"Ġdesign":1943,"Ġservices":1944,"riend":1945,"ys":1946,"Ġcustom":1947,"ÑĢÐ¾Ð²Ð°ÑĤÑĮ":1948,"Ġcur":1949,"Ġche":1950,"ĠUkra":1951,"aj":1952,"etween":1953,"ev":1954,"ÐºÐ°Ñı":1955,"ÑĢÐ°Ð²":1956,"ĠÑģÐ°Ð¹":1957,"Ð¾ÑĢÐ¾Ð²":1958,"angu":1959,"ĠÐ°Ð»ÑĮ":1960,"ĠÐ¿Ñĥ":1961,"Â»,":1962,"Ð»Ð¸Ñı":1963,"Ġused":1964,"ĠÑįÑĤÐ¾Ð³Ð¾":1965,"Â».":1966,"ĠÐ¸Ð½ÑĤÐµ":1967,"ĠÐºÑĢÐ°":1968,"Ġmarket":1969,"Ġ18":1970,"ĠEx":1971,"Ġac":1972,"ĠÐ¿Ð¾ÐºÐ°":1973,"Ġgreat":1974,"Ġlong":1975,"alk":1976,"200":1977,"ĠÐĺÐ½":1978,"ience":1979,"Ġdown":1980,"ĠIs":1981,"But":1982,"Ġpartic":1983,"ĠÐ¿Ðµ":1984,"fore":1985,"ĠÐ²Ð¾Ð¿ÑĢÐ¾Ñģ":1986,"ÐľÑĭ":1987,"Ġbl":1988,"Ð¼ÐµÑĢÐ¸":1989,"ÑĢÐ°Ð±Ð¾ÑĤ":1990,"ĠÑĢ":1991,"led":1992,"Ð½ÐµÑĤ":1993,"ĠÑĦÐ¸Ð½Ð°Ð½":1994,"ÑģÑĤÑĢÑĥ":1995,"Ġcar":1996,"ÐºÐ»Ð°":1997,"ox":1998,"Ġ0":1999,"ĠEng":2000,"Ġinternational":2001,"ural":2002,"ware":2003,"Ġplace":2004,"ÑĢÐ°ÑĦÐ¸":2005,"Ð¾Ð²Ð°ÑĤÑĮ":2006,"ĠÐłÐ¾Ñģ":2007,"ĠÐ¿ÑĢÐ¾Ð±Ð»ÐµÐ¼":2008,"ĠAmeric":2009,"ized":2010,"Ġinter":2011,"elf":2012,"Ġser":2013,"ĠÑĥÑĢÐ¾Ð²":2014,"Ð¿ÑĢÐµ":2015,"ĠSe":2016,"ouse":2017,"ÃĹÃĹ":2018,"ÑĤÐµÐ»Ð¸":2019,"Ã¨":2020,"Ð¾Ð³Ð»Ð°":2021,"\".":2022,"Ġbetween":2023,"ional":2024,"Ð»ÑģÑı":2025,"ĠÐ½Ð°ÑĩÐ°":2026,"Ð»Ð°ÑĤ":2027,"Ð½Ð¸Ñħ":2028,"Ġfam":2029,"ĠÐ¼ÐµÑĤ":2030,"Ġprof":2031,"Ġdef":2032,"ÐºÐ°Ð·Ð°":2033,"ata":2034,"Ġwhat":2035,"ÑģÑĤÐ°Ð²Ð¸":2036,"\",":2037,"Ð°Ð¼Ð¸":2038,"ÑĥÑīÐµÑģÑĤÐ²":2039,"ĠÐºÐ¾Ð³Ð´Ð°":2040,"inist":2041,"Ð¯":2042,"Ġcity":2043,"Ġdiffere":2044,"ÑĥÐ±Ð»Ð¸":2045,"ĠÐ¾ÑĤÐºÑĢÑĭ":2046,"arge":2047,"ization":2048,"ically":2049,"ĠÐ¿ÑĢÐ¾Ð´":2050,"Ġmem":2051,"ĠCent":2052,"iews":2053,"ĠÐºÐ»ÑİÑĩÐµÐ²":2054,"Ġorgan":2055,"Ġrece":2056,"ÑĦÐµ":2057,"ilities":2058,"ife":2059,"Ġget":2060,"ĠÑĤÑĢÐµÐ±":2061,"ĠÐ±Ð°Ð½":2062,"Ġweb":2063,"ĠÐ²ÐºÐ»Ñİ":2064,"rand":2065,"ital":2066,"bal":2067,"ĠÐ¿ÑĢÐµÐ´Ð»Ð°Ð³Ð°":2068,"Ġprocess":2069,"ÐµÐ½Ð½Ð¾":2070,"ĠÐ²Ð¸Ð´Ðµ":2071,"ÐºÐ°Ñħ":2072,"ĠÐ¼ÐµÐ¶Ð´ÑĥÐ½Ð°ÑĢÐ¾Ð´":2073,"ĠÐºÐ°Ð¶Ð´":2074,"ĠÐºÐ¾Ð»Ð»ÐµÐº":2075,"ron":2076,"Ġcap":2077,"ÑĩÐµÐ½ÑĮ":2078,"au":2079,"Ġext":2080,"Ġexp":2081,"ains":2082,"Ð½ÑĥÑĤ":2083,"ĠÐ¨":2084,"Ġair":2085,"ough":2086,"Ġrev":2087,"Ð¾Ð¶Ð¸":2088,"ues":2089,"Ġ2009":2090,"ĠÑĢÐ°ÑģÐ¿Ð¾Ð»Ð¾Ð¶":2091,"Ġdel":2092,"ternet":2093,"Ð½Ð¾ÑģÑĤÑĮÑİ":2094,"ĠÐ¸Ñģ":2095,"Ð¾Ð´ÐµÑĢ":2096,"You":2097,"Ġbel":2098,"ĠÐºÐ¾Ð¼Ð¿Ð°Ð½Ð¸Ð¸":2099,"Ġdet":2100,"ives":2101,"ĠÐ§":2102,"Ġaccess":2103,"ÐĹÐ°":2104,"Ð¾Ð±ÑĢÐ°Ð¶":2105,"ÑģÐ¿Ðµ":2106,"Ġconf":2107,"day":2108,"ÑĤÐ¾ÑĢÐ°Ñı":2109,"Ġpar":2110,"iel":2111,"Ġcle":2112,"ĠÐ¿Ð¾Ð¿":2113,"ai":2114,"ÐļÐ°":2115,"ÐµÑĢÐ¸":2116,"Ġproject":2117,"For":2118,"Ġmade":2119,"erest":2120,"ĠÑĤÐµÐ¼":2121,"ĠÐ°Ð²ÑĤÐ¾Ð¼":2122,"Ġavail":2123,"ÑīÐµÐ³Ð¾":2124,"Ġthen":2125,"ÑĩÐ¸ÑĤÑĮ":2126,"ÐµÑĤÑĮ":2127,"aut":2128,"Ġpolit":2129,"Ð¸Ñĩ":2130,"ories":2131,"Ġagain":2132,"ĠÐ¸Ð³":2133,"Ġpric":2134,"gy":2135,"Ð¾ÑģÑĤÐ¸":2136,"ĠÑĥÐ¶Ðµ":2137,"ĠÐ±Ð°":2138,"Ġmy":2139,"Ġval":2140,"ĠÐ¶Ð¸":2141,"Ð²Ð°Ð½Ð¸Ñı":2142,"ĠHe":2143,"ÑģÐºÐµ":2144,"ĠÑĥÑģ":2145,"arn":2146,"ĠRussia":2147,"ÐŁÐ¾":2148,"ÑĢÐ°Ð»ÑĮ":2149,"ĠÐ½ÐµÑģÐº":2150,"ĠÐ½Ð¾Ð¼ÐµÑĢ":2151,"Ġcould":2152,"ÐµÐ½Ðµ":2153,"Ġstay":2154,"Ð»Ð¾ÑģÑĮ":2155,"ms":2156,"Ch":2157,"Ð²Ð°ÐµÑĤ":2158,"ration":2159,"ĠÐļÐ°":2160,"Ã¼":2161,"ÑģÑĤÑĢÐ¸":2162,"ÑĪÐµÐ½Ð¸Ðµ":2163,"Ġcountry":2164,"Ð½Ð¾Ð»Ð¾Ð³Ð¸":2165,"ents":2166,"Ġsol":2167,"ÑĩÐµÑĤ":2168,"Ð²Ð¸Ñģ":2169,"Ġlangu":2170,"Ġ2008":2171,"ĠÐ¸ÑģÐ¿Ð¾Ð»ÑĮÐ·":2172,"Ġoper":2173,"ĠÐ¿ÐµÑģÐµÐ½":2174,"Ð½Ð¸ÐºÐ¸":2175,"ĠÑĤÐ¾ÑĢ":2176,"ness":2177,"ÐµÐ¼Ð¸":2178,"indows":2179,"ÐºÐ¸Ð¼":2180,"ĠÑģÐ¾Ð±ÑģÑĤÐ²ÐµÐ½":2181,"Ð¿ÐµÑĢÐ°":2182,"Ġoffers":2183,"Ġimport":2184,"ĠÑģÐ¾ÑĤ":2185,"Ġconst":2186,"ĠÐ¿Ð¾Ð·Ð²Ð¾Ð»":2187,"Ġoffer":2188,"St":2189,"ished":2190,"ÐĿÐ¾":2191,"ÑģÐ»ÐµÐ´":2192,"Ġopen":2193,"Ġart":2194,"ÑĢÐ¾Ð²Ð°Ð½Ð¸Ñı":2195,"co":2196,"ĠÑģÐ¾Ð¾Ð±":2197,"ize":2198,"ĠÐµÐµ":2199,"ĠMe":2200,"Ð²Ð¸Ð¶":2201,"ĠYou":2202,"ĠÐ¶Ð¸Ð·":2203,"Ġinterest":2204,"Ġsim":2205,"Ð¼ÐµÐ½ÑĤ":2206,"Ġfav":2207,"ÑĥÐ·":2208,"ium":2209,"ÑĩÐµÑģÐºÐ¸Ð¹":2210,"ĠÐ²ÑģÐµÐ³Ð¾":2211,"ull":2212,"get":2213,"ĠSp":2214,"to":2215,"ÑĤÐ¸Ð½":2216,"Ã¥":2217,"ivers":2218,"ĠPl":2219,"nce":2220,"Ġvar":2221,"ĠÐ¾ÑģÑĤÐ°":2222,"ÑĨÑĭ":2223,"ÐµÐ´Ð¸Ð½":2224,"Ġdevelopment":2225,"ĠBl":2226,"ÑıÐ½":2227,"ĠÐ¿ÑĢÐµÐ´Ð¿ÑĢÐ¸":2228,"ĠÑĢÐµÐ·ÑĥÐ»ÑĮÑĤÐ°":2229,"Ð¾Ð¼Ñĥ":2230,"Ġkeyword":2231,"Ð»Ð°ÑģÑĮ":2232,"ins":2233,"Ġinvest":2234,"ator":2235,"ĠÐ´ÐµÐ¹ÑģÑĤÐ²Ð¸":2236,"Ã®":2237,"ĠÐºÐ¾ÑĤÐ¾ÑĢÐ°Ñı":2238,"ÑĢÐµÐ´Ðµ":2239,"ady":2240,"Ġway":2241,"Ġfac":2242,"round":2243,"ĠÐ²Ð»Ð°":2244,"ÑģÑĥ":2245,"ner":2246,"Ġnumber":2247,"Ġpower":2248,"Ð¾Ð¿Ð¾Ð»":2249,"Ġfore":2250,"Ġarea":2251,"Ġplay":2252,"Ġresult":2253,"ÐĶÐ»Ñı":2254,"ĠÐ³Ð¾ÑģÑĤ":2255,"ĠÐ¾Ð±ÑīÐµÑģÑĤÐ²":2256,"Ġ2010":2257,"Ð¾Ð¸":2258,"Ġbest":2259,"ute":2260,"Ġincre":2261,"ĠÐ³ÑĢÑĥÐ¿":2262,"Ġpages":2263,"Ġstaff":2264,"rent":2265,"ique":2266,"ÑīÐµÐ½Ð¸Ñı":2267,"ury":2268,"Ð²ÐµÑģÑĤ":2269,"line":2270,"ÑĥÐ½Ðº":2271,"orld":2272,"Ġhist":2273,"ĠÐµÑīÐµ":2274,"ĠÐ¿ÑĢÐ°Ð²":2275,"ĠÐ¿Ð¾Ð»ÑĮÐ·Ð¾Ð²Ð°":2276,"ĠÐ´ÑĢÑĥÐ³":2277,"ĠÑģÑĥÑīÐµÑģÑĤÐ²":2278,"Ġbuild":2279,"Ġed":2280,"aking":2281,"ÑĢÐ¸ÑĤ":2282,"ĠRe":2283,"ĠÐ¾ÑĩÐµÐ½ÑĮ":2284,"ually":2285,"ĠÑģÑĤÑĢÐ°Ð½":2286,"ÑıÑĤÑĮ":2287,"ĠÐ¸ÑģÑĤ":2288,"Ġdifferent":2289,"ĠÐ°ÑĢ":2290,"ĠÐ¸Ð·Ð¾Ð±ÑĢÐ°Ð¶":2291,"Ġlocation":2292,"Ð³Ð¾Ð´Ð½Ñı":2293,"Ġactiv":2294,"ool":2295,"Ġstart":2296,"Ġstand":2297,"ĠÐ°Ð´":2298,"ature":2299,"Ð¸Ð¼Ð¾ÑģÑĤÐ¸":2300,"Ġend":2301,"ruct":2302,"Ġdirect":2303,"ÑģÑĤÑĭ":2304,"Ð»Ð¾Ð²Ð¸":2305,"ÑģÑĤÐ¾Ð²":2306,"Ġinf":2307,"Ð¾ÑĢÑĤ":2308,"ĠÐ¿ÑĢÐ¾ÑĨÐµÑģ":2309,"ĠÑĤÐ¸":2310,"ĠÐ½Ð¾Ð¼ÐµÑĢÐ°":2311,"Ġty":2312,"Ġfun":2313,"ĠÐ¿Ð¸":2314,"ĠÐ£ÐºÑĢÐ°":2315,"Ã¡":2316,"Ġins":2317,"Ġavailable":2318,"bum":2319,"Ġproble":2320,"Ġpur":2321,"Ġlocated":2322,"Ġmed":2323,"Ġ12":2324,"Ð²ÐµÑģÑĤÐ¸":2325,"Ġcour":2326,"Al":2327,"ĠÑģÐ¿Ð¾ÑģÐ¾Ð±":2328,"orn":2329,"Ð·Ð¸Ð´":2330,"Ãł":2331,"Ġpublic":2332,"Ġsoc":2333,"ĠCl":2334,"ĠEuropean":2335,"fast":2336,"Ġeas":2337,"load":2338,"ĠÐ³Ð´Ðµ":2339,"Ð´ÐµÐ»ÑĮ":2340,"Ġstr":2341,"Ġcollection":2342,"ĠÑģÑĤÑĢÐ°Ð½Ñĭ":2343,"ĠÐ¿Ð¾Ñĩ":2344,"ĠÐ²Ð·":2345,"ym":2346,"ĠÐ»ÑĥÑĩ":2347,"ology":2348,"Ġcall":2349,"Ġ|":2350,"ĠÐ¿ÑĢÐµÐ´Ð»Ð¾Ð¶":2351,"Ð½Ð¸ÐµÐ¼":2352,"af":2353,"Ð´ÐµÐ¹":2354,"ds":2355,"ests":2356,"lobal":2357,"Ð½Ð¾Ð²Ð°":2358,"Ġboth":2359,"Ġadv":2360,"ER":2361,"Ġgener":2362,"ĠÐ±Ð¾Ð»ÑĮÑĪÐµ":2363,"Ð¾Ð³Ð¾Ð²":2364,"ĠÐ¸ÑģÐº":2365,"ÑĪÐ¸Ðµ":2366,"reakfast":2367,"Ð½ÐµÐµ":2368,"Ġday":2369,"Ġtake":2370,"Ð»Ð¸ÑĩÐ¸":2371,"Ġalbum":2372,"Ð¾Ð³Ð°":2373,"Ð»ÐµÑĤ":2374,"por":2375,"ÑĤÑĢ":2376,"Ġbecause":2377,"ÑģÑĤÐµÑĢ":2378,"rol":2379,"Ġz":2380,"Ġstate":2381,"Ġknow":2382,"ÑģÐ»ÑĥÐ¶Ð¸Ð²Ð°":2383,"Ġpage":2384,"Ġproducts":2385,"Ġmodern":2386,"Ð¸Ð¼Ð¾Ð¹":2387,"ision":2388,"man":2389,"ĠEnglish":2390,"ĠÑģÐ¾Ð¾ÑĤÐ²ÐµÑĤÑģÑĤÐ²ÑĥÑİ":2391,"ĠÐ±ÐµÑģÐ¿Ð»Ð°ÑĤ":2392,"ÑĪÐµÐ½":2393,"ĠGu":2394,"Ð¦":2395,"Ġstud":2396,"ĠÐ±ÑĥÐ´ÑĥÑĤ":2397,"Ġfavor":2398,"ĠÐ´ÑĢÑĥÐ³Ð¸Ñħ":2399,"ĠCon":2400,"ave":2401,"ÑĤÐµÐ³":2402,"ĠÐĿÐ°":2403,"Ġsmall":2404,"Ð¾ÑĢÐµ":2405,"ĠÑĦÐ¸Ð½Ð°Ð½ÑģÐ¾Ð²":2406,"other":2407,"Ġback":2408,"Ġgrow":2409,"Ġmust":2410,"Ã³":2411,"ĠÐ½Ð°Ñģ":2412,"ĠÑģÐ¾ÑĤÑĢÑĥÐ´":2413,"Ð¼ÐµÐ½ÑĤÐ°":2414,"ĠÐ¿ÑĢÐ°Ð²Ð¸ÑĤÐµÐ»ÑĮ":2415,"ĠÐ¾Ðº":2416,"ĠÑĢÐ°Ð±Ð¾ÑĤÑĭ":2417,"resident":2418,"atic":2419,"Ð¾Ð¿Ð°Ñģ":2420,"ĠÐ´ÐµÐ»Ð°":2421,"ĠÑģÐ¾Ð´ÐµÑĢ":2422,"Ġduring":2423,"ĠÐ°Ð»ÑĮÐ±":2424,"Ġgovernment":2425,"ĠLe":2426,"Ġcontin":2427,"Ð±Ñı":2428,"Ġcomfort":2429,"ene":2430,"On":2431,"ÐºÐ¾ÑĤÐ¾ÑĢ":2432,"ÐµÐ¿":2433,"ĠÑĤÐµÑħÐ½Ð¾Ð»Ð¾Ð³Ð¸":2434,"Ð´Ð°Ð½":2435,"Ġsame":2436,"Ð¾Ð´Ð¸":2437,"Ð²Ð°Ñı":2438,"ĠBe":2439,"Ð¾Ð³ÑĢÐ°ÑĦÐ¸":2440,"ÑģÑĤÑĢÐµ":2441,"ĠÑįÐºÑģÐ¿":2442,"aw":2443,"Ġsign":2444,"Ð»Ð¸Ð·":2445,"Ġquality":2446,"sive":2447,"Ð·Ð´":2448,"ĠÐ¼Ð½Ð¾Ð³Ð¾":2449,"ĠÐºÑĢÐ¸":2450,"oney":2451,"Ġter":2452,"ÑĮÑı":2453,"ĠÐ±ÑĭÐ»Ð°":2454,"There":2455,"ÐŀÑĤÐµÐ»ÑĮ":2456,"rig":2457,"Ġthose":2458,"ĠÐ´Ð¾ÑģÑĤÑĥÐ¿":2459,"ĠÑĤÐµÐ»Ðµ":2460,"ĠÐ³Ð°":2461,"Ġcommun":2462,"Ð½Ð¸Ð¼":2463,"Ð»Ð»Ð¸":2464,"ccess":2465,"ĠÐ¸Ð·Ð¼ÐµÐ½":2466,"Ġ30":2467,"Ġfil":2468,"Ġmuch":2469,"ĠÑĦÐ¾ÑĢÐ¼Ñĭ":2470,"Ġsite":2471,"ĠÐ´Ð¾Ð»Ð¶Ð½Ñĭ":2472,"ĠÐ¼Ð°ÑĢ":2473,"ather":2474,"ÑĢÐ¾Ð½":2475,"Ġopp":2476,"ĠÐºÑĥ":2477,"Ð´ÐµÐ½":2478,"ĠÑįÐ»ÐµÐºÑĤ":2479,"Ð»ÐµÐºÑģ":2480,"ĠÑĪÐ¸":2481,"12":2482,"50":2483,"Ġeconomic":2484,"Ġpolic":2485,"bers":2486,"Ð½Ð°Ñħ":2487,"ĠÑģÐ²Ð¾ÐµÐ¹":2488,"Ð´ÐµÐ»":2489,"ĠÐĴÐ°ÑĪÐµÐ¹":2490,"ÑĩÐ¸ÑĤÐ°":2491,"Ġorder":2492,"ĠÐ¾ÑĤÐµÐ»Ñı":2493,"Ġcentre":2494,"Ð°ÑĢÐ°":2495,"Ð°Ð½Ð´":2496,"ĠÑĩÐµÐ»Ð¾Ð²Ðµ":2497,"mp":2498,"ĠÐ´ÐµÑı":2499,"Ġwithout":2500,"ĠWindows":2501,"Ġpr":2502,"uf":2503,"of":2504,"Ġfinan":2505,"Ð½Ð¸ÑĤÐµÐ»ÑĮ":2506,"Ġusing":2507,"Ð¼ÐµÑģÑĤ":2508,"ÑīÐµÐ½":2509,"ĠÑģÑĤÐ¾":2510,"ÐµÑĢÐµÐ·":2511,"ĠÐ¾Ð±Ð¾ÑĢ":2512,"hes":2513,"uk":2514,"Ð²Ð¾ÑĢ":2515,"Ġgroup":2516,"ÐºÐ¾Ðµ":2517,"ery":2518,"ĠWorld":2519,"ĠÐ¯":2520,"ĠÑģÐº":2521,"ÑĥÐ¼":2522,"Ð½Ð°ÐºÐ¾":2523,"ĠÑĥÑģÐ»Ð¾Ð²Ð¸":2524,"ĠÑģÑĤÐ°Ð½":2525,"ĠÐ®":2526,"ÑĳÐ½":2527,"Ġincluding":2528,"Ð»ÐµÐ´ÑĥÑİ":2529,"ĠÐ½Ð°ÑĪÑĥ":2530,"ĠÑģÐ»Ð¾Ð²Ð°Ð¼Ð¸":2531,"ĠÐ¿ÑĢÐ¾ÑĤÐ¸Ð²":2532,"ĠÐ´Ð²Ñĥ":2533,"cept":2534,"ĠÑģÐ¾Ð³Ð»Ð°":2535,"ĠGerm":2536,"ĠÐ¾ÑĤÐ²ÐµÑĤ":2537,"ĠÐ·Ð°ÑīÐ¸":2538,"ĠÐ¸Ð½ÑĤÐµÑĢ":2539,"As":2540,"ĠQ":2541,"oh":2542,"Ġdisc":2543,"Ġwant":2544,"ĠÐ½ÐµÐºÐ¾ÑĤÐ¾ÑĢ":2545,"Ġindust":2546,"ĠPar":2547,"ĠNew":2548,"Ġchild":2549,"ĠÑĤÐ¾ÑĢÐ³Ð¾Ð²":2550,"room":2551,"ÑĨÐ¸Ð°Ð»Ð¸":2552,"pr":2553,"the":2554,"ĠÐ²Ð°Ð¶":2555,"ÑģÑĤÐ°Ð²Ð»ÑıÐµÑĤ":2556,"ĠÑģÐ¸ÑģÑĤÐµÐ¼Ñĭ":2557,"Ð´Ð¸Ð½":2558,"ÑģÐ¸Ð¹":2559,"Ġleg":2560,"ÂŃ":2561,"Ġphot":2562,"ÐŀÐ±":2563,"ĠÐ¿Ð¾Ð·Ð²Ð¾Ð»Ñı":2564,"Ð¸Ð·Ð½ÐµÑģ":2565,"Ġide":2566,"rict":2567,"Ð¾Ð±Ð¸":2568,"Ġ2007":2569,"Ġsec":2570,"ĠUkraine":2571,"Ġrequire":2572,"Ġdoes":2573,"Ġeach":2574,"Ġsitu":2575,"Ġfact":2576,"Ġsongs":2577,"ards":2578,"ĠTe":2579,"rov":2580,"ÑīÐµÐ¹":2581,"yn":2582,"urg":2583,"ÑĨÐµÐ½":2584,"Ġpriv":2585,"ĠÐ³Ð¾ÑĢÐ¾Ð´":2586,"Ġ24":2587,"ze":2588,"ĠÐ¼Ð½Ð¾Ð³Ð¸":2589,"Ġterm":2590,"Ð³Ð¾ÑĤÐ¾Ð²":2591,"ĠÐ±Ð»Ð°":2592,"Ġsk":2593,"ĠÑıÐ·Ñĭ":2594,"ĠÑģÐ¾Ð²ÑĢÐµÐ¼ÐµÐ½":2595,"range":2596,"ÑĩÐ°ÐµÑĤ":2597,"Ġpop":2598,"ollow":2599,"ÑĨÐµÐ²":2600,"li":2601,"ĠÑįÑĦ":2602,"gg":2603,"Ð¾Ð½Ð¸":2604,"Ġwithin":2605,"Ġproduction":2606,"ĠÐ¦":2607,"ÐºÑĤÑĥ":2608,"ĠÑĥÐ²Ðµ":2609,"alth":2610,"An":2611,"ĠÐ¸Ð¼ÐµÐµÑĤ":2612,"uman":2613,"ÑģÑĤÐ²Ð¾Ð¼":2614,"hor":2615,"ple":2616,"ĠÐľÐ¸":2617,"oot":2618,"ĠÑĢÐ°Ð·Ð»Ð¸Ñĩ":2619,"ĠÐĹÐ°":2620,"ĠÐºÐ¾ÑĤÐ¾ÑĢÑĭÑħ":2621,"Ġfound":2622,"ÑĢÐ¾ÑģÑĤ":2623,"ĠRoom":2624,"ĠÐ¸Ð³ÑĢÐ°":2625,"ined":2626,"Ð´Ð¶":2627,"ÑĩÐ½Ð¾Ð¹":2628,"ÑıÐ²":2629,"Ġfavorite":2630,"ÐºÐ°Ð¼Ð¸":2631,"ÑıÐ¼Ð¸":2632,"Ġcost":2633,"ĠÐ½ÑĥÐ¶":2634,"ĠÑİ":2635,"ours":2636,"ĠÐ²ÑĭÐ¿Ð¾Ð»":2637,"Ġpri":2638,"ĠÑĥÐ¿ÑĢÐ°Ð²":2639,"ĠÑģÐ¿Ð¸ÑģÐºÐµ":2640,"Ã¤":2641,"Ð±Ñĥ":2642,"Ð²Ð°ÑĢ":2643,"ability":2644,"urity":2645,"Ġret":2646,"less":2647,"ĠÑĦÑĥÐ½Ðº":2648,"Ġclient":2649,"ĠÐ¾ÑģÐ¾Ð±":2650,"ÑĢÐ¾Ð²Ð°Ð½Ð¸Ðµ":2651,"ÑģÑĤÑĢÐ¾Ð¹":2652,"Ġrestaur":2653,"Ġbeing":2654,"ÐµÐ»Ð°":2655,"...\"":2656,"ĠÐ´ÐµÑıÑĤÐµÐ»ÑĮ":2657,"akes":2658,"ĠMan":2659,"ung":2660,"Ġele":2661,"ĠÐ´ÐµÐ½ÑĮ":2662,"ÐĴÑģÐµ":2663,"ĠÐºÐ»ÑİÑĩÐµÐ²ÑĭÐ¼Ð¸":2664,"ining":2665,"ĠÐ¿Ð¾Ð´Ð´ÐµÑĢÐ¶":2666,"Ġfriend":2667,"Wh":2668,"ÑīÐ°Ñı":2669,"ĠEU":2670,"imes":2671,"Ġlevel":2672,"Ġeffect":2673,"AN":2674,"rop":2675,"ĠAn":2676,"ÑīÐµÐµ":2677,"Ġvisit":2678,"Ġ\"...":2679,"ĠÑģÐµÐ±Ñı":2680,"IS":2681,"ĠÑĤÑĢÐ°Ð½":2682,"Ð°ÑĤÐ¸":2683,"ĠÐ´Ð°Ð¶Ðµ":2684,"ÑĨÐ¸ÐµÐ¹":2685,"ĠÐºÐ»Ð°":2686,"Ġpay":2687,"ÐµÑĤÑĭ":2688,"ĠMar":2689,"Ð²Ð¸Ð´":2690,"ĠÐ¼Ð°Ñģ":2691,"ĠÐ±ÐµÐ·Ð¾Ð¿Ð°Ñģ":2692,"ĠÐ°Ð»ÑĮÐ±Ð¾Ð¼Ð°":2693,"ÑĢÐ°ÑĤ":2694,"Ġlast":2695,"ĠInternational":2696,"cell":2697,"ands":2698,"ĠÑĤÑĥ":2699,"Ð¸Ð½Ðµ":2700,"ĠÑĤÑĢÐµ":2701,"Ð¾Ð²Ð°Ð½Ð¸Ðµ":2702,"ÑĢÑĥÐ³":2703,"Ġcondition":2704,"ĠÐ²Ð½Ðµ":2705,"ĠÐ¼Ð¸ÑĢÐ°":2706,"ÑıÐ±":2707,"Ġevent":2708,"ÐºÑĨÐ¸Ð¸":2709,"Ġdi":2710,"ament":2711,"ÑĤÐµÐ³Ð¾ÑĢÐ¸Ð¸":2712,"ftware":2713,"Ġ198":2714,"ĠÐ¾Ð±ÑĢÐ°Ð·Ð¾Ð¼":2715,"Ġi":2716,"11":2717,"Ð°ÑĢÐ¸":2718,"ilit":2719,"illion":2720,"ĠOf":2721,"ĠÐ¼Ð°ÑĤÐµÑĢÐ¸":2722,"utes":2723,"ĠÑģÐ¾ÑģÑĤÐ¾Ñı":2724,"ĠÐĶÐ¶":2725,"ĠÐ³Ð¾ÑģÑĤÐµÐ¹":2726,"ĠInd":2727,"na":2728,"pon":2729,"ï¿½ï¿½":2730,"Ġold":2731,"be":2732,"Ġmeet":2733,"So":2734,"Ð¿Ð¸ÑģÐ°":2735,"ĠÑĩÐµÑĢÐµÐ·":2736,"ĠÑģÐ²ÑıÐ·Ð°Ð½":2737,"All":2738,"ÐµÐ½Ð½ÑĭÐµ":2739,"ases":2740,"ĠÐ¿ÑĢÐ¾Ð´Ð°":2741,"Ġpass":2742,"ĠÑĦÐ°Ð¹":2743,"Ð¼Ð°Ð½":2744,"ĠÑĢÐ°Ð¹":2745,"artment":2746,"Ġinstall":2747,"ush":2748,"inal":2749,"Ġpolitical":2750,"ĠÐ¾Ð±Ð¾ÑĢÑĥÐ´":2751,"ĠÐ¿ÑĢÐµÐ´Ð¿ÑĢÐ¸ÑıÑĤÐ¸":2752,"ivid":2753,"ĠÑĢÐ¸":2754,"ĠÐºÐ¾Ð»Ð»ÐµÐºÑĨÐ¸Ñİ":2755,"ĠÐºÑĥÑĢ":2756,"ÑĭÑĪ":2757,"iron":2758,"cri":2759,"utions":2760,"ĠChina":2761,"ĠÐļÐ¾Ð½":2762,"Ð°Ð´":2763,"ĠÐļÐ¸ÑĤÐ°":2764,"Ġlanguage":2765,"Ð¾Ð²Ð°Ñı":2766,"Our":2767,"ĠAir":2768,"ĠÑĥÐ³":2769,"Ġglobal":2770,"Ġlit":2771,"ĠÐ¾Ð±Ð»Ð°ÑģÑĤÐ¸":2772,"ÑĤÑĢÐ¸":2773,"Ġbefore":2774,"ĠÑĩÐ°ÑģÑĤ":2775,"ÑģÑĤÐ°Ð½":2776,"Ð¾Ð»Ð¸ÑĩÐµÑģÑĤÐ²":2777,"Ġdata":2778,"Ġimportant":2779,"To":2780,"ĠAll":2781,"ÐŀÐ´":2782,"Ġcho":2783,"Ġnear":2784,"ÐŁÐ¾Ñģ":2785,"ĠÐ»ÑİÐ±Ð¸Ð¼Ð¾Ð¹":2786,"ĠÐ´Ð¾Ð¿Ð¾Ð»":2787,"ĠÑģÐ²Ð¾Ðµ":2788,"IN":2789,"anies":2790,"ĠServ":2791,"ason":2792,"ront":2793,"ĠÑħÐ¾ÑĢÐ¾":2794,"ĠÑģÑĤÑĢÐ°Ð½Ð¸ÑĨÐµ":2795,"loy":2796,"ĠÐ¾Ð¿ÑĢÐµÐ´Ðµ":2797,"Ġsince":2798,"omet":2799,"Ġbed":2800,"ÑĦÐµÑģ":2801,"Ġ100":2802,"Ġaccount":2803,"ÑĤÐ°Ñħ":2804,"ĠÑĤÑĢÐ°":2805,"ĠÑģÑĤÐ¸":2806,"Ð¼ÐµÐ½Ð¸":2807,"Ġlarge":2808,"Ð¸Ð¼Ð¾ÑģÑĤÑĮ":2809,"ĠÑĩÐ¸":2810,"cond":2811,"Ð»Ð¾Ð¼":2812,"ĠGo":2813,"Ð½ÑĮ":2814,"ĠÑģÐ»ÑĥÑĩÐ°Ðµ":2815,"Ðĸ":2816,"ton":2817,"ĠÐ´Ð¾ÑģÑĤÐ¸":2818,"men":2819,"ĠAd":2820,"Ð²Ð°ÐµÑĤÑģÑı":2821,"ĠÐŀÑĤ":2822,"Ġhere":2823,"30":2824,"ĠÑĥÑģÐ»ÑĥÐ³":2825,"Ġconc":2826,"'t":2827,"Ġfinancial":2828,"Ġcurrent":2829,"Ð²Ð»Ðµ":2830,"ĠÐ¾Ð³":2831,"oo":2832,"Ð¾ÑĢÐ°":2833,"raph":2834,"Ġvers":2835,"Ġprovide":2836,"ĠÐ´ÐµÐ¼":2837,"ĠÐ²Ð¾Ð¹":2838,"joy":2839,"ĠÐ³Ð¾ÑĢÐ¾Ð´Ð°":2840,"fer":2841,"Ð¾Ð½Ð¾Ð²":2842,"ĠAnd":2843,"ĠÐłÐ¾ÑģÑģÐ¸Ð¸":2844,"Ġ16":2845,"ÐĿÐµ":2846,"ĠÑĢÐ°ÑģÑģ":2847,"ÑīÐµÐ½Ð¸Ðµ":2848,"Ġiss":2849,"Ġcustomers":2850,"Ġbas":2851,"ÑģÐ¸Ñı":2852,"ÑĪÐ¸Ð¹":2853,"Ġwhile":2854,"ÑĦÐµÐºÑĤÐ¸Ð²":2855,"Ġnational":2856,"And":2857,"ared":2858,"ĠÐºÐ»Ð¸ÐµÐ½ÑĤÐ°":2859,"Booking":2860,"Ð½Ð°Ð¼Ð¸":2861,"Ġprom":2862,"Ð¼Ð¸Ð½Ð¸":2863,"ĠÐ¾Ð½Ð°":2864,"ÑĤÐ°Ð½":2865,"iving":2866,"ring":2867,"ĠÐ½Ð°ÑĪÐ¸":2868,"Ġprofess":2869,"aterial":2870,"Ð¾ÑĤÑı":2871,".,":2872,"ames":2873,"ĠÑģÑĤÑĢÐ°Ð½Ð¸ÑĨÑĭ":2874,"agement":2875,"ording":2876,"Ð½ÐµÐ³Ð¾":2877,"Ð²Ð°Ð»Ð¸":2878,"ĠÐ²Ð¸Ð´":2879,"ĠÑĦÐ°":2880,"ĠÐ¼ÐµÑĢ":2881,"pos":2882,"ĠÐ¿Ð»Ð¾":2883,"ĠÐ½Ð°ÑħÐ¾Ð´Ð¸ÑĤÑģÑı":2884,"Ġsuccess":2885,"eng":2886,"ÑİÑīÐ¸Ðµ":2887,"orth":2888,"ified":2889,"amb":2890,"Ġnon":2891,"AR":2892,"ĠÐºÐ¾Ð»Ð¸ÑĩÐµÑģÑĤÐ²":2893,"Ð¸Ð»Ð¸":2894,"At":2895,"ĠÐ·Ð°Ð¿":2896,"ON":2897,"Ġfollow":2898,"Ð¿Ð°Ð´":2899,"Ġlife":2900,"ĠÐ²Ð¸Ð´ÐµÐ¾":2901,"Ġ50":2902,"Ġeng":2903,"AT":2904,"ÑıÑĤÑģÑı":2905,"ĠÐ¾Ð´Ð¸Ð½":2906,"ĠÐ¾ÑģÑĥÑīÐµÑģÑĤÐ²":2907,"ÐºÐ»Ð¸":2908,"Ġcert":2909,"ĠÐ´Ñĥ":2910,"ÑĦÐµÑĢÐµÐ½":2911,"Ð¾Ð¿ÑĢÐ¸":2912,"Ġcompanies":2913,"ÑħÐ¾Ð´Ð¸ÑĤ":2914,"ÐºÑĤÐ¾ÑĢ":2915,"ĠÐ·Ð°ÐºÐ¾Ð½":2916,"Ġview":2917,"ĠÐĴÐ°Ð¼":2918,"Ã²":2919,"Ð¾Ð±Ð¾Ð´":2920,"ĠWest":2921,"ÑħÑĢÐ°":2922,"ĠFran":2923,"ĠÐ¿ÑĢÐ¾ÐµÐºÑĤ":2924,"ÑĢÐ°Ð±Ð¾":2925,"ote":2926,"Ġspec":2927,"sp":2928,"ways":2929,"Ð¾Ð¶Ð´":2930,"Ð»ÐºÐ¸":2931,"ĠÐ½Ð°ÑģÑĤÐ¾Ñı":2932,"ÑĪÐ¸Ð¼":2933,"ĠPol":2934,"ĠFor":2935,"ĠÑĤÐµÑĢÑĢÐ¸ÑĤ":2936,"oint":2937,"ajor":2938,"ĠÐ¾Ð±ÑģÐ»ÑĥÐ¶Ð¸Ð²Ð°":2939,"Ġpoint":2940,"Ð¿ÑĢÐ¸Ð¼ÐµÑĢ":2941,"Ð±Ð¾Ð»":2942,"ĠRep":2943,"ĠÐ½Ð°Ð¹":2944,"Ġdid":2945,"Ġwater":2946,"by":2947,"Ġes":2948,"Ð¾ÑĢÑĤÐ°":2949,"ÑĤÐµÑģÑĮ":2950,"ĠÑģÐµÐ³Ð¾Ð´Ð½Ñı":2951,"ÑĩÐµÑģÐºÐ°Ñı":2952,"ÑĭÑĤ":2953,"Ð´Ð¾Ð±":2954,"Ġperform":2955,"Ð³Ð°Ð½":2956,"Ġelect":2957,"ĠÑĥÑģÐ¿Ðµ":2958,"Ġreport":2959,"Ð¸Ð½Ñĭ":2960,"Ġ11":2961,"ĠÐ±Ð¸Ð·Ð½ÐµÑģ":2962,"Ġann":2963,"ĠÐ»ÑİÐ´ÐµÐ¹":2964,"Ġlaw":2965,"Ġproper":2966,"Ġthree":2967,"Ã±":2968,"ĠÐ½Ð°Ð´":2969,"ĠÐ½Ð°Ð¿ÑĢÐ°Ð²":2970,"ination":2971,"ense":2972,"Ġrepresent":2973,"Ġapplic":2974,"Ġdownload":2975,"ĠÐ¿Ð¾Ðº":2976,"ÑİÑīÐ¸Ð¹":2977,"ĠÑĨÐµÐ½":2978,"ird":2979,"Ġ14":2980,"Ð¾Ð»Ð¾Ð´":2981,"Ġclose":2982,"ĠÐ¿ÑĢÐ¾Ð¶Ð¸":2983,"ĠÑģÑĤÑĢÐ¾":2984,"Ġagainst":2985,"Ġwalk":2986,"Ġcreate":2987,"Ð¸ÑĢ":2988,"ĠÐ¾Ð¿ÐµÑĢÐ°":2989,"ÑİÑīÐµÐ¹":2990,"Ġreviews":2991,"ĠÐ²Ð¾Ð´":2992,"ÑĤÐ¾Ñĩ":2993,"ior":2994,"Ð¾ÐºÑĢÐ°ÑĤÐ¸":2995,"ĠÐ¼Ñĥ":2996,"ĠÑĢÐ°ÑģÐ¿Ð¾Ð»Ð¾Ð¶ÐµÐ½":2997,"eep":2998,"ĠÐºÐ¾Ð½ÑĤÑĢ":2999,"ĠÐ¿ÑĢÐ¾Ð´Ð¾Ð»":3000,"ider":3001,"ĠÐ²ÑĭÐ±":3002,"rag":3003,"ategories":3004,"Ġel":3005,"ÑģÐºÐ¾Ðµ":3006,"ĠÐºÑĢÑĥÐ¿":3007,"Ð¶Ð¸Ð¼":3008,"ission":3009,"ĠÐ·Ð°Ð´Ð°":3010,"ĠÐ¿ÑĢÐ¾Ð³ÑĢÐ°Ð¼Ð¼":3011,"Ġlocal":3012,"Ġher":3013,"hib":3014,"uss":3015,"Ð·ÑĭÐ²Ñĭ":3016,"Ð°Ð³Ð°":3017,"Ð¶ÐµÐ½":3018,"come":3019,"ÑĢÑĥÐ·":3020,"ĠII":3021,"ĠÐ²Ð½ÑĥÑĤ":3022,"lev":3023,"Ġbeaut":3024,"Ġmaterial":3025,"ĠDes":3026,"ĠÐ¸Ð·Ð²ÐµÑģÑĤ":3027,"Ġpack":3028,"iven":3029,"ĠÐ½ÐµÐ¼":3030,"Ã¶":3031,"ĠÐ¼Ð¸ÑĢÐ¾Ð²":3032,"ÑģÐºÐ¸Ð¼":3033,"ĠÑįÑĤÐ¾ÑĤ":3034,"ĠÑĥÑĩÐ°ÑģÑĤÐ¸":3035,"ext":3036,"ĠBel":3037,"ately":3038,"tt":3039,"ĠÐºÑĤÐ¾":3040,"iev":3041,"ĠÐ³Ð»Ð°Ð²":3042,"ĠÐºÐ¾Ð¼Ð¿Ð°Ð½Ð¸Ñı":3043,"lex":3044,"Ġparticip":3045,"osp":3046,"rid":3047,"ĠMy":3048,"Ġbreakfast":3049,"ĠÑģÐ¿ÐµÑĨÐ¸Ð°Ð»Ð¸":3050,"med":3051,"ĠÐ¿ÑĢÐ¾ÑĦÐµÑģ":3052,"sib":3053,"Ġ2006":3054,"ĠÐ¿ÑĢÐ¾Ð²ÐµÐ´":3055,"ÑĢÐ¾Ð±":3056,"ĠÐ³Ð¾ÑģÑĥÐ´Ð°ÑĢÑģÑĤÐ²ÐµÐ½":3057,"rist":3058,"ÐļÐ¾Ð¼":3059,"ĠÐ½ÐµÐ¾Ð±ÑħÐ¾Ð´Ð¸Ð¼":3060,"ible":3061,"Ð¹Ð½":3062,"ĠUnited":3063,"icial":3064,"inian":3065,"ĠÑħÐ¾":3066,"ĠÐ¸ÑģÐ¿Ð¾Ð»ÑĮÐ·Ñĥ":3067,"Ð°ÐºÑģ":3068,"ĠÐ°Ðº":3069,"ÐºÐ°Ð·":3070,"ĠÑįÑĤÐ°":3071,"Ġless":3072,"ÐµÐºÑĤÐ°":3073,"iver":3074,"ĠÑģÐ²Ð¾Ñİ":3075,"par":3076,"ex":3077,"cing":3078,"oman":3079,"ĠÑıÐ²Ð»ÑıÑİÑĤÑģÑı":3080,"Ġaround":3081,"viron":3082,"outh":3083,"Ġ17":3084,"ĠÐ½ÐµÐ·Ð°":3085,"Ð¶Ð´Ð°":3086,"ĠÑĢÐ°Ð·Ð¼Ðµ":3087,"Ġlarg":3088,"change":3089,"Ġcult":3090,"ĠPal":3091,"lation":3092,"ference":3093,"Ġclass":3094,"ody":3095,"ÑĤÐµÐº":3096,"Ġsl":3097,"ĠÐ³Ð¾Ð²":3098,"ĠÑĥÑĩÐ°ÑģÑĤ":3099,"ipment":3100,"Ãĳ":3101,"ats":3102,"ĠÐ³Ð¾Ð»":3103,"ĠÑĥÐ´Ð°":3104,"Ð·Ð²Ð°":3105,"omm":3106,"Ġmajor":3107,"Ġexperience":3108,"ĠÐ½ÐµÑģÐºÐ¾Ð»ÑĮÐºÐ¾":3109,"Ð»Ð¸Ð¹":3110,"ample":3111,"Ġ25":3112,"Ð¾Ð¿Ð¸":3113,"Ġsystems":3114,"ĠÐ·Ð½Ð°ÑĩÐ¸":3115,"Ð´Ð¸ÑĨÐ¸Ð¾Ð½":3116,"ĠÐ¸Ð´Ðµ":3117,"Ð½Ð¸ÑĤÑĮ":3118,"ĠÐ½ÐµÐ¿":3119,"Ġmus":3120,"Ġris":3121,"Ġtour":3122,"site":3123,"ĠÐ´ÑĢÑĥÐ³Ð¸Ðµ":3124,"ĠÐ¾ÑĤÐµÐ»ÑĮ":3125,"ĠOn":3126,"Ġchang":3127,"Ġcontrol":3128,"Ġbet":3129,"ained":3130,"ĠÑģÐµÐ¼":3131,"Ġenter":3132,"ruction":3133,"ÑĤÐ²ÐµÑĢ":3134,"Ġquest":3135,"ĠÑįÑĦÑĦÐµÐºÑĤÐ¸Ð²":3136,"Ġ$":3137,"ĠÐ¾ÑĦÐ¸":3138,"Ġhand":3139,"ĠÐ²Ð½Ð¸Ð¼Ð°":3140,"Ġ'":3141,"ĠÑĢÐ°Ð·ÑĢÐ°Ð±Ð¾ÑĤ":3142,"ino":3143,"org":3144,"Ð²Ð½Ð¾":3145,"ĠÐ²ÑĢÐµÐ¼ÐµÐ½Ð¸":3146,"ĠÐºÑĥÐ»ÑĮ":3147,"Ġname":3148,"Ð°ÑĢÑı":3149,"ĠÑģÐ²Ð¾Ð¹":3150,"iation":3151,"aster":3152,"ĠWe":3153,"ĠÐ¿ÑĢÐ¾Ð¼":3154,"Ġchange":3155,"ÑĢÐ¾Ð¼Ðµ":3156,"ipp":3157,"ÑĦÐ¸ÐºÐ°":3158,"Ð²Ð¸Ñĩ":3159,"ÑĩÐ¸Ñģ":3160,"ĠInternet":3161,"ĠAm":3162,"ĠÑĢÐµÐ°Ð»ÑĮ":3163,"ĠÐ¿ÐµÑĢÐµÐ´":3164,"Ð¼ÐµÑĢÐ¸ÐºÐ°Ð½":3165,"Ġrelated":3166,"ÐŀÑĤ":3167,"ÐµÑĨ":3168,"ÑıÐ²Ð¸":3169,"ĠÑĦÐ¾ÑĤ":3170,"ÐļÐ°Ðº":3171,"Ġclean":3172,"List":3173,"ĠÐ½Ð¸Ñħ":3174,"Ġfull":3175,"iety":3176,"Ð³Ð»Ð°":3177,"Ġforeign":3178,"rem":3179,"etwork":3180,"ĠÐ¾ÑĪÐ¸":3181,"Ġpict":3182,"ĠÐ¼Ð¸Ð½Ð¸":3183,"Ð¾Ð±ÑĢÐ°":3184,"ĠÐ´Ð°Ð½Ð½ÑĭÑħ":3185,"ĠÐ¸Ð½ÑĦÐ¾ÑĢÐ¼Ð°ÑĨÐ¸Ð¸":3186,"ĠÐ¾Ð±Ñı":3187,"ĠÐ¿ÑĢÐ¸Ð¼ÐµÐ½":3188,"ĠÐ¿ÑĢÐ¾ÑģÑĤÐ¾":3189,"ulation":3190,"ency":3191,"ĠÐ±ÐµÑģÐ¿Ð»Ð°ÑĤÐ½Ð¾":3192,"ES":3193,"Ð¾ÑĢÐ¾Ð½":3194,"ĠÐ·Ð°ÐºÐ»Ñİ":3195,"Ġprot":3196,"ÐºÐ¸Ð¹":3197,"ights":3198,"Ġsal":3199,"aint":3200,"Ð²ÑĢÐ¾Ð¿ÐµÐ¹":3201,"ĠÐ¾ÑĢÐ³Ð°Ð½Ð¸Ð·Ð°":3202,"ross":3203,"Ġfunction":3204,"ĠWh":3205,"ĠÐ¿ÑĢÐµÐ´ÑģÑĤÐ°Ð²Ð¸":3206,"Ð¶Ð¸ÑĤ":3207,"ĠÑĢÐµÐ³Ð¸ÑģÑĤÑĢÐ°":3208,"ocu":3209,"Ġetc":3210,"Ġrun":3211,"ĠÐ¿Ð¾Ð»ÑĥÑĩÐ¸":3212,"hing":3213,"ÑĢÐµÑĤ":3214,"ĠÐ¿Ð¾Ð´ÐºÐ°":3215,"ĠBar":3216,"omen":3217,"ĠÑĩÐ°ÑģÑĤÑĮ":3218,"Ġbo":3219,"Ġaddition":3220,"Ð³Ð´Ð°":3221,"att":3222,"Ġchildren":3223,"Ġnecess":3224,"Ð¾ÑĢÐ¾Ð½Ñĭ":3225,"ention":3226,"ÑĤÐµÐ¼":3227,"ĠÐ¡Ð¾":3228,"sh":3229,"ĠÐ´Ð²ÑĥÑħ":3230,"Ġfew":3231,"Ġtradition":3232,"ĠÑĦÐ¸ÑĢ":3233,"rad":3234,"ĠÐ¼Ð¾Ð´":3235,"aces":3236,"ĠÑĢÐ¾Ñģ":3237,"ĠRes":3238,"ĠÐ¼Ð¸ÑĢÐµ":3239,"ĠSc":3240,"apan":3241,"ÑģÑĤÑĥÐ¿Ð°":3242,"ÑģÑĤÐ¾ÑıÐ½":3243,"Ġauthor":3244,"Ð³ÑĢÐ°Ð½Ð¸":3245,"Ð°Ð»Ð°":3246,"ĠÑģÐ²Ð¾Ð¸Ñħ":3247,"Ġstill":3248,"ĠÐ¿ÑĢÐ¾Ñģ":3249,"Ġenjoy":3250,"Ġdev":3251,"Ð»Ð¸Ð±Ð¾":3252,"Ġallow":3253,"Ġsoftware":3254,"ufact":3255,"ying":3256,"Ð½ÐµÐ¼":3257,"Ġbecome":3258,"Ð¾ÑĢÑı":3259,"ĠÑĥÐ½Ð¸":3260,"Ġemp":3261,"ÐĺÐ½":3262,"ĠÐĲÐ½":3263,"categories":3264,"ĠÐ¿ÑĢÐ¾ÑģÑĤ":3265,"ĠÑįÑĤÐ¸Ñħ":3266,"ĠÐ½Ð¾Ð¼ÐµÑĢÐ¾Ð²":3267,"ww":3268,"une":3269,"ĠÐ¼Ð¸Ð»Ð»Ð¸":3270,"ÐµÑĢÑĤ":3271,"Ġdu":3272,"ÐºÐ°Ð·ÑĭÐ²Ð°":3273,"pecial":3274,"ĠÐĿÐ¸":3275,"ese":3276,"ĠCar":3277,"ĠÑįÐ½ÐµÑĢ":3278,"Ġestab":3279,"Ð»Ð¸Ð¼":3280,"ÑģÑĤÐ²Ðµ":3281,"Ġbig":3282,"ĠÐ¿Ð¾Ð´ÐºÐ°ÑĤÐµÐ³Ð¾ÑĢÐ¸Ð¸":3283,"ĠOr":3284,"iful":3285,"ode":3286,"Ġprice":3287,"''":3288,"atch":3289,"Ġsw":3290,"ĠÐ²ÑĭÐ±Ð¾ÑĢ":3291,"Ġbased":3292,"ĠÐ¾ÑĤÐµ":3293,"ĠÐ¼Ð¾Ð¼":3294,"ĠÐ¿ÑĢÐ¾Ð³ÑĢÐ°Ð¼Ð¼Ñĭ":3295,"ling":3296,"ield":3297,"Ġbuilding":3298,"nov":3299,"Ġnext":3300,"ÑģÑĤÐ²Ñĥ":3301,"ĠÑĩÐµÐ»Ð¾Ð²ÐµÐºÐ°":3302,"ÑĭÑĪÐ»ÐµÐ½":3303,"Ġshort":3304,"ĠÐ¸Ð½Ð²ÐµÑģÑĤÐ¸":3305,"ĠÐ´Ð¾ÐºÑĥ":3306,"ĠÑģÐ¼":3307,"Ġhuman":3308,"ĠSu":3309,"thing":3310,"ĠÐĺÐ½ÑĤÐµÑĢ":3311,"ĠLa":3312,"vironment":3313,"ĠÐ¶Ð¸Ð·Ð½Ð¸":3314,"iod":3315,"Ġminutes":3316,"ently":3317,"Ġtoo":3318,"Ġcase":3319,"Ð¼Ð¾":3320,"Ġpark":3321,"ĠÑĢÑĥÐºÐ¾Ð²":3322,"ÑĢÐ°Ð½ÐµÐ½Ð¸Ñı":3323,"Ġcomfortable":3324,"ÑĦÐ¸ÑĨÐ¸":3325,"ÑĢÑıÐ´":3326,"ĠÑģÑģÑĭ":3327,"ĠÐ½Ð°ÑĨÐ¸Ð¾Ð½Ð°Ð»ÑĮ":3328,"ĠÑģÐ¿ÐµÑĨÐ¸Ð°Ð»ÑĮ":3329,"Ð¢Ð°Ðº":3330,"ĠÐ¿ÐµÑĢÐ¸":3331,"Ð²Ð¾Ð·":3332,"ĠÐºÐ¾ÑĤÐ¾ÑĢÐ¾Ð¹":3333,"Ð±ÐµÐ»ÑĮ":3334,"ĠÑĢÐ°Ð·Ð²Ð¸ÑĤÐ¸Ñı":3335,"Ð»ÑĮÐ½Ð¾":3336,"ĠÐ¿ÑĢÐ°ÐºÑĤÐ¸":3337,"Ð³Ð¸Ð¸":3338,"ÑģÐ½Ð¾":3339,"ĠÐ¸ÑģÑĤÐ¾ÑĢÐ¸":3340,"Ġappe":3341,"ĠÐºÐ¾Ð½ÐºÑĥ":3342,"ĠÑģÐ²Ð¾Ð±Ð¾Ð´":3343,"Ġcompet":3344,"ÐºÑģ":3345,"With":3346,"ÑĩÐ½ÑĭÑħ":3347,"ĠRepublic":3348,"ĠÐ¿Ð¾Ð±":3349,"ĠÐĴÐ°Ñģ":3350,"Ð¡Ð¿Ð¸":3351,"Ð»Ð¸Ð½":3352,"ĠÑĪÐ¸ÑĢÐ¾Ðº":3353,"Ð½ÐµÐ½Ð¸Ñı":3354,"Ġcomb":3355,"ĠÐ¿ÑĢÐµÐ·Ð¸Ð´":3356,"Ġ:":3357,"ÐłÐµ":3358,"ÃĹÃĹÃĹÃĹ":3359,"OR":3360,"ille":3361,"ĠÑĥÐ´Ð¾Ð±":3362,"Ġequipment":3363,"Ð¶ÐµÐ½Ð¸Ñı":3364,"Ġshe":3365,"ĠÐ¿ÑĢÐµÐ´Ð¾ÑģÑĤÐ°Ð²Ð»Ñı":3366,"Ġpost":3367,"ÐµÐ¼ÑĭÑħ":3368,"Ġbar":3369,"ĠÑĩÐ°ÑģÑĤÐ¸":3370,"ĠÑĨÐµ":3371,"Ġdom":3372,"ĠÐ»ÐµÐ³":3373,"ÐºÑĤÐ¾Ð²":3374,"ĠPart":3375,"ential":3376,"ĠEn":3377,"ĠÑģÐ¾Ð¾ÑĤÐ²ÐµÑĤÑģÑĤÐ²ÑĥÑİÑīÐ¸Ñħ":3378,"cellent":3379,"Ġsecond":3380,"lin":3381,"ĠÐ¸ÑģÑģÐ»ÐµÐ´":3382,"Ġindivid":3383,"ky":3384,"Ð¼ÐµÑĤ":3385,"Ð½Ð°Ð»Ð¸":3386,"Ð¿Ð°ÑĢ":3387,"ready":3388,"ĠÑĤÑĭ":3389,"ĠÐ¾ÑĪÐ¸Ð±":3390,"Ġregion":3391,"Ġstation":3392,"Ġmonth":3393,"mber":3394,"Ġexample":3395,"Ġrespon":3396,"Ġalways":3397,"ĠÐĲÑĢ":3398,"Ġbath":3399,"inc":3400,"ij":3401,"osc":3402,"ĠÐ¿ÑĢÐ¾ÑĪ":3403,"ko":3404,"ĠÐ²ÑģÑĤÑĢÐµ":3405,"ĠÐ´Ð²Ð°":3406,"Ġhard":3407,"ID":3408,"ĠÑĩÐ»ÐµÐ½":3409,"Un":3410,"ĠÐ¿Ð¾ÑĤÑĢÐµÐ±":3411,"stand":3412,"ÑĢÐµÐ¹":3413,"Ġregist":3414,"ĠCount":3415,"ĠAmerica":3416,"Ġlook":3417,"ÑĩÑĮ":3418,"ĠSer":3419,"ÑĥÐ°":3420,"Ġturn":3421,"ĠDep":3422,"agn":3423,"Ġaway":3424,"Ġshow":3425,"chool":3426,"ĠComp":3427,"ĠÐ·Ð°Ð³":3428,"Ġshop":3429,"Ġmanufact":3430,"Ġmoney":3431,"Ġpolicy":3432,"ÐĻ":3433,"ĠÐ½ÐµÐ¾Ð±ÑħÐ¾Ð´Ð¸Ð¼Ð¾":3434,"ĠÐ´Ð¾Ð¼":3435,"Ð¢Ð°":3436,"minist":3437,"ĠÐ·Ð°Ð½Ð¸Ð¼Ð°":3438,"Ġworking":3439,"aly":3440,"Ġ13":3441,"Ð²ÑĢÐ°":3442,"ending":3443,"ÑĥÑĩÐµÐ½Ð¸Ñı":3444,"Ġaddress":3445,"Ġgrowth":3446,"ÑħÐ¾Ð²":3447,"ÑĭÑĤÐ°":3448,"ĠÐºÐ¾Ð¼Ð¿ÑĮÑİ":3449,"Â«":3450,"Ð·Ð¸Ð¸":3451,"ÑĮÐµÑĢ":3452,"Ġbeg":3453,"ĠÐľÐµ":3454,"arly":3455,"Ð¡Ð¿Ð¸ÑģÐ¾Ðº":3456,"Ð³Ðµ":3457,"ĠÐ¼ÐµÑģÑĤÐ¾":3458,"ĠÐ¾ÑĤÐ½Ð¾ÑĪ":3459,"ÑĤÐ¸Ð¸":3460,"enn":3461,"ÑĢÐ°Ñħ":3462,"aus":3463,"Ġmembers":3464,"ÑĪÐ°Ñı":3465,"He":3466,"ĠÐ³ÑĢÐ°Ð¶":3467,"ĠÑģÐ°":3468,"Ġbank":3469,"Ð²Ð¸Ð´Ñĥ":3470,"ĠÑģÑĩÐ¸ÑĤÐ°":3471,"Ð¼Ð°ÑĤÐ¸":3472,"bian":3473,"ĠÑĥÑĩ":3474,"Ar":3475,"rodu":3476,"Ġcare":3477,"Ġteam":3478,"lement":3479,"ĠÑģÐµÐº":3480,"reet":3481,"ĠÑģÑĤÐ°Ð½Ð´Ð°ÑĢ":3482,"ites":3483,"ĠÐ¿Ð°ÑĢÑĤ":3484,"ĠÑĪÐ°":3485,"ĠÑģÑĤÑĢÐ°Ð½Ð¸ÑĨÐ°Ñħ":3486,"ĠÐ¼Ð¾":3487,"Ð²Ñı":3488,"ĠPh":3489,"Ġsocial":3490,"Ð½ÑıÐ¼":3491,"ĠÐ´Ð¾Ð¿Ð¾Ð»Ð½Ð¸ÑĤÐµÐ»ÑĮ":3492,"idd":3493,"ieve":3494,"ĠÑĦÐ¾ÑĤÐ¾Ð³ÑĢÐ°ÑĦÐ¸":3495,"Ġmult":3496,"fully":3497,"ĠÐ²ÑĭÑģÑĤÐ°Ð²":3498,"Ġsty":3499,"ĠÐ½Ð°Ð´Ðµ":3500,"Ġprivate":3501,"ĠÐ¿Ð»Ð¾ÑīÐ°":3502,"ÑĩÐµÑģÐºÐ¾Ðµ":3503,"ĠÐ¶ÐµÐ½":3504,"ĠSw":3505,"Ġrange":3506,"ĠÐ½Ð°ÑĪÐ¸Ñħ":3507,"Ð»ÑĮÐ½ÑĭÐ¹":3508,"Ġmeans":3509,"ka":3510,"Ġtop":3511,"ÑīÐ¸ÐµÑģÑı":3512,"ĠÑģÐ¾ÑĤÑĢÑĥÐ´Ð½Ð¸":3513,"ÑĪÐ¸Ð½":3514,"Ġsever":3515,"AS":3516,"Ð»Ð¾Ð±":3517,"Ġdocu":3518,"ÑĤÐ¸Ðµ":3519,"ĠÐ¿Ð¾Ð·Ð²Ð¾Ð»ÑıÐµÑĤ":3520,"Ð²Ð¾Ð¹":3521,"ÑģÐµÑĢ":3522,"Ġhome":3523,"oking":3524,"ĠAf":3525,"ians":3526,"Ġchar":3527,"ĠTo":3528,"Ð¹ÑģÐºÐ¸Ñħ":3529,"ĠÑĨÐ¸":3530,"ĠÐ½Ð°ÑĪÐµÐ¹":3531,"ĠÐ³Ð»Ð°":3532,"oss":3533,"ÑĤÑĥÑĢ":3534,"Ġhig":3535,"Ġalready":3536,"ĠÑĤÐµÑĩÐµÐ½Ð¸Ðµ":3537,"ĠÐĵÐµÑĢ":3538,"ĠComm":3539,"Ġbro":3540,"ÑĤÐ°Ð¼Ð¸":3541,"Ġcourse":3542,"oper":3543,"ĠService":3544,"ĠÐ¿ÑĢÐ¾ÑĦÐµÑģÑģÐ¸":3545,"Ð¶Ð°ÑĤÑĮ":3546,"Ð¿Ð¸ÑĤÐ°":3547,"vert":3548,"Ġ2005":3549,"Ġtoday":3550,"ĠÑĤÐ¾Ð²Ð°":3551,"Ð¼Ð¸Ð½Ð¸ÑģÑĤÑĢÐ°":3552,"ÑĩÐµÑģÐºÐ¸Ð¼":3553,"ĠÐ¾Ð³ÑĢÐ¾Ð¼":3554,"ÑĢÑĥÐµÑĤ":3555,"ving":3556,"comm":3557,"lymp":3558,"ortun":3559,"Ð°Ð»ÑĮÐ½Ð¾":3560,"Ġfamily":3561,"Ġfut":3562,"olid":3563,"ÑĩÐ°Ñı":3564,"Ġwar":3565,"Ġ197":3566,"fect":3567,"ĠÐ¾Ð±Ð¾Ð¸":3568,"Ġtreat":3569,"ĠThis":3570,"Ġbook":3571,"ÑģÑĤÐ¸Ð½":3572,"Ġtown":3573,"ĠÐŀÐ±":3574,"Ð³Ð¾Ð´Ð°ÑĢÑı":3575,"ĠÑĩÐµÐ»Ð¾Ð²ÐµÐº":3576,"ĠÐ¾Ð³ÑĢÐ°Ð½Ð¸":3577,"ĠÐ¤ÑĢÐ°Ð½":3578,"sky":3579,"ÐµÑĪÑĮ":3580,"Ġcomput":3581,"ava":3582,"ĠÐ¸Ð½ÑĦÐ¾ÑĢÐ¼Ð°ÑĨÐ¸Ñİ":3583,"Ġplan":3584,"Ġcapital":3585,"ember":3586,"over":3587,"ĠAg":3588,"ÑģÐ¾":3589,"Ġcheck":3590,"ÑĨÐµÐ½ÑĤ":3591,"ĠÑģÑĤÐ°ÑĤÑĮ":3592,"ÑĢÐ¾Ð·":3593,"Ð½Ð°Ð»":3594,"Ġseveral":3595,"Ġhim":3596,"ĠÐ¿Ð¾Ð²Ñĭ":3597,"ĠÑģÐ»Ðµ":3598,"Ġnight":3599,"ĠÐºÐ¾ÑĤÐ¾ÑĢÐ¾Ðµ":3600,"Ð²Ð°ÑİÑĤ":3601,"ÑģÑĤÐ¾Ñĩ":3602,"ĠÐ¸Ð¼ÐµÐ½":3603,"Ã¢":3604,"Ġperiod":3605,"ĠÐĲÐ¼ÐµÑĢÐ¸":3606,"Ġcome":3607,"Ð´Ð¸Ð¸":3608,"ĠÐ¿Ð¾Ð»Ð¾Ð¶":3609,"ĠLove":3610,"ĠÐ£ÐºÑĢÐ°Ð¸Ð½Ñĭ":3611,"Ð»ÑĥÑĩ":3612,"Ġheart":3613,"Hotel":3614,"Ġanother":3615,"ÑĮÐµ":3616,"Ġworks":3617,"ĠÐ¿Ð¾ÑģÑĤÐ¾ÑıÐ½":3618,"Ġmach":3619,"ÐµÐ²ÐµÑĢ":3620,"Ð»ÐµÐ½Ð¸Ð¸":3621,"ĠMinist":3622,"EN":3623,"chen":3624,"Ð»Ð¸Ð¼Ð¿Ð¸":3625,"ĠÐ²ÑģÐµÐ³Ð´Ð°":3626,"ĠÑĨÐµÐ»ÑĮ":3627,"ÑĤÐ¸Ð¹":3628,"ators":3629,"Ġpat":3630,"ÐŀÐĿ":3631,"Ġpress":3632,"ches":3633,"inux":3634,"ana":3635,"Ð»ÑıÑĢ":3636,"Ġguest":3637,"ĠÐ¿Ð¾ÐºÐ°Ð·Ð°":3638,"ably":3639,"Ġsecurity":3640,"ĠÐĽÐ¸":3641,"ĠÐ¾Ð±ÐµÑģÐ¿ÐµÑĩÐ¸":3642,"ides":3643,"Ġport":3644,"ĠOlymp":3645,"ĠÑģÑĤÐ¾Ð»":3646,"ara":3647,"Ġlo":3648,"ended":3649,"urk":3650,"lished":3651,"Ġamong":3652,"How":3653,"ĠÐºÑĢÐ¸Ð·Ð¸":3654,"Ġneeds":3655,"ĠÑĤÐµÑĢÑĢÐ¸ÑĤÐ¾ÑĢÐ¸Ð¸":3656,"ĠÐ¿ÑĢÐµÐºÑĢÐ°":3657,"Ð±Ð¾Ð»ÑĮ":3658,"ĠÑĢÐµÐ°Ð»Ð¸":3659,"Ð½Ð¾ÑģÑĤÐµÐ¹":3660,"Ġdays":3661,"for":3662,"ĠÐ¿ÑĢÐ¸Ð·Ð½Ð°":3663,"ming":3664,"Ġer":3665,"Ġgl":3666,"Ġsing":3667,"ope":3668,"ÐºÐµÑĤ":3669,"ÐµÐ½Ð½Ð¾Ð³Ð¾":3670,"ergy":3671,"Ð¸Ð¹":3672,"Ð¿ÐµÑĢÑĮ":3673,"ĠÐ±ÐµÐ·Ð¾Ð¿Ð°ÑģÐ½Ð¾ÑģÑĤÐ¸":3674,"ÐµÐ½Ð½Ð¾Ð¹":3675,"ĠÐ¶ÐµÐ»Ð°":3676,"ĠÐ½ÐµÐ´":3677,"ĠÐ´ÐµÑıÑĤÐµÐ»ÑĮÐ½Ð¾ÑģÑĤÐ¸":3678,"ÐŀÐ´Ð½Ð°ÐºÐ¾":3679,"Ġautom":3680,"Ð±Ð¸ÑĢÐ°":3681,"ĠÑĨÐ²ÐµÑĤ":3682,"Ġtem":3683,"Ġeasy":3684,"Ð¾Ð»Ñı":3685,"ÐµÑģÐ¿ÑĥÐ±Ð»Ð¸":3686,"ived":3687,"ĠÐ¿ÑĢÐ¾Ð²Ð¾Ð´":3688,"ĠÐ¿ÑĢÐ¸Ð½Ð¸Ð¼Ð°":3689,"ĠÐ¿ÑĢÐ¾Ð¼ÑĭÑĪÐ»ÐµÐ½":3690,"Ġsaf":3691,"Ġhead":3692,"ĠÐ¸Ð½ÑĤÐµÑĢÐµÑģ":3693,"let":3694,"not":3695,"ÑĤÐ°Ð¼":3696,"ĠÐ³ÑĢÐ°":3697,"ÑĢÐµÐ´Ð¸ÑĤ":3698,"istic":3699,"ctor":3700,"ĠÐĶÐ¾Ð±Ð°Ð²Ð¸ÑĤÑĮ":3701,"Ġlim":3702,"Ġ[":3703,"ĠÐ°Ð¼ÐµÑĢÐ¸ÐºÐ°Ð½":3704,"ĠÐ¿ÐµÑĢÐµÐ´Ð°":3705,"ĠÐ¼Ð¸ÑĢ":3706,"ĠÐ¿ÑĢÐµÐ´Ð»Ð°Ð³Ð°ÐµÑĤ":3707,"Ã°":3708,"ÐĴÐ¾":3709,"ĠÑģÑĤÑĢÐ°Ð½Ð°Ñħ":3710,"ĠÑģÑĤÐ¾ÑĢÐ¾Ð½Ñĭ":3711,"Ġable":3712,"Ð»ÑĮÐ½ÑĭÑħ":3713,"ĠAmerican":3714,"Ġredu":3715,"iversity":3716,"Ġdon":3717,"ĠÐ¿ÑĢÐ¾Ð¶Ð¸Ð²Ð°Ð½Ð¸Ñı":3718,"ĠÐ²ÑģÐµÐ¼":3719,"Ġunique":3720,"Ð¾Ñħ":3721,"ĠÐ¿ÐµÑģÐ½ÑıÐ¼":3722,"Ġversion":3723,"âĦ":3724,"ĠPresident":3725,"Ġfund":3726,"Ġcreat":3727,"urs":3728,"Ġbeautiful":3729,"ĠÐµÐ²ÑĢÐ¾Ð¿ÐµÐ¹":3730,"ÐºÐ»Ð¸Ð¿Ñĭ":3731,"ca":3732,"ĠNational":3733,"ources":3734,"Ġmen":3735,"ĠTV":3736,"ĠÑģÐ²ÑıÐ·Ð¸":3737,"Ġfar":3738,"ĠÐ´ÐµÑĤ":3739,"ĠÐ³Ð¾ÑģÑĤÐ¸":3740,"ĠÐ¸Ð½ÑģÑĤÑĢÑĥ":3741,"Ġindividual":3742,"ĠÑģÐ»Ð¾Ð¶":3743,"ras":3744,"ĠÐŁÐ°":3745,"Ġfre":3746,"Ð±Ð»Ð¸":3747,"ĠÑĦÐ¾Ð½":3748,"Ġopt":3749,"Ġ2004":3750,"ÑĥÑģÐºÐ°":3751,"hod":3752,"Ġnecessary":3753,"ĠÐ¼ÐµÐ½ÐµÐµ":3754,"18":3755,"Ġtot":3756,"ĠÑģÐ¾Ð²ÐµÑĢ":3757,"ĠRooms":3758,"Ġfile":3759,"ova":3760,"urther":3761,"Ã§":3762,"Ġhealth":3763,"Ġve":3764,"Ġput":3765,"Ġenvironment":3766,"pre":3767,"ĠÑĤÐµÑħÐ½Ð¸":3768,"Ġparticular":3769,"anks":3770,"ama":3771,"Ð»ÐµÑĢ":3772,"Ġmanagement":3773,"Ġfacilities":3774,"ĠÐĸ":3775,"Ð¾Ð±ÑĢÐ°Ð·":3776,"Ð¿Ð°Ð½Ð¸Ñı":3777,"ĠÐ½Ð°ÑģÐµ":3778,"Ġcontext":3779,"ĠÐ¸Ð·Ð¾Ð±ÑĢÐ°Ð¶ÐµÐ½Ð¸ÐµÐ¼":3780,"Ġrestaurant":3781,"Ġhistor":3782,"ane":3783,"olution":3784,"Ġopportun":3785,"Ġflo":3786,"ĠÑģÑĤÑĢÐ¾Ð¸ÑĤÐµÐ»ÑĮ":3787,"ĠÑģÐ»ÐµÐ´ÑĥÑİ":3788,"ĠÑĩÐ°Ñģ":3789,"Ġvalue":3790,"iber":3791,"ĠÑĥÐ¿ÑĢÐ°Ð²Ð»ÐµÐ½Ð¸Ñı":3792,"Ġleaders":3793,"Ġtransport":3794,"60":3795,"cle":3796,"Ġeconomy":3797,"Ġnetwork":3798,"ners":3799,"Ð»ÑĮÐ½Ð¾Ð¹":3800,"Ġhost":3801,"Ġofficial":3802,"ĠÐ¸Ñİ":3803,"Ġsaid":3804,"ÑĩÐ°Ñģ":3805,"ĠÐºÐ¾Ð¼ÑĦÐ¾ÑĢ":3806,"Ġru":3807,"Ġaff":3808,"Ð¶Ð´ÐµÐ½Ð¸Ñı":3809,"Ġstat":3810,"They":3811,"Ġread":3812,"Ġcentral":3813,"Ġinstit":3814,"Ãª":3815,"ÑĩÐ¸ÑģÐ»ÐµÐ½":3816,"Ð¸Ð´":3817,"Ġposition":3818,"Ġproblem":3819,"Ð®":3820,"Ġdistrib":3821,"aning":3822,"Ð»ÑĮÐ½ÑĭÐµ":3823,"ograph":3824,"Ġocc":3825,"Ġeduc":3826,"ĠÐ²ÑĤÐ¾ÑĢ":3827,"ÑĩÐµÑĢ":3828,"ĠÐ¼ÑĥÐ·Ñĭ":3829,"ÐµÑģÑĤÐ¸":3830,"ĠÐ¾Ð·Ð½Ð°":3831,"Ġdou":3832,"ves":3833,"ÑħÐ¾Ð´Ñı":3834,"ÐµÐ½ÑĤÑĭ":3835,"ĠÐ¾Ð±Ñĭ":3836,"Ð»Ð°Ð´Ð¸":3837,"ĠÑĢÐµÐ¶Ð¸Ð¼":3838,"ĠÐ³Ð°ÑĢÐ°Ð½":3839,"ott":3840,"Ġtax":3841,"side":3842,"ley":3843,"ÑīÐ¸Ð¼":3844,"ĠJapan":3845,"ilitary":3846,"ÑģÑĥÑĤ":3847,"Ð»ÑĥÐ±":3848,"ĠÐłÐµÑģÐ¿ÑĥÐ±Ð»Ð¸":3849,"Ð¿ÑĢÐ¾":3850,"stit":3851,"Ġpract":3852,"ĠÑĥÑģÐ»ÑĥÐ³Ð¸":3853,"ÑĦÐ°":3854,"ively":3855,"Ð¾Ð»ÑĮÐºÑĥ":3856,"Ġhouse":3857,"ĠUN":3858,"Ġcenter":3859,"ĠÑĤÑĢÐ°Ð½ÑģÐ¿":3860,"Ġrights":3861,"Ġdeb":3862,"alt":3863,"ĠÐ¿ÑĢÐ°Ð²Ð°":3864,"Ġtrade":3865,"Ġprovides":3866,"ĠÐ°ÐºÑĤÐ¸Ð²":3867,"ÐºÐ°Ð¼":3868,"ĠÑĤÐµÐ»ÐµÑĦ":3869,"Â®":3870,"ĠÐ¿Ð¾Ð¸":3871,"zer":3872,"Ab":3873,"Ð²ÐµÑĢÑģÐ¸":3874,"Ġcris":3875,"Ð»Ð¾Ð±Ð°Ð»ÑĮ":3876,"Ġfuture":3877,"asing":3878,"Ġ40":3879,"âĢľ":3880,"ÑģÐ»ÑĥÐ³Ð¸":3881,"ÑģÑĤÐ°Ð½Ð°":3882,"Ġdri":3883,"ised":3884,"ental":3885,"ilt":3886,"ream":3887,"ones":3888,"hibition":3889,"Ð¾Ð·Ð¸":3890,"ĠÑĤÐ°ÐºÐ¸Ñħ":3891,"ror":3892,"ĠÐ¿Ð°Ðº":3893,"ÑĤÐµÑĤ":3894,"Ġtyp":3895,"ĠÐ´Ð¾ÑĢ":3896,"Ġev":3897,"ĠÐ°Ð½":3898,"ĠTra":3899,"ots":3900,"uge":3901,"ÐµÐ½Ð½ÑĭÐ¹":3902,"eek":3903,"Ġcontent":3904,"ĠÑģÐ¾ÑĨÐ¸Ð°Ð»ÑĮ":3905,"ĠÑĤÑĢÐ¸":3906,"Ġfood":3907,"15":3908,"Ġhistory":3909,"When":3910,"ĠÐ¾ÑĩÐµ":3911,"ÑĤÐµÐ»ÑĮÐ½ÑĭÐ¹":3912,"ÑĢÐ°Ð²Ð¸":3913,"Ġens":3914,"Ġcontact":3915,"Ġexcellent":3916,"Ġbetter":3917,"Ð¢Ðµ":3918,"oscow":3919,"ÑīÐ¸Ð¼Ð¸":3920,"rim":3921,"ÑĥÐ²":3922,"ÑĩÐ°ÑĤ":3923,"istan":3924,"Ġarch":3925,"Ġwebsite":3926,"Ġpersonal":3927,"ÐµÑĤÐµÐ¹":3928,"icro":3929,"ĠSum":3930,"Ð¿Ð¸Ð¾Ð½Ð°":3931,"ais":3932,"tel":3933,"ĠÐ½Ð¾Ð²ÑĭÑħ":3934,"ÑĢÐ¾Ð³":3935,"ected":3936,"most":3937,"Ġhapp":3938,"ÑıÐ±ÑĢÑı":3939,"ering":3940,"ĠÐ¼ÐµÑģÑı":3941,"ony":3942,"ĠÑģÑĥÐ´":3943,"ÑģÑĤÐ¸ÑĤÑĥ":3944,"ĠÐºÐ¾Ð½ÑĤÐµÐº":3945,"ÑĢÐ°Ð¼Ð¸":3946,"Ġorig":3947,"ĠÐ¿ÐµÑĢÑģ":3948,"ÑĩÐ¸Ð½Ð°":3949,"ĠÐ´Ð¾Ð¼Ð°":3950,"Ð¾Ð¶ÐµÑģÑĤÐ²":3951,"Ġproblems":3952,"ĠWeb":3953,"ĠÐ¿ÑĢÐ¾Ð¸Ð·Ð²Ð¾Ð´ÑģÑĤÐ²Ð°":3954,"ÑģÑĤÐ²ÑĥÐµÑĤ":3955,"ĠMed":3956,"ÑĢÐµÐ²":3957,"Ġgra":3958,"Ġprofessional":3959,"Ġindustry":3960,"Ġpictures":3961,"Ġemploy":3962,"ĠÑĢÐµÑģÑĤÐ¾":3963,"ĠÐŀÐ»Ð¸Ð¼Ð¿Ð¸":3964,"Ġlittle":3965,"Ġvarious":3966,"aken":3967,"ÑĤÐµÐ»ÑĮÑģÑĤÐ²Ð°":3968,"ÑģÑĤÐ²Ð¾Ð²Ð°ÑĤÑĮ":3969,"ety":3970,"Ġ2000":3971,"ĠÐ¿Ð¾ÐºÑĥ":3972,"uz":3973,"isc":3974,"arl":3975,"Ð²Ð°ÐµÐ¼":3976,"Ġple":3977,"ĠGe":3978,"Ð»Ð¸Ð¸":3979,"Ġvot":3980,"ĠÐ¾Ð¶Ð¸":3981,"Ð·Ð°Ð»":3982,"Ð¾Ð±Ð¸Ð»ÑĮ":3983,"ĠÑĢÐ°ÑģÑĪÐ¸":3984,"ĠÐ²Ð¾Ð»":3985,"Ġenergy":3986,"ological":3987,"ĠÐ¿Ð¾Ð´Ð´ÐµÑĢÐ¶Ð¸Ð²Ð°":3988,"Ġfriendly":3989,"Ð°ÑĢÐ°Ðº":3990,"ued":3991,"ĠÐķÐ²ÑĢÐ¾Ð¿Ñĭ":3992,"ait":3993,"ĠÑħÐ¾Ð´":3994,"ÑĢÐµÐ½Ð¸Ñı":3995,"iy":3996,"ols":3997,"ĠÐĲÐ»ÐµÐºÑģ":3998,"ÑģÑĤÐ²Ð¸Ð¸":3999,"Ġsum":4000,"ĠÐ¶Ð¸Ð²":4001,"ĠÑģÐ¾Ð±Ð¾Ð¹":4002,"ĠÑĢÐ¾Ð´":4003,"ÐµÐ¹ÑĩÐ°Ñģ":4004,"Ġsat":4005,"atically":4006,"Ġline":4007,"ĠÐ²Ð°Ð»":4008,"Ġund":4009,"Sh":4010,"ĠÐļÐ¸":4011,"ĠÐ°Ð³":4012,"fic":4013,"idence":4014,"ĠÑģÑĢÐµÐ´Ð¸":4015,"ĠÑĥÑģÐ¸":4016,"Ġleft":4017,"atures":4018,"ÑĩÐ½ÑĭÐµ":4019,"ÐŁÑĢÐ¾":4020,"Ð¶Ð´ÑĥÐ½Ð°ÑĢÐ¾Ð´":4021,"ÑĥÐ´Ð¸":4022,"Ġappro":4023,"Ġmusic":4024,"ĠWar":4025,"ÑĩÐ°ÐµÑĤÑģÑı":4026,"ĠÐ´Ð¾Ð²":4027,"eder":4028,"redit":4029,"ĠÐ±Ñİ":4030,"iqu":4031,"oz":4032,"atural":4033,"ira":4034,"stan":4035,"Ad":4036,"ĠGroup":4037,"rael":4038,"ĠÑģÑĤÑĢÑĥ":4039,"ĠÐ¾Ð±ÑĢÐ°":4040,"ĠÐ´Ð¾Ð»Ð¶ÐµÐ½":4041,"ĠÐ¾ÑĤÐ½Ð¾ÑģÐ¸":4042,"cent":4043,"ĠÐ¿Ð¾Ð»ÑĥÑĩÐ¸ÑĤÑĮ":4044,"Ġkind":4045,"ĠÐµÐ²":4046,"epend":4047,"ÑĩÐ¸Ð½":4048,"osit":4049,"Ð½Ð¾ÑģÑĤÑĢÐ°Ð½":4050,"ÐĶÐ°":4051,"ĠÑģÐ¼Ð¾Ð¶":4052,"Ġclients":4053,"ivil":4054,"Ġgiven":4055,"ÐµÑĢÐ³":4056,"abor":4057,"ÐłÐ°":4058,"ĠÑĢÐ°Ð¼":4059,"burg":4060,"ÑĩÐµÑĤÐ°":4061,"Ð´Ð¸ÑĨÐ¸":4062,"illa":4063,"ĠÐ²Ð½ÑĥÑĤÑĢÐµÐ½":4064,"ober":4065,"rench":4066,"ĠAsi":4067,"AL":4068,"Ġsugg":4069,"ured":4070,"ĠÑģÐ¾Ð²ÐµÑĤ":4071,"Ph":4072,"ising":4073,"ĠÐ¾Ð±ÑıÐ·Ð°":4074,"Ġmillion":4075,"osed":4076,"Ġbelow":4077,"RO":4078,"Ð»Ð¾Ð³":4079,"ĠÐ¸Ð³ÑĢÐ°Ñħ":4080,"ĠAss":4081,"inter":4082,"Ð·Ð¼":4083,"Ġareas":4084,"ĠÐ±Ð¾Ð»ÑĮÑĪÐ¸Ð½":4085,"ĠÑĢÐ¾":4086,"Ġtechnology":4087,"ĠÐ¾ÐºÑĢÑĥ":4088,"ÑģÑĤÐ¾Ð¹":4089,"ÑīÐµÐ¼":4090,"ĠÑĤÑĢÐµÐ±Ð¾Ð²Ð°Ð½Ð¸Ñı":4091,"ÐŃÑĤÐ°":4092,"ification":4093,"Ð»ÑİÐ´Ð°":4094,"Ð°Ð³":4095,"Ġwon":4096,"ding":4097,"Ġcomplex":4098,"ĠÐ²Ð°Ð»ÑİÑĤ":4099,"Ġselect":4100,"Ġoil":4101,"ÑĤÐµÐ¹":4102,"ĠÐ³Ð¾ÑĤÐ¾Ð²":4103,"itor":4104,"Ð¾ÑĢÑĭ":4105,"ari":4106,"ĠÑĢÐµÑĪÐµÐ½Ð¸Ñı":4107,"AC":4108,"Ġtest":4109,"rich":4110,"ÐºÐ¾Ð³Ð¾":4111,"Ġtimes":4112,"ÑĳÑĤ":4113,"ĠÐ¾Ð´Ð½Ð¾Ð¹":4114,"Ġcentury":4115,"ÑİÑīÐ¸Ð¼":4116,"cil":4117,"IC":4118,"ĠBank":4119,"Ġdetail":4120,"ĠMon":4121,"sc":4122,"Ġheld":4123,"ÑĤÐµÐ»ÑĮÐ½Ð¾Ð¹":4124,"Ġcharact":4125,"ĠÐ´Ð¾Ð»Ð»Ð°":4126,"Ġcal":4127,"ĠÑģÐ¾ÑĤÑĢÑĥÐ´Ð½Ð¸ÑĩÐµÑģÑĤÐ²":4128,"ĠCan":4129,"ource":4130,"Ð±ÑĥÑĢ":4131,"Ð»ÐµÐ½Ð°":4132,"Ġonline":4133,"Ã«":4134,"ĠÐ´ÐµÐ¼Ð¾ÐºÑĢÐ°ÑĤÐ¸":4135,"Ġviews":4136,"Ġsomet":4137,"ĠÑģÐ¾Ð·Ð´Ð°ÑĤÑĮ":4138,"Ð¾Ð²Ð¾Ð¹":4139,"Ġconditions":4140,"ĠÐ¾ÐºÐ°Ð·Ð°":4141,"ĠSo":4142,"ÑģÑĥÑĢ":4143,"ica":4144,"ĠOlympics":4145,"Ð½Ð°Ð´":4146,"Ġagree":4147,"ĠÑĤÑĢÑĥ":4148,"Ð¸Ñħ":4149,"Ġwrit":4150,"ĠÐ±Ð¾ÑĢ":4151,"ĠÐ£ÑģÐ»ÑĥÐ³Ð¸":4152,"ĠÐ½ÐµÑģÐºÐ¾Ð»ÑĮ":4153,"ĠÑģÐ²Ð¾ÐµÐ³Ð¾":4154,"clus":4155,"ÑĤÐµÐ»ÑĮÐ½ÑĭÑħ":4156,"Ġlog":4157,"Ġinternet":4158,"ÑĢÐ¸Ð¸":4159,"ommod":4160,"ĠStates":4161,"imate":4162,"Ġprices":4163,"ĠÐ·ÐµÐ¼":4164,"ĠLat":4165,"ÑĥÑİÑĤ":4166,"ĠÐĺÐ½ÑĤÐµÑĢÐ½ÐµÑĤ":4167,"II":4168,"ideo":4169,"Ġkm":4170,"Ġsituated":4171,"gar":4172,"Ġstruct":4173,"Ġprovided":4174,"ĠÑģÐ°Ð¼ÑĭÑħ":4175,"After":4176,"ĠÐ¾Ð±ÑĢÐ°ÑĤÐ¸":4177,"ista":4178,"ĠÐŀÐ»Ð¸Ð¼Ð¿Ð¸Ð¹ÑģÐºÐ¸Ñħ":4179,"Ġexpl":4180,"Ġ2003":4181,"ĠMoscow":4182,"Ġlearn":4183,"Ð´ÑĭÑħ":4184,"Ġsites":4185,"Ġstrateg":4186,"ser":4187,"ĠÐ¸Ð½Ð¾ÑģÑĤÑĢÐ°Ð½":4188,"ĠÐ¾ÑģÑĥÑīÐµÑģÑĤÐ²Ð»Ñı":4189,"Ġexpect":4190,"ĠÐµÐ´Ð¸Ð½":4191,"Ġpot":4192,"Ġbene":4193,"ÐŁÐ¾ÑģÐ»Ðµ":4194,"ĠÐ¾ÑĤÑĢÐ°":4195,"ĠÑģÐ½Ð¸":4196,"Ġnice":4197,"ĠÑģÐ¸ÑģÑĤÐµÐ¼Ð°":4198,"ĠÑįÐ»ÐµÐºÑĤÑĢÐ¾Ð½":4199,"ny":4200,"ĠIS":4201,"ĠÐĵÐµÑĢÐ¼Ð°":4202,"Ġsearch":4203,"ĠAb":4204,"IT":4205,"Ġles":4206,"Ð¾Ð²ÐµÑĤ":4207,"ĠPark":4208,"Ġoften":4209,"ĠÑģÐµÐ±Ðµ":4210,"ĠÐ¼Ð¾Ð¶ÐµÑĪÑĮ":4211,"ĠÑģÐ²ÑıÐ·Ð°":4212,"ĠÐºÐ»Ð°Ñģ":4213,"Ġseem":4214,"tain":4215,"ĠÑĥÐ´Ð¾Ð²":4216,"ĠÑĢÐµÑĪ":4217,"ĠÐ»Ð¸ÑĨ":4218,"Ð½Ñİ":4219,"ĠNo":4220,"Ġhours":4221,"Ð»ÐµÐ½Ñĭ":4222,"akh":4223,"Ġdemoc":4224,"âĢĿ.":4225,"ĠÐ¿ÑĢÐ¾Ð¸Ñģ":4226,"Ġreturn":4227,"ÑģÑĤÐ²Ð¸Ðµ":4228,"my":4229,"ÑĢÑĮ":4230,"ĠÑĢÐ°Ð·Ð´Ðµ":4231,"ĠÑģÐ¾Ð´ÐµÑĢÐ¶Ð°":4232,"Ġgive":4233,"ĠÐ¸Ð½Ð´Ð¸":4234,"Ġcalled":4235,"ÐĺÐ·":4236,"Ġleading":4237,"Ġcrisis":4238,"Ġach":4239,"ÐºÐ¾Ð»Ð¾":4240,"ĠÑĢÑĥÐºÐ¾Ð²Ð¾Ð´":4241,"ma":4242,"raw":4243,"Ġexist":4244,"ĠÐ°Ð²ÑĤÐ¾Ð¼Ð¾Ð±Ð¸":4245,"ged":4246,"ĠÑģÑĤÑĢÐ°ÑĤÐµ":4247,"ĠÐ³Ð»Ð¾Ð±Ð°Ð»ÑĮ":4248,"Ġguests":4249,"Ġant":4250,"Ġrese":4251,"Ġmount":4252,"ĠÑħÐ°ÑĢÐ°Ðº":4253,"wards":4254,"ĠÐ°Ð²ÑĤÐ¾Ð¼Ð°ÑĤÐ¸":4255,"ĠÐºÐ°Ð¿Ð¸ÑĤÐ°":4256,"Ð¾ÑīÐ¸":4257,"ĠÐ²ÑĢÐµÐ¼ÐµÐ½":4258,"ÑİÐ·":4259,"ports":4260,"ĠÐ¾ÑĤÐ²ÐµÑĤÑģÑĤÐ²ÐµÐ½":4261,"ĠUnion":4262,"Ġstrong":4263,"ÐľÐµ":4264,"ĠCor":4265,"Ex":4266,"Ġimplement":4267,"ĠÑħÐ¾ÑĢÐ¾ÑĪ":4268,"Ġrelations":4269,"Ġmove":4270,"Ġsuper":4271,"Ġpast":4272,"ĠÐ´Ð¾ÑģÑĤÐ°":4273,"ĠCounty":4274,"Ġbal":4275,"alf":4276,"ffic":4277,"rial":4278,"Ð¸ÑĤÑĥÐ°":4279,"--":4280,"ĠÐ¿Ð¾Ð½":4281,"ĠÐ³ÑĢÐ°Ð¶Ð´Ð°Ð½":4282,"iol":4283,"la":4284,"ĠÑĤÐ°Ð¼":4285,"Ġactivities":4286,"icle":4287,"urch":4288,"lu":4289,"ĠÐ½Ð¾Ð²ÑĭÐµ":4290,"ĠÐ½Ð¸Ð¶Ðµ":4291,"Ġunt":4292,"ĠÑģÐ¿Ð°":4293,"Ġthink":4294,"emb":4295,"ÑģÐ¸Ð²":4296,"useum":4297,"ĠÑĢÐ°Ð·Ð»Ð¸ÑĩÐ½ÑĭÑħ":4298,"ĠÐºÐ¾ÑĤÐ¾ÑĢÐ¾Ð³Ð¾":4299,"ÑĤÐµÐ½":4300,"13":4301,"ĠÑģÐ»Ð¾Ð²":4302,"IV":4303,"ĠDist":4304,"ĠÐ¿ÑĢÐ¾ÐµÐºÑĤÐ°":4305,"Ð»Ð¾Ð½":4306,"vious":4307,"rove":4308,"Ġmilitary":4309,"Ġcreated":4310,"Ġpurch":4311,"ÑįÐ½":4312,"ĠCol":4313,"Ġtr":4314,"ÐŀÑģ":4315,"ĠÐ¼Ð½Ð¾Ð³Ð¸Ñħ":4316,"Ð»Ð¾Ðº":4317,"mail":4318,"uel":4319,"ÐŁÐ¾Ð´":4320,"ogn":4321,"ĠÐ²Ð¾Ð·Ð¼Ð¾Ð¶Ð½Ð¾ÑģÑĤÐ¸":4322,"ĠÑĢÐµÑģÑĥÑĢ":4323,"Ġlow":4324,"ĠÐ¼ÐµÑģÑĤÐ°":4325,"ÐļÐ¾Ð½":4326,"ĠGermany":4327,"Com":4328,"Ġwhe":4329,"ĠÑĢÑĭÐ½ÐºÐµ":4330,"Ġaccommod":4331,"Ġfour":4332,"Ġder":4333,"Ġtotal":4334,"Ġdest":4335,"Ġcertain":4336,"ÑĤÐµÑĢÐ°":4337,"ÐŁÑĢÐµÐ´":4338,"....":4339,"ÐŀÐ½":4340,"ither":4341,"ĠÐ¾ÑĤÐ´ÐµÐ»ÑĮ":4342,"Ġothers":4343,"arant":4344,"ĠÐºÑĢÐµÐ´Ð¸ÑĤ":4345,"ĠPet":4346,"Ð²ÐµÐ·Ð´":4347,"Ġadminist":4348,"Ġtru":4349,"inning":4350,"Ġwel":4351,"ÑıÑģ":4352,"ÑĤÐ¾ÑĩÐ½Ð¾":4353,"Ġvol":4354,"Ġaccording":4355,"Ð¸Ð·Ð¸":4356,"Ġgr":4357,"ero":4358,"Ġful":4359,"ĠÐ²ÐµÐ±":4360,"sibility":4361,"bo":4362,"Ð¾Ð·Ñı":4363,"ĠÑģÑĤÐ°Ð²":4364,"Re":4365,"Ġuser":4366,"ĠÐ¿Ð¾Ð¼Ð¾ÑīÐ¸":4367,"ĠAt":4368,"ĠÑĤÐ°ÐºÐ¸Ðµ":4369,"Ġpres":4370,"gether":4371,"ÑĢÐ°ÑĤÑĮ":4372,"Ð¾ÑģÐº":4373,"ball":4374,"pro":4375,"Ġknown":4376,"Ġkeep":4377,"ules":4378,"acy":4379,"Ġtogether":4380,"ĠÐºÐ¾Ð½ÑĨÐµ":4381,"Ġrelate":4382,"Ġpeace":4383,"ĠÑĥÑģÑĤÐ°Ð½Ð¾Ð²Ð¸ÑĤÑĮ":4384,"ke":4385,"ĠChe":4386,"ĠÐ¿ÑĢÐ¾Ð±Ð»ÐµÐ¼Ñĭ":4387,"Ð¿Ð¾ÑĢÐ°":4388,"ÑĤÐµÐ»ÐµÐ¼":4389,"apt":4390,"ohn":4391,"ĠÐ½ÑĥÐ¶Ð½Ð¾":4392,"ĠÐ¾ÑĢÐ³Ð°Ð½Ð¸Ð·":4393,"Ġcomputer":4394,"Â°":4395,"ÐľÐ¸":4396,"ĠÐ½Ð°ÑĪÐ¸Ð¼Ð¸":4397,"Ġinteg":4398,"Ð²ÑĤÑĢÐ°":4399,"ÐľÐ°":4400,"Ð¼ÐµÑĩÐ°":4401,"Ġobject":4402,"ĠÐ½ÐµÑĦ":4403,"ought":4404,"ÑĨÐ¸Ð¾Ð½Ð½ÑĭÑħ":4405,"pecially":4406,"Ð°Ð»ÑĮÐ½ÑĭÐµ":4407,"hern":4408,"ĠÑĥÑĩÐ°ÑģÑĤÐ¸Ðµ":4409,"ĠÐ¸Ð¼ÐµÑİÑĤ":4410,"ternal":4411,"ĠÐ¿Ð¾Ð»Ð¸ÑĤÐ¸ÐºÐ¸":4412,"Ġconsider":4413,"Ð»Ð¸Ð²":4414,"ĠÐºÐ¾Ð»Ð¸ÑĩÐµÑģÑĤÐ²Ð¾":4415,"ĠÐ²ÑģÐµÐ¹":4416,"ĠÑĨÐµÐ½ÑĤÑĢÐµ":4417,"Ġconcern":4418,"ĠÐºÐ»Ð¸ÐµÐ½ÑĤÐ¾Ð²":4419,"Ġmethod":4420,"ÑĥÐ¼Ð°":4421,"ĠÑģÐ¸ÑĤÑĥÐ°":4422,"Ð²Ð°Ð½":4423,"lim":4424,"Ð´Ð°Ð½Ð¸Ñı":4425,"Ð³Ð¾ÑĢ":4426,"artments":4427,"ĠÐ°ÑĢÑħÐ¸":4428,"Ð¼ÐµÑģÑĤÐµ":4429,"Ġ21":4430,"!!":4431,"raft":4432,"ĠState":4433,"Ġdeveloped":4434,"Ð»ÐµÐ½Ð¸Ñİ":4435,"Ġtext":4436,"Ġmarkets":4437,"ĠTurk":4438,"ĠÑģÐ¾ÑħÑĢÐ°":4439,"Ġcard":4440,"Ð°ÑģÑģ":4441,"ĠÐºÐ¾Ð½ÑĤÐµÐºÑģÑĤÑĥ":4442,"Ð»ÑĮÐ½Ð¾Ð³Ð¾":4443,"ÑĦÑĢÐ¸":4444,"go":4445,"Ġfollowing":4446,"ler":4447,"ĠÐ²Ð»Ð¸Ñı":4448,"ÑĪÐµÐ¼":4449,"obile":4450,"ÑĤÐµÐ»ÑĮÐ½ÑĭÐµ":4451,"ĠÐ»Ð¸ÑĪÑĮ":4452,"ĠÐ²ÐµÐ´Ñĥ":4453,"ÐµÐ´Ð¸":4454,"ĠÐ½Ð°Ð·ÑĭÐ²Ð°":4455,"ĠÐ¿ÑĢÐ¾ÑĨÐµÑģÑģ":4456,"Ġpopular":4457,"ÑĤÐ¾Ð½":4458,"ping":4459,"Ð½Ð¸ÑĨÑĭ":4460,"Ð¶ÐµÐ½Ð¸Ð¸":4461,"ĠÑģÐ¾Ð¿":4462,"Ġcannot":4463,"ĠÑĢÐµÐ³Ñĥ":4464,"ĠCo":4465,"Ġstep":4466,"ĠÐ²Ð½ÐµÑĪ":4467,"Ġfurther":4468,"ps":4469,"ĠÐ½ÐµÐ´Ð°":4470,"Ġsuggest":4471,"Ġfurn":4472,"Ġlik":4473,"ĠÐ¿ÑĢÐ°Ð²Ð¾":4474,"ĠÑĤÑĥÑĢÐ¸":4475,"Ġhelpful":4476,"Ġprojects":4477,"ĠÐ´ÐµÑģ":4478,"Ġcontains":4479,"ĠIsrael":4480,"Ġmanag":4481,"Ġusers":4482,"Ð»ÐµÐ½Ð¸ÐµÐ¼":4483,"Ð¸Ð½Ð³":4484,"Ġpa":4485,"Ġperfect":4486,"oor":4487,"ÐµÐ½ÑĤÐ¸":4488,"ival":4489,"ĠÑĢÐµÐ³Ð¸ÑģÑĤÑĢÐ°ÑĨÐ¸Ð¸":4490,"ĠÐ»Ð¸Ð´ÐµÑĢ":4491,"Ð¾Ð¿ÑĢÐ¸ÑıÑĤÐ¸":4492,"ÐµÑĢÐ²":4493,"ĠÐ´Ð²Ð¸Ð¶":4494,"Ġlight":4495,"Ġreally":4496,"ÐŃÑĤÐ¾ÑĤ":4497,"itive":4498,"den":4499,"ĠÐ´ÐµÑĤÐµÐ¹":4500,"ĠÐĺÐ·":4501,"ipped":4502,"Ð´ÐµÑĤ":4503,"Ð¾Ð»ÑĮÐ·Ñĥ":4504,"Ġrefer":4505,"ĠÐºÐ¾Ð½Ñģ":4506,"Ġallows":4507,"Le":4508,"ĠÐºÐ¾Ð¼Ð°Ð½":4509,"Ġorganiz":4510,"ĠÐ²Ð½Ð¸Ð¼Ð°Ð½Ð¸Ðµ":4511,"ĠÑĦÐ¾ÑĤÐ¾Ð³ÑĢÐ°ÑĦÐ¸Ð¸":4512,"ĠLinux":4513,"Ġbenef":4514,"ĠÐ²ÑĭÑģ":4515,"Ġfail":4516,"ĠÐ´ÐµÑĢÐµ":4517,"ÑĤÑĥÑĢÑĭ":4518,"ÑģÐºÑĥÑİ":4519,"right":4520,"ĠPri":4521,"Ġce":4522,"ĠÐ´ÐµÐ¹":4523,"ĠÐ¿ÑĢÐ¸Ð¾Ð±":4524,"ÑħÐ¾Ð´Ð°":4525,"Ġspace":4526,"Ġconstruction":4527,"ÐµÐ´Ðµ":4528,"ÑĢÐ¾ÐºÐ°":4529,"ĠÐ¿Ð¾ÑĤÐ¾Ð¼Ñĥ":4530,"ada":4531,"ÐºÑĢÐµ":4532,"ĠÐ½Ð°Ð±":4533,"Ð¶ÐµÐ½Ð¸Ðµ":4534,"Ð¾Ð·Ð½Ð°":4535,"ĠGrand":4536,"Ġsay":4537,"ster":4538,"Ġfiles":4539,"ini":4540,"ĠÐºÐ¾Ð¼Ð¿Ð°Ð½Ð¸Ð¹":4541,"ĠÐ¾Ð´Ð½Ð¾Ð³Ð¾":4542,"Ġterms":4543,"ologies":4544,"atives":4545,"ĠGerman":4546,"ĠÐ¸ÑģÐ¿Ð¾Ð»":4547,"Pro":4548,"Ġaccept":4549,"ĠÐºÐ»Ð¸ÐµÐ½ÑĤÐ°Ð¼Ð¸":4550,"Ġmaterials":4551,"reen":4552,"ĠChamp":4553,"ĠÐ¿Ð¾Ð´Ð³Ð¾ÑĤÐ¾Ð²":4554,"ĠÐ¾ÑĤÐ´ÑĭÑħ":4555,"ĠÐ¾ÑĢÐ³Ð°Ð½Ð¸Ð·Ð°ÑĨÐ¸Ð¸":4556,"ÐºÑĤÐ°":4557,"Ġshall":4558,"Ð½ÑĥÑĤÑĮ":4559,"Ġproperty":4560,"ÑģÑĤÐ°Ð²Ð¸ÑĤÑĮ":4561,"ĠÑģÐ¾Ð±Ñĭ":4562,"ĠMay":4563,"Ġcosts":4564,"ĠParis":4565,"ĠSummer":4566,"ĠÐ¼Ð¾Ð¼ÐµÐ½ÑĤ":4567,"ÐºÐ»Ð°Ð´":4568,"moking":4569,"ÑĩÐ½Ð°Ñı":4570,"Ġinvestment":4571,"ĠUkrainian":4572,"sw":4573,"ĠÑģÑĩÐµÑĤ":4574,"Ġbeh":4575,"Ġconne":4576,"ops":4577,"app":4578,"ÑĩÐ½ÑĭÐ¹":4579,"Ġgame":4580,"ĠAirport":4581,"ÑĪÐµÑģÑĤÐ²":4582,"ĠCentre":4583,"ĠÐķÐ¡":4584,"Ġresults":4585,"ired":4586,"One":4587,"Ð¾Ð½Ñĭ":4588,"Ġamount":4589,"Ġhuge":4590,"ĠÐ¾ÐºÐ¾Ð»Ð¾":4591,"arden":4592,"ĠÐ¸Ð·Ð¼ÐµÐ½ÐµÐ½Ð¸Ñı":4593,"Ġtook":4594,"ĠÐ¿ÑĢÐ¾Ð´ÑĥÐºÑĨÐ¸Ð¸":4595,"yl":4596,"Ð¾ÑĤÐ¾":4597,"Ġnatural":4598,"ĠÐºÐ²Ð°ÑĢ":4599,"ĠÐºÐ¾Ð½ÑĦÐµÑĢÐµÐ½":4600,"ÐļÑĢÐ¾Ð¼Ðµ":4601,"Ġdesigned":4602,"ĠÑģÐ°Ð¼Ð¾Ð¼":4603,"Ġphotos":4604,"ĠÐ¾ÑĤÐµÐ»Ðµ":4605,"ĠÐ½Ð°Ð¿":4606,"ĠÐ¿ÑĢÐ¾ÑĦÐµÑģÑģÐ¸Ð¾Ð½Ð°Ð»ÑĮ":4607,"Ð¾Ð¼ÐµÑĢÐ°":4608,"EC":4609,"Ġschool":4610,"ĠÐ¿ÐµÑĢÐ¸Ð¾Ð´":4611,"ĠÐ¼ÐµÐ½Ñı":4612,"atter":4613,"ĠÐĲÐ»ÐµÐºÑģÐ°Ð½Ð´":4614,"cript":4615,"Ġ196":4616,"race":4617,"Ġsea":4618,"Ð²Ð°ÑİÑĤÑģÑı":4619,"ried":4620,"ĠChrist":4621,"ĠÐ´Ð¾Ð³Ð¾Ð²":4622,"ĠÑĢÑıÐ´":4623,"ĠÐ²Ð»Ð°ÑģÑĤÐ¸":4624,"ĠÐ¾Ð±ÑģÐ»ÑĥÐ¶Ð¸Ð²Ð°Ð½Ð¸Ñı":4625,"ÑĩÐµÑģÐºÑĥÑİ":4626,"âĢĿ,":4627,"Ġstandard":4628,"ored":4629,"ĠÐ²Ð¾Ð·Ð¼Ð¾Ð¶Ð½Ð¾":4630,"ging":4631,"itect":4632,"Ġconven":4633,"Ġfeatures":4634,"ĠÑģÐµÑĤÐ¸":4635,"ĠÑĥÐ»ÑĥÑĩ":4636,"lear":4637,"SC":4638,"These":4639,"ĠÐ¸ÑģÐ¿Ð¾Ð»ÑĮÐ·Ð¾Ð²Ð°Ð½Ð¸Ñı":4640,"ÐºÑĤÑĭ":4641,"ĠÐĴÐµÐ»Ð¸":4642,"ĠÐ¾Ð±Ð½Ð¾Ð²":4643,"Ð¾ÑĢÑĤÐ¸":4644,"Ġincrease":4645,"Ġwide":4646,"ift":4647,"iddle":4648,"Ð¸Ð½Ð°":4649,"ĠÐ¾ÑģÐ½Ð¾Ð²Ð°":4650,"ano":4651,"quare":4652,"Ġfamous":4653,"Ð½ÐµÐ½Ð¸Ðµ":4654,"we":4655,"unic":4656,"ÐµÐ½Ð¾":4657,"Ġask":4658,"Ġcommunic":4659,"Ġrate":4660,"ĠÐ¿Ð¾Ð»Ð½Ð¾ÑģÑĤÑĮÑİ":4661,"Ġcooper":4662,"anced":4663,"ĠÐºÐ°ÑĩÐµÑģÑĤÐ²Ð°":4664,"ĠÐ¿ÑĢÐ¸Ð¼ÐµÑĢ":4665,"ning":4666,"ĠÐ¼ÐµÑĢÐ¾Ð¿ÑĢÐ¸ÑıÑĤÐ¸":4667,"ĠÐ±Ð°Ð·":4668,"ĠÐ½Ð°Ð¿ÑĢÐ¸Ð¼ÐµÑĢ":4669,"Ð²Ð°Ð½Ð¸Ðµ":4670,"ÑĢÐµÑģÑģ":4671,"ĠÑĢÐµÐ·ÑĥÐ»ÑĮÑĤÐ°ÑĤÐµ":4672,"read":4673,"ĠÐ·Ð°ÐºÐ°Ð·":4674,"ĠÐ¿Ð¾ÑģÐº":4675,"Ġpartners":4676,"Ġinit":4677,"ÑĤÐµÐ»ÑĮÐ½Ð¾Ð³Ð¾":4678,"ĠÐºÐ°ÑĤÐ°":4679,"Ġpub":4680,"ÑİÑīÐ¸ÑħÑģÑı":4681,"Ð¾ÑĤÐµ":4682,"Ð·ÐµÑĢ":4683,"Ġmight":4684,"ĠÐ¾ÑģÑĤ":4685,"Ġreason":4686,"Ã£":4687,"ledge":4688,"Ð´ÑĥÐµÑĤ":4689,"Ð½Ð¸ÑĨÐ°":4690,"Ð²Ð»Ð¸":4691,"ÑĢÐ¾Ð½Ð¸":4692,"Ġwhole":4693,"ĠGuest":4694,"irm":4695,"ĠÐ¿Ð¾ÑģÐºÐ¾Ð»ÑĮÐºÑĥ":4696,"iam":4697,"ĠÐ¾Ð¿ÑĭÑĤ":4698,"ÐµÐ¼Ð°":4699,"ÑİÑīÐ°Ñı":4700,"Ð¸Ð¼Ð°":4701,"Ġmeas":4702,"ĠÐ¼Ð½Ð¾Ð³Ð¸Ðµ":4703,"ĠIP":4704,"tection":4705,"ĠMet":4706,"ĠÐ½ÐµÐ·Ð°Ð²Ð¸Ñģ":4707,"ify":4708,"Ġmess":4709,"Ġmaking":4710,"ĠCont":4711,"iles":4712,"ĠÐ¿Ð¾Ð·Ð¸":4713,"ÑĦÐ¾ÑĢÐ¼":4714,"Ð¿Ð»Ð°":4715,"ÑĩÐ¸ÑĤÑĭ":4716,"duct":4717,"ĠÐ¿ÑĢÐ¸Ð²Ð»Ðµ":4718,"ees":4719,"Ġbathroom":4720,"ĠÑĩÐ¸Ñģ":4721,"ÑĳÐ¼":4722,"Ð¼Ð¾ÑĤÑĢÑı":4723,"ĠÐ¦ÐµÐ½ÑĤ":4724,"ĠÑĥÑĢÐ¾Ð²Ð½Ñı":4725,"ÑĪÑĤÐ°":4726,"ÑģÑĤÐ°Ð²Ð»ÐµÐ½Ñĭ":4727,"Ġuntil":4728,"ĠÐ½Ð°Ð·Ð²Ð°":4729,"ĠÐĳÐ°Ð½":4730,"ĠÑĩÐ¸ÑģÐ»Ðµ":4731,"ĠÐ½ÐµÐ´Ð²Ð¸Ð¶":4732,"ĠÑģÐ°Ð¹ÑĤÐ°":4733,"Ġsubmitted":4734,"ĠÐľÐ°ÑĢ":4735,"je":4736,"Ġcommon":4737,"za":4738,"ĠReg":4739,"ĠÐ¿ÑĢÐ¾Ð²ÐµÑĢ":4740,"Ġrad":4741,"ĠÑĢÐ¾ÑģÑģÐ¸Ð¹":4742,"Ġtype":4743,"ires":4744,"Ġbus":4745,"ÑĤÐ¸ÑĤÐµ":4746,"ci":4747,"ĠÐ´Ð°Ð»ÑĮ":4748,"ÑħÐ²Ð°":4749,"ÐĲÐŀ":4750,"ĠÐ°Ð´Ð¼Ð¸Ð½Ð¸ÑģÑĤÑĢÐ°":4751,"Ġfield":4752,"ÑģÑĤÐ²Ð¾Ð²Ð°":4753,"Ġconn":4754,"ĠÑĨÐµÐ»ÑĮÑİ":4755,"ÑģÑĤÑĥÐ¿Ð¸":4756,"Ð³Ð¾Ñģ":4757,"ĠÑĥÑģÐ¿ÐµÑĪ":4758,"ĠÑĢÐ°Ð´Ð¸":4759,"Ð²Ð°ÑĤÑĮÑģÑı":4760,"ĠÐĺÑĢÐ°":4761,"Ġtry":4762,"ÑĢÑĥÐ³Ð»":4763,"ĠÐ½ÐµÑģÐºÐ¾Ð»ÑĮÐºÐ¸Ñħ":4764,"Ð¼Ð°ÑĤÑĢÐ¸":4765,"Ð»ÐµÐ·":4766,"ĠFrench":4767,"Ġsingle":4768,"ET":4769,"Ð¾ÑģÑĢÐµÐ´":4770,"ĠÐ¿Ð¾Ð¿Ñĥ":4771,"ĠÑĢÐ°Ð¼ÐºÐ°Ñħ":4772,"Ġ60":4773,"24":4774,"ĠÐ·Ð°Ð¿Ð¸":4775,"ĠÑĦÑĥÑĤ":4776,"ĠÑĥÐºÑĢÐ°":4777,"Ġeffic":4778,"ĠÐ¿ÑĢÐ¸Ð½Ñı":4779,"orage":4780,"Ð´Ð¸Ñı":4781,"put":4782,"Ð´ÑĮ":4783,"ĠÑģÑĤÐ°Ð±Ð¸":4784,"Ð¿Ð¸Ð¾Ð½Ð°ÑĤ":4785,"ĠÐ³Ð°Ð·":4786,"Ð·Ð°ÑĨÐ¸Ñı":4787,"sel":4788,"ĠÐ°ÑĤ":4789,"ĠÐ¸Ð½ÑĦ":4790,"Con":4791,"ĠÑĢÐ°Ð·ÑĢÐµ":4792,"rab":4793,"ĠÐ¿Ð¾Ð»ÑĥÑĩÐµÐ½Ð¸Ñı":4794,"ĠÐ½ÐµÐºÐ¾ÑĤÐ¾ÑĢÑĭÐµ":4795,"ĠÐ»ÑİÐ±Ð¾Ð¹":4796,"ĠDebian":4797,"ĠÐ¿Ð¾ÑģÑĤÐ°Ð²":4798,"ÐĲÑĢ":4799,"ius":4800,"ĠÑģÑĭ":4801,"Ġleast":4802,"Ð¾Ð²ÑĭÑħ":4803,"ÑĨÐ¸Ð°":4804,"Ġmeeting":4805,"ĠÐºÐ¾Ð½ÐºÑĥÑĢ":4806,"ĠÑĤÐ°ÐºÐ¸Ð¼":4807,"ĠÐ½Ð¾Ð²ÑĭÐ¹":4808,"ĠÐľÐ°":4809,"ĠÐ±Ð°Ð½ÐºÐ¾Ð²":4810,"ĠÐ¼Ð¾Ð»Ð¾Ð´":4811,"ĠOb":4812,"199":4813,"IP":4814,"Ġimprove":4815,"Ġevents":4816,"ocus":4817,"uis":4818,"Ð·Ð½Ð°ÑĩÐµÐ½":4819,"ĠÐ¿Ð¾ÑģÐµ":4820,"ĠÐ´Ð¸ÑģÐº":4821,"ÑĢÐ°Ð±Ð¾ÑĤÐ°":4822,"Ġinc":4823,"ĠÑĦÐ¾ÑĢÐ¼Ð°":4824,"Ð¶Ð½Ð¾Ð¹":4825,"Ġste":4826,"ria":4827,"ĠÑĩÐ°ÑģÑĤÐ¾":4828,"14":4829,"raq":4830,"ÑĥÐµÐ¼":4831,"Ġimage":4832,"EL":4833,"Ġoffice":4834,"Ġlegal":4835,"inese":4836,"olf":4837,"Ġabove":4838,"ĠÑģÑĥÐ¼":4839,"kt":4840,"Ġweek":4841,"Ġexhibition":4842,"cies":4843,"Ġhold":4844,"ĠÐ²ÐºÐ»ÑİÑĩÐ°Ñı":4845,"Ġdemand":4846,"ĠÐ½Ð°Ð¹ÑĤÐ¸":4847,"Ġmov":4848,"ĠÐ¼ÐµÐ½ÑĮ":4849,"ĠÐ½Ð°ÑĥÑĩ":4850,"ĠÐ¿ÑĢÑıÐ¼":4851,"ĠÐļÐ°ÑĢ":4852,"Ġgeneral":4853,"Ġrelax":4854,"Ð¿ÑĢÐ°Ð²Ð¸":4855,"Ġmakes":4856,"Ð´Ð°ÐµÑĤ":4857,"ÑĩÐµÐ¹":4858,"Ð²Ð¸Ð³Ð°":4859,"ĠÐ¿Ð°ÑĢÑĤÐ½ÐµÑĢ":4860,"ĠÐ¿ÑĢÐ¸ÑĢÐ¾Ð´":4861,"inks":4862,"ato":4863,"Ð¾Ñĥ":4864,"ĠBrit":4865,"zy":4866,"ĠÑģÑĢÐµÐ´ÑģÑĤÐ²":4867,"Ð³Ð»Ñı":4868,"ĠÐ¾Ð±ÐµÑģÐ¿ÐµÑĩÐµÐ½Ð¸Ñı":4869,"ĠÑĥÐ½Ð¸ÐºÐ°":4870,"ĠFrance":4871,"Ġlot":4872,"ger":4873,"Ġexec":4874,"ÐµÐ½ÐµÑĢÐ°":4875,"Ġalmost":4876,"ÑĩÐµÐ½Ð¸Ñİ":4877,"17":4878,"ved":4879,"AM":4880,"Ġextra":4881,"Ġhaving":4882,"ĠAfric":4883,"Ġrecomm":4884,"Ġcop":4885,"Ġitself":4886,"ĠÑĦÐ¸Ð»ÑĮ":4887,"ĠÐ¾ÑĤÐ´ÐµÐ»":4888,"ki":4889,"ĠÐºÐ¾Ð¼Ð½Ð°":4890,"US":4891,"Ġvill":4892,"irt":4893,"Ð»Ð°Ð´":4894,"ĠÐ¾ÑĤÐ½Ð¾ÑģÑı":4895,"ĠÐ½Ð°ÑģÑĤÐ¾ÑıÑīÐµÐµ":4896,"dom":4897,"Ð¾Ð·ÑıÐ¹":4898,"ĠCity":4899,"ĠÑģÐ¾Ð´ÐµÑĢÐ¶Ð¸ÑĤ":4900,"ĠDistrict":4901,"Ġcivil":4902,"ables":4903,"Ð¾ÑĢÐ¾Ð¶":4904,"Ð°ÐºÑģÐ¸Ð¼":4905,"Ġ22":4906,"ÐļÐ¾Ð¼Ð¿Ð°Ð½Ð¸Ñı":4907,"ĠÐ½Ð¸Ð·":4908,"ĠKing":4909,"ÑĤÐ°ÑĢ":4910,"now":4911,"ĠÐŃÑĤÐ¾":4912,"ÑıÐ´":4913,"ĠÑĢÐµÑĪÐµÐ½Ð¸Ðµ":4914,"ude":4915,"Ġespecially":4916,"Ð½Ð°Ð¼":4917,"Ġtechnical":4918,"Ġaim":4919,"ĠÐ³ÑĢÑĥÐ¿Ð¿Ñĭ":4920,"Ð²ÐµÐ½":4921,"umb":4922,"ĠÑģÐµÐ¹ÑĩÐ°Ñģ":4923,"ÑĢÐ¸Ð½":4924,"Ġlux":4925,"aim":4926,"ficult":4927,"imum":4928,"Ġengine":4929,"ÑıÐ²Ð»Ñı":4930,"mercial":4931,"âĢ¦":4932,"Ġliving":4933,"oph":4934,"ouncil":4935,"ĠÑĢÐ¾ÑģÑĤ":4936,"ĠÐ¿ÑĢÐ¾Ð´Ð¾Ð»Ð¶Ð°":4937,"ĠÐ²ÐµÐ´":4938,"ĠÐ·Ð°Ð½Ñı":4939,"ĠÐ¢Ð°Ðº":4940,"ĠÐ²ÐµÐ»Ð¸":4941,"Ġindepend":4942,"Ġinclude":4943,"Ġcommit":4944,"Ġcomplete":4945,"Ġdr":4946,"ĠÐ¿Ð¾Ð¼Ðµ":4947,"Ġland":4948,"ĠPort":4949,"rency":4950,"ĠÐ»ÑİÐ´Ð¸":4951,"arus":4952,"ĠÐ²Ð¾Ð·ÑĢÐ°":4953,"Ġshare":4954,"Ð¾Ð½Ð´":4955,"face":4956,"Ġcharacter":4957,"Ġnever":4958,"ĠÑģÑĢÐµÐ´ÑģÑĤÐ²Ð°":4959,"aps":4960,"ÑĩÐ½Ð¾Ð³Ð¾":4961,"ĠÑģÐ²Ð¾Ð¸Ð¼":4962,"OS":4963,"Ð¡Ð»ÐµÐ´ÑĥÑİ":4964,"ĠÐ´Ð¸Ð·Ð°":4965,"Ð¾ÑĢÐ¸Ñı":4966,"Ð½ÐµÐ²":4967,"pose":4968,"Ġguarant":4969,"ĠWestern":4970,"ĠÐ±ÐµÐ´":4971,"ĠSl":4972,"Ġneg":4973,"Ġconsum":4974,"ĠÐ¶ÑĥÑĢ":4975,"ÑģÑĤÐ²Ð¸Ñı":4976,"Ġeffort":4977,"ÑİÑīÐµÐ³Ð¾":4978,"Ĥ¬":4979,"ask":4980,"Ġunderstand":4981,"leg":4982,"ĠSouth":4983,"Ð²ÐµÐ·Ð´Ð¾Ñĩ":4984,"ÑĢÑĥÐ¶Ð¸":4985,"Ġdispl":4986,"Ð¼Ð¾Ñģ":4987,"ÑĩÐ°ÑģÑĤ":4988,"ĠCentral":4989,"star":4990,"ĠÑģÐ¾Ð¾ÑĤÐ²ÐµÑĤÑģÑĤÐ²Ð¸Ð¸":4991,"ĠÐ¿ÑĢÐµÐ´ÑģÑĤÐ°Ð²Ð»ÐµÐ½Ñĭ":4992,"âĤ¬":4993,"ĠÑģÐ¾Ðº":4994,"ĠÐ¿Ð¾ÑģÑĤÑĢÐ¾":4995,"rated":4996,"ÑĪÐ¸ÑĤÑĮ":4997,"Ġstyle":4998,"ĠÑģÑĢÐ°Ð²":4999,"olic":5000,"ĠÑįÐºÐ¾Ð½Ð¾Ð¼Ð¸ÐºÐ¸":5001,"omb":5002,"ĠBer":5003,"Ġdifficult":5004,"pond":5005,"ĠSch":5006,"ĠCompany":5007,"ĠAp":5008,"ĠÐ°Ñį":5009,"ĠÐ¸Ð¼ÐµÐ½Ð½Ð¾":5010,"Ġresearch":5011,"uclear":5012,"ĠÐ¸ÑģÐºÑĥÑģ":5013,"gage":5014,"Ð§ÐµÐ¼":5015,"Ġemer":5016,"ills":5017,"Å¡":5018,"Ð½Ð¾Ð¿":5019,"amic":5020,"Ġ)":5021,"ĠÐ¿ÑĢÐ°Ð²Ð¸ÑĤÐµÐ»ÑĮÑģÑĤÐ²Ð°":5022,"ĠÑģÑĦ":5023,"Ġwomen":5024,"Ð¶Ð´Ñĭ":5025,"ĠÑĥÑĢÐ¾Ð²ÐµÐ½ÑĮ":5026,"Ð¼ÐµÐ½ÑĤÑĭ":5027,"ÑĢÐµÑĤÑĮ":5028,"Ð¿Ð°Ñģ":5029,"ĠÐ°Ð´ÑĢÐµÑģ":5030,"Ġmot":5031,"pris":5032,"ÑĤÐµÐ»ÑıÐ¼":5033,"ĠJava":5034,"ĠQu":5035,"ĠÑģÑģÑĭÐ»ÐºÐ¸":5036,"Ġsent":5037,"ĠÐ¾Ð¿ÑĢÐµÐ´ÐµÐ»ÐµÐ½":5038,"ĠÐ½ÐµÐ±Ð¾Ð»ÑĮ":5039,"ĠÐ½Ð°ÑħÐ¾Ð´Ð¸":5040,"ÐµÐ¼ÑĭÐµ":5041,"ĠÐºÐ¾Ð½Ðµ":5042,"Ġserver":5043,"Ð¡Ðµ":5044,"irl":5045,"ĠÐ¾ÑģÐ¾Ð±ÐµÐ½Ð½Ð¾":5046,"ĠÑģÑĤÐ°ÑĢ":5047,"ole":5048,"ĠÑĤÑĭÑģÑı":5049,"ef":5050,"ĠÐĿÐ¾Ð¼ÐµÑĢÐ°":5051,"ha":5052,"ÑĳÑĢ":5053,"Ð»ÐµÑĤÐ¸":5054,"ĠÐ°Ð²ÑĤ":5055,"Ġdue":5056,"Ġchanges":5057,"Ð¼Ð¸ÑĤÐµ":5058,"ĠYour":5059,"ĠÐ¼Ð°Ð³Ð°":5060,"ĠÑĢÑĭÐ½ÐºÐ°":5061,"Ġ+":5062,"though":5063,"ĠÐ½Ð°Ð»":5064,"ÑĢÑĥÐµÑĤÑģÑı":5065,"ĠBro":5066,"ÐºÐ¾Ð¼ÐµÐ½":5067,"What":5068,"ÑĤÐµÐ»ÑıÐ¼Ð¸":5069,"incip":5070,"ĠÑģÐ°Ð¹ÑĤÐµ":5071,"roll":5072,"ĠÐ²Ð·Ð°":5073,"Ġprevent":5074,"ĠÐ²Ð¼ÐµÑģÑĤÐµ":5075,"ĠÐ´ÐµÐ½Ðµ":5076,"Ġcredit":5077,"ean":5078,"Ð½ÑıÑı":5079,"Ġbuilt":5080,"prise":5081,"ÐłÐ°Ð·":5082,"ĠÐ½Ð¾ÑĢ":5083,"ĠÐ³Ð°ÑĢÐ°Ð½ÑĤÐ¸":5084,"ault":5085,"ÑĢÐ¸ÑĤÐ°":5086,"ĠÐ¿ÑĢÐ¾Ð³ÑĢÐ°Ð¼Ð¼Ð°":5087,"ĠÐ³Ð¾Ð²Ð¾ÑĢ":5088,"ĠÐ½Ð°Ñĥ":5089,"ĠÑģÑĤÐ°Ð½Ð¾Ð²":5090,"mark":5091,"ground":5092,"ĠÐ·Ð°Ð²Ð¾Ð´":5093,"Ġapplication":5094,"aced":5095,"ĠÐºÐ¾Ð¼ÑĦÐ¾ÑĢÑĤÐ°":5096,"iction":5097,"ĠÐ¾ÑĦÐ¸ÑĨÐ¸Ð°Ð»ÑĮ":5098,"ĠÐ²Ð¾Ð·Ð´Ñĥ":5099,"ĠÐ¿ÐµÑĢÑģÐ¾Ð½Ð°":5100,"Be":5101,"Ġbecame":5102,"Ġactivity":5103,"ĠÑģÐµÑĢÑĮ":5104,"Ġrecogn":5105,"ĠÐºÐ°Ð¶Ð´ÑĭÐ¹":5106,"ili":5107,"ĠÑĥÑģÑĤÑĢÐ¾Ð¹":5108,"Ġ23":5109,"Ġlet":5110,"Ġtraditional":5111,"ĠÐ´Ð°Ð½Ð½ÑĭÐµ":5112,"ĠÐ¾Ð¿Ð»Ð°":5113,"Ġvous":5114,"ĠÐ»Ð°":5115,"16":5116,"ÑĩÐµÑģÐºÐ¾Ð¼":5117,"By":5118,"ĠÑĢÐ°Ð±Ð¾ÑĤÐ°ÐµÑĤ":5119,"ĠÐ¾ÑĩÐµÑĢÐµÐ´":5120,"ĠEast":5121,"antly":5122,"ÑģÑĤÐµ":5123,"ĠÐºÐ¾Ð½ÑĨ":5124,"Ð»ÐµÐ½Ð¸Ð¹":5125,"ÑĤÐ¸ÑĤÑĮ":5126,"ĠÐ³Ð¾Ð´Ñĭ":5127,"ĠÐ¿ÑĢÐ¸Ð½ÑĨÐ¸":5128,"ĠÐ¸ÑģÑĤÐ¾Ñĩ":5129,"ondon":5130,"ĠÐºÐ°ÑĢÑĤÐ¸Ð½":5131,"ĠÐ½Ð°ÑĢÑĥ":5132,"ÑģÐµÐ´Ð°":5133,"More":5134,"eneral":5135,"ĠÑĢÐ°Ð±Ð¾ÑĤÑĥ":5136,"ĠÐ´Ð¾Ð±Ð°":5137,"Ð¾ÑĢÑĥÐ¶":5138,"ĠÐºÐ¾ÑĤÐ¾ÑĢÐ¾Ð¼":5139,"ĠÐ¼ÐµÑĢÐµ":5140,"ĠÐ¼ÐµÐ´Ð¸ÑĨÐ¸":5141,"ÐµÑĢÑħ":5142,"adem":5143,"Ġwind":5144,"Ġatm":5145,"ÑĢÐ°Ð·Ð¸":5146,"ĠVista":5147,"rs":5148,"ĠÑĤÑĢÑĥÐ´":5149,"ĠÑĪÐºÐ¾Ð»":5150,"ĠÑįÐ»ÐµÐ¼":5151,"Ð±Ð°ÑĤÑĭ":5152,"Ġenc":5153,"ĠÐ¿ÑĢÐµÐ´Ð»Ð¾Ð¶Ð¸ÑĤÑĮ":5154,"oe":5155,"ÑģÑĤÑĮÑİ":5156,"ĠÐ°Ð±":5157,"Ð¶Ð½ÑĭÑħ":5158,"ĠÐ¾ÑģÐ½Ð¾Ð²Ðµ":5159,"atory":5160,"Ð·Ð²ÐµÐ·Ð´Ð¾Ñĩ":5161,"Ġwhy":5162,"ĠÐ±Ð¾ÑĢÑĮ":5163,"ĠÐ¿Ð¾ÑģÐµÑĤÐ¸":5164,"ĠÐŀÑĤÐ·ÑĭÐ²Ñĭ":5165,"Ð¾Ð²ÑĭÐµ":5166,"ĠÐ¿ÑĢÐµÐ·Ð¸Ð´ÐµÐ½ÑĤ":5167,"Ġside":5168,"ĠCD":5169,"Ġsize":5170,"Ġreceive":5171,"ÐµÐ²Ð¸Ñĩ":5172,"ĠÐ´ÑĢÑĥÐ³Ð¾Ð¹":5173,"ĠÐ²ÑĭÑĪÐµ":5174,"Ġtransfer":5175,"ĠÑģÐ»ÑĥÐ¶":5176,"ÑĢÐ¾Ð²Ð°Ð½Ð½ÑĭÑħ":5177,"ĠÐ¾ÑĤÐ·ÑĭÐ²Ñĭ":5178,"arent":5179,"Ġident":5180,"Ġrates":5181,"ĠÑĥÐ½Ð¸Ð²ÐµÑĢÑģÐ¸":5182,"Ġver":5183,"uck":5184,"Ġmember":5185,"ĠÑĨÐµÐ»":5186,"Ð¡Ð°Ð½":5187,"son":5188,"Ġcamp":5189,"Ġmar":5190,"soft":5191,"Ġcut":5192,"ĠÑĢÐ¾ÑģÑĤÐ°":5193,"ĠÐ´Ð½Ñı":5194,"Ġdeal":5195,"min":5196,"ĠÑģÐ¸Ð¼":5197,"Ġlargest":5198,"ĠÑģÑĤÐ¾ÑĢÐ¾Ð½":5199,"Ġviol":5200,"Ġsure":5201,"Ġneeded":5202,"MS":5203,"ÑĢÐ°Ð±":5204,"urb":5205,"ĠÐĳÑĥ":5206,"Ð¾ÑıÑĤ":5207,"ÑıÑģÑĮ":5208,"acilities":5209,"ÐŁÑĢÐµ":5210,"ĠÐ±ÑĭÑģÑĤÑĢÐ¾":5211,"ĠÑģÐ¾ÑģÑĤÐ¾":5212,"ota":5213,"Ġtravel":5214,"cret":5215,"alls":5216,"ÐºÐ¾ÑĢ":5217,"ĠMus":5218,"25":5219,"ĠRiver":5220,"irc":5221,"Ġpleas":5222,"Ġreform":5223,"Ġvideo":5224,"Ġfloor":5225,"âĢĵ":5226,"ĠEl":5227,"ÑĤÐ¸ÑĦÐ¸ÐºÐ°":5228,"ply":5229,"ÐºÐ°ÑĢ":5230,"ĠÐ±Ð»Ð°Ð³Ð¾Ð´Ð°ÑĢÑı":5231,"ĠÑĢÐ°Ð¹Ð¾Ð½":5232,"ĠJu":5233,"Ġmeaning":5234,"ĠÑĢÐµÐºÐ»Ð°":5235,"ĠDis":5236,"ĠÐķÐ²ÑĢÐ¾Ð¿Ðµ":5237,"ĠEUR":5238,"press":5239,"Ð¿Ð»":5240,"ÑīÐ¸Ð½":5241,"ĠArt":5242,"ÑĢÐ¾Ð³ÑĢÐ°Ð¼":5243,"Ġlink":5244,"ĠÐ¾ÑĨÐµÐ½":5245,"ÑĪÐµÐµ":5246,"Ġyoung":5247,"ÑĩÐ°Ð¹":5248,"ched":5249,"Ġalong":5250,"Ġsound":5251,"rap":5252,"ĠBul":5253,"aya":5254,"aving":5255,"Ġpool":5256,"ÑĥÐµÑĤÑģÑı":5257,"Ġ80":5258,"Ġquiet":5259,"ÐºÐ¾Ð±":5260,"ae":5261,"ste":5262,"ends":5263,"ĠTrans":5264,"ĠÐºÐ¾ÑĢÐ¿Ð¾ÑĢÐ°":5265,"Ð¼ÐµÐ½ÑĮ":5266,"Ġissues":5267,"ĠÐ·Ð°Ð²ÐµÑĢ":5268,"ĠÐłÐµÑģÐ¿ÑĥÐ±Ð»Ð¸ÐºÐ¸":5269,"ĠÐĴÐ¸":5270,"Ġrespect":5271,"Ġresources":5272,"ĠÐ³Ð¾ÑģÑĥÐ´Ð°ÑĢÑģÑĤÐ²Ð°":5273,"ĠXP":5274,"gen":5275,"Ð°ÑĤÐ°":5276,"ÑĢÐ¸Ð°Ð½":5277,"Ġren":5278,"Ġscient":5279,"ÑĤÐ¾Ð¹":5280,"Ġdire":5281,"ĠÐ¿Ð¾Ð´Ð¾Ð±":5282,"ĠÐ½Ð°ÑģÐµÐ»ÐµÐ½Ð¸Ñı":5283,"Ġarchitect":5284,"ÐµÐ·Ð´":5285,"Ġcharg":5286,"ĠÑİÑĢÐ¸":5287,"Ġque":5288,"ĠÑģÑĤÑĢÐ°Ð½Ðµ":5289,"Äģ":5290,"arth":5291,"Ġmass":5292,"ĠBusiness":5293,"ĠÐºÐ½Ð¸":5294,"Ġtreatment":5295,"From":5296,"ĠÐ¿Ð¾Ð¶":5297,"ĠÐ¾Ð´Ð½Ð¸Ð¼":5298,"Ð»Ð¸ÑĩÐ¸Ðµ":5299,"Ġdiscuss":5300,"osphere":5301,"ÐµÐ·Ð´Ð°":5302,"Se":5303,"ogle":5304,"Ġinvol":5305,"ĠÐ²Ð¾ÑģÑģÑĤÐ°Ð½Ð¾Ð²":5306,"Ð¡Ð»ÐµÐ´ÑĥÑİÑīÐ¸Ðµ":5307,"Ð²ÑĪÐ¸Ñħ":5308,"ĠÐ»ÐµÑĤÐ½Ð¸Ñħ":5309,"ĠÐķÐ²ÑĢÐ¾Ð¿ÐµÐ¹":5310,"ĠUniversity":5311,"ÐĲÐĿ":5312,"ĠÃĲ":5313,"Ġrecord":5314,"gu":5315,"ĠÐ´Ð¸ÑĢÐµ":5316,"40":5317,"ĠÐ·Ð°Ð²Ð¸Ñģ":5318,"Ġsignific":5319,"ÑĢÐ°Ð¼ÐµÑĤ":5320,"ĠÐ¿Ð¾ÑĩÑĤÐ¸":5321,"Ġonce":5322,"oon":5323,"Ġtaken":5324,"Ġgas":5325,"Ð¡Ð¾":5326,"Ġprograms":5327,"cel":5328,"Ġupd":5329,"En":5330,"ÑĥÑį":5331,"ÑģÐºÐ¸Ð¼Ð¸":5332,"Ġeverything":5333,"ume":5334,"ĠChinese":5335,"Ð¾Ð·Ð°":5336,"ĠÐ¡Ð°Ð½":5337,"Ġassist":5338,"Ð·Ð¸Ð½":5339,"Ð¾ÑĤÑĭ":5340,"lad":5341,"ĠÑĤÐµÐ½":5342,"Ġune":5343,"Ġparts":5344,"Ġapartment":5345,"ĠÑģÐ²ÑıÐ·Ð°Ð½Ð½ÑĭÑħ":5346,"ED":5347,"ĠÐ²Ð°ÑĪ":5348,"ĠÑĨÐµÐ½ÑĤÑĢÐ°":5349,"ĠÑģÐ²ÑıÐ·Ð°Ð½Ð½ÑĭÐµ":5350,"ÐºÐ¸Ð¼Ð¸":5351,"ĠÐĲÐ²":5352,"ĠÐ±Ð¾Ð»ÑĮÑĪÐ¾Ð¹":5353,"Ð¸Ð³":5354,"Ð¾Ð²Ð°Ð½Ð¸Ð¹":5355,"Ġtele":5356,"Ġquick":5357,"Ð¾Ð¶Ð´ÐµÐ½Ð¸Ñı":5358,"ceed":5359,"Ġqual":5360,"Ġhigher":5361,"Ð¾Ð¼Ð¸Ð½Ð°":5362,"ÐµÑĤÐ¾Ð²":5363,"ÑģÐºÐ¾":5364,"ĠÐ¾ÐºÐ¾Ð½":5365,"Ġrisk":5366,"ÅĤ":5367,"itable":5368,"ĠÑĤÐ¸Ð¿Ð°":5369,"Ġau":5370,"ĠÑĨÐµÐ½ÑĤÑĢÐ°Ð»ÑĮ":5371,"Ð¸Ð¸":5372,"ĠÐ¾ÑģÑĤÐ°Ð²Ð»ÐµÐ½Ñĭ":5373,"Ġdocument":5374,"Ð´Ð°ÑĤÑĮ":5375,"ances":5376,"Ġearly":5377,"ception":5378,"ĠÐ½Ð¸Ðº":5379,"aul":5380,"ÑīÐµÐ½Ð¸Ð¸":5381,"Ġopportunity":5382,"ĠÐ¾ÑĢÐ¸":5383,"Ġincludes":5384,"Ġattack":5385,"ĠÑħÐ¾ÑĢÐ¾ÑĪÐ¾":5386,"ĠÐºÐ¼":5387,"ĠVal":5388,"Russi":5389,"ĠÑįÑĤÑĥ":5390,"ĠÑĢÑĥÑģ":5391,"ÑĦÑĤ":5392,"ĠÐľÐµÐ¶Ð´ÑĥÐ½Ð°ÑĢÐ¾Ð´":5393,"Ġadditional":5394,"ÑĪÐºÐ¾Ð¼":5395,"Ġabs":5396,"ĠDo":5397,"Ġ2002":5398,"Ġbasis":5399,"ĠÐ¿ÑĢÐ¾Ð¸Ð·Ð²Ð¾Ð´Ð¸":5400,"Ð½Ð¸ÑĤÐµ":5401,"iable":5402,"Ġintrodu":5403,"Ġthird":5404,"ided":5405,"ander":5406,"ta":5407,"Ġcrit":5408,"Ð¿Ð¾Ð²":5409,"ief":5410,"ĠÑĩÑĥÐ²":5411,"ĠÐ¿ÑĢÐ¸Ð±Ñĭ":5412,"OM":5413,"ĠÐ±Ð¾Ð»":5414,"Ġenough":5415,"ĠGod":5416,"ĠÐ¸ÑģÑĤÐ¾ÑĢÐ¸Ð¸":5417,"cription":5418,"ÑĹ":5419,"Ġmom":5420,"osition":5421,"Ġrequirements":5422,"Ġequipped":5423,"self":5424,"ĠÐ²ÑĭÐ¿Ñĥ":5425,"Ġclear":5426,"rest":5427,"Ġeuro":5428,"Ġtraining":5429,"Ð¾Ð¶Ðµ":5430,"Ġreserv":5431,"ĠÐ¼ÐµÑĤÐ¾Ð´":5432,"Ġdecl":5433,"Ġrather":5434,"Ġdie":5435,"ĠAust":5436,"ĠÐ¿Ð°Ð¼":5437,"ĠAc":5438,"ourn":5439,"ĠIran":5440,"ĠÐ¾Ð±Ð¾ÑĢÑĥÐ´Ð¾Ð²Ð°Ð½Ð¸Ñı":5441,"ĠÑĤÐµÐ¿ÐµÑĢÑĮ":5442,"Ġbuy":5443,"ĠÑģÑĢÐ¾Ðº":5444,"Ð²Ð°ÑĢÐ¸":5445,"ĠÐ¿ÑĢÐµÐ´Ð½Ð°":5446,"ĠÐ´Ð¾Ð»Ð¶Ð½Ð°":5447,"airs":5448,"Ġrecent":5449,"Ġaud":5450,"ÑħÐ¾Ð´ÑıÑĤ":5451,"ĠÑĤÑĢÐ°Ð´Ð¸ÑĨÐ¸Ð¾Ð½":5452,"Ġlive":5453,"ĠNorth":5454,"ĠDay":5455,"Ġrequest":5456,"Ġop":5457,"ugust":5458,"Ġrole":5459,"Ġreception":5460,"Ġ2001":5461,"uted":5462,"80":5463,"erc":5464,"Ġrequired":5465,"ÑĩÐµÑģÐºÐ¸Ð¼Ð¸":5466,"reg":5467,"Ġcorpor":5468,"medi":5469,"hel":5470,"attle":5471,"Ġpresident":5472,"ĠÐ¿Ð¾Ð½Ð¸Ð¼Ð°":5473,"ĠÐ¾Ð¿ÑĤÐ¸":5474,"Ġbanks":5475,"elling":5476,"anu":5477,"Ġpour":5478,"ĠLondon":5479,"illed":5480,"Ġ000":5481,"ĠÐ¼Ð¾Ñī":5482,"Ð½ÑıÑĤÑĮ":5483,"ÑĢÐ¾Ð²Ð°Ð½Ð½ÑĭÐµ":5484,"Ġincluded":5485,"Ġcommunity":5486,"Ġanal":5487,"ĠSm":5488,"Ġdeveloping":5489,"Ġentire":5490,"ĠÐŀÐŀÐĿ":5491,"ĠAnt":5492,"Ġgroups":5493,"ico":5494,"ĠPr":5495,"Ġeducation":5496,"yd":5497,".âĢĿ":5498,"ĠÐŀÑĤÐµÐ»ÑĮ":5499,"ĠÐ¸Ð½Ð´Ð¸Ð²Ð¸Ð´Ñĥ":5500,"ĠÑģÐ¾Ð·Ð´Ð°Ð½Ð¸Ñı":5501,"Ġparking":5502,"ges":5503,"Ġstop":5504,"ĠÑĤÐ°ÐºÐ¾Ð¹":5505,"ĠÑĪÐµ":5506,"Ġexchange":5507,"ĠÃł":5508,"Ġnews":5509,"ĠÐ½Ð°ÑĩÐ¸Ð½Ð°":5510,"Ġannoun":5511,"ĠÑĥÑĩÑĢÐµ":5512,"ÐĲÐ½":5513,"Ġsepar":5514,"Ġyet":5515,"Ġstarted":5516,"ĠÑģÑĤÑĢÐ°ÑĤÐµÐ³Ð¸":5517,"ĠÐ°ÑįÑĢÐ¾Ð¿":5518,"iting":5519,"ĠÐ¢Ð°":5520,"Ġaccommodation":5521,"Ġjob":5522,"ĠÑĥÐ´Ð¾Ð²Ð»ÐµÑĤ":5523,"ÐµÑĢÐ¾Ð²":5524,"ÑģÑĤÐ²ÐµÐ½Ð½Ð¾":5525,"Ð«":5526,"rast":5527,"ÑĤÐµÐ»ÑĮÐ½ÑĭÐ¼":5528,"ĠÑĢÐ°ÑģÑħÐ¾Ð´":5529,"Ġpotential":5530,"selves":5531,"ĠÐ·Ð°Ð¿ÑĢÐµ":5532,"Ġdirectly":5533,"ĠÐ½Ð°ÑĪÐµÐ³Ð¾":5534,"ĠÑĢÐµÐºÐ¾Ð¼ÐµÐ½":5535,"ĠÐ¯Ð¿Ð¾":5536,"ĠÐ½Ð°ÑĢÐ¾Ð´":5537,"ĠÐµÐ¼Ñĥ":5538,"ĠÐĶÐ°":5539,"ÑģÐ¾Ð½":5540,"estic":5541,"Ġsolution":5542,"ĠÐ³Ð¾Ð»Ð¾Ñģ":5543,"Ð²ÑĭÐµ":5544,"Ġknowledge":5545,"ĠÐ»Ð¸Ð±Ð¾":5546,"Ġholid":5547,"ĠMicro":5548,"Ġtransl":5549,"Ġsolutions":5550,"Ġfocus":5551,"ĠÐļÐ¸ÑĤÐ°Ñı":5552,"Ġlater":5553,"ĠÑĥÑĤÐ²ÐµÑĢ":5554,"ĠÐ½ÐµÐºÐ¾ÑĤÐ¾ÑĢÑĭÑħ":5555,"una":5556,"met":5557,"Ġformer":5558,"ĠÐ½ÐµÐ´Ð¾":5559,"ĠÐ¿ÑĢÐµÐ´ÑģÑĤÐ°Ð²Ð»Ñı":5560,"ĠAng":5561,"Ġprotection":5562,"Mar":5563,"Ð´Ð¸Ð½Ð°":5564,"Ġlooking":5565,"unch":5566,"Ġpan":5567,"ĠÐ¿ÑĢÐµÑģÑģ":5568,"lick":5569,"That":5570,"Ġfront":5571,"ĠBelarus":5572,"Ġrou":5573,"Ġquestion":5574,"erve":5575,"ĠCenter":5576,"Ġreach":5577,"ĠAut":5578,"Ð´ÐµÑĤÐµ":5579,"ĠÐ½Ð¸ÐºÐ°":5580,"Ġbody":5581,"ĠFore":5582,"ĠÐ¡Ð°":5583,"Ġchoose":5584,"Ġsurround":5585,"ĠÐºÐ¾ÑĤÐ¾ÑĢÑĥÑİ":5586,"ĠÐ±ÐµÑĢÐµ":5587,"ÑĩÐµÐ³Ð¾":5588,"Ġestablished":5589,"Ġtechnologies":5590,"inary":5591,"ĠAsia":5592,"ĠÑģÐ¸ÑģÑĤÐµÐ¼Ñĥ":5593,"ĠArmen":5594,"ilar":5595,"ptember":5596,"ĠBlack":5597,"Ġatmosphere":5598,"Ð±Ð¾Ð»Ñĥ":5599,"ĠCouncil":5600,"eed":5601,"Ġcit":5602,"ĠPe":5603,"**":5604,"ÐŀÐ½Ð¸":5605,"ĠÑĤÐµÑħÐ½Ð¾Ð»Ð¾Ð³Ð¸Ð¸":5606,"ÐºÑĤÑĥÑĢ":5607,"Ġreferred":5608,"ĠMarch":5609,"ĠÐ²Ð¼Ðµ":5610,"entoo":5611,"ĠÑģÐ¾Ð²Ð¼ÐµÑģÑĤ":5612,"Ġstandards":5613,"Ġ27":5614,"ĠÐ·Ð´Ð¾ÑĢÐ¾Ð²":5615,"ĠÑĥÐ±Ðµ":5616,"Ġconference":5617,"Ġrestaurants":5618,"Ġwords":5619,"Ġmonths":5620,"Ð»Ð°Ð¼":5621,"Ð¼Ð°ÑĢ":5622,"resh":5623,"Ġprincip":5624,"Ð¿Ð¾Ð½":5625,"Ġreceived":5626,"Ġincreasing":5627,"ÐĿÐ¸":5628,"Ġsimple":5629,"ĠÐ²Ð¾Ð¿ÑĢÐ¾ÑģÑĭ":5630,"ĠÐºÐ¾Ð»Ð»ÐµÐºÑĨÐ¸Ð¸":5631,"ÑĢÐµÐ³Ð¸":5632,"ĠÐ²ÐµÑĢÑģÐ¸Ð¸":5633,"However":5634,"ÑĢÐµÐ·":5635,"Ġrent":5636,"ĠÐ´Ð¾Ð»Ð»Ð°ÑĢÐ¾Ð²":5637,"ray":5638,"ĠÐŁÑĢÐ¸":5639,"ĠÑħÑĢÐ°Ð½ÐµÐ½Ð¸Ñı":5640,"Ġvia":5641,"ĠÐºÐ¸":5642,"ĠÑħÑĥÐ´":5643,"imming":5644,"Ġcapac":5645,"Ġclick":5646,"ĠÐºÐ¾Ð¼Ð¿Ð»ÐµÐºÑģ":5647,"mar":5648,"Ġarriv":5649,"ĠÐ¿Ð¾ÑĤÐµÐ½":5650,"rase":5651,"ĠKaz":5652,"liament":5653,"Ġchoice":5654,"ÑĤÑĭÐ¹":5655,"ĠÐºÑĥÐ»ÑĮÑĤÑĥÑĢ":5656,"ĠChampions":5657,"ĠÐ¼ÐµÑģÑĤÐµ":5658,"Ġlanguages":5659,"ĠÐ¿Ð¾Ð´ÑĤÐ²ÐµÑĢ":5660,"ÐĽÐ¸":5661,"lands":5662,"ĠDesk":5663,"Ð§ÐµÐ¼Ð¿Ð¸Ð¾Ð½Ð°ÑĤ":5664,"ĠÐ°ÑģÑģ":5665,"Ġlisted":5666,"ĠÑĤÐ¾Ð¼Ñĥ":5667,"ĠÑĤÐµÐ»ÐµÑĦÐ¾Ð½":5668,"ĠFriend":5669,"IM":5670,"ĠPer":5671,"ÐŁÐ°":5672,"Ġairport":5673,"Ġphoto":5674,"ĠÐ°Ð¿":5675,"Ġdecor":5676,"ĠÐ¸ÑģÐºÐ»Ñİ":5677,"Ġwhether":5678,"ĠÐ¶ÐµÑģÑĤ":5679,"action":5680,"ĠÐ¢ÑĥÑĢ":5681,"Ġideal":5682,"ÐĶÐ¸":5683,"ĠÐ¿Ð»Ð°Ð½Ð¸":5684,"ĠÑĥÐ²ÐµÐ»Ð¸ÑĩÐ¸":5685,"Ð¸ÑĤÐ°Ð¹":5686,"Ġperformance":5687,"ĠÐ°Ð½Ð³":5688,"cer":5689,"2010":5690,"ĠÐ¸Ð·Ð¾Ð±ÑĢÐ°Ð¶ÐµÐ½Ð¸Ñı":5691,"ĠÐ¿Ð¾Ð³":5692,"astic":5693,"Ġcoll":5694,"Ð°Ð»Ð¾Ð²":5695,"Ġcontrib":5696,"ĠÑģÐ¿Ð¸ÑģÐºÐ°":5697,"Ġinstitutions":5698,"mb":5699,"Ð¾ÑģÑĤÐ¾Ñı":5700,"Ġlat":5701,"ension":5702,"RE":5703,"ÐĺÐ§":5704,"ĠÐºÐ°ÐºÑĥÑİ":5705,"Ð·Ð¼Ð°":5706,"Ġhalf":5707,"Ġsend":5708,"ĠÐºÐ¾Ð¼ÑĦÐ¾ÑĢÑĤÐ°Ð±ÐµÐ»ÑĮ":5709,"ï¿½ï¿½ï¿½ï¿½":5710,"ĠÑĢÐ°ÑģÐ¿ÑĢÐ¾ÑģÑĤ":5711,"Ġmedia":5712,"coming":5713,"ĠÑĢÐ°Ð±Ð¾ÑĩÐ¸":5714,"Ġbase":5715,"ĠÐ¡Ð¸":5716,"ĠÐ½Ð°ÑĩÐ°Ð»Ð°":5717,"ÑĤÐµÑĤÐ°":5718,"Ġthous":5719,"Now":5720,"Ġchall":5721,"ĠÑĨÐµÐ½ÑĤÑĢ":5722,"Des":5723,"ĠÐ¾Ð±Ð¼ÐµÐ½":5724,"ĠÑĤÐµÐºÑĥ":5725,"ĠÐ¾ÑģÐ½":5726,"ĠÐ¾Ð±ÑĬÐµÐ´Ð¸Ð½":5727,"Ä±":5728,"Ġbring":5729,"Ġthings":5730,"ĠÑģÐ¼Ð¾Ð³":5731,"DP":5732,"ĠÐ¿Ð¾Ð»ÑĥÑĩÐ°":5733,"Ġestablish":5734,"Ġcustomer":5735,"ratic":5736,"ĠÐ¸Ð½ÑĤÐµÑĢÐµ":5737,"Ġconnection":5738,"ĠExchange":5739,"ĠÐ¼Ð½Ð¾Ð¶ÐµÑģÑĤÐ²":5740,"ÐµÐ½Ð½Ð¾Ðµ":5741,"ÑĮÐ¸":5742,"ena":5743,"leb":5744,"izing":5745,"Ð½Ð¸ÐµÐ¹":5746,"eter":5747,"ĠÐºÑĢÐµ":5748,"ĠÐ¸Ð¼ÐµÑĤÑĮ":5749,"iter":5750,"ĠÐ´Ð½ÐµÐ¹":5751,"ÑĥÑİÑĤÑģÑı":5752,"ĠÐĺÐ·ÑĢÐ°":5753,"Ġmanufacture":5754,"Ġfive":5755,"Âł":5756,"ĠÐ¼Ð°ÐºÑģÐ¸Ð¼":5757,"ĠÐµÐ¶Ðµ":5758,"Ġeffective":5759,"ĠÐ¸Ð·Ð¼ÐµÐ½Ð¸":5760,"ĠÐ½Ð¾Ð²Ð¾Ð³Ð¾":5761,"ĠÐ½Ð°ÑĪÐ»Ð¸":5762,"ctober":5763,"ÐĳÐ¾Ð»ÑĮ":5764,"ĠÐĳÐ°ÑĢ":5765,"ĠWith":5766,"ĠFire":5767,"ibr":5768,"ĠÐºÑĥÑħ":5769,"ises":5770,"Ġcooperation":5771,"Ð¶Ñĥ":5772,"ald":5773,"ĠÑĥÐ»Ð¸":5774,"Ð¡Ð¢":5775,"Ġstates":5776,"ÐŁÐ¾Ð»":5777,"ĠOut":5778,"Ġfully":5779,"ĠÑĢÐ°Ð±Ð¾ÑĤÐµ":5780,"ĠÑįÑĤÐ¸Ð¼":5781,"AD":5782,"reed":5783,"Ġdistance":5784,"Ġsubject":5785,"ĠÐ»ÐµÐ³ÐºÐ¾":5786,"ĠÐ¼Ð¾Ð½":5787,"ociation":5788,"ĠÑģÑĤÐ°Ð»Ð¸":5789,"ÑĩÐµÐ±":5790,"ĠKh":5791,"ĠÐ´ÐµÐ»Ðµ":5792,"ÑĤÐ°Ð»ÑĮ":5793,"oviet":5794,"Ð²ÑĤÑĢÐ°Ðº":5795,"yr":5796,"Ġparty":5797,"onst":5798,"ĠTH":5799,"ĠÐ¿Ð°ÑĢÐ°Ð¼ÐµÑĤ":5800,"ĠÐ²Ð¾ÑģÐ¿":5801,"23":5802,"Ð´ÐµÐ¼Ð¸":5803,"ĠÐ´Ð¾Ðº":5804,"ĠÐĳÐ°":5805,"ÑħÐ°Ð½Ð¸":5806,"Ġwarm":5807,"term":5808,"New":5809,"Ġstudents":5810,"Ġquestions":5811,"Ð°Ð»Ñĭ":5812,"Ð±Ð¾ÑĢÐ°":5813,"ĠÑģÐ¾Ð±ÑģÑĤÐ²ÐµÐ½Ð½ÑĭÐµ":5814,"ĠÐ¾ÑĤÐ½Ð¾ÑĪÐµÐ½Ð¸Ð¸":5815,"Ð»Ð°Ð¼Ð¸":5816,"Ġindustrial":5817,"ita":5818,"ĠÐ·Ð°Ð¿ÑĢÐ¾Ñģ":5819,"Ġhous":5820,"Ġnuclear":5821,"ached":5822,"Ġtrain":5823,"ÑĪÐ°ÑĤÑĮ":5824,"house":5825,"ĠÐ²Ð¾Ð¹Ð½Ñĭ":5826,"hest":5827,"Is":5828,"ÑģÑĤÐ²ÐµÐ½Ð½Ð¾Ð¹":5829,"Ġconvenient":5830,"ÑĤÐ¾ÑĢÐ¾Ð²":5831,"Ġindic":5832,"Ð¼ÐµÐ½ÑĤÐ¾Ð²":5833,"ĠÑĢÐ°Ð·Ð²Ð¸Ð²Ð°":5834,"ĠÐ·Ð°ÑıÐ²":5835,"Ġplant":5836,"ĠÐ¾ÑĤÐ½Ð¾ÑĪÐµÐ½Ð¸Ñı":5837,"ĠÐ½ÐµÐ³Ð¾":5838,"Ġcommercial":5839,"Ġsection":5840,"Ġculture":5841,"Ġcontract":5842,"Ġbeach":5843,"ÑĢÐ°Ð·Ñĥ":5844,"reng":5845,"Ġtranslation":5846,"Ġattract":5847,"Ġspecific":5848,"ĠÑĥÑģÑĤÐ°Ð½Ð¾Ð²ÐºÐ¸":5849,"ĠÑģÑĤÐµÐ¿":5850,"Ġinnov":5851,"aries":5852,"Ġgen":5853,"ĠÐºÐ¾Ð½ÑĦ":5854,"Ġground":5855,"ĠIraq":5856,"ĠÐ¾Ð´Ð½Ð°ÐºÐ¾":5857,"ĠAs":5858,"Ð´ÐµÑģÑĮ":5859,"uff":5860,"ĠFin":5861,"ĠÐ¾Ð´Ð½Ð°":5862,"Ġmodel":5863,"ĠÐ¸Ð½ÑĤÐµÑĢÐ½ÐµÑĤ":5864,"ening":5865,"Ð¬":5866,"ĠÐ´Ð¾ÑģÑĤÐ°ÑĤÐ¾ÑĩÐ½Ð¾":5867,"ĠÐ¿Ð¾Ð¿ÑĥÐ»ÑıÑĢ":5868,"Ġgot":5869,"Ġbrand":5870,"hips":5871,"racy":5872,"ÐµÐ¹Ð½":5873,"Ð°Ð»ÑĮÐ½Ð¾Ð¹":5874,"ĠÐ´Ð¾ÑħÐ¾Ð´":5875,"Ġsociety":5876,"ĠÑıÐ´ÐµÑĢ":5877,"ĠÑĤÐµÐºÑģÑĤÑĭ":5878,"ĠÑģÐµÐ»ÑĮ":5879,"Ġdam":5880,"ĠÐĴÐ»Ð°Ð´Ð¸":5881,"Âµ":5882,"Ð·Ð°Ð´":5883,"ĠTw":5884,"Ġsomething":5885,"Ġut":5886,"Ġregional":5887,"Pl":5888,"no":5889,"chan":5890,"ĠÑĩÐµÑĤÑĭ":5891,"La":5892,"ression":5893,"Ġdone":5894,"erous":5895,"Ġdesc":5896,"ÐµÐ½Ð½Ð°Ñı":5897,"urance":5898,"Ġeither":5899,"oday":5900,"Ġregard":5901,"Ð¡Ð¸":5902,"ĠÐ¼Ð½Ðµ":5903,"ĠÑģÑĤÑĢÐµ":5904,"ĠÑĢÐ°Ð±Ð¾ÑĤÐ°ÑĤÑĮ":5905,"ĠÑģÐ»ÐµÐ´ÑĥÐµÑĤ":5906,"icles":5907,"ÑĪÐ°ÐµÑĤ":5908,"ĠÐķÐ²":5909,"ÑĤÐµÐ»ÑĮÑģÑĤÐ²Ð¾":5910,"ĠÐ¸Ð·Ð´Ðµ":5911,"Ð·Ð°ÑĤÑĮ":5912,"ĠÑħÐ¾ÑĤÑı":5913,"ĠÐ¿Ð¾ÑĢÑıÐ´":5914,"IL":5915,"atal":5916,"ĠÐ¿Ð¾ÑģÐ»ÐµÐ´Ð½Ð¸Ðµ":5917,"%.":5918,"Ð¿Ð¾Ð´":5919,"Ġterrit":5920,"ÐļÐ¾Ð³Ð´Ð°":5921,"Ð´Ð¸ÑĤÐµ":5922,"ÑĤÑı":5923,"ĠTer":5924,"ĠÐ±Ð»Ð¸Ð·":5925,"ĠIf":5926,"ÑĢÐµÐ´Ð¸":5927,"Ð¸Ð¼ÑĥÑīÐµÑģÑĤÐ²":5928,"ĠÑģÐ°Ð¼ÑĭÐ¼":5929,"Ð¸Ðµ":5930,"Ġ28":5931,"ĠÐ¿ÑĢÐµÐ²":5932,"Ġcou":5933,"ĠÐ²Ð¾Ðº":5934,"ÑĢÐ´":5935,"ĠSaf":5936,"ades":5937,"ĠÐ¸Ð³ÑĢÑĭ":5938,"ĠÐ¼ÑĥÐ¶":5939,"Ð¶Ð¼Ð¸ÑĤÐµ":5940,"ĠÐ¿ÑĢÐµÐºÑĢÐ°Ñģ":5941,"ened":5942,"ĠÑģÐµÑĢÑĮÐµÐ·":5943,"Ã¬":5944,"Ġsym":5945,"estaur":5946,"ÑĦÐ¾ÑĢÐ¼Ð¸":5947,"ĠÑĦÐ¸Ð·Ð¸":5948,"Ġdouble":5949,"ĠÐ¾ÑĤÐ²Ðµ":5950,"ĠTown":5951,"ĠÐ¿ÑĢÐµÐ´ÑģÑĤÐ°Ð²Ð»ÑıÐµÑĤ":5952,"Ġcollect":5953,"Ġface":5954,"ison":5955,"Ġansw":5956,"Ġadvert":5957,"ÑĨÐ¸Ð¾Ð½Ð½Ð¾Ð¹":5958,"phone":5959,"Ð¶Ð´Ðµ":5960,"Ġdans":5961,"ÐµÐ½Ð½ÑĭÐ¼":5962,"ĠÑĢÐ¾Ð»ÑĮ":5963,"ĠÐ²ÑĢÐ°":5964,"Ġbeginning":5965,"Ġwr":5966,"ĠÐ¿ÑĢÐ¾Ð´ÑĥÐºÑĤÐ¾Ð²":5967,"ĠÑģÑĤÑĢÑĥÐºÑĤÑĥ":5968,"Ġroad":5969,"verage":5970,"ÑĢÐ¾Ð´Ð°":5971,"ÑĪÐ¸Ð¼Ð¸":5972,"ĠÑĥÑĢÐ¾Ð²Ð½Ðµ":5973,"ÑĢÑĥÐ³Ð»Ð¾ÑģÑĥ":5974,"ÑĢÐ°Ñģ":5975,"berg":5976,"Ġspeak":5977,"Ġprep":5978,"ĠÑģÐ°Ð¹ÑĤ":5979,"rate":5980,"Ð¸Ð¼Ð¸":5981,"ĠÐ²Ð¸Ð½":5982,"orks":5983,"het":5984,"Ġthreat":5985,"cember":5986,"ĠÐ±Ð¾Ð³":5987,"ĠÐ²Ð·Ð°Ð¸Ð¼":5988,"ĠJune":5989,"Ġever":5990,"Ð¸Ð½ÑĤÐµ":5991,"Ġfram":5992,"ĠÑģÑĤÑĢÐ°Ð½Ð¸ÑĨÐ°":5993,"ĠÑģÐ¼Ð¾Ð¶ÐµÑĤÐµ":5994,"ĠÐ´Ð¾Ð»Ð¶Ð½Ð¾":5995,"ĠÐ¾ÐºÑĢÑĥÐ¶Ð°":5996,"ĠSeptember":5997,"ĠÑĨÐµÐ½Ñĭ":5998,"Ġensure":5999,"Ġminor":6000,"ya":6001,"ĠÑģÐ»Ð¸":6002,"ĠÐĲÐ¼ÐµÑĢÐ¸ÐºÐ¸":6003,"ÑĤÐµÐ»ÑĮÐ½Ð¾ÑģÑĤÐ¸":6004,"ĠÐ±Ð¸Ð·Ð½ÐµÑģÐ°":6005,"rug":6006,"ĠÐĵÐµÑĢÐ¼Ð°Ð½Ð¸Ð¸":6007,"ÑģÐ¸ÑĤ":6008,"ĠÐ¾Ð´Ð½Ð¾":6009,"Ġave":6010,"ĠÐºÐ°Ð¼":6011,"ĠÐ¿ÑĢÐ°Ð²Ð¸ÑĤÐµÐ»ÑĮÑģÑĤÐ²Ð¾":6012,"ĠSystem":6013,"ĠOpen":6014,"ĠÑĢÐ°Ð·Ð¼ÐµÑĢ":6015,"Â¾":6016,"Ð·Ð°Ñħ":6017,"Ð»ÑıÑħ":6018,"ĠBulgar":6019,"ÑģÐ¸Ñİ":6020,"Ġago":6021,"Â²":6022,"Ð»ÑĮÐ½Ð°Ñı":6023,"ĠÐĴÐ°ÑĪ":6024,"iff":6025,"Ġscre":6026,"Ġremain":6027,"Ġpain":6028,"va":6029,"Ġjo":6030,"ĠCour":6031,"ĠIN":6032,"ĠÐŃÐº":6033,"Ġtypes":6034,"ĠÐ¿ÑĢÐµÐ´Ð½Ð°Ð·Ð½Ð°ÑĩÐµÐ½":6035,"eting":6036,"ĠÐĿÐ¸ÐºÐ¾Ð»":6037,"ĠÐ¹":6038,"ĠÑģÐ¾Ð»":6039,"ĠÐ¼Ð½Ð¾Ð³":6040,"Ð½Ð¸ÐºÐ¾Ð¼":6041,"ĠÐ¾ÐºÐ°Ð·ÑĭÐ²Ð°":6042,"Ġinflu":6043,"Ġcontinue":6044,"ĠPC":6045,"anuary":6046,"ĠÐ¾Ð±ÑĬÐµÐºÑĤ":6047,"Ġoriginal":6048,"Ġshopping":6049,"ĠÐļÐ°Ð¼":6050,"ovo":6051,"ĠÐ¾ÑĤÐ´ÑĭÑħÐ°":6052,"Cl":6053,"ĠÐ¾Ð±Ðµ":6054,"ĠÑĥÐ²ÐµÐ»Ð¸Ñĩ":6055,"ĠÐ¾ÑĪÐ¸Ð±ÐºÑĥ":6056,"Ġattention":6057,"Ġcharm":6058,"ĠÑĥÑģÐ»Ð¾Ð²Ð¸Ñı":6059,"ĠÐ¿ÑĥÑĤÐµ":6060,"Ġadvant":6061,"ÐºÐ¾Ð±ÑĢÐ¸ÑĤÐ°":6062,"ÃĹÃĹÃĹÃĹÃĹÃĹÃĹÃĹ":6063,"ĠÐºÐ°ÑĢÑĤÐ¸Ð½ÐºÐ¸":6064,"Ġdistrict":6065,"Ġdoll":6066,"ĠÑĥÐ¼ÐµÐ½ÑĮ":6067,"ĠÐ¿Ð¾Ð´Ð°":6068,"Ġgoing":6069,"Ġsem":6070,"sequ":6071,"Ġquite":6072,"IDS":6073,"Ġ500":6074,"ÑĪÐºÐ¸":6075,"AP":6076,"ÑĢÐµÑĨ":6077,"istics":6078,"ĠÑĢÐ°Ð·Ð½Ð¾":6079,"ĠÑģÑĤÐ°Ð»":6080,"Ġbasic":6081,"Ġdat":6082,"ĠÑģÐµÐ½ÑĤ":6083,"ÑĤÐµÐ»ÑĮÐ½Ð¾Ðµ":6084,"ayer":6085,"ĠÐ¾Ð±ÑĢÐ°ÑĤÐ¸ÑĤÐµÑģÑĮ":6086,"ipl":6087,"ĠParty":6088,"lig":6089,"ĠÐ½Ð°Ð·Ð°Ð´":6090,"condition":6091,"ÐľÐ°ÑĢ":6092,"ÐºÐ°Ð·Ð°Ð½":6093,"Ġfoot":6094,"ÑĢÐµÐ±Ð¸":6095,"ÑĢÐ¾Ð¹":6096,"alian":6097,"Ġoutside":6098,"Ġaction":6099,"Ġ70":6100,"ÐµÐ¼Ð¸ÑĢ":6101,"ĠGoogle":6102,"ney":6103,"pril":6104,"Ġprint":6105,"Ġ26":6106,"ĠÐ¿ÑĢÐ¾Ð²ÐµÐ´ÐµÐ½Ð¸Ñı":6107,"Ġden":6108,"ĠÐ¿ÑĢÐ¾ÑĤÑı":6109,"ĠFeder":6110,"ĠÐ¿ÑĢÐ¸Ð»Ð¾Ð¶":6111,"ĠÐºÐ°Ð½":6112,"ĠFront":6113,"Room":6114,"po":6115,"ÑĬÐµÐ¼":6116,"ÐĲÐ¢":6117,"Ð»ÑİÐ´":6118,"ĠIndia":6119,"van":6120,"âĢ¢":6121,"ĠÐ¾ÑĤÑģÑĥÑĤ":6122,"ovember":6123,"Ð¡Ð°":6124,"ĠÐ½Ð¾Ð²Ð¾Ð¹":6125,"ĠÐ²ÐµÑģ":6126,"ÑīÑĥÑİ":6127,"ĠSec":6128,"Ġdeterm":6129,"ÐºÑĨÐ¸Ñı":6130,"ÑħÐ¾":6131,"ĠDi":6132,"ÑĢÐ¾Ð²Ð¾Ð´":6133,"ĠÐ²Ð°ÑĢÐ¸Ð°Ð½":6134,"ĠÐºÑĢÐ°Ð¹":6135,"ĠÐ°ÑĢÑħÐ¸ÑĤÐµ":6136,"Ð¶Ð´ÐµÐ½Ð¸Ðµ":6137,"ĠÑĥÑģÐ»Ð¾Ð²Ð¸ÑıÑħ":6138,"ĠÐ±Ð°ÑģÑģ":6139,"ĠGood":6140,"ĠÑĥÐ¿ÑĢÐ°Ð²Ð»Ñı":6141,"Ġsector":6142,"ĠÐºÐ¾Ñģ":6143,"ĠÐ¼ÑĥÐ·":6144,"ÑĢÐ¸Ð¹":6145,"ĠInter":6146,"Ġproviding":6147,"Acc":6148,"rat":6149,"raz":6150,"ÑĨÐ¸Ð¾Ð½Ð½ÑĭÐµ":6151,"ÐĳÐ°":6152,"ĠÐ¼ÐµÐ´Ð¸ÑĨÐ¸Ð½":6153,"ĠÐ¼ÐµÑĤÐ°Ð»":6154,"ÑģÐ°Ð½":6155,"ĠÐ±ÐµÑģ":6156,"ĠÐ¿Ð¾ÑģÑĤ":6157,"ÑĢÐ¸Ñı":6158,"ips":6159,"ĠÐłÐ°":6160,"ĠÐºÑĢÑĥÐ¿Ð½ÐµÐ¹":6161,"Ġdecision":6162,"Ġinstru":6163,"ĠOne":6164,"De":6165,"ĠUp":6166,"ĠÐºÐ¾Ð¼Ð¼Ñĥ":6167,"Ð·ÑĭÐ²Ð°ÐµÑĤ":6168,"Ġfire":6169,"ĠOff":6170,"pid":6171,"Ġplaces":6172,"Ð»ÑĮÐ½ÑĭÐ¼":6173,"ĠEst":6174,"Ġnature":6175,"Ð¼Ð¾Ð½":6176,"ĠNon":6177,"Ġpropos":6178,"Ð¼Ð¾ÑĤÑĢÐµÑĤÑĮ":6179,"estaurant":6180,"arb":6181,"Ð¾Ð»Ð¾Ð²":6182,"ĠRed":6183,"ĠÐ½Ð°ÑħÐ¾Ð´ÑıÑĤÑģÑı":6184,"ĠÑģÐ¸Ð»Ñĭ":6185,"ĠÐ¾Ð¿ÑĢÐµÐ´ÐµÐ»Ñı":6186,"ixed":6187,"oid":6188,"Ġcomplet":6189,"ÑĢÐ°ÑĨÐ¸Ð¸":6190,"ĠOctober":6191,"ĠÐºÐ°Ð¶Ð´Ð¾Ð³Ð¾":6192,"ÐĴÐ°":6193,"ĠÑģÐ¸ÑģÑĤÐµÐ¼Ðµ":6194,"ĠÑģÐ¼ÐµÑĢ":6195,"ĠÑĥÐºÐ°Ð·Ð°":6196,"ĠÐ³ÑĢÐ°Ð¼":6197,"aily":6198,"Ð´ÑĥÑĤ":6199,"Ġnorm":6200,"ĠÐºÐ²Ð°ÑĢÑĤÐ¸":6201,"Ġbit":6202,"Ġprior":6203,"ĠÐ»ÐµÑģ":6204,"ĠÐ¾Ð±ÑĬÐµÐ¼":6205,"ĠÐ¶Ð¸Ð·Ð½ÑĮ":6206,"Ġapplications":6207,"ÑģÐ°Ð¹":6208,"Ð¶ÐµÐ¹":6209,"Ġgram":6210,"Ð½Ð¸ÐºÐ°Ð¼Ð¸":6211,"Ġdisplay":6212,"cient":6213,"ĠÐ·Ð°ÑĤÐµÐ¼":6214,"Ġparties":6215,"ĠÃ¯":6216,"formation":6217,"Ġgoods":6218,"ĠÐ²ÐµÑģÑĮ":6219,"ĠÐºÐ¾Ð¼Ð¿Ð»ÐµÐº":6220,"abled":6221,"ĠIm":6222,"Ġpopulation":6223,"ĠÐ´Ð»Ð¸":6224,"ĠÐ±Ð°Ð³Ð°":6225,"ĠÑģÑĤÐ¾Ð¸Ð¼Ð¾ÑģÑĤÑĮ":6226,"Ġstreet":6227,"ĠÐ»ÑĥÑĩÑĪÐµ":6228,"kn":6229,"Ġphone":6230,"ague":6231,"ĠÐºÐ¾Ð¼Ð¿ÑĮÑİÑĤÐµÑĢ":6232,"ĠÑĥÐ¼":6233,"âĦĸ":6234,"ĠHIV":6235,"ĠMinister":6236,"Above":6237,"ĠÐ¿ÑĢÐµÐ´Ð¿Ð¾Ð»":6238,"ÑİÐ·Ð°":6239,"amed":6240,"ĠÐ¿ÑĢÐµÐ´Ð¾ÑģÑĤÐ°Ð²":6241,"wide":6242,"ishing":6243,"ĠÐ´ÐµÐ¹ÑģÑĤÐ²Ð¸Ñı":6244,"ĠÐľÐ¾ÑģÐº":6245,"ĠÐĽÐ°":6246,"ÐµÐ²Ð°":6247,"ÐµÐ½Ð½Ð¾ÑģÑĤÐ¸":6248,"ĠÑĥÐ¿":6249,"ĠSan":6250,"Ð³ÐµÐ½":6251,"Ġmachine":6252,"nces":6253,"Ġcases":6254,"ĠÑĩÐµÑĤ":6255,"Ġeasily":6256,"Ġord":6257,"Loc":6258,"Ġprevious":6259,"ĠÑĤÐµÑħÐ½Ð¾Ð»Ð¾Ð³Ð¸Ð¹":6260,"ĠÐļÐ¸ÑĤÐ°Ð¹":6261,"Ġpackage":6262,"ĠBo":6263,"Ġshown":6264,"ĠÑħÐ¾ÑĤÐ¸ÑĤÐµ":6265,"TM":6266,"empt":6267,"ĠÐ¾Ð¿ÑĢÐµÐ´":6268,"Ġcaus":6269,"Ð»ÑĮÐ½Ð¾Ðµ":6270,"ĠÐ¼Ð¾ÑĢ":6271,"ĠÐŁÑĢÐ°":6272,"ĠÐ´ÐµÐ»Ð¾Ð²":6273,"ĠÐ·Ð´Ð°":6274,"ĠÐ°Ð»":6275,"ÐĴÐ¾Ð·":6276,"Ġpurchase":6277,"ĠÑģÑĦÐµÑĢÐµ":6278,"ĠÑģÐ²ÑıÐ·Ð°Ð½Ñĭ":6279,"ĠÐºÐ¾Ð»Ð»Ðµ":6280,"Ġsource":6281,"Ġstreng":6282,"ĠÐ½Ð¾Ð¼ÐµÑĢÐ°Ñħ":6283,"OT":6284,"ÑĢÐµÐ³Ð¸ÑģÑĤÑĢÐ¸":6285,"uan":6286,"Ġcode":6287,"ĠKore":6288,"Ġtre":6289,"oci":6290,"Ġacross":6291,"ĠÑĤÑĥÑĢ":6292,"ÑīÐ°ÐµÑĤ":6293,"Ġbroad":6294,"ĠSal":6295,"ĠHouse":6296,"ĠÐ¿ÑĢÐµÐ´Ð¿ÑĢÐ¸ÑıÑĤÐ¸Ñı":6297,"ĠMicrosoft":6298,"Ġoption":6299,"Ġbor":6300,"ĠÐ¼ÐµÐ¶Ð´ÑĥÐ½Ð°ÑĢÐ¾Ð´Ð½ÑĭÑħ":6301,"ĠÐºÐ¾Ð¼Ð¼ÐµÑĢ":6302,"ÐŃÑĤÐ¸":6303,"Ġpoor":6304,"OL":6305,"Ð²Ð¾Ð»Ð¸":6306,"Ġbud":6307,"Ġfast":6308,"ĠÑģÐ¿Ð¸ÑģÐ¾Ðº":6309,"Ġissue":6310,"ĠGree":6311,"Ġ1990":6312,"ĠÐ¾Ð·Ð½Ð°ÑĩÐ°ÐµÑĤ":6313,"ĠÑĤÑĢÐµÑħ":6314,"ĠÑįÐºÐ¾Ð½Ð¾Ð¼Ð¸ÑĩÐµÑģÐºÐ¾Ð³Ð¾":6315,"Ġhotels":6316,"Please":6317,"ump":6318,"ĠÑģÐ²Ð¸":6319,"ĠÐĴÐ»Ð°Ð´Ð¸Ð¼Ð¸":6320,"No":6321,"ĠÐ±Ð°ÑĢ":6322,"ĠCup":6323,"Ġachieve":6324,"ĠÑģÐµÐ³Ð¾Ð´Ð½ÑıÑĪ":6325,"Ġwood":6326,"ĠGeneral":6327,"ĠÐ¼Ð°ÑĪÐ¸":6328,"stitute":6329,"Ġcitiz":6330,"ĠÐ¾ÑĤÐ½Ð¾ÑģÐ¸ÑĤÐµÐ»ÑĮÐ½Ð¾":6331,"Ġlatest":6332,"ÑģÑĤÐ¸ÑĤ":6333,"ores":6334,"ĠÐĴÐĺÐ§":6335,"Ġ300":6336,"ĠÐ¿Ð¸ÑĤÐ°":6337,"Ġge":6338,"Ġinstallation":6339,"imal":6340,"Ð¾ÐºÐ¾Ð¹":6341,"ĠÐ¾Ð±ÑĢÐ°Ð±Ð¾ÑĤ":6342,"ĠClub":6343,"iers":6344,"vest":6345,"ĠÐ¡ÐµÐ²ÐµÑĢ":6346,"ĠEas":6347,"avid":6348,"Ġred":6349,"ĠÑĤÐ²Ð¾":6350,"Ġ90":6351,"Ġavec":6352,"Ġclos":6353,"ÐĽÑİ":6354,"ĠÐ±Ð»Ð¸":6355,"hold":6356,"aste":6357,"ĠÐ°ÑĤÐ¼Ð¾Ñģ":6358,"Euro":6359,"ĠÐĲÐ»ÑĮ":6360,"Ġsituation":6361,"ros":6362,"Ð²ÐµÐ·":6363,"Ġself":6364,"rison":6365,"Ġ%":6366,"//":6367,"Ġwww":6368,"Ġsimply":6369,"Ġmoment":6370,",âĢĿ":6371,"ette":6372,"Ġconsult":6373,"ÑİÑīÐ¸ÐµÑģÑı":6374,"Ġplann":6375,"Some":6376,"Ð±ÐµÐ¶":6377,"Ġcharge":6378,"Ġcontain":6379,"ÑģÑĤÐ²ÐµÐ½Ð½ÑĭÑħ":6380,"ĠÑĥÑģÑĤÐ°Ð½Ð¾Ð²Ð»ÐµÐ½":6381,"ĠÐ¿ÑĢÐµÐ¸Ð¼ÑĥÑīÐµÑģÑĤÐ²":6382,"ĠÐ´ÐµÑģÑıÑĤÐ¸":6383,"Ð¡ÐµÐ³Ð¾Ð´Ð½Ñı":6384,"ĠMont":6385,"ÑĩÐ½ÑĭÐ¼":6386,"Ð²ÑĭÐ¼":6387,"ĠÑĥÐ²ÐµÐ»Ð¸":6388,"ĠÐ°Ð³ÐµÐ½ÑĤ":6389,"Ġson":6390,"ĠÐ¿ÐµÑĢÐµÐ³Ð¾Ð²":6391,"ĠÐ´ÐµÑĢÐµÐ²":6392,"ĠRoman":6393,"ĠÐĴÐ¾":6394,"ties":6395,"Ð¼Ð¾Ð¶Ð½Ð¾":6396,"ĠSky":6397,"ĠBab":6398,"Ġpolicies":6399,"ĠÐµÐ²ÑĢÐ¾":6400,"Ġapproach":6401,"ĠÑģÐ¾ÑģÑĤÐ°Ð²":6402,"ences":6403,"ĠAugust":6404,"ĠÐ¿ÐµÑĢÐ²ÑĭÐ¹":6405,"ĠÑĢÐµÑģÑĤÐ¾ÑĢÐ°":6406,"Ġdial":6407,"Ġhighly":6408,"td":6409,"Ġconsid":6410,"Ġapartments":6411,"ares":6412,"ĠÑĢÐ¸ÑģÐº":6413,"oul":6414,"Ġ194":6415,"âĦ¢":6416,"Ð¿Ð°ÑĢÐ°":6417,"ĠÑĤÐ¾ÑĤ":6418,"Ð»Ð°Ð±":6419,"ĠPage":6420,"ÑĥÑİÑīÐ¸Ñħ":6421,"ĠÐ¼Ð»":6422,"Ġkit":6423,"ĠÑįÐºÑģÐ¿ÐµÑĢ":6424,"Ġsimilar":6425,"ĠÑģÐ¾ÐºÑĢÐ°":6426,"ÐĽÐ°":6427,"Ġill":6428,"ÐºÐ¾Ð²Ð°":6429,"ĠÐºÐ½Ð¾Ð¿":6430,"ĠÑĤÑĢÐµÐ±Ð¾Ð²Ð°Ð½Ð¸ÑıÐ¼":6431,"Ġseries":6432,"ĠTechn":6433,"Ġcapacity":6434,"ÑģÑĤÐºÐ°":6435,"Ġess":6436,"Ð¹ÑĤÐ¸":6437,"ĠÐ¸Ð½ÑĦÐ¾ÑĢÐ¼Ð°ÑĨÐ¸Ñı":6438,"ĠÐ¿Ð¾Ð¼Ð¾ÑīÑĮ":6439,"Ġbillion":6440,"serv":6441,"ĠÐ¾Ð´Ðµ":6442,"ÐļÐ¾ÑĢ":6443,"Ġwalking":6444,"Ġcirc":6445,"ett":6446,"gress":6447,"ĠÐ·Ð²Ñĥ":6448,"ĠÐ²Ð¾Ð·Ð½Ð¸Ðº":6449,"Ġacqu":6450,"ÑģÐ¾Ð¼":6451,"Ġforce":6452,"Ð§ÑĤÐ¾Ð±Ñĭ":6453,"Ġagreement":6454,"ĠÐĴÐµÐ»Ð¸ÐºÐ¾Ð±ÑĢÐ¸ÑĤÐ°":6455,"ÐĲÐ»ÑĮ":6456,"ÑĤÐ¾ÑĩÐ½ÑĭÐ¹":6457,"Ð¢Ð°ÐºÐ¶Ðµ":6458,"Ð¸ÑĢÐ°":6459,"Ġou":6460,"Ġfall":6461,"Ġlonger":6462,"ĠÐ¿Ð¾ÑıÐ²Ð¸":6463,"ĠÑĢÐ°Ð²":6464,"ridge":6465,"ĠÑĩÐµÑĢ":6466,"Ġbr":6467,"ĠÐ¼Ð¾Ð¶ÐµÐ¼":6468,"Ġprotect":6469,"ĠArab":6470,"Ġ195":6471,"ÑĥÐ»":6472,"ĠÐ´ÐµÑĢ":6473,"ĠÐ±Ð¸":6474,"ĠÐºÑĢÐ°Ñģ":6475,"aring":6476,"Ġmax":6477,"Ð´ÐµÑĢÐ¶Ð¸Ð²Ð°":6478,"ĠÐ½ÐµÐ¿Ð¾ÑģÑĢÐµÐ´":6479,"Ġimmedi":6480,"ĠDecember":6481,"Ġbreak":6482,"Ð±ÑĥÑĢÐ³":6483,"Ġcultural":6484,"ĠÑĢÐµÑģÐ¿":6485,"Ġrail":6486,"ĠÑģÑĥÑīÐµÑģÑĤÐ²ÑĥÐµÑĤ":6487,"xim":6488,"ÐĺÑģÐ¿":6489,"ĠÐ¿Ð¾Ð´Ð´ÐµÑĢÐ¶ÐºÑĥ":6490,"ĠÐ°ÑĢÐµÐ½":6491,"Or":6492,"ret":6493,"eth":6494,"áĥĲ":6495,"isions":6496,"Ġdeath":6497,"ÐµÑĤÐµÑĢ":6498,"''''":6499,"ĠÐ³Ð»ÑĥÐ±":6500,"Ġlic":6501,"Ð´Ð°ÑİÑĤ":6502,"ona":6503,"Ð·Ð¾Ð²":6504,"ĠÑģÐ¾ÑģÑĤÐ°Ð²Ð»ÑıÐµÑĤ":6505,"Ġhistorical":6506,"ĠÑĢÐ°Ð·Ð²Ð¸ÑĤÐ¸Ðµ":6507,"Ġorganization":6508,"aign":6509,"ship":6510,"ĠÑĥÐ·Ð½Ð°":6511,"ÑĩÐµÐ½Ñĭ":6512,"head":6513,"rade":6514,"ĠJuly":6515,"ĠÐ¾Ð¿Ð°Ñģ":6516,"apers":6517,"ĠÐ°Ð½ÑĤÐ¸":6518,"ula":6519,"ĠÐ¿Ð»Ð¾ÑīÐ°Ð´":6520,"Since":6521,"ĠDirect":6522,"ĠÐ¼ÐµÑħÐ°Ð½Ð¸":6523,"ĠÐĲÐ·Ð¸Ð¸":6524,"hem":6525,"ĠÑĢÐ°Ð·Ð½ÑĭÑħ":6526,"ÑģÑĤÐ¾Ð¹ÑĩÐ¸":6527,"Ð¼Ñı":6528,"ĠÐ¼Ð¸Ð½ÑĥÑĤ":6529,"off":6530,"Ġsupply":6531,"Ġfit":6532,"ĠÐ´Ð°Ð»ÑĮÐ½ÐµÐ¹":6533,"ĠÐ¾Ð½Ð¾":6534,"ÑĪÐ»Ð¸":6535,"Ð¡Ð¾Ð²ÐµÑĤ":6536,"Find":6537,"ÐºÐ°Ð±":6538,"ĠÐ¿ÐµÑĢÐµÑĩÐ¸ÑģÐ»ÐµÐ½":6539,"isf":6540,"ĠÐ½ÐµÐ´Ðµ":6541,"ĠÐĵÐ°":6542,"Ġdomestic":6543,"Ġconduct":6544,"Ð°ÑģÑģÐ°":6545,"Ġsummer":6546,"ĠApril":6547,"Ġsuccessful":6548,"ÐµÑģÑĤ":6549,"ĠBest":6550,"ĠÐ±Ð»Ð°Ð³":6551,"Ġrich":6552,"ĠÐ²Ð¿Ðµ":6553,"ella":6554,"ĠÑĤÑĢÐ°Ð½ÑģÐ¿Ð¾ÑĢÑĤ":6555,"ÑģÑĤÐ°Ð½Ð°Ð²Ð»Ð¸":6556,"ĠGreat":6557,"ertain":6558,"ÑģÑĤÐµÐ¹":6559,"Ġdate":6560,"road":6561,"ĠÐ±Ð¾Ð³Ð°ÑĤ":6562,"Sp":6563,"Ġtarg":6564,"ÐµÐ¹ÑĦ":6565,"deed":6566,"Ġsun":6567,"ĠJanuary":6568,"ĠÐ¿ÑĢÐ¸Ð²Ð¾Ð´":6569,"era":6570,"Ġdyn":6571,"ĠÐ°Ð²ÑĤÐ¾Ð¼Ð¾Ð±Ð¸Ð»ÐµÐ¹":6572,"ĠÐĽÑİ":6573,"ĠÑĢÐµÐ³Ð¸Ð¾Ð½Ð°":6574,"Ġorganizations":6575,"hers":6576,"comes":6577,"VD":6578,"Ð´ÐµÐ±":6579,"acious":6580,"ĠÐ¿ÑĢÐµÐ´Ð»Ð°Ð³Ð°ÐµÐ¼":6581,"Ġconfig":6582,"ĠÐ·Ð°ÑīÐ¸ÑĤÑĭ":6583,"ĠÐ±ÑĥÐ¼Ð°":6584,"ĠÑĦÑĥÐ½ÐºÑĨÐ¸Ñİ":6585,"ÑĤÐ¾ÑĢÑĭ":6586,"Ġthough":6587,"ĠÐ²ÐµÐºÐ°":6588,"oyal":6589,"ĠÐ½ÐµÐ¹":6590,"illing":6591,"ĠÑĥÐ³ÑĢÐ¾Ð·":6592,"ĠÐ¿ÑĢÐ¾Ð¿":6593,"ÑĢÐ°Ð¹":6594,"cks":6595,"Ð±ÐµÑĢ":6596,"ĠÐ½Ð°Ð¼Ð¸":6597,"Ð¼ÐµÑģÑĤÐ¸":6598,"Ġidea":6599,"Ð·Ð¸Ñı":6600,"ĠBox":6601,"ĠÐ¿Ð¾Ð´ÑħÐ¾Ð´":6602,"AB":6603,"ĠÐļÐ¾Ð¼":6604,"Ġsales":6605,"Am":6606,"tee":6607,"ĠÐ·Ð°ÐºÑĢÑĭ":6608,"Ð»ÐµÐºÐ¾":6609,"Ġchamb":6610,"ĠÐºÐ¾Ð´":6611,"ĠÐ²Ð¾Ð·Ð²ÑĢÐ°":6612,"ĠÐ¿Ð¾ÑģÑĢÐµÐ´":6613,"ĠÐ½Ð°ÑģÑĤÑĢÐ¾":6614,"ĠÐĺÑĤÐ°":6615,"Ð²Ð¸Ð°":6616,"ĠÐ¸ÑģÐ¿Ð¾Ð»ÑĮÐ·Ð¾Ð²Ð°Ð½Ð¸Ðµ":6617,"Ġserious":6618,"Ġlikely":6619,"ÑģÐ¸Ð¾Ð½":6620,"Ġresort":6621,"Ġinteresting":6622,"ĠÐ¿Ð¾Ð»ÑĮÐ·Ð¾Ð²Ð°ÑĤÐµÐ»ÐµÐ¹":6623,"rew":6624,"Ġexclus":6625,"ĠÐ¿Ð¾ÐºÑĥÐ¿Ð°":6626,"ĠÐ³Ð¾":6627,"ronic":6628,"Ġrele":6629,"ĠÑģÐ¿Ð¾ÑĢ":6630,"ĠÐ¿ÑĥÑĤÐµÑĪÐµÑģÑĤÐ²":6631,"ĠGold":6632,"ÑģÐºÐ¾Ð¼Ñĥ":6633,"Ġpromot":6634,"ĠÐºÐ°ÑģÐ°":6635,"ĠÐ¾ÑģÑĤÐ°Ð½Ð¾Ð²":6636,"ola":6637,"Ð²Ð°Ð»":6638,"ĠDel":6639,"ÑĨÐ¸ÑıÐ¼Ð¸":6640,"Ġeleg":6641,"ĠÐ·Ð°ÐºÐ»ÑİÑĩÐ°ÐµÑĤÑģÑı":6642,"ÑĢÐµÑĤÐ°":6643,"ĠÑĢÐµÑĪÐ¸":6644,"ĠÐ¶ÐµÐ½ÑīÐ¸Ð½":6645,"Ð¼ÐµÑĤÐ¸":6646,"Ġcolor":6647,"pite":6648,"Ð´Ð¾ÑĢ":6649,"ÐķÐĿ":6650,"Script":6651,"ÑĢÐµÐ¼ÐµÐ½Ð½Ð¾":6652,"ĠNovember":6653,"ĠÐ½Ð°ÑĪÐµÐ¼":6654,"ĠÐºÐ¾Ð½ÑĦÐ»Ð¸":6655,"ĠÑģÐ»Ð¸ÑĪÐºÐ¾Ð¼":6656,"nel":6657,"Ġwid":6658,"ĠÐ·Ð½Ð°ÑĩÐµÐ½Ð¸Ðµ":6659,"CE":6660,"ĠÐ²ÑĭÑħÐ¾Ð´":6661,"Ġappl":6662,"inner":6663,"ÑĢÑĥÐµÐ¼":6664,"Ġtaking":6665,"22":6666,"Ġrepl":6667,"Ð±Ð°Ð¹":6668,"ĠÐ£ÐºÑĢÐ°Ð¸Ð½Ðµ":6669,"ĠÑģÐ¾Ð·Ð´Ð°Ð½":6670,"ĠDeposit":6671,"ĠSoviet":6672,"Ġelectric":6673,"ĠÐ´Ð°Ð²":6674,"uggage":6675,"Ġpayment":6676,"ĠWill":6677,"Ð¾ÑĩÑĮ":6678,"orge":6679,"ĠÐ¼Ð°ÑĤÐµÑĢÐ¸Ð°Ð»Ð¾Ð²":6680,"ÑĢÐ¸ÑģÑĤÐ¸":6681,"ĠÑģÑĤÑĥÐ´":6682,"ĠÐ´Ð¾ÑģÑĤÐ¸Ð³":6683,"Ġrecently":6684,"Ġvariety":6685,"val":6686,"ĠSaint":6687,"ĠÐ¸Ð¼ÐµÐµÑĤÑģÑı":6688,"Ġconflic":6689,"ham":6690,"Ð²ÑĭÑħ":6691,"ĠDan":6692,"ĠCal":6693,"ĠÑģÐ¾ÐµÐ´Ð¸Ð½":6694,"Ġcompon":6695,"ĠÑĥÐ²ÐµÑĢ":6696,"Ġcame":6697,"ÑĨÐµÐ´Ñĥ":6698,"ĠÐ²Ð°Ð½":6699,"ĠÐ¾Ð¿Ð¸ÑģÐ°":6700,"Ġmer":6701,"asc":6702,"ĠÑıÐ½":6703,"Ġthemselves":6704,"Î±":6705,"ÑīÑĳ":6706,"ĠÐ²ÐºÑĥ":6707,"wh":6708,"ĠÑĥÐ´Ð¾Ð²Ð»ÐµÑĤÐ²Ð¾ÑĢ":6709,"Ġran":6710,"ĠÑĢÐµÐ»Ð¸":6711,"Ġforces":6712,"Ġdocuments":6713,"ĠÐ·Ð°Ð¿Ñĥ":6714,"Ġregul":6715,"velopment":6716,"ĠÐ¸Ð¼Ð¿":6717,"Ġsoon":6718,"ĠÑģÐ¾Ñģ":6719,"ĠÐ¿ÑĢÐ¸Ð³Ð»Ð°":6720,"itch":6721,"ĠMor":6722,"ĠÐ¿ÑĢÐµÐ¿":6723,"Â³":6724,"gypt":6725,"Ð½Ð°Ð´Ð»Ðµ":6726,"ĠÐ¿Ð¸ÑģÑĮ":6727,"ĠÐ¾ÐºÑĤ":6728,"ĠTour":6729,"Ð½Ð¸ÑģÑĤÐµÑĢ":6730,"ÐĳÐ»Ð°":6731,"vo":6732,"Ġready":6733,"During":6734,"nes":6735,"Ġtable":6736,"ĠEd":6737,"ĠÐ¿Ð¾ÑĤÑĢÐµÐ±Ð¸":6738,"Ġelection":6739,"ÐĿÐ°Ð¹":6740,"ja":6741,"Ð²ÑĪÐ¸Ð¹":6742,"arian":6743,"TP":6744,"ĠSoc":6745,"Ġtakes":6746,"ĠÑĤÑĢÐµÑĤÑĮ":6747,"gor":6748,"aches":6749,"Ð½ÐµÐ¼Ñĥ":6750,"ĠÑģÐ¾Ð¾Ð±ÑīÐµÑģÑĤÐ²":6751,"Ġdebt":6752,"Ġexperien":6753,"Ġgovernments":6754,"ĠÐ¿ÑĢÐ¾ÑĦÐ¸":6755,"Ġoperation":6756,"ĠÐ¼Ð¾Ð±Ð¸Ð»ÑĮ":6757,"ĠÐ²Ð¸Ð·":6758,"Ð½Ð°ÑĤ":6759,"ĠÐĿÐµ":6760,"bit":6761,"ĠÐ·Ð°Ð»":6762,"ĠÐŁÑĢÐµ":6763,"ĠÐµÑĳ":6764,"lav":6765,"ĠÐ¶ÐµÐ»ÐµÐ·":6766,"Ġtrue":6767,"ĠÐ¼Ð¾Ð»":6768,"Ġmobile":6769,"ÑĢÑĥÑİÑĤ":6770,"ÐĳÐ¾Ð»ÐµÐµ":6771,"Ð³Ð¸Ð½Ð°":6772,"Ġprec":6773,"ĠÐ¸Ð¼Ñı":6774,"ĠÐ¿Ð¾Ð´Ð´ÐµÑĢÐ¶ÐºÐ¸":6775,"ĠÑĢÐ°ÑģÑĤ":6776,"jan":6777,"ĠÐ½ÐµÐ´Ð²Ð¸Ð¶Ð¸Ð¼Ð¾ÑģÑĤÐ¸":6778,"Ġimm":6779,"ĠÑĥÐºÑĢÐ°Ð¸Ð½":6780,"ĠÐ¾Ð±ÑīÐµÑģÑĤÐ²Ð°":6781,"Ġdetails":6782,"ÐµÑĢÑĭ":6783,"Ð¢Ð°ÐºÐ¸Ð¼":6784,"ĠÑİÑĢÐ¸Ð´Ð¸":6785,"ĠSun":6786,"Ġround":6787,"ĠÐ¿ÑĢÐ°Ð·Ð´":6788,"ĠÐ¸Ð·Ð±Ð¸ÑĢÐ°":6789,"Ġwonder":6790,"ÑİÑīÐ¸Ð¼Ð¸":6791,"Ġoffering":6792,"ĠÐ¼Ð¸ÑĢÐ¾Ð²Ð¾Ð¹":6793,"ĠRo":6794,"Ġrules":6795,"Ġappear":6796,"ĠÐ°Ð½Ð°Ð»Ð¸":6797,"Ġupon":6798,"ĠÑģÐµÑĢÐ²ÐµÑĢ":6799,"Ġseason":6800,"ĠÐłÐ¸":6801,"Ġlarger":6802,"ĠÑģÐ²ÐµÑĤ":6803,"known":6804,"earch":6805,"ÑĥÑĩÐµÐ½Ð¸Ðµ":6806,"Ġthus":6807,"ÐļÐ°ÑĢ":6808,"ĠÐ¼Ð¸Ð½Ñĥ":6809,"ĠÐ¾Ð±Ð½Ð°":6810,"SP":6811,"Ð¾Ð³ÑĢÐ°":6812,"ĠÐ½ÐµÐºÑĥ":6813,"ĠÐ¿Ð¾ÑģÑĤÐ¾ÑıÐ½Ð½Ð¾":6814,"Ð¶ÐµÑĤÑģÑı":6815,"Ð²Ð¸Ð½":6816,"ÑģÑĤÐ¸ÑĤÑĥÑĤ":6817,"lam":6818,"zh":6819,"Ð»Ð¸Ð·Ð°ÑĨÐ¸Ð¸":6820,"Ġvillage":6821,"Ġdatab":6822,"UR":6823,"Ġstatus":6824,"ĠÐ¿ÑĢÐ¸Ð½Ð°Ð´Ð»Ðµ":6825,"ĠPublic":6826,"Ġemb":6827,"ĠÐľÐ°ÑĢÐ¸":6828,"iance":6829,"Ġoffered":6830,"2009":6831,"Ġgrowing":6832,"ĠÐ¾ÑĤÐ»Ð¸":6833,"ĠGentoo":6834,"Ġhighest":6835,"ĠÐ¿Ð¾ÑĤÐµ":6836,"ĠApp":6837,"ĠMark":6838,"ĠHost":6839,"ĠÐºÐ¾ÑĤÐ¾ÑĢÑĭÐ¼":6840,"Ġimprov":6841,"Ġrecommend":6842,"Ġbegan":6843,"Ð¸Ð½Ñĥ":6844,"Ġcos":6845,"just":6846,"ÐĶÐ°Ð½":6847,"porary":6848,"ĠÑģÐ»ÐµÐ´":6849,"ĠÐĽÑĥ":6850,"Ã£o":6851,"ĠÐ°ÑĥÐ´Ð¸":6852,"Ġbelieve":6853,"Ġdrive":6854,"Ð³Ð°ÑĢ":6855,"Ð¾Ð»Ð°Ð³Ð°":6856,"ÑģÑĤÐ°Ð²ÐºÐ°":6857,"merce":6858,"ĠItaly":6859,"ĠÐºÐ»ÑİÑĩÐµÐ²ÑĭÐ¼":6860,"Ġ--":6861,"Ð²ÐµÐ¹":6862,"ĠDon":6863,"ÑĨÑĥ":6864,"ÑĪÐ¾Ð¹":6865,"ÑĩÐµÐ½Ð¸Ð¸":6866,"Ġemail":6867,"Ð±Ð°Ð½":6868,"ÑĢÑıÑīÐ¸Ñħ":6869,"ĠÐ¾ÑĢÑĥÐ¶Ð¸":6870,"Ġproced":6871,"ĠÑģÐºÐ¾ÑĢÐ¾":6872,"ÑĤÐ¸Ñİ":6873,"ĠBut":6874,"Ð»ÐµÐ½ÑĮ":6875,"ĠÐ·Ð°Ð²Ð¸ÑģÐ¸Ð¼Ð¾ÑģÑĤÐ¸":6876,"ĠÐ¿ÑĢÐ¾ÑĤÑıÐ¶ÐµÐ½Ð¸Ð¸":6877,"Ġcities":6878,"ĠCath":6879,"ua":6880,"ÐºÑĤÐ¾ÑĢÐ¾Ð²":6881,"ĠMinn":6882,"Ð´Ð¸Ð´Ð°":6883,"ĠÑĦÐ°Ð¹Ð»Ð¾Ð²":6884,"Ð½Ð¾Ð´":6885,"ĠÐ¿ÑĢÐ¾ÐµÐºÑĤÐ¾Ð²":6886,"Ġsafe":6887,"ysis":6888,"ĠÐ½ÐµÐºÑĥÑĢÑıÑīÐ¸Ñħ":6889,"ĠÐ¸Ð·Ð³Ð¾ÑĤÐ¾Ð²":6890,"ÐĿÐ¾Ð²":6891,"ĠSol":6892,"ivity":6893,"Ġ29":6894,"ĠÐ²ÑĭÐ´Ðµ":6895,"ĠâĦĸ":6896,"ĠÑĦÐ¸ÑĢÐ¼Ñĭ":6897,"ĠÐ°Ð½Ð³Ð»Ð¸Ð¹":6898,"Ġ!":6899,"ĠÐ·Ð°ÑĢÐµÐ³Ð¸ÑģÑĤÑĢÐ¸":6900,"Ġrelig":6901,"ÑĨÐ¸ÑıÑħ":6902,"ĠÐ¿ÐµÑĢÑģÐ¿Ðµ":6903,"ĠÐ¿ÑĢÐµÐ´Ð¾ÑģÑĤÐ°Ð²Ð»ÑıÐµÑĤÑģÑı":6904,"ĠÑĢÐ°ÑģÐ¿ÑĢÐ¾ÑģÑĤÑĢÐ°Ð½":6905,"ĠÑĦÐ¸Ð½Ð°Ð½ÑģÐ¸":6906,"Ð³ÐµÑĤÐ¸":6907,"vernment":6908,"iÄ":6909,"ĠÑĢÐµÐ³ÑĥÐ»Ð¸":6910,"Ð±ÑĢÐ¸":6911,"ĠÐ´ÐµÐ¹ÑģÑĤÐ²Ð¸ÑĤÐµÐ»ÑĮÐ½Ð¾":6912,"rain":6913,"Ġdeep":6914,"ĠÐ¿Ð¾Ð´ÑĢÐ¾Ð±":6915,"ĠÐ³ÑĢÑĥÐ¿Ð¿":6916,"Ġgames":6917,"ÑĮÑĤÐµ":6918,"ĠÐºÐ°ÑĩÐµÑģÑĤÐ²Ð¾":6919,"Ð»ÑıÑĨÐ¸Ð¸":6920,"ÑįÐ¹":6921,"owers":6922,"Ġactive":6923,"Ġestate":6924,"ĠÐ¿ÑĢÐ¾Ð¼ÑĭÑĪÐ»ÐµÐ½Ð½Ð¾ÑģÑĤÐ¸":6925,"ĠÑģÐ»Ð¾Ð²Ð¾Ð¼":6926,"ĠÑįÐºÑģÐº":6927,"ĠAfrica":6928,"ĠÐ¿ÑĢÐ¾ÑĨÐµÑģÑģÐ°":6929,"Ð»Ð°Ð¹Ð½":6930,"oly":6931,"aged":6932,"Ġincreased":6933,"Ġfriends":6934,"ÑĨÐ¸Ð¾Ð½Ð¸":6935,"ios":6936,"Ð¿Ð°ÑĢÑĤÐ°":6937,"ĠYork":6938,"Ġhope":6939,"Ġclaim":6940,"ĠÐ½Ð°Ð´ÐµÐ¶":6941,"ÑĢÐµÐ½Ð¸Ðµ":6942,"Ġitem":6943,"rian":6944,"Ġadded":6945,"ĠLatv":6946,"ĠÐ´ÐµÐ²":6947,"Ġdaily":6948,"ÑĤÑĥÑĢÐ°":6949,"ÑİÑĢ":6950,"Ð¾ÑĨÐ¸Ð°":6951,"Ġexam":6952,"ighb":6953,"Ġlower":6954,"Ġfeature":6955,"ÐĹÐ´ÐµÑģÑĮ":6956,"ĠÐ´ÑĢÑĥÐ³Ð¸Ð¼Ð¸":6957,"ebru":6958,"ÑĨÐµÐ½Ð¸":6959,"Ġaccom":6960,"ala":6961,"ĠÐ´ÐµÐºÐ°Ð±":6962,"ĠÐ¸ÑģÑģÐ»ÐµÐ´Ð¾Ð²Ð°Ð½Ð¸Ñı":6963,"://":6964,"Ġtool":6965,"ĠÐ±ÑĢÐ°":6966,"ĠâĢŀ":6967,"Ð¸Ð±Ð»Ð¸":6968,"ĠÐ½ÐµÐ´Ð¾ÑģÑĤÐ°":6969,"ells":6970,"ĠÐ¼Ð¸Ð»Ð»Ð¸Ð¾Ð½Ð¾Ð²":6971,"ĠÐ±Ð°Ð³Ð°Ð¶Ð°":6972,"ĠNe":6973,"Ð¾Ð³Ð¸Ðµ":6974,"Ġwindow":6975,"ĠÑĦÑĥÑĤÐ±Ð¾Ð»Ñĥ":6976,"Ġloss":6977,"Ġveh":6978,"Ð»Ð»":6979,"ĠÐ´ÑĢÐµÐ²":6980,"ĠÐ¢Ðµ":6981,"Ġauthorities":6982,"Ġstructure":6983,"ĠÐ·Ð°ÐºÐ¾Ð½Ð¾Ð´Ð°":6984,"ournal":6985,"Ã½":6986,"ÑĩÐ¸ÐºÐ¾Ð²":6987,"Ġphys":6988,"ĠÐ²Ð¾Ð¿ÑĢÐ¾ÑģÐ°Ð¼":6989,"Ġmedical":6990,"oke":6991,"Ġinterests":6992,"ĠÐ´ÐµÑıÑĤÐµÐ»ÑĮÐ½Ð¾ÑģÑĤÑĮ":6993,"ĠÑĤÐ¾Ð½":6994,"ĠÑĨÐµÐ½Ðµ":6995,"ĠÐºÐ»Ð¸ÐµÐ½ÑĤ":6996,"gest":6997,"Ġ35":6998,"Ġcurrency":6999,"ĠÐ´ÐµÐ»Ð°ÑĤÑĮ":7000,"ĠÑĢÐµÑģÑĤÐ¾ÑĢÐ°Ð½":7001,"Ġthroughout":7002,"ĠÐ²Ð¾Ð´Ñĭ":7003,"su":7004,"ĠÐ²ÐµÑĢÐ¾ÑıÑĤ":7005,"ache":7006,"ĠÐ¸Ð³ÑĢÐ¾Ðº":7007,"ii":7008,"ÐĿÐµÑģ":7009,"ĠÐ´ÐµÐ½ÑĮÐ³Ð¸":7010,"ĠÐĲÐ½Ð´":7011,"ĠâĢĳ":7012,"ĠÐĶÐ¸":7013,"ÐłÐŀ":7014,"ÐµÐ´Ð¶":7015,"ĠÐ¿Ð¾ÐºÑĥÐ¿":7016,"70":7017,"Ð½Ð°Ð»Ð°":7018,"ĠÐŀÑĢ":7019,"Ð²Ð¾Ð»Ñİ":7020,"Ġcompetition":7021,"ĠÐ¾Ð±ÑīÐµÐ¹":7022,"Ġexc":7023,"ĠÐ³Ð¾ÑĢÐ¾Ð´Ðµ":7024,"Ð¾ÑĢÐ¸ÑĤÑĮ":7025,"ĠÑĢÐµÐ³Ð¸Ð¾Ð½Ð°Ð»ÑĮ":7026,"ĠÐ´Ð¾ÑģÑĤÑĥÐ¿Ð°":7027,"ÑĦÐµÐ¹":7028,"ĠÐ¾Ð³ÑĢÐ¾Ð¼Ð½Ð¾Ð³Ð¾":7029,"estival":7030,"edic":7031,"Ġregular":7032,"ye":7033,"ĠÐ°Ð¿ÑĢÐµ":7034,"ĠIT":7035,"ĠÑĩÐµÑĤÑĭÑĢÐµ":7036,"Ġaward":7037,"ĠÐºÐ¾Ð½ÑģÑĤÑĢÑĥ":7038,"lood":7039,"ÑĩÐ½Ð¾Ð¼":7040,"ĠÐ³Ðµ":7041,"ÐĶÐ¾":7042,"ĠÑģÑĥÐ±":7043,"ÑİÑīÐµÐµ":7044,"ĠÐºÑĢÐ¸Ð·Ð¸ÑģÐ°":7045,"Ġconsidered":7046,"ĠHer":7047,"ĠÐ¿ÑĢÐ°ÐºÑĤÐ¸ÑĩÐµÑģÐºÐ¸":7048,"ÑĢÐµÐµ":7049,"Ġmenu":7050,"eters":7051,"ĠÐĲÑĦÑĢÐ¸":7052,"ĠÐºÐ°ÐºÐ¾Ð¹":7053,"Ġhot":7054,"Click":7055,"ĠÐ¿Ð»Ñı":7056,"ager":7057,"ĠÐ¼Ð¾Ð³Ð»Ð¸":7058,"overed":7059,"ÑĢÐ°Ð±Ð°ÑĤÑĭ":7060,"ĠÑģÐ¾ÑģÑĤÐ°Ð²Ð»Ñı":7061,"ĠÑįÐºÑģÐ¿Ð»Ñĥ":7062,"ĠÐ´Ð¸Ð·Ð°Ð¹":7063,"ÑĥÐ´Ð°":7064,"ĠÐ¿Ð¾Ð´ÐºÐ»Ñİ":7065,"ĠSafety":7066,"ÑĤÐ°Ñı":7067,"Ð»Ð°Ð½Ð´":7068,"ĠÐ´Ð¾ÐºÑĥÐ¼ÐµÐ½ÑĤÐ°":7069,"ĠÐ¾ÑĤÐ»Ð¸Ñĩ":7070,"ĠÐ±Ð¾Ð»ÑĮÑĪÐ¸Ð½ÑģÑĤÐ²Ð¾":7071,"ĠÑĢÑıÐ´Ð¾Ð¼":7072,"Ð¡ÑĤ":7073,"aging":7074,"Ġindependent":7075,"Ġcontinu":7076,"Ġcarry":7077,"ĠÑħÐ¾Ð·ÑıÐ¹":7078,"ora":7079,"ĠÑĢÐ°ÑģÐ¿Ð¾Ð»Ð°Ð³Ð°":7080,"ĠÑĪÑĤÐ°":7081,"uisine":7082,"Ġbir":7083,"Ð´Ð¸ÑĤÑĮ":7084,"ÑĪÐµÐ»":7085,"rivate":7086,"ÑıÐ±ÑĢÐµ":7087,"ĠÐ´ÑĥÐ¼Ð°":7088,"Ã´":7089,"Today":7090,"ÑīÑĥ":7091,"ĠVol":7092,"ĠÐ¿ÑĢÐ¸Ð¼ÐµÐ½Ñı":7093,"ĠÑģÐ²ÑıÐ·":7094,"ĠÐ¿Ð»Ð°ÑĤ":7095,"dam":7096,"ĠÐ±ÑİÐ´Ð¶":7097,"ĠÐ¿Ð¾Ð¼Ð¾ÑĩÑĮ":7098,"Ġdistribution":7099,"ĠÐ¼ÐµÐ½Ñİ":7100,"esota":7101,"ography":7102,"ĠÐ¼Ð¾Ð´ÐµÐ»Ð¸":7103,"ĠÐĺÑģÐ¿":7104,"Ġbedroom":7105,"Ð³Ð¸Ð¿":7106,"prises":7107,"ĠÐ½Ð°Ð±Ð»ÑİÐ´Ð°":7108,"ÑĨÑĥÐ·":7109,"uration":7110,"Ġprem":7111,"cul":7112,"Ġbad":7113,"Ð¾ÐºÐ¾Ð»":7114,"ĠÑģÑĤÐ¾Ð»Ð¸":7115,"ĠÐºÐ¾Ð½ÑĤÐ°":7116,"ÑĤÐ¸Ð²Ð½ÑĭÑħ":7117,"asino":7118,"âĢļ":7119,"ĠÐ¿ÑĢÐ¾ÑĨÐµÐ´Ñĥ":7120,"ÑĢÐ¾Ð²Ð¸Ñĩ":7121,"Ġpurpose":7122,"ĠSecurity":7123,"ida":7124,"Ġwritten":7125,"ĠMinnesota":7126,"Ð¶ÐµÐ½Ð¸Ñİ":7127,"ĠInstitute":7128,"Ã©s":7129,"ebruary":7130,"ĠÐļÐ¾ÑĢ":7131,"ĠÐ¸Ð½Ð¸":7132,"Ġbox":7133,"ĠÐ·Ð°Ð²Ð¸":7134,"ĠDue":7135,"Ġliter":7136,"ĠÐ¾Ð´Ð½Ð¾Ð¼":7137,"ĠÑģÐ¾Ð¾Ð±ÑīÐ¸":7138,"ĠÑģÐ¿ÐµÑĨÐ¸Ð°Ð»Ð¸Ð·Ð¸":7139,"Here":7140,"Ð²Ð¸Ð¸":7141,"Ġ1999":7142,"ĠÐ½Ð¸ÐºÐ¾Ð³Ð´Ð°":7143,"90":7144,"Ġcomes":7145,"Ġsubs":7146,"ĠÐ°Ð²ÑĤÐ¾":7147,"Ġconstit":7148,"ĠÐ¼ÑĥÐ·ÑĭÐºÐ°":7149,"ĠÐ¿ÑĢÐµÐ´Ð¿ÑĢÐ¸ÑıÑĤÐ¸Ð¹":7150,"ĠÐ³ÑĢÐ°Ð¼Ð¼Ð°ÑĤÐ¸":7151,"ister":7152,"Ġword":7153,"Ġextrem":7154,"ÐºÐ°Ð´ÐµÐ¼Ð¸":7155,"uild":7156,"Ã³n":7157,"Indeed":7158,"ÑģÑĤÐ²ÑĥÑİÑĤ":7159,"Ġdeg":7160,"ĠÐ¿ÑĢÐ¸ÑıÑĤ":7161,"ych":7162,"ĠÑĤÑĢ":7163,"ĠÑħÑĢÐ°":7164,"ĠStorage":7165,"Ġvisitors":7166,"Ġparticularly":7167,"ĠÑĢÐµÐ°Ð»ÑĮÐ½Ð¾Ðµ":7168,"Ġexisting":7169,"Ð¸Ð»Ð°":7170,"ÑĦÐµÐºÑĤ":7171,"Ð°Ð»ÑĮÐ½ÑĭÐ¹":7172,"ĠÐ½Ð°Ð¿Ð¸":7173,"ĠMin":7174,"Ġprob":7175,"ĠMinistry":7176,"rant":7177,"cont":7178,"Ð½ÐµÐ½Ð¸Ñİ":7179,"ĠÐ´Ð²Ðµ":7180,"erson":7181,"ÑĢÑĥÐ³Ð»Ð¾ÑģÑĥÑĤÐ¾ÑĩÐ½ÑĭÐ¹":7182,"Roman":7183,"ĠÑģÐ±Ð¾ÑĢ":7184,"vere":7185,"ĠÐ¿Ð¾Ð»ÐµÐ·":7186,"Ġopened":7187,"ĠÐ½Ð°Ð»Ð¾Ð³Ð¾Ð²":7188,"ricult":7189,"ĠÑĦÑĢÐ°Ð½":7190,"ĠÑĢÐµÑģÐ¿ÑĥÐ±Ð»Ð¸":7191,"ĠÑĢÑĭÐ½Ð¾Ðº":7192,"ÑĤÑĭÑħ":7193,"Ġadministration":7194,"rown":7195,"ĠGay":7196,"ĠÑģÐ¾ÑĩÐµÑĤÐ°":7197,"ĠÐ¾ÑĤÐ½Ð¾ÑģÑıÑīÐ¸ÐµÑģÑı":7198,"Ġlove":7199,"Ð¾ÐºÐ¾":7200,"Smoking":7201,"Â¸":7202,"Ð±Ð°Ñħ":7203,"Ã¼r":7204,"ĠÐ¾Ñħ":7205,"Ġvict":7206,"Ġ2012":7207,"ÑĢÐ°Ð±Ð¾ÑĤÐ°Ð½":7208,"Ġdescrib":7209,"Ð½Ð¾Ñģ":7210,"Ġleader":7211,"view":7212,"ĠÐ¿ÑĭÑĤÐ°":7213,"Ġpresented":7214,"ĠÑģÐ¾Ð²ÐµÑĤÑĥÐµÐ¼":7215,"ids":7216,"ĠÑĤÑı":7217,"Ġdemonst":7218,"ĠLtd":7219,"100":7220,"Ġcurrently":7221,"ĠÐºÐ¾Ð½ÑģÑĥÐ»ÑĮÑĤÐ°":7222,"ÐºÑĢÐµÐ¿":7223,"ÑģÑĤÐ¾ÑĢÐ°Ð½":7224,"Ġkitchen":7225,"Ġage":7226,"ÑīÐµÐ½Ð¸Ð¹":7227,"irit":7228,"ĠÑģÐ¿ÑĢÐ¾Ñģ":7229,"Ġseen":7230,"ĠÑĩÐ°ÑģÐ¾Ð²":7231,"cast":7232,"Ġparam":7233,"Ġefforts":7234,"ĠÐ¾ÑĦÐ¾ÑĢÐ¼":7235,"ĠÐ´Ð¾Ð±":7236,"Ġlabor":7237,"ĠSea":7238,"da":7239,"ĠÐ¸ÑģÐ¿Ð¾Ð»ÑĮÐ·ÑĥÐµÑĤÑģÑı":7240,"Ð²Ð¾Ðµ":7241,"Fran":7242,"ĠÑįÑĤÐ¾Ð¼Ñĥ":7243,"Ġclub":7244,"ĠÐ¿ÑĢÐµÐ´Ð¾ÑģÑĤÐ°Ð²Ð»ÑıÐµÑĤ":7245,"ropri":7246,"net":7247,"ĠÑĤÐ¾Ð³Ð´Ð°":7248,"ÐºÐ²Ð¸":7249,"SS":7250,"Ð¢ÐµÐ¼":7251,"ĠÐºÐ»Ð°ÑģÑģÐ°":7252,"ĠÐ¾ÑģÐ½Ð¾Ð²Ð°Ð½":7253,"Ġgramm":7254,"Ġda":7255,"year":7256,"osh":7257,"zi":7258,"ields":7259,"Ð¿ÑĥÑģÐºÐ°":7260,"Ġthought":7261,"ĠÐ³ÑĢÑĥÐ¿Ð¿Ð°":7262,"ĠStreet":7263,"urt":7264,"vis":7265,"ĠÐºÑĢÐ¾Ð²Ð°":7266,"ĠÐ°ÐºÑĤÐ¸":7267,"According":7268,"Ġcharged":7269,"ĠCatholic":7270,"ĠÐ½Ð°Ð·Ð½Ð°":7271,"Ġtools":7272,"Ġcover":7273,"orf":7274,"vention":7275,"aza":7276,"ÑģÑĤÑĥÐ¿Ð»ÐµÐ½Ð¸Ñı":7277,"ĠÑĥÐ·":7278,"ÑĢÐ¸ÑĦ":7279,"Every":7280,"ĠSk":7281,"ĠÐ¿ÑĢÐ¸Ð²Ð»ÐµÐºÐ°":7282,"ĠÑĢÐµÐ´Ð°":7283,"ĠÑģÐµÐ¼ÐµÐ¹":7284,"ĠÑģÐ¾Ñħ":7285,"ĠÑĤÐ¾ÑĩÐºÐ¸":7286,"Ġcorporate":7287,"Ġáĥ":7288,"ĠÐ·Ð°Ð³ÑĢÑĥÐ·":7289,"kh":7290,"ĠEgypt":7291,"Ð§ÑĤÐ¾":7292,"ĠÑĢÐµÐ±":7293,"ĠÑıÐ½Ð²Ð°":7294,"Ġbuff":7295,"ĠÐĿÐ°ÑĨÐ¸Ð¾Ð½Ð°Ð»ÑĮ":7296,"ĠÐ¤ÑĢÐ°Ð½ÑĨÐ¸Ð¸":7297,"ĠÑĤÐµÑĢÑĢ":7298,"ĠÐºÐ¾Ð½ÑĤÑĢÐ¾Ð»Ñı":7299,"ĠÅ":7300,"Ġcuisine":7301,"Ġlistings":7302,"ĠÐ±ÐµÐ»":7303,"ĠÐ»Ð¸ÑĨÐ°":7304,"Ġspeed":7305,"ĠÐ²ÑģÑĳ":7306,"ĠÐ¨ÑĤÐ°":7307,"ĠÑģÐ¾ÑģÑĤÐ¾Ð¸ÑĤ":7308,"ĠÎ":7309,"ĠâĢĺ":7310,"Ð°Ð»ÑĮÐ½ÑĭÑħ":7311,"Ġcitizens":7312,"Ġ).":7313,"ĠÐ²Ð°ÑĪÐµÐ³Ð¾":7314,"Ġsatisf":7315,"ĠÑĤÐ²Ð¾ÐµÐ¹":7316,"Ġleave":7317,"ĠÐºÐ¾Ð½ÑĦÐ¸":7318,"time":7319,"ĠÑĢÐ°ÑģÑģÐ¼Ð°ÑĤÑĢÐ¸":7320,"ĠÑģÑĤÐ°Ð»Ð°":7321,"ĠJohn":7322,"ĠServer":7323,"Ġspacious":7324,"ĠÐ¼Ð¸Ð½ÑĥÑĤÐ°Ñħ":7325,"ĠÐ¿Ð¾ÐºÑĢÑĭ":7326,"ĠÐ¾Ð±Ð¾ÑĢÑĥÐ´Ð¾Ð²Ð°Ð½Ð¸Ðµ":7327,"ĠÐ¿Ð¾Ð¸ÑģÐº":7328,"ĠThere":7329,"ÑĢÐ¾Ð´Ñĥ":7330,"ĠÐ¿ÑĢÐ¸ÑĩÐ¸Ð½":7331,"ĠÐ»Ð¸ÑĨÐµÐ½":7332,"ĠÐ·Ð°Ð±":7333,"oti":7334,"Ð·Ð¸Ð´ÐµÐ½ÑĤ":7335,"ĠJavaScript":7336,"ĠSa":7337,"Ġdise":7338,"ĠÐ¼Ñı":7339,"Ġplus":7340,"ÐºÑģÐ¸":7341,"ĠMal":7342,"Ġpros":7343,"ients":7344,"Ġscientific":7345,"ĠÐŁÐ°ÑĢ":7346,"ION":7347,"Ġ=":7348,"ĠÐ¸ÑģÐºÐ»ÑİÑĩÐ¸":7349,"IA":7350,"Ġdig":7351,"ga":7352,"run":7353,"Ġmag":7354,"ÐŁÐĺ":7355,"Ġoperating":7356,"ÑĨÐ¸Ð¾Ð½Ð°":7357,"Ġjoint":7358,"21":7359,"Ġsav":7360,"uses":7361,"ÑģÑĤÐ¾ÑĩÐ½Ð¾Ð¹":7362,"ĠÐ±Ðµ":7363,"ĠÑĥÐ¿Ð°":7364,"ĠÂ»":7365,"ĠÑĦÐ¾ÑĢÐ¼Ð¸":7366,"Ð»Ð¾Ð³Ð¾":7367,"Ð²ÐµÑĢÐ°":7368,"ĠÐ¿ÑĥÑĤÐ¸":7369,"ule":7370,"ĠÐ¡Ð¾Ð²":7371,"Ġneighb":7372,"Ġsett":7373,"ĠTurkey":7374,"ÐĿÐ°Ð¹ÑĤÐ¸":7375,"ĠÐ¿ÑĢÐ¾Ð¸Ð·Ð²Ð¾Ð´Ð¸ÑĤÐµÐ»ÑĮ":7376,"ÑİÑīÑĥÑİ":7377,"ÑĨÐµÐ½ÑĤÑĢ":7378,"ÐĲÐ²":7379,"Ġdirection":7380,"ĠÐ³Ð¾ÑģÑĥÐ´Ð°ÑĢÑģÑĤÐ²":7381,"ĠDown":7382,"Ġattra":7383,"ih":7384,"ÑĨÐ¸Ð¾Ð½Ð½Ð¾Ð³Ð¾":7385,"ĠItalian":7386,"ÑģÐ¾ÑĢ":7387,"iture":7388,"ĠÑĤÐ°Ð½":7389,"ĠOld":7390,"Ge":7391,"ĠTor":7392,"Ð½ÐµÑĪ":7393,"Ġmagn":7394,"Ġdiv":7395,"Ð¡ÑĤÐ°":7396,"Ġwhose":7397,"Tip":7398,"Ð»ÐµÑģ":7399,"ils":7400,"ÐŀÐŀ":7401,"Ã±Ã²":7402,"andid":7403,"stant":7404,"ĠÐ²ÑĭÐ´Ð°":7405,"ĠÐ³ÑĢÑĥÐ·":7406,"ĠÐ¿Ð¾Ð¼Ð¾Ð³Ð°":7407,"Ġstudy":7408,"Ġlevels":7409,"rel":7410,"ÑĩÐ½ÑĥÑİ":7411,"ĠÐ·Ð½Ð°ÑĩÐµÐ½Ð¸Ñİ":7412,"ĠMer":7413,"Ġadvanced":7414,"Ġpet":7415,"Ġfight":7416,"Ġgrand":7417,"ĠÑĢÐ°Ð·Ð»Ð¸ÑĩÐ½ÑĭÐµ":7418,"quet":7419,"ĠÐºÐ¾Ð¼Ð¸Ñģ":7420,"phrase":7421,"Ð¡Ð°Ð¼":7422,"ĠÐ¿ÑĢÐ¸Ð²Ðµ":7423,"sec":7424,"ĠÐ¼Ð°Ð»":7425,"Ġ31":7426,"Ġpossibility":7427,"ĠDem":7428,"ÐĳÑĥ":7429,"UN":7430,"ĠÑģÑĥÑĤ":7431,"Ġrule":7432,"Che":7433,"light":7434,"Ġcoff":7435,"ĠÑĤÐ¾ÑĢÐ³Ð¾Ð²Ð»Ð¸":7436,"Ġcontextual":7437,"craft":7438,"yes":7439,"ĠÐ¿Ð¾Ð»Ð¾Ð²":7440,"ĠÐŁÐ¾Ð»ÑĮ":7441,"Ġterror":7442,"ĠIII":7443,"ĠFriendly":7444,"ĠÐĺÐ·ÑĢÐ°Ð¸":7445,"ĠLife":7446,"ĠÐ³Ð¾Ð´Ð¾Ð²":7447,"ĠÑģÐµÐ¼Ð¸":7448,"Ġproduced":7449,"ĠÐ¿ÑĢÐµÐ´ÐµÐ»Ð°":7450,"ĠÐ½Ð°ÑĩÐ°Ð»Ðµ":7451,"Ġwelcome":7452,"ÑĩÐ½Ð¾Ðµ":7453,"Ð¾ÑĪ":7454,"Ġparticipants":7455,"ÑĶ":7456,"ĠÐłÑĥ":7457,"Russian":7458,"Ġfair":7459,"Ġlack":7460,"orning":7461,"Ð´Ð°Ð¼":7462,"ĠSP":7463,"ĠIM":7464,"RA":7465,"ÑģÑĤÐ¸ÑĤÑĮ":7466,"ĠÑĤÐ²Ð¾ÑĢ":7467,"ounter":7468,"ÐµÐ²ÑĢÐ°":7469,"ĠÑģÑĤÑĢÐ°Ð½Ð¸ÑĨÐ°Ð¼Ð¸":7470,"ĠThey":7471,"Ġsafety":7472,"ĠÐ¿ÑĥÑĤÐµÐ¼":7473,"ĠÐ½Ð°Ð¿ÑĢÐ°Ð²Ð»ÐµÐ½":7474,"ĠÐ¾ÑĩÐµÑĢÐµÐ´ÑĮ":7475,"Ġthing":7476,"ibility":7477,"Ġmountain":7478,"ĠÑģÐºÐ°Ð·Ð°Ð»":7479,"Ð·Ð¾ÑĢ":7480,"ĠFree":7481,"ĠÐ½Ð°ÑħÐ¾Ð´Ð¸ÑĪÑĮ":7482,"ken":7483,"Ð¾Ð¿Ð»ÐµÐ½Ð¸Ðµ":7484,"Ġiniti":7485,"ÐŁÐ¾ÑįÑĤÐ¾Ð¼Ñĥ":7486,"zech":7487,"EM":7488,"Ġarticle":7489,"Ġbrow":7490,"ĠÐŁÐ¾":7491,"ĠÑģÐºÐ¾":7492,"ĠÐ¸Ð¼ÐµÐ½Ð¸":7493,"ĠÑģÑĤÐ¾Ð¸ÑĤ":7494,"ĠÐ·Ð°ÑĤÑĢÐ°":7495,"Ġefficient":7496,"Ð¾Ð´ÐµÐ¹ÑģÑĤÐ²Ð¸":7497,"equ":7498,"ÑĢÑİ":7499,"ÑĪÑĢÑĥ":7500,"aren":7501,"ÐĽÐµ":7502,"iplom":7503,"ĠGeorg":7504,"Ġmechan":7505,"ressive":7506,"Ġplayer":7507,"Ġsi":7508,"ĠÐ¿ÑĢÐµÐ·Ð¸Ð´ÐµÐ½ÑĤÐ°":7509,"ĠKazakh":7510,"Hour":7511,"ÑģÐµÐ¼":7512,"ĠÐ»Ð¸ÑģÑĤÐ¸Ð½":7513,"ĠÐ¿Ð¾ÑģÐ²Ñı":7514,"ĠÐ¦ÐµÐ½ÑĤÑĢÐ°Ð»ÑĮ":7515,"ĠÐ¿Ð¾Ñħ":7516,"ĠHow":7517,"ĠÑĨÐµÐ»Ð¸":7518,"ÑĢÐ°Ð·Ð¾Ð¹":7519,"Ġpowerful":7520,"ÑĤÐµÑħ":7521,"fe":7522,"anish":7523,"ĠÑĥÐ±Ð¸":7524,"Ġsale":7525,"Ġwish":7526,"ĠMuseum":7527,"mission":7528,"ĠÐ¿ÑĢÐµÐ¶Ð´Ðµ":7529,"My":7530,"2008":7531,"ĠÐ´ÐµÐ¼Ð¾Ð½":7532,"king":7533,"Ġten":7534,"Ð»Ð¸ÑĤÑĮ":7535,"Ġchann":7536,"ĠÑĤÐµÐºÑģÑĤÐ°Ð¼":7537,"ĠÐ½Ð¾ÑĢÐ¼Ð°":7538,"ÑĤÐºÐ¸":7539,"Ġshows":7540,"ĠÐ¿Ð¾Ð·Ð²Ð¾Ð»Ð¸":7541,"ĠÐ¿ÑĢÐ¸Ð½ÑıÑĤÑĮ":7542,"Ġpoints":7543,"ĠÐ¿ÐµÑĢÐµÑĩÐ¸ÑģÐ»ÐµÐ½Ð½ÑĭÐ¼Ð¸":7544,"ÐºÐ¾Ð¼Ð¸":7545,"esh":7546,"Ġcreation":7547,"ĠÐ·ÑĢÐµÐ½Ð¸Ñı":7548,"ĠÐ¡Ð¾ÐµÐ´Ð¸Ð½":7549,"ÑĢÐ¾Ð²Ð°Ð½Ñĭ":7550,"Ġselection":7551,"Ġclimate":7552,"ĠÐ¿ÑĢÐ¾Ð¸ÑģÑħÐ¾Ð´Ð¸ÑĤ":7553,"pa":7554,"ĠRev":7555,"ÑĨÐ¸Ð¾Ð½Ð½ÑĭÐ¹":7556,"Ġcopy":7557,"Ġmeaningfully":7558,"ĠÐ¿Ð°Ð½":7559,"ĠÐ¾ÑģÐ½Ð¾Ð²Ð½ÑĭÑħ":7560,"Phot":7561,"inated":7562,"Ġways":7563,"ĠÐ°Ð²Ð³Ñĥ":7564,"ĠÑģÑĤÐ°Ð±Ð¸Ð»ÑĮ":7565,"ĠÑģÐµÑĢÐ²Ð¸Ñģ":7566,"Ġvalues":7567,"ĠÐ·Ð°ÐºÐ¾":7568,"ĠÐĴÐ²Ð¸Ð´Ñĥ":7569,"ĠÑĤÑĢÐ°Ð´Ð¸":7570,"ĠÐ¾Ð±ÑĭÑĩÐ½Ð¾":7571,"elt":7572,"ĠBreakfast":7573,"ĠÐ¤ÐµÐ´Ðµ":7574,"ĠÐ¼Ð°ÑģÑĪÑĤÐ°":7575,"ĠÑģÑĤÑĢÐµÐ¼Ð¸":7576,"ĠÑģÐ°Ð¼Ð¸":7577,"ĠShe":7578,"ĠÑģÐ°Ð¼ÑĭÐµ":7579,"Ġrelease":7580,"ĠÑģÐ¸Ð»":7581,"ĠÐºÐ°Ð½Ð´Ð¸Ð´Ð°":7582,"Ġgrammatically":7583,"yle":7584,"Ġdemocracy":7585,"ĠÑĦÐ¾ÑĢÐ¼Ñĥ":7586,"Ġseems":7587,"Ð¾ÑĢÐ¾Ð´":7588,"ĠÐ½Ð°ÑģÐ¸":7589,"Ġbudget":7590,"ĠÐ»Ð¸ÑģÑĤÐ¸Ð½Ð³Ð¸":7591,"ski":7592,"ĠÐ³ÑĢÐ°Ð¼Ð¼Ð°ÑĤÐ¸ÑĩÐµÑģÐºÐ¸":7593,"ĠInn":7594,"ÐºÑĢÐµÑĤ":7595,"Ð»ÐµÐ³":7596,"Ð³Ð°Ð¼Ð¸":7597,"ĠÐ²Ð°Ð»ÑİÑĤÑĭ":7598,"ĠÐºÐ¾Ð½ÑĤÐµÐºÑģÑĤÑĥÐ°Ð»ÑĮÐ½ÑĭÐµ":7599,"ÑĦÑĢÐ°Ð·Ð¾Ð¹":7600,"ĠÐµÑīÑĳ":7601,"ĠÑĢÐ°ÑģÑģÐºÐ°":7602,"Ġcontextually":7603,"ĠÐºÐ¾Ð½ÑĤÐµÐºÑģÑĤÑĥÐ°Ð»ÑĮÐ½Ð¾":7604,"Ġvo":7605,"ĠMold":7606,"ĠÐ¼Ð¸Ð»Ð»Ð¸Ð°ÑĢ":7607,"Tra":7608,"Ð¾Ð¹ÑĤÐ¸":7609,"Ġhtt":7610,"ĠÐµÐ´Ð¸Ð½ÑģÑĤÐ²ÐµÐ½":7611,"Ġlov":7612,"ĠRad":7613,"Ġsignificant":7614,"ÐµÐ»Ð°ÑĢÑĥ":7615,"Ð²Ð°ÑĤ":7616,"ĠÑĢÐµÑĪÐµÐ½Ð¸Ð¹":7617,"ĠAcadem":7618,"ĠÑģÐ¾Ð¾Ð±ÑīÐµÐ½Ð¸Ñı":7619,"Bl":7620,"ĠBal":7621,"ÑģÐ¿Ð¾ÑģÐ¾Ð±":7622,"leep":7623,"ĠÐ½ÐµÐ¸Ð·":7624,"Ġshower":7625,"ĠBritish":7626,"Ð¸ÑĤÐµ":7627,"ĠÐ¸ÑĤ":7628,"ĠÐĴÐ°ÑĪÐµÐ³Ð¾":7629,"icy":7630,"Ð±ÑĢÐ°":7631,"Ġ193":7632,"ĠÐ²ÑģÐµÐ¼Ñĥ":7633,"ĠÐ´Ð°Ð½Ð½ÑĭÐ¹":7634,"ĠÐºÑĢÐ¸Ð·Ð¸Ñģ":7635,"iency":7636,"ĠÐ²Ð½ÑĥÑĤÑĢÐ¸":7637,"Ġcampaign":7638,"ĠÐ³ÑĢÐ°ÑĦÐ¸":7639,"avi":7640,"Ġlimited":7641,"Ð½Ð¸Ñģ":7642,"Ġprocessing":7643,"ĠÑģÐ¿ÑĢÐ°":7644,"undred":7645,"27":7646,"ĠÐ³Ð¸":7647,"Ġremains":7648,"atform":7649,"Ġlinks":7650,"club":7651,"Ð¹e":7652,"Ð¿Ð°Ð½Ð¸Ð¸":7653,"ĠÑĥÑĩÐ°ÑģÑĤÐ½Ð¸ÐºÐ¾Ð²":7654,"Ġceleb":7655,"asons":7656,"ĠMen":7657,"ĠFebruary":7658,"Ġ2011":7659,"ÑĪÑĥÑİ":7660,"Ġemployees":7661,"board":7662,"ĠÐ´Ð¾Ð±Ð°Ð²":7663,"ĠÐĽÐµ":7664,"ĠÐºÐ¸ÑĤÐ°Ð¹":7665,"Ä«":7666,"oral":7667,"respond":7668,"ĠDevelopment":7669,"ĠÐ¾Ð±ÐµÑģÐ¿ÐµÑĩÐ¸ÑĤÑĮ":7670,"Ġexpress":7671,"26":7672,"Ġgives":7673,"Ġstage":7674,"Ð¶Ð´ÑĭÐ¹":7675,"ÐĳÐ°ÑĢ":7676,"ĠÐ¿ÑĢÐ¾Ð¸Ð·Ð²Ð¾Ð´ÑģÑĤÐ²Ð¾":7677,"Ð¸Ð·Ð²Ð¾Ð´":7678,"based":7679,"ĠNov":7680,"While":7681,"unicip":7682,"Ð½Ð¸ÑĤ":7683,"ĠTime":7684,"Ġregions":7685,"ĠÐ¿ÑĢÐµÐ´Ð»Ð¾Ð¶ÐµÐ½Ð¸Ñı":7686,"ÐłÐµÑģÑĤÐ¾ÑĢÐ°Ð½":7687,"Ġx":7688,"ĠStation":7689,"Ð¸Ð½Ð³Ð°":7690,"ĠRome":7691,"ĠÐºÐ¾Ð¼Ð¿ÑĮÑİÑĤÐµ":7692,"Ð·Ñı":7693,"ĠAlex":7694,"Ð»ÐµÐµ":7695,"ĠÑģÐ¾Ð±ÑĢÐ°":7696,"Ġcommunication":7697,"ÑīÐµÐ½Ñĭ":7698,"Ġexport":7699,"ĠÐ²ÑĭÐ¿Ð¾Ð»Ð½Ñı":7700,"Ġadop":7701,"Ġoptions":7702,"VIS":7703,"ĠÐ±Ð¸Ð»":7704,"Ġsuppl":7705,"áĥĲáĥ":7706,"Ġdraw":7707,"Ġlab":7708,"Ġlate":7709,"Ð²ÑĪÐ¸":7710,"ĠExpress":7711,"Ġholiday":7712,"Ġir":7713,"ĠÐ¿ÑĥÐ±Ð»Ð¸":7714,"Ġenable":7715,"ĠPalest":7716,"Ġanti":7717,"box":7718,"Ġcompletely":7719,"ado":7720,"iques":7721,"Ġmessage":7722,"ded":7723,"ÑĤÐµÐ»ÑĮÐ½Ð¾ÑģÑĤÑĮ":7724,"ĠKy":7725,"Ġoperations":7726,"ÐŁÐµÑĢ":7727,"ĠÐ¡ÐµÐ¹ÑĦ":7728,"%,":7729,"ĠÐ¾ÐºÐ¾Ð½ÑĩÐ°":7730,"ÐºÐ¾Ñģ":7731,"Ġsus":7732,"ĠÑĢÐ°Ð·ÑĢÐ°Ð±Ð¾ÑĤÐ°":7733,"ĠÑģÐµÑĢÐ´":7734,"Ġtal":7735,"ÑĩÐµÐ¼":7736,"ÐŀÑģÐ½Ð¾Ð²":7737,"Ġmind":7738,"utive":7739,"ĠÐ²ÑĤÐ¾ÑĢÐ¾Ð¹":7740,"ĠÐ·Ð½Ð°ÑĩÐ¸ÑĤÐµÐ»ÑĮÐ½Ð¾":7741,"Do":7742,"ĠÐĻ":7743,"ĠÐ²Ð½ÐµÐ´":7744,"ĠÑįÐºÑģÐ¿Ð»ÑĥÐ°ÑĤÐ°":7745,"Ġ150":7746,"ĠÑģÐ½Ð°":7747,"Ð¾Ð»Ð¾Ð³Ð¸Ð¸":7748,"Ġregistration":7749,"Ð¼Ð¾Ð²":7750,"ĠÐ¿ÑĢÐ¾Ð¸Ð·Ð²ÐµÐ´":7751,"ĠÐ¿Ð¾Ð¸ÑģÐºÐ°":7752,"Many":7753,"Ġsix":7754,"ĠÐĲÐ»ÐµÐºÑģÐ°Ð½Ð´ÑĢ":7755,"ĠSquare":7756,"Ð°Ð½ÑĮ":7757,"ĠServices":7758,"Ð¾Ð²Ð°Ð»Ð¸":7759,"ĠCap":7760,"ÑĥÐ¿":7761,"Ġinstalled":7762,"Ġpleasant":7763,"Ġbran":7764,"ĠÑĥÑĩÐµÑĤ":7765,"ĠdÐ¹":7766,"ĠÐ¾Ð±ÑģÑĥ":7767,"Ġunits":7768,"ĠCourt":7769,"ĠÑĥÐ´Ð¸":7770,"ender":7771,"ĠSte":7772,"ĠÐ¿ÑĢÐ¾ÑģÑĤÑĢÐ°Ð½":7773,"ĠÐ½Ð°ÑģÑĤÑĢÐ¾Ð¹":7774,"ĠÑįÐ»ÐµÐºÑĤÑĢÐ¾Ð½Ð½Ð¾Ð¹":7775,"ape":7776,"Ã¿":7777,"Ġpath":7778,"ĠÑĦÐµÐ²ÑĢÐ°":7779,"anta":7780,"ĠÐľÑĥ":7781,"ĠÑģÑĤÐ°Ð»Ð¾":7782,"ĠÐ½Ð°ÑĪÐ¸Ð¼":7783,"ĠÐ¿Ð°ÑĢÐ°":7784,"hn":7785,"Ġcarried":7786,"ĠÐ²ÐºÐ»ÑİÑĩÐ°ÐµÑĤ":7787,"ĠÐ¯Ð¿Ð¾Ð½Ð¸Ð¸":7788,"ellite":7789,"ously":7790,"ĠÐ´ÐµÐ»Ð°ÐµÑĤ":7791,"ING":7792,"45":7793,"Ġreflect":7794,"Ġreports":7795,"ĠEconom":7796,"encies":7797,"back":7798,"Ð²Ð°Ð»ÑĮ":7799,"ÑħÐ¸Ñı":7800,"Ġvon":7801,"Ġnothing":7802,"ĠÑĨÐµÑĢ":7803,"ĠÐ¿ÑĢÐ¸Ð½ÑıÑĤÐ¸":7804,"Ġvac":7805,"Ġfinal":7806,"ĠÐ¾Ð±ÑĢÐ°Ð·Ð¾Ð²Ð°Ð½Ð¸Ñı":7807,"ĠÑįÐ»ÐµÐºÑĤÑĢÐ¾":7808,"Ġfa":7809,"ĠÑħÐ°ÑĢÐ°ÐºÑĤÐµÑĢÐ¸":7810,"Ġterritory":7811,"ĠAre":7812,"ĠÐ½ÐµÐ²Ð¾Ð·":7813,"ĠÑıÑĢ":7814,"Ð´ÐµÑĢÐ¶":7815,"Ġload":7816,"ĠÑģÐ´ÐµÐ»":7817,"Ð±ÐµÑĢÐ³":7818,"Ġboard":7819,"ÃŁ":7820,"unt":7821,"ĠFacilities":7822,"Ġmaintain":7823,"ĠÐ¿ÑĢÐ¸Ð²ÐµÐ´":7824,"Ġsil":7825,"ĠProgram":7826,"ĠÐ¿ÑĢÐ¾Ð³ÑĢÐ°Ð¼Ð¼Ñĥ":7827,"Ð¾Ð¶ÐµÑĤ":7828,"ĠÐºÑĢÐ¸ÑĤÐ¸":7829,"ĠÑıÐ·ÑĭÐº":7830,"Ð¡Ð¡":7831,"Ġapply":7832,"Ġbeds":7833,"Ġpartner":7834,"ĠÐ¿ÑĢÐ¸Ñģ":7835,"issions":7836,"Ġplayers":7837,"Ġconcept":7838,"roy":7839,"ÑĢÑĭÐ²":7840,"ĠÐ½ÐµÐ¾Ð±ÑħÐ¾Ð´Ð¸Ð¼Ð¾ÑģÑĤÐ¸":7841,"ÑīÐµÐ½Ð¾":7842,"Ġaltern":7843,"ocks":7844,"ĠÐ¼Ð½Ð¾Ð¶ÐµÑģÑĤÐ²Ð¾":7845,"aker":7846,"Ġlines":7847,"Ġstri":7848,"ĠÐ½Ð°Ð¿ÑĢÑı":7849,"Ġguarantee":7850,"ĠÑģÑĤÐµÐ¿ÐµÐ½Ð¸":7851,");":7852,"imir":7853,"ĠÑģÑĤÐ¸Ð¼Ñĥ":7854,"Ġswimming":7855,"ĠBy":7856,"ĠÐ¾Ð±ÐµÑģÐ¿ÐµÑĩÐ¸Ð²Ð°ÐµÑĤ":7857,"ĠÐ¸Ð½Ð¾ÑģÑĤÑĢÐ°Ð½Ð½ÑĭÑħ":7858,"ctors":7859,"ĠÐ·Ð¸Ð¼":7860,"Ġ45":7861,"ĠÑģÐ¼Ðµ":7862,"ÑĢÐ¾ÑģÑĤÑĢÐ°":7863,"ĠÐ¿Ð¾Ð»Ð¸ÑĤÐ¸ÐºÐ°":7864,"Ġ1998":7865,"Ð³Ð¸Ñı":7866,"ĠÐ¾Ð±ÐµÑģÐ¿ÐµÑĩÐµÐ½Ð¸Ðµ":7867,"Ġmail":7868,"ĠÐ¼Ð¾Ð´Ñĥ":7869,"Ġsetting":7870,"Ġhttp":7871,"Ð´ÑĢÐ°":7872,"ĠMr":7873,"ÑĤÐµÐ»ÑĮÐ½Ð°Ñı":7874,"ĠÐĲÑĢÐ¼":7875,"ĠÐ·Ð°ÐºÐ°Ð·Ð°":7876,"ÐŁÐ°ÑĢ":7877,"ĠPoland":7878,"ĠÐ¾Ð´Ð½Ð¾Ð²":7879,"xy":7880,"ÑıÐµÑĤ":7881,"ĠÐ±Ð¾":7882,"emp":7883,"Ġassoci":7884,"ĠFe":7885,"Ġsteps":7886,"Ġpublished":7887,"Ð´ÐµÐ¹ÑģÑĤÐ²Ð¸":7888,"ĠÑģÑĤÐ°Ð½Ð´Ð°ÑĢÑĤ":7889,"ĠÐĶÐ¾":7890,"Ġgreater":7891,"ĠÐ¾ÑģÐ½Ð¾Ð²Ð½Ð¾Ð¼":7892,"ĠÐºÐ»Ð°ÑģÑģÐ¸":7893,"ÑħÑĥ":7894,"Ġtowards":7895,"ĠÑģÐµÐ·":7896,"ĠSkype":7897,"ÐŀÑĢ":7898,"ĠHigh":7899,"ĠÐ¿ÑĢÐ¸ÑģÑĥÑĤ":7900,"uth":7901,"Ġresident":7902,"PS":7903,"ĠÑĥÐ²Ð¸Ð´":7904,"Ġstock":7905,"ĠÐļÐ¾ÑĢÐµ":7906,"ĠAssociation":7907,"Ġquickly":7908,"Ġsports":7909,"Ġancient":7910,"Ġvirt":7911,"ĠÐ´ÑĢÑĥÐ·":7912,"Ġworkers":7913,"gl":7914,"Ð»Ð»Ð°":7915,"Ġmat":7916,"Ġmuseum":7917,"Ð½Ð°ÑĢ":7918,"Ġcompar":7919,"ĠÑģÑĢÐµÐ´Ñĭ":7920,"Ġprofession":7921,"haps":7922,"ĠÐ¿ÑĢÐ¾Ð´ÑĥÐº":7923,"ÑĩÐ¸Ðº":7924,"ogue":7925,"ĠÐ²ÑĭÐ±ÑĢÐ°ÑĤÑĮ":7926,"mina":7927,"ĠDesign":7928,"ĠSong":7929,"ĠVer":7930,"ĠChurch":7931,"ĠÐ¿Ð»Ð°ÑĤÐµ":7932,"ĠElev":7933,"ĠCommit":7934,"ĠSam":7935,"ĠÐºÐ¾Ð½ÐºÑĢÐµÑĤ":7936,"ĠProv":7937,"ĠÐ¼Ð°ÑĢÑĤÐ°":7938,"ĠÐ¿Ð¾Ð»ÑĮÐ·Ñĥ":7939,"ĠÐºÐ¾Ð¿Ð¸":7940,"ĠPan":7941,"ÐĴÐ¸":7942,"ĠÑĢÐµÐ°Ð»Ð¸Ð·":7943,"ĠÐ¾Ð±ÑĬÑıÑģ":7944,"Ġdatabase":7945,"ĠÐ¼Ð¾ÑĢÐµ":7946,"Ġgreen":7947,"ĠOur":7948,"ÃĲÂµ":7949,"Ġtemper":7950,"Ġfrequ":7951,"Ġsense":7952,"itz":7953,"ĠGl":7954,"ÐĶÐµ":7955,"ĠÐ¾ÑĢÐ³Ð°Ð½":7956,"ĠÐ¥Ð°":7957,"Ġautomatically":7958,"ni":7959,"rum":7960,"ĠDepartment":7961,"Ġhosp":7962,"ĠLuggage":7963,"ples":7964,"Ġpaid":7965,"etary":7966,"ĠCons":7967,"undry":7968,"onia":7969,"ĠÐ´Ð°ÐµÑĤ":7970,"ĠMag":7971,"itude":7972,"âĢĶ":7973,"ĠÐ´Ð¾Ð³Ð¾Ð²Ð¾ÑĢ":7974,"Ãµ":7975,"Ġforest":7976,"ĠÑģÐ°Ð¼Ð¾Ð³Ð¾":7977,"ĠÐĿÐ¾Ð²":7978,"Ġblog":7979,"Ġresponsible":7980,"Ġtalk":7981,"Ġmode":7982,"utional":7983,"Ġreported":7984,"Ð½Ð¾Ðº":7985,"Moreover":7986,"ĠTHE":7987,"ĠÐļÐ°Ð¼ÐµÑĢÐ°":7988,"ĠÐĹÐ°Ð¿Ð°Ð´":7989,"rm":7990,"tes":7991,"ĠÐºÐ°ÑĤÐµÐ³Ð¾ÑĢÐ¸Ð¸":7992,"ĠEm":7993,"izes":7994,"Ġattempt":7995,"ĠCast":7996,"ĠLou":7997,"ĠÃ©":7998,"ĠProf":7999,"Ġtherefore":8000,"ĠAzer":8001,"ĠÑģÐ°Ð¼Ð¾Ðµ":8002,"Qu":8003,"ĠNations":8004,"ĠÐ¼ÐµÐ½ÑĮÑĪÐµ":8005,"Ġpie":8006,"ĠÑĥÑĩÐµÐ±":8007,"ĠUSD":8008,"ĠÑįÐ½ÐµÑĢÐ³Ð¸Ð¸":8009,"ÑĦtel":8010,"ĠÑĥÑģÑĤÐ°Ð½Ð°Ð²Ð»Ð¸":8011,"ĠÐŁÐ¾Ð»":8012,"ĠÑĤÑĢÐ°Ð½Ñģ":8013,"ĠÑĤÐ¾Ð²Ð°ÑĢÐ¾Ð²":8014,"ĠÐ²ÑĭÐ³Ð¾Ð´":8015,"Ġuseful":8016,"ĠÐ¿Ð°ÑĢÑĤÐ¸Ð¸":8017,"ÑĪÑĥ":8018,"Ð¾Ð²Ð°Ð½Ð½ÑĭÐµ":8019,"ÑģÑĤÑĢÑĥÐºÑĤÑĥ":8020,"Ð±Ð»Ð¸Ð·Ð¸":8021,"Ð¶Ð°Ð¹":8022,"ÐµÐ½Ð½ÑĭÐ¼Ð¸":8023,"ether":8024,"ĠÐ¿ÑĢÐµÐ´ÑģÑĤÐ°Ð²":8025,"ĠÐ¿ÑĥÐ½":8026,"Ġliber":8027,"ÑħÐ°Ð¹":8028,"ĠÐ¼Ð°ÑģÑģÐ¾Ð²":8029,"ĠÐĳÐµÑĢ":8030,"Ð´Ð¸ÑĨÐ¸Ð¾Ð½ÐµÑĢ":8031,"bar":8032,"Ġcause":8033,"Te":8034,"Ġmetres":8035,"ĠÑĦÐ°Ð¹Ð»":8036,"ĠÐ¼Ð°Ð»ÐµÐ½ÑĮ":8037,"Ġtelephone":8038,"ĠÐ½ÐµÑģÐ¼Ð¾ÑĤÑĢÑı":8039,"Ġenterprises":8040,"Ġstrategy":8041,"bon":8042,"part":8043,"ÑħÐµ":8044,"arles":8045,"ĠÑĢÐµÐ¹":8046,"Ð»ÑıÐ½":8047,"ÑĤÐ¾Ðº":8048,"ĠÐ¼Ð¸ÑĢÑĥ":8049,"ĠÑĢÐ°ÑģÐ¿ÑĢÐ¾ÑģÑĤÑĢÐ°":8050,"Ġdevice":8051,"Ġregistered":8052,"Per":8053,"ba":8054,"Ð±Ð¸Ð½":8055,"ÑīÐ¸Ð½Ñĭ":8056,"ĠÐ¼Ð¸Ðº":8057,"ĠÑĩÐ¸ÑģÐ»Ð¾":8058,"'ll":8059,"Ser":8060,"ĠÑĤÐ¾Ð¿":8061,"áĥĺ":8062,"Ġenterprise":8063,"ĠElevator":8064,"iant":8065,"ĠHeating":8066,"ĠJapanese":8067,"Ġmatter":8068,"ĠSy":8069,"Ġforward":8070,"Ġstar":8071,"ÑĢÐ°Ð·Ð´Ð¾":8072,"ĠÑĩÐµÐ³Ð¾":8073,"ĠÐ¼ÐµÐ¶Ð´ÑĥÐ½Ð°ÑĢÐ¾Ð´Ð½Ð¾Ð¹":8074,"Ġfilm":8075,"Ð²ÑĪÐµÐ³Ð¾":8076,"ÐłÐĲ":8077,"osing":8078,"antic":8079,"Ġpersons":8080,"ÑĩÐ¸Ð½Ð°Ñı":8081,"IF":8082,"ĠMiddle":8083,"cape":8084,"ĠCommission":8085,"Ġexpand":8086,"ferences":8087,"ĠPalace":8088,"ÐºÐ¸Ð½":8089,"Ð¼Ð¾ÑĤÑĢÐ¸":8090,"ĠÑĢÑı":8091,"Ġfig":8092,"Ġcross":8093,"ĠCle":8094,"ĠÐ·Ð°Ð±Ð¾Ð»":8095,"isation":8096,"Ð¿Ð¸ÑĤÑĮ":8097,"Ð¸Ð±Ð»Ð¸Ð¾ÑĤÐµ":8098,"ĠÐĳÐµÐ»Ð°ÑĢÑĥ":8099,"bl":8100,"bai":8101,"Ġwait":8102,"Ġrenov":8103,"ĠCur":8104,"ĠÐ¾ÑģÐ½Ð°":8105,"ĠÑģÑĤÐ°Ð½Ð¾Ð²Ð¸ÑĤÑģÑı":8106,"book":8107,"bles":8108,"Ġappropri":8109,"Ġtourist":8110,"Ð¸Ð½ÑĤÐµÑĢÐµÑģ":8111,"ĠÑĢÐ°Ð·ÑĢÐ°Ð±Ð¾ÑĤÐºÐ¸":8112,"Ġfunds":8113,"ÐĳÐ»Ð°Ð³Ð¾Ð´Ð°ÑĢÑı":8114,"ĠÐ¸Ð·Ð±Ðµ":8115,"ĠÐ¼Ð°Ñı":8116,"ĠÐ¼Ð°ÑĢÑĪÑĢÑĥ":8117,"ĠÐĶÐ¶Ð¾Ð½":8118,"IR":8119,"dem":8120,"ĠBush":8121,"ĠÐ¿ÑĢÐµÐ´Ð²Ð°ÑĢÐ¸":8122,"ĠÑģÐ¾ÑĤÑĢÑĥÐ´Ð½Ð¸ÑĩÐµÑģÑĤÐ²Ð°":8123,"ÑĤÐµÑĢÐ½Ð°":8124,"Ġcontinued":8125,"ĠÐ²Ð¾Ð¾ÑĢÑĥÐ¶":8126,"ĠMac":8127,"Ġcorrespond":8128,"ÑĩÐµÐ½Ð½Ð¾Ð³Ð¾":8129,"ĠÐ¼Ð¾ÑĢÑı":8130,"ÑĢÑĥÑģ":8131,"ÐļÐŀ":8132,"ĠÐ¿Ð¾Ð¿ÑĭÑĤ":8133,"Ġluxury":8134,"ias":8135,"Ġpal":8136,"ĠÐ¿ÑĢÐ¾ÑĤÐµ":8137,"ÐŀÐ½Ð°":8138,"ÐĿÐŀ":8139,"ÑĮÐ±Ñĭ":8140,"ĠÐºÐ»Ð¸Ð¼Ð°":8141,"Ġelements":8142,"ÑĢÐ°Ð²Ð¾":8143,"Ġmention":8144,"ura":8145,"ÐļÑĥ":8146,"Ġability":8147,"ĠÐ±Ð°Ð½Ðº":8148,"ÑģÐµÐ½":8149,"ĠÐĴÑģÐµ":8150,"Ġ1992":8151,"rd":8152,"Ð±Ð¸ÑĤ":8153,"ĠÐ·Ð°Ð¿Ð¾Ð»":8154,"ÐµÐºÐ¾ÑĤÐ¾ÑĢ":8155,"Ġmachines":8156,"Ġseparate":8157,"Ġhom":8158,"Ġproduce":8159,"Ġworldwide":8160,"ĠÐ¿ÑĢÐµÐ´Ð¿ÑĢÐ¸Ð½Ð¸Ð¼Ð°":8161,"Ġcompl":8162,"Ġjud":8163,"ĠÑģÐµÑĢÐ²Ð¸":8164,"ĠÐ¿ÐµÑĢÐ²Ð¾Ð¹":8165,"ĠÐ´ÑĢÑĥÐ³Ð¸Ð¼":8166,"ĠÐ¾ÑĤÐ´Ðµ":8167,"ĠÐºÐ¾Ð½ÐºÑĥÑĢÐµÐ½":8168,"ĠÑĢÐµÐ°Ð»Ð¸Ð·Ð°ÑĨÐ¸Ð¸":8169,"Ġgarden":8170,"ÐŁÐµÑĢÐµ":8171,"Ġspecialists":8172,"Ġdepartment":8173,"ĠÐĽÐ¸ÑĦÑĤ":8174,"Ġhistoric":8175,"Ġcy":8176,"Ġ1997":8177,"ĠÐ²ÑĭÐ¿Ð¾Ð»Ð½":8178,"ĠÑģÐ¼Ñĭ":8179,"ĠAK":8180,"ĠÑĤÐµÑĢÐ¼Ð¸":8181,"Ġglass":8182,"Ġil":8183,"ĠMil":8184,"ĠÐ°Ð²ÑĤÐ¾ÑĢ":8185,"ÑĢÐ¾Ð²Ð°Ð½Ð½ÑĭÐ¹":8186,"Ġcommand":8187,"ÑĤÐµÐ»ÑĮÑģÑĤÐ²":8188,"ĠÐ´ÐµÐ¹ÑģÑĤÐ²Ð¸Ð¹":8189,"Ġsust":8190,"Su":8191,"Not":8192,"wood":8193,"Ġwhite":8194,"Ġusually":8195,"ĠÐºÐ¾Ð¼Ð¿Ð°Ð½Ð¸ÐµÐ¹":8196,"ĠÑĩÐ°ÑģÑĤÐ½Ð¾ÑģÑĤÐ¸":8197,"Europe":8198,"El":8199,"ĠÑģÐ°Ð¼Ð¾Ð¹":8200,"ĠÑĩÐ»ÐµÐ½Ð¾Ð²":8201,"Ð»Ð°Ð³":8202,"ĠÐºÐ¾Ð½ÑĤÑĢÐ¾Ð»ÑĮ":8203,"ĠÐ¿ÑĢÐµÐ´ÑĥÑģ":8204,"iscal":8205,"Ġanalysis":8206,"28":8207,"Ð½Ð¾Ð³Ð¸Ðµ":8208,"reme":8209,"ÃŃÃ¨":8210,"ĠISO":8211,"ĠÑĢÐ°Ð±Ð¾ÑĩÐ¸Ñħ":8212,"ĠÑģÐ²Ð¸Ð´Ðµ":8213,"ĠKazakhstan":8214,"ima":8215,"Ð½Ð¸ÐºÐ°Ð¼":8216,"ĠÐ¼ÐµÑģÑıÑĨÐµÐ²":8217,"Ġconnect":8218,"baijan":8219,"onom":8220,"ĠÐ·Ð°Ð¿Ð°Ð´":8221,"Ġpractice":8222,"Ġreleased":8223,"uy":8224,"ĠÐ±Ð°Ð»":8225,"ÑĢÐ¾Ð²Ð°Ð½Ð¸Ð¸":8226,"Ġdevices":8227,"ĠEnter":8228,"hol":8229,"Ġharm":8230,"Ġchanged":8231,"ivery":8232,"Ã»":8233,"ĠÐ¿ÑĢÐµÐ´Ð¾ÑĤ":8234,"ĠÐ¿ÑĢÐµÐ²Ñĭ":8235,"ĠÑģÐ°Ð¼ÑĭÐ¹":8236,"Ġprepar":8237,"Ð¾Ð»Ð¸ÑĤÐ¸":8238,"Ġrunning":8239,"ĠÐ³ÑĢÐ°Ð½Ð¸ÑĨ":8240,"Ġchambres":8241,"Fl":8242,"ĠÐ´Ð¾Ð¿":8243,"ĠÑĩÑĢÐµÐ·":8244,"Ġopportunities":8245,"Ġsens":8246,"Ġcreating":8247,"ĠÐ¾Ð¶Ð¸Ð´Ð°":8248,"ĠÐ¿Ð¾Ð²ÐµÑĢÑħ":8249,"ructure":8250,"ĠÑģÐ¸Ð¼Ð²Ð¾Ð»":8251,"ST":8252,"Ġfirm":8253,"Ġsuff":8254,"ĠÐ¡ÐµÑĢ":8255,"ÑĸÐ²":8256,"ĠÑģÐ¾Ð³Ð»Ð°ÑģÐ½Ð¾":8257,"ĠÐ¼ÐµÐ¶Ð´ÑĥÐ½Ð°ÑĢÐ¾Ð´Ð½Ð¾Ð³Ð¾":8258,"ĠÐ§Ðµ":8259,"Ġlegis":8260,"ĠÑģÐ¿ÐµÑĨÐ¸Ð°Ð»Ð¸ÑģÑĤÐ¾Ð²":8261,"Ġexpected":8262,"icht":8263,"Ð½ÑİÑİ":8264,"Ð·Ðµ":8265,"Ġmiddle":8266,"Ġdedic":8267,"Ġinterested":8268,"ession":8269,"itions":8270,"spapers":8271,"ĠÑģÐµÐ²ÐµÑĢ":8272,"ĠÐļÑĥÑĢ":8273,"Ð½Ð¾Ð´Ð¾ÑĢÐ¾Ð¶":8274,"Ġallowed":8275,"Ð±Ð¾Ð¹":8276,"Ġeveryone":8277,"Ġbenefits":8278,"Ġconsist":8279,"Ð»ÑĭÑħ":8280,"Ð·Ñĥ":8281,"Ġmap":8282,"Ġreduce":8283,"ĠÑĦÐ¸Ð½Ð°Ð½ÑģÐ¾Ð²ÑĭÑħ":8284,"Ġsold":8285,"ĠÐ¿Ð¾Ð´Ð¿Ð¸":8286,"Ġdrug":8287,"Ð°Ð»ÑĮÐ½Ð¾Ð³Ð¾":8288,"ĠÐ³ÐµÐ½ÐµÑĢÐ°":8289,"ĠÐºÐ¾Ð¼Ð¿Ð¾Ð½":8290,"Ġrapid":8291,"ĠÑģÐµÐ½ÑĤÑıÐ±ÑĢÑı":8292,"ĠMc":8293,"ĠÐ¾ÑĤÑĩÐµÑĤ":8294,"ĠÐ²Ð¸Ð´Ð¾Ð²":8295,"ĠÐ°Ð²ÑĤÐ¾Ð¼Ð¾Ð±Ð¸Ð»ÑĮ":8296,"ĠÐºÑĢÑĥ":8297,"ĠÐłÐ¾ÑģÑģÐ¸Ð¹":8298,"inate":8299,"Ġled":8300,"ĠÐĳÐ¾Ð»":8301,"etic":8302,"ĠÑĥÑģÑĤÐ¾Ð¹ÑĩÐ¸":8303,"ĠÐ¼Ð½Ð¾Ð³Ð¾ÑĩÐ¸ÑģÐ»ÐµÐ½":8304,"ĠNot":8305,"ĠÑģÐ¾ÑİÐ·":8306,"ĠÐĽÐ°ÑĤ":8307,"olit":8308,"ĠÑģÐ¾Ð±ÑĭÑĤÐ¸Ñı":8309,"fl":8310,"Ġpolice":8311,"EX":8312,"tail":8313,"Ð¸Ñı":8314,"Ð¶Ð°ÐµÑĤ":8315,"ĠÑģÐ²Ð¾ÐµÐ¼":8316,"ĠÐ¿Ð»Ð¾ÑīÐ°Ð´Ð¸":8317,"then":8318,"ÑģÐ¾Ð»":8319,"Ð¾Ð³Ðµ":8320,"Ġcast":8321,"ĠÐ¿Ð¾Ð´Ð²ÐµÑĢ":8322,"04":8323,"arter":8324,"irs":8325,"ĠÐ²ÑĭÐ±Ð¾":8326,"ÑģÐ¸ÑĤÑĮ":8327,"ĠCommittee":8328,"09":8329,"Ġfreed":8330,"John":8331,"ĠÑĥÐºÐ°Ð·Ð°Ð½":8332,"Ð±Ð°ÑĢ":8333,"Ð¢ÐµÐ¿ÐµÑĢÑĮ":8334,"Ð·ÐµÑĢÐ±Ð°Ð¹":8335,"rehen":8336,"ĠÐ·Ð½Ð°Ð¼ÐµÐ½Ð¸":8337,"ĠÐ³Ð¾ÑĢÐ°Ð·Ð´Ð¾":8338,"Ġsquare":8339,"ĠCzech":8340,"ĠTr":8341,"ĠÑįÐ½ÐµÑĢÐ³ÐµÑĤÐ¸":8342,"ework":8343,"Ġimages":8344,"Ġexperts":8345,"Ġmethods":8346,"Ġnegoti":8347,"ĠÑĤÑĭÑģÑıÑĩ":8348,"Ġ#":8349,"oring":8350,"Ð¾Ð»ÐµÑĤ":8351,"ÑĤÐ¸Ð¼":8352,"Ġ1980":8353,"Ġnames":8354,"Ð±Ð¾Ðµ":8355,"ĠÐłÐµ":8356,"Ġconnected":8357,"Ġinsurance":8358,"ĠÐ¸ÑİÐ½Ñı":8359,"ui":8360,"Ġspect":8361,"ĠÐ¾ÑĢÐ³Ð°":8362,"ĠÑģÑĤÐ¾Ð¸Ð¼Ð¾ÑģÑĤÐ¸":8363,"Ġrepresentatives":8364,"ĠÐ²Ð°ÑĪÐµÐ¹":8365,"Ġblack":8366,"ione":8367,"Ð»Ð¸Ð²Ð¾":8368,"ube":8369,"ĠÑģÐ¾ÑĤÑĢÑĥÐ´Ð½Ð¸ÐºÐ¾Ð²":8370,"ibrary":8371,"Restaurant":8372,"ĠÐ±ÑĢÐ¾Ð½Ð¸":8373,"Ġconv":8374,"ĠÐ¿ÑĢÐ¾ÑĨÐµÐ½ÑĤ":8375,"Ġsymb":8376,"Ġlost":8377,"First":8378,"ĠÑģÐ½Ð¾Ð²Ð°":8379,"Ð¶ÐµÐ¼":8380,"ĠÑĤÐ°ÐºÐ¾Ð³Ð¾":8381,"Ġoblig":8382,"Ġ1996":8383,"Ġtarget":8384,"29":8385,"86":8386,"Ġassistance":8387,"ĠÐ´ÐµÑģÑıÑĤÐ¸Ð»ÐµÑĤÐ¸":8388,"Ant":8389,"wall":8390,"ÐµÐ¼Ð¾Ð¹":8391,"ÐµÐ¼ÑĭÐ¹":8392,"ÑĢÐ¸Ð¿":8393,"ĠÐ¼Ð°ÑĤÐµÑĢÐ¸Ð°Ð»Ñĭ":8394,"Ġpackages":8395,"ĠÐ½ÐµÐ¼ÐµÑĨ":8396,"Ġadvantage":8397,"ĠÑĢÐµÐ·ÑĥÐ»ÑĮÑĤÐ°ÑĤÑĭ":8398,"ĠÐ¾ÑĢÐ³Ð°Ð½Ð¸Ð·Ð°ÑĨÐ¸Ð¹":8399,"ead":8400,"Ġtren":8401,"ĠYear":8402,"Ġsave":8403,"Ġfol":8404,"ĠÐ¾ÑĤÐ¿ÑĢÐ°Ð²":8405,"Ġcoming":8406,"ĠÑģÐµÑĢÑĤÐ¸ÑĦÐ¸ÐºÐ°":8407,"ĠÑĤÐµÐ¼Ð¿ÐµÑĢÐ°":8408,"ĠAN":8409,"ÑīÐ°ÑĤÑĮ":8410,"Ġactually":8411,"Ð´Ð°Ð¼Ð¸":8412,"ocop":8413,"ÐĿÐ°ÑĪÐ°":8414,"ÑĩÐ°ÑİÑĤ":8415,"ĠÑĤÐµÐ°ÑĤ":8416,"ÑģÐ°Ð¼Ð¸":8417,"avy":8418,"ĠÑĨÐ¸ÑĦ":8419,"hab":8420,"ĠInc":8421,"Ġfarm":8422,"ĠÑģÑĤÐ°Ð½ÐµÑĤ":8423,"ÑģÐ°Ñħ":8424,"ladimir":8425,"uit":8426,"ĠÑĩÐ¸ÑģÑĤ":8427,"ĠVen":8428,"ĠÐºÐ°Ð¶Ð´Ð¾Ð¹":8429,"ĠÑģÑģÑĭÐ»":8430,"ĠÐ¾ÑħÑĢÐ°":8431,"Ġtold":8432,"ĠÐ³Ð¸Ð±":8433,"Ġones":8434,"Ð³Ð¾Ðµ":8435,"uty":8436,"ĠÐļÑĢÑĥÐ³Ð»Ð¾ÑģÑĥÑĤÐ¾ÑĩÐ½ÑĭÐ¹":8437,"Ġvotes":8438,"ruit":8439,"ÐĿÐ°Ð¿ÑĢÐ¸Ð¼ÐµÑĢ":8440,"orthern":8441,"ĠÐ¿Ð¾ÑģÑĢÐµÐ´ÑģÑĤÐ²Ð¾Ð¼":8442,"ĠBeach":8443,"Ð³Ð°Ð½ÑĤ":8444,"ÑĩÐµÐ½Ð¸Ð¹":8445,"www":8446,"rey":8447,"ittle":8448,"Ð¿Ð»Ð¸":8449,"Ġforms":8450,"ĠÐ²ÑĭÐ²Ð¾Ð´":8451,"ĠÐ´Ð¾Ð¼Ð°ÑĪ":8452,"ĠÐ½Ð¸Ð¼":8453,"ĠÑħÐ¾Ñĩ":8454,"Ġinside":8455,"Ð¾ÑĦ":8456,"ouch":8457,"ĠMore":8458,"ÐľÐĺ":8459,"ĠÑħÐ¾Ð»Ð¾Ð´":8460,"Ġgoal":8461,"ĠÑģÐ¾Ð¿ÑĢÐ¾Ð²":8462,"Ġspa":8463,"ÑĩÐºÐ¸":8464,"Ġincome":8465,"ĠFax":8466,"ĠÑĢÐµÐ³Ð¸Ð¾Ð½Ðµ":8467,"ÑĢÐ¾ÐºÐ°ÑĤ":8468,"Ġtit":8469,"ĠÑĢÐ°ÑģÐº":8470,"mas":8471,"Ġcards":8472,"ÑĢÐµÑģÑĤ":8473,"Ġbutton":8474,"ÑģÑĤÑĢÐ¾Ð²":8475,"ĠÐ½Ð¸ÑĩÐµÐ³Ð¾":8476,"ÐµÑĢÐµÐ¶":8477,"ĠÐ¿Ð¾ÐºÐ¾Ð»":8478,"ĠCorpor":8479,"ĠÑĩÐ°ÑģÑĤÑĮÑİ":8480,"Ð³Ð¾ÑģÑĢÐ¾":8481,"ÑģÑĤÐ°Ð½Ðµ":8482,"ĠÐ¾Ð¿ÑĥÐ±Ð»Ð¸":8483,"Ġavoid":8484,"ĠÐŀÑĤÐ¾Ð¿Ð»ÐµÐ½Ð¸Ðµ":8485,"ĠMa":8486,"ÑįÐºÐ¾Ð½Ð¾Ð¼Ð¸":8487,"Ġchalleng":8488,"ÑĥÐ»ÑĮÑĤÐ¸":8489,"ĠÐ¼Ð°Ð³Ð°Ð·Ð¸Ð½":8490,"Ġelegant":8491,"ĠÐºÑĥÐ»ÑĮÑĤÑĥÑĢÑĭ":8492,"ĠÐ¾ÐºÑĢÑĥÐ¶Ð°ÑİÑīÐµÐ¹":8493,"ĠKorea":8494,"Ġbehind":8495,"ses":8496,"ented":8497,"Ġtrading":8498,"ĠÐ±Ð¾Ð»ÐµÐ·":8499,"ĠArmenia":8500,"ĠÑģÐ¾Ð·Ð´Ð°Ð½Ð¸Ðµ":8501,"Even":8502,"last":8503,"ĠÑģÑĢÐ°Ð·Ñĥ":8504,"Ġbooking":8505,"ĠÑĢÐ°Ð¹Ð¾Ð½Ðµ":8506,"Ġfresh":8507,"ĠÐ´Ð°Ð½Ð½Ð¾Ð¹":8508,"Ġannual":8509,"ila":8510,"Alex":8511,"ÐºÐ»":8512,"osen":8513,"ĠÐºÐ¾Ð½ÑĤÑĢÐ°":8514,"ĠFam":8515,"Ġblock":8516,"ĠÐ¾Ð´ÐµÐ¶Ð´Ñĭ":8517,"Ġhundred":8518,"ieved":8519,"ĠÑģÐ¾Ð²ÐµÑĢÑĪ":8520,"Ġremov":8521,"Ġstarting":8522,"ĠLaw":8523,"ĠOF":8524,"Ġselected":8525,"Ġexpen":8526,"Fi":8527,"Â´":8528,"Ð¾Ð¿Ð¸ÑĢÐ¾Ð²Ð°Ð½Ð¸Ðµ":8529,"ÑĩÐ½Ð¾ÑģÑĤÐ¸":8530,"ĠÐ¿ÑĢÐ¾ÑĨÐµÑģÑģÐµ":8531,"ĠÐ²Ð¾ÑģÐ¿Ð¾Ð»ÑĮÐ·Ð¾Ð²Ð°":8532,"like":8533,"tra":8534,"ĠÑģÐ¸Ð»Ñĥ":8535,"Ġterrace":8536,"ĠÐ·Ð°Ð³ÑĢÑĥ":8537,"ĠÐ¿Ð¾ÐµÐ·Ð´":8538,"ĠÐ·Ð°Ð¼":8539,"ĠÑĢÐ¾Ð·":8540,"ĠÐ±Ð¾Ð»ÑĮÑĪÐ¾Ðµ":8541,"Also":8542,"ĠGarden":8543,"Ð¾Ð¼ÐµÑĤ":8544,"ĠÐºÑĢÑĭ":8545,"ĠÐ´Ð¾ÐºÐ°":8546,"Gmina":8547,"ĠDiv":8548,"pects":8549,"Ġscience":8550,"ĠÑĤÐ¾Ð¶Ðµ":8551,"ĠÐ²Ð·Ð³Ð»Ñı":8552,"ĠThat":8553,"Ġorganized":8554,"Ġresponsibility":8555,"Ġflex":8556,"ĠÐºÐ¾Ð¼Ð°Ð½Ð´":8557,"ÐłÐ¸":8558,"ÑĤÑĭÐ¼":8559,"mon":8560,"Ð½Ñĸ":8561,"Ġcrim":8562,"edia":8563,"ÐĶÐ¶":8564,"Ġski":8565,"Ð¾Ð¶Ð´ÐµÐ½Ð¸Ðµ":8566,"Ð¾Ð²Ð°Ð½Ñĭ":8567,"ĠSpa":8568,"Ð»Ð°Ð¼ÐµÐ½ÑĤ":8569,"ĠÐ´Ð¾ÑģÑĤÐ¸Ð¶ÐµÐ½Ð¸Ñı":8570,"Ġannounced":8571,"ĠDavid":8572,"Ġunivers":8573,"ĠÐºÐ°ÑĢÑĤÑĭ":8574,"Ġwonderful":8575,"ÐºÐ¾Ð¿":8576,"Ð¾Ð²Ð¸Ñĩ":8577,"ĠCong":8578,"ĠÐ¡Ð²":8579,"Ġuses":8580,"Ġdefin":8581,"Ġinvestors":8582,"yan":8583,"Ġdiplom":8584,"ÐľÐ¾Ð½":8585,"oys":8586,"ĠLeague":8587,"ÑīÐ°ÐµÑĤÑģÑı":8588,"ĠÐ·Ð²":8589,"ĠÑĩÐ¸ÑĤÐ°":8590,"ĠÑĢÐ¾ÑģÐºÐ¾":8591,"Ġinfluence":8592,"Ġbuildings":8593,"ĠÑģÐºÐ¾ÑĢÐµÐµ":8594,"Ġcontem":8595,"Ġfreedom":8596,"enty":8597,"ÐŁÐµÑĢÐ²":8598,"Ð¡Ñĥ":8599,"ĠÐ¢ÐµÑĢ":8600,"ĠBulgaria":8601,"atre":8602,"ĠÐ°Ð²ÑĤÐ¾Ð¼Ð°ÑĤÐ¸ÑĩÐµÑģÐºÐ¸":8603,"ĠÑģÐ¾ÑģÑĤÐ¾ÑıÐ½Ð¸Ð¸":8604,"ĠBerlin":8605,"\\\\":8606,"ĠÐ·Ð°ÑıÐ²Ð¸":8607,"ÑģÐµÑĢÐ¾Ðº":8608,"ĠÐ°ÑįÑĢÐ¾Ð¿Ð¾ÑĢÑĤÐ°":8609,"body":8610,"Ġinternal":8611,"ĠÐ²Ð¾Ð·Ð´ÐµÐ¹ÑģÑĤÐ²Ð¸":8612,"Ġdoor":8613,"Ġshops":8614,"Ġsell":8615,"Â½":8616,"Ð°Ð½Ð°":8617,"Ġhor":8618,"ĠÐ·Ð°Ð¸Ð½ÑĤÐµÑĢÐµÑģ":8619,"Ġweap":8620,"fficient":8621,"rus":8622,"ĠÐ¡ÐµÑĢÐ³":8623,"Ġprobably":8624,"ĠSil":8625,"Ġexception":8626,"ĠÐ¸Ð½Ð½Ð¾Ð²Ð°":8627,"Ġmid":8628,"ÐĲÐł":8629,"Ġdecided":8630,"ĠÑĢÐµÐºÐ»Ð°Ð¼":8631,"ĠÐ¿ÑĥÑĤÑĮ":8632,"Ġprogress":8633,"ĠÐºÐ»Ð¸ÐµÐ½ÑĤÐ°Ð¼":8634,"ĠÑĢÐµÑģÑĥÑĢÑģÐ¾Ð²":8635,"where":8636,"yp":8637,"Ġopening":8638,"Ġanswer":8639,"Ð¾Ð²Ð°Ð»":8640,"ĠÐĴÐ¾ÑģÑĤ":8641,"ĠÐ¿Ð°ÑĤ":8642,"ĠÐ¸Ð½ÑģÑĤÐ¸ÑĤÑĥ":8643,"ÐµÐ²Ð¾Ð¹":8644,"Ġserved":8645,"ĠÐ¿Ð¾Ð»ÑĮÐ·Ð¾Ð²Ð°ÑĤÐµÐ»Ñı":8646,"ĠÑĢÐ°Ð¹Ð¾Ð½Ð°":8647,"ÐºÑĤÐ¾ÑĢÐ°":8648,"Ð¾Ð»ÑĮÐ½Ð¾":8649,"ĠÐŀÐĲÐŀ":8650,"ĠÐ¶Ð¸Ð²Ð¾ÑĤ":8651,"itation":8652,"ÐºÑĥÐ»ÑĮ":8653,"ĠÃ¨":8654,"ÑĥÐ½Ð°":8655,"Ð´Ð¶Ð°":8656,"ĠÐ½Ð°Ð³ÑĢÐ°":8657,"ĠAv":8658,"Ġoccup":8659,"Ġfine":8660,"Ġlands":8661,"Ð»ÐµÑģÑĤÐ¸Ð½":8662,"ĠHam":8663,"umin":8664,"Ð¸Ð»ÑģÑı":8665,"ĠÐ²ÑĭÑģÐ¾ÐºÐ¸Ð¼":8666,"ÐµÐºÑĤÐ¸":8667,"Ġcandid":8668,"ĠÐ¿ÑĢÐµÑģÑģÑĭ":8669,"ales":8670,"ÐķÐł":8671,"hood":8672,"):":8673,"rier":8674,"ĠÐ¾Ð±Ð²Ð¸":8675,"ĠWhat":8676,"ĠÑģÐ¾Ð¼":8677,"Ġspaces":8678,"ĠÐ¤Ð°ÐºÑģ":8679,"ĠÑįÐºÐ¾Ð»Ð¾Ð³Ð¸":8680,"Ġconflict":8681,"ÐļÐ¸":8682,"Ġdefault":8683,"ĠÐµÐ´Ð¸":8684,"Ġinstead":8685,"ĠÐ²Ð²ÐµÐ´":8686,"ÑħÐ¾Ð¼":8687,"ĠÑģÑĤÐ¾ÑĢ":8688,"ĠÐ¡Ð¾Ð²ÐµÑĤ":8689,"ĠÐ¸Ð½Ð²Ð°Ð»Ð¸":8690,"ĠÐ½ÐµÐ´Ð°Ð²Ð½Ð¾":8691,"ÑĩÐµÑĩÐ½Ð°Ñı":8692,"ĠÑĦÑĢÐ°Ð½ÑĨÑĥÐ·":8693,"Cont":8694,"vey":8695,"Ġplatform":8696,"Ġextremely":8697,"ept":8698,"ÑĭÐ´Ñĥ":8699,"Ð¶ÐµÑģÑĤÐ²":8700,"ĠÑģÐ²Ðµ":8701,"ĠJust":8702,"ĠNor":8703,"ĠÐºÐ°Ð¿Ð¸ÑĤÐ°Ð»Ð°":8704,"ĠÐ¸Ð½ÑĦÑĢÐ°":8705,"Ġcoffee":8706,"alle":8707,"Ð¾ÑĢÑĤÑĥ":8708,"Ð»ÐµÐ½Ð½ÑĭÑħ":8709,"FC":8710,"Ġ400":8711,"ĠÃ¢":8712,"Ġmanufacturing":8713,"ÐºÐ½Ñĥ":8714,"Ġfixed":8715,"ĠDom":8716,"oker":8717,"ÑĢÐ¾Ð²Ð°Ð½Ð½Ð¾Ð¹":8718,"Ġadministr":8719,"Ġaverage":8720,"uttle":8721,"anda":8722,"aves":8723,"Ġmonitor":8724,"ĠÐļÐ°Ð·Ð°Ñħ":8725,"Ġmaximum":8726,"Ġhour":8727,"ĠWi":8728,"ireless":8729,"ĠÐ²ÑģÐµÐ¼Ð¸":8730,"ocopying":8731,"ĠAct":8732,"ÑģÑĤÐµÑĢÐ¾Ð¸":8733,"Ġfurnished":8734,"ĠÐ´Ð¾Ð»Ð³Ð¾ÑģÑĢÐ¾":8735,"Ġexpert":8736,"Ġelections":8737,"ÐµÐºÐ¾ÑĤÐ¾ÑĢÑĭÐµ":8738,"ÑģÐµÐ¼Ð¸ÑĢ":8739,"ĠÑĥÐ¶":8740,"ĠKiev":8741,"ÑĥÐ½Ð´Ð°":8742,"ael":8743,"ÑģÑĤÐ²ÐµÐ½Ð½ÑĭÐµ":8744,"Ġtrack":8745,"Ġimpact":8746,"Ð½Ð¾ÑģÑĤÑıÐ¼Ð¸":8747,"Ġpressure":8748,"ĠÑģÐ¸ÑĤÑĥÐ°ÑĨÐ¸Ð¸":8749,"ĠÑĥÐ²Ð¸Ð´ÐµÑĤÑĮ":8750,"wise":8751,"Ð²Ð¾Ð±":8752,"ÑĩÑĤ":8753,"bek":8754,"Ð¾Ð¶Ð´Ð°":8755,"ĠÑĥÑİÑĤ":8756,"rime":8757,"ÑģÐ»ÑĥÐ¶Ð¸Ð²Ð°Ð½Ð¸Ðµ":8758,"Ġpossib":8759,"ÐºÐ¾Ð»ÐµÐ¿":8760,"ĠÑĢÐµÐ¶Ð¸Ð¼Ðµ":8761,"Ġessential":8762,"TS":8763,"ĠÐļÑģÐµÑĢÐ¾Ðº":8764,"ĠÐ¿Ð¾Ð»ÑĥÑĩÐµÐ½":8765,"ĠÐ¿ÑĢÐµÐ¼":8766,"Ġmajority":8767,"ĠÐ¸Ð½ÑģÑĤÐ¸ÑĤÑĥÑĤ":8768,"ĠÐŁÐŀ":8769,"Ġmean":8770,"ĠHead":8771,"ĠÐļÑģÐµÑĢÐ¾ÐºÐ¾Ð¿Ð¸ÑĢÐ¾Ð²Ð°Ð½Ð¸Ðµ":8772,"ĠDVD":8773,"Ġpercent":8774,"ĠÐ½Ð°ÑħÐ¾Ð´Ñı":8775,"Ġmultip":8776,"Photocopying":8777,"ĠAcc":8778,"ĠGen":8779,"ante":8780,"Ġexact":8781,"ĠÐ´Ð¸Ð½Ð°Ð¼Ð¸":8782,"Ð»Ð¾ÑĤ":8783,"ĠÐ¾Ð¿Ð¸":8784,"ĠFound":8785,"ĠÑĤÑĢÐµÐ±ÑĥÐµÑĤ":8786,"ĠÐ¼ÐµÑĢÑĭ":8787,"ĠKingdom":8788,"ĠWord":8789,"ĠÑįÐºÐ¾Ð½Ð¾Ð¼Ð¸ÑĩÐµÑģÐºÐ¾Ð¹":8790,"Ð¾Ð»Ñİ":8791,"Ġconsequ":8792,"Ġplaced":8793,"ĠÐ¿ÐµÑĢÐ²Ð¾Ð³Ð¾":8794,"commerce":8795,"ĠÐ¸Ð½ÑĤÐµÑĢÑĦÐµÐ¹":8796,"Ġsort":8797,"ĠÐ¾Ð´Ð½Ñĥ":8798,"ĠÃ®":8799,"ĠÑģÐ¾Ð±Ð¸ÑĢÐ°":8800,"ÐºÐµÑĢ":8801,"ĠLatin":8802,"Ġmeasures":8803,"Of":8804,"iro":8805,"ĠÐ¼Ð°ÑĪÐ¸Ð½":8806,"ĠÐ¾ÑģÑĤÐ°ÐµÑĤÑģÑı":8807,"ĠÐ¿Ð°ÐºÐµÑĤ":8808,"Ġtraffic":8809,"Ġplanets":8810,"ocese":8811,"ĠUSA":8812,"ĠÐ½Ð¾Ð¼ÐµÑĢÐ°Ð¼Ð¸":8813,"Ġspread":8814,"ĠHeart":8815,"Ð¾Ð»Ð¾ÑĤ":8816,"ĠÐ±Ð°Ð·Ðµ":8817,"Ð·ÐµÐ¼":8818,"ĠÐ³ÐµÑĢ":8819,"ĠÑĤÐ¾Ð»":8820,"ĠÐ¡ÑĤÐ°":8821,"Ġrise":8822,"Ġattractions":8823,"Ġgradu":8824,"ĠSat":8825,"ĠMount":8826,"ĠÐ·Ð°Ð¿Ð°":8827,"Ġtrip":8828,"ĠChild":8829,"ÑģÑĤÑĢÑĭ":8830,"Ġwine":8831,"ĠÐ´Ð²Ð¸Ð³Ð°":8832,"ĠÐ²ÑĭÐ¿ÑĥÑģÐºÐ°":8833,"Ġnumbers":8834,"ĠÐ¼Ð¾Ð¼ÐµÐ½ÑĤÐ°":8835,"ĠÑħÐ¾Ð´Ðµ":8836,"ĠÐºÐ¾Ð½ÐµÑĩÐ½Ð¾":8837,"ĠÐ¾Ð´Ð½Ð¾Ð²ÑĢÐµÐ¼ÐµÐ½Ð½Ð¾":8838,"ÑĨÐ¾Ð²":8839,"ĠÐºÑĢÐ°ÑĤ":8840,"Ġbuffet":8841,"Ð³ÑĢÑĥÐ·":8842,"ĠÐ¼ÐµÐ½ÐµÐ´Ð¶":8843,"ĠÑĢÑĥÐºÐ¾Ð²Ð¾Ð´Ð¸":8844,"QL":8845,"Ġtrou":8846,"ĠÐ²ÐºÐ»Ð°Ð´":8847,"ani":8848,"Ð¿Ð¾Ð·Ð¸":8849,"ĠPat":8850,"ĠHar":8851,"ĠÐ¿ÑĢÐ¸ÐµÐ¼":8852,"Ġsex":8853,"ĠÑģÐ»ÑĥÑĩÐ°ÑıÑħ":8854,"Ġtaste":8855,"ÑĢÐ¾Ð²Ð°ÑĤÑĮÑģÑı":8856,"Ð¿ÐµÑĢÐ²ÑĭÐµ":8857,"Ð»Ð¸Ð²Ð°":8858,"ĠÑĢÐ¸Ñģ":8859,"ĠÐ³Ð¾ÑģÑĤÐ¸Ð½Ð¸ÑĨ":8860,"ĠÐ²Ð¿ÐµÑĩÐ°ÑĤ":8861,"ĠPower":8862,"Ġein":8863,"ĠFund":8864,"ĠIndust":8865,"Ð»Ð¸Ð·Ð°":8866,"Ð¼ÐµÐ½Ð½Ð¾":8867,"ÐłÐ¾Ñģ":8868,"Ġdisco":8869,"ĠÑģÐ²Ð¾Ð¸Ð¼Ð¸":8870,"ĠÐ·Ð´ÑĢÐ°Ð²Ð¾":8871,"ÑģÑĤÐµÑģÑĤÐ²":8872,"ĠÐķÑģÐ»Ð¸":8873,"ĠÐ¿Ð¾Ð²Ð¾Ð´Ñĥ":8874,"Ġresponse":8875,"ÑĢÐ¸ÑģÑĤÐ¸Ð°Ð½":8876,"Each":8877,"Ġmill":8878,"ÑĤÐ°ÑĨÐ¸Ð¸":8879,"ĠÐ°Ð½Ð°Ð»":8880,"ĠBud":8881,"ĠÐ¸ÑģÐ¿Ð¾Ð»ÑĮÐ·Ð¾Ð²Ð°Ð½Ð¸ÐµÐ¼":8882,"ĠÐ¿ÑĢÐ¾Ð±Ð»ÐµÐ¼Ð°":8883,"Ġappropriate":8884,"Ġhon":8885,"imb":8886,"ĠÐ¸Ð·Ð¼ÐµÑĢ":8887,"ĠÐ´Ð¸Ð°":8888,"Ġmis":8889,"ĠÐ°ÑģÑĤÐµÑĢÐ¾Ð¸":8890,"ĠÐ´Ð°Ð½Ð½Ð¾Ð³Ð¾":8891,"ĠÑģÐ¿ÐµÐºÑĤ":8892,"ĠÐ·Ð°ÑĢÑĥ":8893,"ĠPalestinian":8894,"Ġpen":8895,"Ġcomprehen":8896,"Ġdispos":8897,"Ġoccur":8898,"ĠÐºÐ¾Ð½ÑĦÐµÑĢÐµÐ½ÑĨÐ¸Ð¸":8899,"Ġasked":8900,"ĠÐ½Ñĭ":8901,"Ġexternal":8902,"ĠÐ¶ÑĥÑĢÐ½Ð°Ð»Ð¸":8903,"ĠÐ´Ð¸ÑģÑĤÑĢÐ¸":8904,"Ġagricult":8905,"Ġcoast":8906,"icket":8907,"zen":8908,"ĠÑĢÐµÐ²Ð¾Ð»Ñİ":8909,"Ġpaper":8910,"Ġimplementation":8911,"ĠÐ¸Ð·Ð´Ð°":8912,"ĠIron":8913,"Ġideas":8914,"ĠStud":8915,"ĠÐ¿ÑıÑĤÐ¸":8916,"ĠPre":8917,"ÐļÐ¾Ð»":8918,"Ð·Ð¸ÑĤÑĮ":8919,"Ġcertific":8920,"ĠÐ²ÑģÑı":8921,"Ġmodels":8922,"cor":8923,"ĠÐºÐ²Ð°Ð»Ð¸":8924,"ĠÐ¿Ð¾Ð»Ð¸ÑĤÐ¸ÑĩÐµÑģÐºÐ¸Ñħ":8925,"Gu":8926,"ĠÐŁÐµÑĢ":8927,"Ġowners":8928,"Ġdelivery":8929,"ĠÐ¿ÑĢÐ¾ÑĪÐ»Ð¾Ð¼":8930,"ÑĨÐ°Ð¼Ð¸":8931,"ĠÑĦÐ¸ÑĢÐ¼Ð°":8932,"Ġsatellite":8933,"ĠÐ±Ð»Ð¸Ð¶Ð°Ð¹":8934,"ĠÐ´Ð¾ÑģÑĤ":8935,"ĠÐ¾Ð±ÑĢÐ°Ð·Ð¾Ð²Ð°":8936,"Ġfundament":8937,"Ġmovement":8938,"ĠÑĢÐµÐ»Ð¸Ð³Ð¸":8939,"ÑĢÐ¸Ðº":8940,"ÑĤÐ¸Ð²Ð½ÑĭÐµ":8941,"Ġinvestig":8942,"ĠÑģÑĢÐ°Ð²Ð½ÐµÐ½Ð¸Ñİ":8943,"ĠHostels":8944,"Äĥ":8945,"ĠÐ¸ÑģÐ¿ÑĭÑĤÐ°":8946,"ĠÐ´ÐµÐ»":8947,"ĠÐľÐ¸Ð½Ð¸ÑģÑĤÐµÑĢ":8948,"ĠEC":8949,"ĠGN":8950,"35":8951,"Ð½Ð¸Ð»Ð¸":8952,"Ð¾Ð±Ð¾ÑĢ":8953,"ĠÑĥÑĤÐ²ÐµÑĢÐ¶Ð´Ð°":8954,"Ġscreen":8955,"ĠÐ²ÑĭÐ·Ð²Ð°":8956,"Ð¹ÑĤÐµÑģÑĮ":8957,"Ġupg":8958,"Ð¾Ð¿ÑĢÐ¸Ð¼ÐµÑĩÐ°":8959,"Ġyourself":8960,"Ġjournal":8961,"Ġrequires":8962,"eries":8963,"ghan":8964,"ĠÐ½Ð¾ÑĩÑĮ":8965,"ĠManagement":8966,"ĠÐ¸ÑİÐ»Ñı":8967,"ĠÐ·Ð´ÑĢÐ°Ð²Ð¾Ð¾Ñħ":8968,"nb":8969,"ÑĪÐºÐ°":8970,"iment":8971,"ĠÐ¿ÑĢÐ¾Ð³ÑĢÐ°Ð¼Ð¼Ðµ":8972,"ĠÐ±ÑİÑĢÐ¾":8973,"Ġalthough":8974,"Ð±Ð¸Ð½Ð°":8975,"ĠÐ¿ÑĢÐµÐ´ÑĭÐ´Ñĥ":8976,"Ð½Ð¾Ð²Ð¸Ñĩ":8977,"ĠÐ¼Ð°Ð»Ð¾":8978,"ĠÐ¾ÑĤÐ²ÐµÑĤÑģÑĤÐ²ÐµÐ½Ð½Ð¾ÑģÑĤÑĮ":8979,"ÐµÐ½Ð½ÑĥÑİ":8980,"Ð³Ð°Ñħ":8981,"Ġunit":8982,"ithuan":8983,"Ð¾Ð²Ð°Ð½Ð½ÑĭÑħ":8984,"ĠÐ¾Ð¿Ñĭ":8985,"Ġexclusive":8986,"Äį":8987,"ĠRental":8988,"ÑĩÐµÑģÑĤÐ²Ð°":8989,"ĠÑĢÐ°Ð·Ð½Ð¾Ð¾Ð±ÑĢÐ°Ð·":8990,"iability":8991,"ĠÐ³Ð¾Ð»Ð¾Ð²":8992,"Ã¸":8993,"ĠÐ´ÑĢ":8994,"iling":8995,"used":8996,"outhern":8997,"ĠÐ±ÑĥÐ´ÑĥÑīÐµÐ¼":8998,"levision":8999,"Ð´Ð¾Ð¼":9000,"iga":9001,"ĠÐ¿ÑĢÐµÐ±Ñĭ":9002,"ĠÐ´ÐµÐ¿":9003,"ÐŀÐ±ÑģÐ»ÑĥÐ¶Ð¸Ð²Ð°Ð½Ð¸Ðµ":9004,"Ġworth":9005,"ĠFrom":9006,"ĠÑħÐ°ÑĢÐ°ÐºÑĤÐµÑĢ":9007,"verse":9008,"Ð¶Ð´ÐµÐ½Ð¸Ð¹":9009,"Ġappre":9010,"ĠÐ¿ÑĢÑıÐ¼Ð¾":9011,"Eng":9012,"ikh":9013,"ĠFederation":9014,"ĠAzerbaijan":9015,"with":9016,"ĠÐ¾ÑĨÐµÐ½Ð¸":9017,"ĠÑħÐ¾ÑģÑĤ":9018,"ĠÐ»ÑİÐ±Ð¾Ð³Ð¾":9019,"ĠÑģÑĤÐ¸Ð»Ðµ":9020,"Ġ?":9021,"ÑĢÐ°Ð¸Ð»ÑĮ":9022,"ĠÑģÑĥÑĤÐºÐ¸":9023,"ĠÑĤÐ°ÐºÐ¾Ðµ":9024,"ĠÐļÑĥ":9025,"Ind":9026,"Ġdemocratic":9027,"ĠÐ¿Ð¾ÑģÑĤÐ°Ð²ÑīÐ¸":9028,"Ġadult":9029,"Ġoutput":9030,"ĠÐ´Ð¾Ð¿Ð¾Ð»Ð½Ð¸ÑĤÐµÐ»ÑĮÐ½ÑĭÑħ":9031,"BC":9032,"Ð¼Ð¾Ð¹":9033,"Ð°Ð»ÑĮÐ½Ð¾Ðµ":9034,"iano":9035,"ĠÐ·Ð½Ð°ÐºÐ¾Ð¼":9036,"Out":9037,"ĠÐĿÐ¾":9038,"ÑĩÐµÑģÐºÐ¾Ð¼Ñĥ":9039,"ÐŃÐº":9040,"Ð§Ð°":9041,"ĠDef":9042,"ÐºÐ»Ð°Ð´Ñĭ":9043,"Ġhappy":9044,"ĠÐ¾ÑĢÐ¸Ð³Ð¸Ð½Ð°":9045,"conditioning":9046,"Ġprocesses":9047,"ĠLaundry":9048,"Ġfurniture":9049,"ĠÐ¼Ð»Ð½":9050,"atively":9051,"ernel":9052,"ĠÐºÐ¾Ð½ÑĤÑĢÐ¾Ð»Ð¸":9053,"Ġradio":9054,"ĠÐ½Ð°Ð´Ð¾":9055,"ĠÐ²Ð·Ð¸Ð¼Ð°":9056,"ĠÑģÐ¾Ð²ÐµÑĢÑĪÐµÐ½":9057,"ĠÐµÐ¶ÐµÐ³Ð¾Ð´":9058,"ÐµÐ½Ð½Ð¾ÑģÑĤÑĮ":9059,"ĠÑĤÑĥÑĢÐ¸ÑģÑĤÐ¸":9060,"ĠÐ¿ÑĢÐ¸Ð¾Ð±ÑĢÐµ":9061,"urious":9062,"Ġadjust":9063,"Ð¶Ð½ÑĭÐµ":9064,"Ġaccord":9065,"Ġcolle":9066,"BP":9067,"Sim":9068,"mical":9069,"Ġrecon":9070,"ĠÐ°Ð½Ð°":9071,"ĠÑģÐ¾ÑģÑĤÐ°Ð²Ð¸":9072,"Ġformat":9073,"ĠÐ¾ÑģÑĤÑĢÐ¾Ð²":9074,"ĠÐ´Ð¾ÑģÑĤÐ¾Ð¿ÑĢÐ¸Ð¼ÐµÑĩÐ°":9075,"ĠÑĢÐ°Ð±Ð¾ÑĤÐ°ÑİÑĤ":9076,"rastructure":9077,"auc":9078,"Ð¹es":9079,"ĠFirst":9080,"Ð´ÑĥÑģÑĤÑĢÐ¸":9081,"Ġslow":9082,"Ġmotor":9083,"ĠÐ½Ð°ÑģÑĤ":9084,"ashion":9085,"Ġmetal":9086,"ĠÐ¾Ð¿ÑĢÐµÐ´ÐµÐ»Ð¸":9087,"Most":9088,"Ð¶Ð½ÐµÐ¼Ñĥ":9089,"Ġstrategic":9090,"alu":9091,"ĠÐ½Ð°Ð¿Ð¸ÑģÐ°":9092,"Ġreached":9093,"Ġsupported":9094,"ĠÑĤÐµÐ½Ð´ÐµÐ½":9095,"Ġmas":9096,"Ð»ÐµÐ½Ð½ÑĭÐµ":9097,"ĠÐ»Ð¸Ð½Ð¸Ð¸":9098,"Ġimmediately":9099,"ipe":9100,"Ġprop":9101,"ĠIsland":9102,"ĠÐ½Ð¾Ñģ":9103,"ĠÐ¼Ð¾Ð´ÐµÐ»ÑĮ":9104,"ĠÐ¿ÑĢÐµÐ´Ð¿Ð¾Ð»Ð°Ð³Ð°":9105,"ĠÐ¿Ð¾Ð»Ð¸ÑĤÐ¸ÑĩÐµÑģÐºÐ¾Ð¹":9106,"UT":9107,"ÑĥÑģÐ°":9108,"Ġregime":9109,"Ġworked":9110,"Ġcombination":9111,"Ġadvertising":9112,"nik":9113,"ĠGirl":9114,"Ġchance":9115,"ĠÐ¿Ð°ÑĢÐºÐ¾Ð²":9116,"Very":9117,"Ġwent":9118,"Ġmorning":9119,"ĠÐĲÐ½Ð³":9120,"ĠÐ¶Ð¸Ð·Ð½":9121,"Î¹":9122,"ente":9123,"ĠÑĤÐµÑĢÑĢÐ¸ÑĤÐ¾ÑĢÐ¸":9124,"ĠÐ°ÑģÑĤÐµÑĢÐ¾Ð¸Ð´Ð¾Ð²":9125,"ĠÐ·Ð²ÐµÐ·":9126,"ÑĤÐµÐ»ÑĮÐ½ÑĥÑİ":9127,"ĠElect":9128,"Ne":9129,"pan":9130,"set":9131,"Ġwatch":9132,"Ġprepared":9133,"Ġgold":9134,"Ð¸Ð½Ð¾Ð²":9135,"arte":9136,"Ed":9137,"ĠÑģÑĤÐ°ÑĤÐ¸":9138,"ĠÐŁÑĥ":9139,"ÑĦÐ¾ÑĢÐ¼Ñĭ":9140,"ĠÐ±Ð¾Ð»ÑĮÑĪÐ¸Ð¼":9141,"ĠÐ´Ð²Ð¸Ð¶ÐµÐ½Ð¸Ñı":9142,"kov":9143,"ĠÐ¿ÑĢÐ¸ÑħÐ¾Ð´":9144,"ocol":9145,"ĠÐ¾Ð±ÑģÐ»ÑĥÐ¶Ð¸Ð²Ð°Ð½Ð¸Ðµ":9146,"ĠÑĤÑĢÑĥÐ´Ð°":9147,"embly":9148,"ĠWinter":9149,"Ġfounded":9150,"ĠÐ¿ÑĢÐ¾Ð³ÑĢÐ°Ð¼Ð¼Ð½Ð¾Ð³Ð¾":9151,"ĠÑģÐ»Ð¾Ð¶Ð½Ð¾ÑģÑĤÐ¸":9152,"Ġcru":9153,"Ġfiscal":9154,"Ð»ÐµÐ½Ð¾":9155,"ÑĪÐµÐ´":9156,"ĠÐ¿Ð¾Ð»Ð¸ÑĤÐ¸ÐºÑĥ":9157,"Ġopin":9158,"ĠÑģÑĨ":9159,"ĠÐ²Ð¾Ð·ÑĢÐ°ÑģÑĤÐ°":9160,"ĠAcademy":9161,"ÑĢÐ°Ðº":9162,"Ġdang":9163,"Ġstrengthen":9164,"ĠÐ²ÑĭÑĢÐ°":9165,"ĠÑģÐ¸Ð³":9166,"Ġskills":9167,"mary":9168,"itu":9169,"ĠÐ¼Ð°Ð½":9170,"ÐĿÐ°ÑĪÐ¸":9171,"ĠÐ¸ÑģÑħÐ¾Ð´":9172,"ĠÑĦÐ°Ð¹Ð»Ñĭ":9173,"Ġorigin":9174,"Ġ1000":9175,"Ġmeters":9176,"ÑĤÐ°Ð»ÑĮÑıÐ½":9177,"ĠrÐ¹":9178,"ĠÑĢÐ°Ð·Ð´ÐµÐ»Ðµ":9179,"Ġdedicated":9180,"SL":9181,"Ġ32":9182,"ĠÐ¾ÑĤÐ½Ð¾ÑĪÐµÐ½Ð¸Ð¹":9183,"razil":9184,"ĠÐ°ÑĤÐ¼Ð¾ÑģÑĦÐµÑĢ":9185,"She":9186,"Ġmini":9187,"Ġsteel":9188,"OD":9189,"Ġplants":9190,"Ġarchitecture":9191,"Ð´Ð¾Ñħ":9192,"Ġfunctions":9193,"Ġpassword":9194,",\"":9195,"ĠÑĸ":9196,"Ð´Ð½ÐµÐ²":9197,"Ġsy":9198,"Ġdoing":9199,"Go":9200,"tenance":9201,"Ġdepend":9202,"Ð¾ÑĤÐ¸":9203,"Ð´ÐµÑģ":9204,"ĠÐŁÑĢÐ°ÑĩÐµÑĩÐ½Ð°Ñı":9205,"ĠÑĤÐµÐ¿":9206,"odes":9207,"Ġeconomies":9208,"ĠBlue":9209,"ĠÑĨÐµÐ»Ð¾Ð¼":9210,"Ġfields":9211,"ĠÐ±Ð»Ð¾Ðº":9212,"ĠBack":9213,"ĠÐ¿Ð¾Ð·Ð²Ð¾Ð»Ð¸ÑĤ":9214,"standing":9215,"Ġencou":9216,"64":9217,"add":9218,"ĠGet":9219,"ÐĿÐ°Ð¶Ð¼Ð¸ÑĤÐµ":9220,"ĠÑĥÑĩÐ¸ÑĤÑĭ":9221,"Ġabroad":9222,"ĠÐ·Ð½Ð°Ð½Ð¸Ñı":9223,"gent":9224,"ĠSpanish":9225,"ĠÐ¿ÑĢÐ¾Ð´Ð¾Ð»Ð¶Ð¸":9226,"rage":9227,"Ġstability":9228,"ÐĴÐŁ":9229,"ĠHostelsclub":9230,"Ð¡ÐµÑĢ":9231,"Ġcomponents":9232,"spe":9233,"Ġult":9234,"ĠÐ½Ð¾Ð²ÑĥÑİ":9235,"ĠÐºÑĢÐ¾Ð²":9236,"ĠÐ¾ÑĤÐºÐ°Ð·Ð°":9237,"ÑĩÐ¸ÐºÐ°":9238,"ĠÐ¿ÐµÑĢÐµÐ²Ð¾Ð·":9239,"azz":9240,"Ġnumerous":9241,"IG":9242,"Ð»Ð¸ÑĤ":9243,"esides":9244,"Ð¾ÑĤÐ½Ð¾":9245,"ĠBr":9246,"ĠÐ´Ð¾Ð»Ð³":9247,"ĠÑĤÐµÐ»ÐµÐ²Ð¸":9248,"ĠÐ¾Ð³ÑĢÐ°Ð½Ð¸ÑĩÐµÐ½":9249,"Ġsometimes":9250,"Check":9251,"Americ":9252,"ĠÑģÐ»Ð°":9253,"Ġbi":9254,"ĠStar":9255,"ÑĨÐµÑģ":9256,"Ġarrange":9257,"ĠÑģÐ¿Ð¾ÐºÐ¾Ð¹":9258,"ĠÐ¸Ð½Ð²ÐµÑģÑĤÐ¸ÑĨÐ¸Ð¹":9259,"ĠÐºÐ°Ð¶ÐµÑĤÑģÑı":9260,"Ġplans":9261,"Ġapprov":9262,"ĠÐĺÐ½Ð´Ð¸Ð¸":9263,"ĠÐ»ÑĥÑĩÑĪÐ¸Ñħ":9264,"ĠÑģÐµÑĤÑĮ":9265,"Ð·Ð¸Ð½Ð¾":9266,"ĠÐ»ÑĥÑĩÑĪÐ¸Ðµ":9267,"ĠSuper":9268,"ĠÐ³ÐµÐ½":9269,"ÑĢÐ¸ÑĤÐ°Ð½":9270,"ÑĢÐ¾Ð²Ð°Ð½Ð¸Ñİ":9271,"ĠÑıÐ·ÑĭÐºÐ°":9272,"ĠEastern":9273,"Pr":9274,"ĠÐºÑĢÐ¾Ð¼Ðµ":9275,"ĠSing":9276,"ĠTerm":9277,"Ð½ÑıÐµÑĤÑģÑı":9278,"08":9279,"ĠÐ¿ÑĢÐ¸Ð¼ÐµÐ½ÐµÐ½Ð¸Ñı":9280,"ĠMod":9281,"001":9282,"ĠÐŀÑģ":9283,"isk":9284,"Ġresist":9285,"Ġhall":9286,"Ġlaun":9287,"ĠÐ¿Ð¾ÑĩÐµÐ¼Ñĥ":9288,"icians":9289,"Ð¼Ð¸Ð¸":9290,"'re":9291,"ĠRoyal":9292,"ĠÐľÐĴ":9293,"ĠÐ´ÐµÐ½ÐµÐ³":9294,"Ġbalance":9295,"ictionary":9296,"hr":9297,"ĠMex":9298,"ĠPlay":9299,"Ġnamed":9300,"ashk":9301,"down":9302,"ÐŁÐµ":9303,"ĠÐ¿ÑĢÐ°Ð²Ð¸Ð»Ð¾":9304,"ĠÐļÐ¾Ð½ÑĦÐµÑĢÐµÐ½":9305,"Ban":9306,"iny":9307,"ĠÐ³Ð¾Ð²Ð¾ÑĢÐ¸ÑĤ":9308,"eria":9309,"ĠMart":9310,"ĠÐ¿ÑĢÐ°Ð²Ð¸Ð»Ð°":9311,"ĠÐ½ÐµÐ¿Ð¾ÑģÑĢÐµÐ´ÑģÑĤÐ²ÐµÐ½Ð½Ð¾":9312,"Ð»Ð¾Ð´":9313,"ĠÐ½Ñĥ":9314,"ĠÐ´Ð¾Ð±Ð¸":9315,"ĠÐ¾Ð±Ð»Ð°ÑģÑĤ":9316,"ĠÐ¸ÑģÐºÐ»ÑİÑĩ":9317,"Only":9318,"Ġinvolved":9319,"Ġhouses":9320,"ĠÐĴÐµÐ»Ð¸ÐºÐ¾Ð±ÑĢÐ¸ÑĤÐ°Ð½Ð¸Ð¸":9321,"ĠFil":9322,"ĠÐ²ÑĭÑģÑĤÑĥÐ¿Ð°":9323,"Ġheat":9324,"Ġbenefit":9325,"itors":9326,"ĠÐ¾ÑīÑĥ":9327,"ingu":9328,"ĠCat":9329,"Ð¾ÑģÐºÐ¾Ð²":9330,"Ġperman":9331,"ĠÑĥÑģÐ¿ÐµÑĪÐ½Ð¾":9332,"ĠÐ¿Ð¾Ð´Ð¿Ð¸ÑģÐ°":9333,"ÑĤÑĥÑģ":9334,"Ð¼Ð¸Ñı":9335,"ĠÐ¾Ð±ÑĢÐ°ÑĤ":9336,"ĠÑģÑĤÑĢÐµÐ¼":9337,"ĠÑĦÐµÑģÑĤÐ¸":9338,"ĠÐºÐ¾Ðº":9339,"ÑĢÐ¸Ñģ":9340,"ĠÐľÐ¾Ð»":9341,"Ġdefic":9342,"Ġbiggest":9343,"ÑĥÐ³":9344,"ÑĨÐ¸ÑıÐ¼":9345,"Ġcourt":9346,"Ġsecure":9347,"ĠÐ¿Ð¾Ð·Ð´":9348,"ĠÐ¿Ð»Ð°Ð½":9349,"Ð¾Ð»ÑĮÑĦ":9350,"ĠÐ¿Ð¾Ð¼Ð¾Ð³":9351,"ÑıÐ²Ð»ÐµÐ½Ð¸Ñı":9352,"ĠÐ¾ÑĤÐ²ÐµÑĤÑģÑĤÐ²ÐµÐ½Ð½Ð¾ÑģÑĤÐ¸":9353,"Ġdamage":9354,"ĠMoldova":9355,"ÑĥÑİÑīÐ¸Ðµ":9356,"Ð²Ð¾Ð³Ð¾":9357,"ĠUK":9358,"Ġplug":9359,"oria":9360,"ĠÑĦÐ¾ÑĤÐ¾":9361,"ĠÑĢÐ°Ð·ÑĢÑĥ":9362,"Ġfamil":9363,"ellig":9364,"LE":9365,"ÑĢÐµÐ²Ð°":9366,"Ð¸Ð¼ÑĩÐ¸":9367,"Ġfeed":9368,"ĠÐ¾ÐºÑĤÑıÐ±ÑĢÑı":9369,"Ã¯":9370,"ĠMat":9371,"enge":9372,"Ð¶Ð½ÑĭÐ¹":9373,"ĠÐļÐ¾Ð»":9374,"ĠÐ·Ð°Ð²Ð¸ÑģÐ¸ÑĤ":9375,"ĠDa":9376,"Ð²Ð»ÐµÐºÐ°":9377,"ĠÑĪÐ¸ÑĢÐ¾ÐºÐ¸Ð¹":9378,"Å¾":9379,"ĠÐ²ÑģÐ¿":9380,"Ġecommerce":9381,"ÑĤÑĭÐµ":9382,"ĠÐ¾Ð±ÑĢÐ°Ð±Ð¾ÑĤÐºÐ¸":9383,"Ġmit":9384,"Ġlives":9385,"Ġanything":9386,"Ġmarketing":9387,"ĠÐ²Ð»Ð°Ð´ÐµÐ»ÑĮ":9388,"ĠReal":9389,"Ð¾ÑĩÐ½ÑĭÑħ":9390,"ĠÐ´ÐµÐ¹ÑģÑĤÐ²ÑĥÑİ":9391,"ĠÐĿÐ¸ÐºÐ¾Ð»Ð°":9392,"ags":9393,"ÐŁÐ¸":9394,"ÑģÑĤÐ¾ÑĢÐ¾Ð½":9395,"ÑĤÐ¾ÑĢÐµ":9396,"ĠSim":9397,"ĠMS":9398,"ĠEvery":9399,"acc":9400,"ĠNight":9401,"ello":9402,"ĠÐ¿Ð¾ÑĢÑĤ":9403,"ĠRock":9404,"ĠÐ²Ð¾Ð·Ð¼Ð¾Ð¶Ð½Ð¾ÑģÑĤÐµÐ¹":9405,"ÐºÐ¾Ð½ÐµÑĨ":9406,"Ġspirit":9407,"ĠÐ¿ÑĢÐ¾ÑģÐ¼Ð¾ÑĤ":9408,"ÑĨÑĸ":9409,"ĠÐ¿ÑĢÐ¾ÑĦÐµÑģÑģÐ¸Ð¾Ð½Ð°":9410,"ĠÐ¿ÑĢÐ¸Ð¾Ð±ÑĢÐµÑĤ":9411,"CP":9412,"ÐŁÐµÑĤÐµÑĢ":9413,"ÑģÐ¾Ð»ÑİÑĤ":9414,"ĠSchool":9415,"ÑĢÐ¸Ð´":9416,"ĠWin":9417,"ĠÐ¿Ð¾Ð±ÐµÐ´Ð¸":9418,"Ġinitial":9419,"ĠHome":9420,"ĠÐ²Ð²Ð¾Ð´":9421,"Ġdeliver":9422,"ĠÐ¿ÑĢÐµÐ¼ÑĮÐµÑĢ":9423,"Ð½Ð¸Ð¼Ð¸":9424,"ĠÐ²Ð»Ð¸ÑıÐ½Ð¸Ðµ":9425,"Ð»ÑıÐµÑĤ":9426,"Ġsettle":9427,"ĠÐ´Ð¸ÑĢÐµÐºÑĤÐ¾ÑĢ":9428,"Ġfir":9429,"ĠÐ¼ÑĥÑģ":9430,"ĠÐļÐ¾Ð¼Ð¸":9431,"ÐļÐ°Ð¶Ð´ÑĭÐ¹":9432,"Can":9433,"Ð½Ð´":9434,"Ð»Ð¾Ð²Ð°":9435,"Ġsouth":9436,"ÐļÐĲ":9437,"ĠÑħÐ¾Ð»":9438,"Ġabsol":9439,"aper":9440,"Ð±ÑĥÐ´":9441,"ĠÐ³ÑĢÑĥ":9442,"Ð´ÐµÑĢÐ°":9443,"ĠÑģÐºÐ°Ð·Ð°ÑĤÑĮ":9444,"ĠÑĦÐ¸Ð½Ð°Ð½ÑģÐ¾Ð²Ð¾Ð¹":9445,"ĠÐŁÑĢÐ¾ÐºÐ°ÑĤ":9446,"ĠÐ¿ÑĢÐµÐ¾Ð±ÑĢÐ°Ð·":9447,"ĠÐºÐ¾ÑĢÐ¾ÑĤ":9448,"Ġdrink":9449,"Ð»ÑĮÐ½ÑĥÑİ":9450,"Ġgraph":9451,"alled":9452,"ĠAKVIS":9453,"door":9454,"Ð¶Ð½Ð¾":9455,"Ð¾Ð¿Ð°":9456,"ĠJew":9457,"Ġcounter":9458,"Ð½ÐµÑĤÐµ":9459,"ĠÐ´ÐµÐ»Ð¾":9460,"ĠÐ¿Ð¾ÑĤÐµÐ½ÑĨÐ¸Ð°Ð»ÑĮ":9461,"ÑĢÐ°Ð½Ñģ":9462,"ĠSoftware":9463,"ÐºÐ¸Ð´":9464,"ÐµÑĢÐ°Ð¼Ð¸":9465,"Ġanim":9466,"ÑģÐ¿Ð¾Ð»Ð¾Ð¶":9467,"ĠResort":9468,"Ġcontroll":9469,"Ġdeposit":9470,"ÐĿÐµÐºÐ¾ÑĤÐ¾ÑĢÑĭÐµ":9471,"ĠÑĢÐ°Ð·ÑĢÐ°Ð±Ð¾ÑĤÐ°Ð½":9472,"ĠKar":9473,"ĠÑįÐºÐ¾Ð½Ð¾Ð¼Ð¸ÑĩÐµÑģÐºÐ¸Ð¹":9474,"akistan":9475,"ĠÐ¼ÐµÐ´":9476,"och":9477,"Ġreliable":9478,"more":9479,"Ġmiss":9480,"ĠStand":9481,"ĠÐ´ÐµÑĦÐ¸ÑĨÐ¸":9482,"Ġoptim":9483,"Ġtask":9484,"ĠÐ¼ÐµÑĤÑĢÐ¾Ð²":9485,"ĠÐ²Ð·ÑĢÐ¾Ñģ":9486,"wo":9487,"ĠBen":9488,"Ð¸Ð¼ÑĭÑħ":9489,"Ġinterface":9490,"ĠÑĥÑģÐ¸Ð»Ð¸Ñı":9491,"ĠÐ¿ÑĢÐ¾Ðº":9492,"ĠÑģÑĤÑĢÐ¾Ð¸ÑĤÐµÐ»ÑĮÑģÑĤÐ²Ð°":9493,"ĠCheck":9494,"Ġviolence":9495,"ĠÑįÑĦÑĦÐµÐºÑĤ":9496,"ĠÐ²ÐµÐ»Ð¸ÐºÐ¾Ð»ÐµÐ¿":9497,"rÃ©":9498,"Ġlay":9499,"ĠRem":9500,"áĥĶ":9501,"ĠMeeting":9502,"Ġparticipation":9503,"ĠÐ¿Ð¾ÑĤÐµÑĢÑı":9504,"ĠÐ°Ð¿ÑĢÐµÐ»Ñı":9505,"Ġappoint":9506,"ĠQue":9507,"loyment":9508,"ĠSwed":9509,"ĠPrime":9510,"Ġefficiency":9511,"ĠÐ¸ÑģÐºÑĥÑģÑģÑĤÐ²Ð°":9512,"isa":9513,"pet":9514,"tained":9515,"ĠÐ°Ð²Ð¸Ð°":9516,"ĠDie":9517,"ĠOper":9518,"ÐľÑĥ":9519,"ÐµÐ´ÐµÐ½Ð¸Ñı":9520,"ÑĥÐ±Ð¾Ðº":9521,"Ð¿Ð»Ð¾Ð¼Ð°":9522,"Ġrailway":9523,"ÐµÐ¼Ð¾Ð³Ð¾":9524,"ĠDry":9525,"Ġagency":9526,"ĠÐ¸Ð½ÑĤÐµÐ³ÑĢÐ°":9527,"ĠCommun":9528,"ÑĩÐµÑģÑĤÐ²Ð¾":9529,"Ġenh":9530,"ĠÐ¿Ð¾Ð»Ð¾Ð¶ÐµÐ½Ð¸Ðµ":9531,"Will":9532,"mes":9533,"ĠÐ²Ð½ÐµÑģ":9534,"ĠDream":9535,"Ġthousand":9536,"500":9537,"Ġcateg":9538,"Ð´Ð¸ÑĤ":9539,"ĠOrgan":9540,"Ġleadership":9541,"ĠÑģÐ¾ÑħÑĢÐ°Ð½":9542,"ĠØ":9543,"Ð´Ð¸Ð¹":9544,"ÐĳÑĭ":9545,"Ð¼Ð¾ÑĤÑĢÐµÐ½":9546,"Ġelectronic":9547,"sterdam":9548,"Ð²ÑĪÐ¸Ðµ":9549,"ÐµÑĢÐ¸ÑĤÐµ":9550,"ĠÐ½Ð°Ð·Ð²Ð°Ð½Ð¸Ðµ":9551,"ĠÐľÐ°Ð¹":9552,"ĠÐ¸Ð½Ð²ÐµÑģÑĤ":9553,"rupt":9554,"aching":9555,"ĠÑģÑĤÐ°Ð²ÐºÐ¸":9556,"ĠÐ´ÐµÑĢÐ¶Ð°":9557,"ulated":9558,"ĠÐ¿Ð¾ÑģÐ»ÐµÐ´Ð¾Ð²Ð°":9559,"ĠÐ¸ÑģÑģÐ»ÐµÐ´Ð¾Ð²Ð°Ð½Ð¸Ð¹":9560,"Just":9561,"Ġband":9562,"ĠÐ½ÐµÐ¿ÑĢÐ¸":9563,"ĠÐ¼Ð°ÑģÑĤÐµÑĢ":9564,"Ð¾ÑģÑĥÐ´Ð°ÑĢÑģÑĤÐ²ÐµÐ½":9565,"Bel":9566,"ĠÑĨÐµÐ½Ð°":9567,"venue":9568,"ĠÑģÑĤÑĢÑĥÐºÑĤÑĥÑĢ":9569,"ĠÑģÐ¼Ð¾Ð³ÑĥÑĤ":9570,"Ġplanning":9571,"nbsp":9572,"ĠÐĲÐ±":9573,"ÐĵÐ°":9574,"Ġpas":9575,"Ð¾Ð»ÐµÐ²":9576,"ÐķÐ¡":9577,"ĠÐĵÑĢÐµ":9578,"Ġ1994":9579,"ĠÐ¿ÑĢÐ¸Ð¼ÐµÑĢÐ½Ð¾":9580,"ĠÑħÐ¸Ð¼Ð¸":9581,"ÑĥÐ¿ÑĢÐµ":9582,"ĠÐ²ÑģÑİ":9583,"ĠÑĢÐ°Ð·Ð²Ð¸ÑĤÐ¸Ñİ":9584,"ĠÐ¿ÑĢÐ¾Ð´ÑĥÐºÑĤÑĭ":9585,"Trans":9586,"Ġbeauty":9587,"rapy":9588,"33":9589,"Man":9590,"ÑģÑĤÑı":9591,"Ġwinter":9592,"Ð½Ð¸Ð½":9593,"ÑģÑĤÐ°Ð¼Ð¸":9594,"ago":9595,"ĠÐ¿ÑĢÐ¾Ð²ÐµÑģÑĤÐ¸":9596,"ĠÑģÑħ":9597,"icious":9598,"ĠÑĥÐºÑĢÐµÐ¿":9599,"Ġroll":9600,"ĠÑĥÑģÐ»Ð¾Ð²Ð¸Ð¹":9601,"ennis":9602,"ÅŁ":9603,"Ġgirl":9604,"thers":9605,"ecause":9606,"Ġrisks":9607,"Although":9608,"ĠÑĤÑĥÑĢÐ½Ð¸":9609,"ĠÐ¡Ð¾Ð²ÐµÑĤÐ°":9610,"ĠPrivate":9611,"ĠÑĢÐµÐ°":9612,"ĠInt":9613,"ĠÐ°Ð»ÑĮÑĤÐµÑĢÐ½Ð°":9614,"ĠÑħÑĥÐ´Ð¾Ð¶":9615,"Ġitems":9616,"Ġtout":9617,"Ġsuitable":9618,"ĠÐ¾Ð½Ð»Ð°Ð¹Ð½":9619,"Ġconstruct":9620,"Ġinfrastructure":9621,"ĠAfghan":9622,"ÐºÑĥÑİ":9623,"Ð»ÑıÑĤÑĮ":9624,"ĠÑģÐ°Ð¼Ð¾":9625,"ĠÐ½Ð°ÑĩÐ°ÑĤÑĮ":9626,"Ġadapt":9627,"Ġinterpre":9628,"ĠÐ·Ð´Ð°Ð½Ð¸Ñı":9629,"ÐµÐ»Ñĭ":9630,"ĠÑĦÑĥÐ½ÐºÑĨÐ¸Ð¸":9631,"ĠÐ¸Ð½Ð²Ð°Ð»Ð¸Ð´Ð¾Ð²":9632,"ois":9633,"Ð¿Ð¾Ñĩ":9634,"Ð¼ÐµÐ´":9635,"Ġbanking":9636,"Ġlearning":9637,"oma":9638,"ĠBalt":9639,"umn":9640,"ĠÐ¸ÑģÐ¿Ð¾Ð»ÑĮÐ·Ð¾Ð²Ð°Ð½Ð¸Ð¸":9641,"ĠÐ²Ð¾Ð¿ÑĢÐ¾ÑģÐ¾Ð²":9642,"Ġthousands":9643,"Book":9644,"Ġcat":9645,"Ð¿Ð¾Ñģ":9646,"ĠUs":9647,"ÑĢÐ¾Ð²Ð°Ð½Ð½Ð¾Ð³Ð¾":9648,"NS":9649,"ĠMad":9650,"ĠTri":9651,"ĠÑıÐ·ÑĭÐºÐµ":9652,"Ġpicture":9653,"Äħ":9654,"Ġstable":9655,"cher":9656,"Ġtill":9657,"Ð¶Ð½Ð°Ñı":9658,"izz":9659,"Ð¾Ð³Ñĥ":9660,"ÐµÑĤÐµÑģÑĮ":9661,"bert":9662,"198":9663,"ĠÐ±Ð°Ð½ÐºÐ¸":9664,"Ð¾ÑģÑĮ":9665,"ques":9666,"ÑĤÐ¾ÑĢÐ¾Ð¼":9667,"Ġentertain":9668,"Ġcalls":9669,"ĠÐ½Ð°Ð¹Ð´ÐµÑĤÐµ":9670,"Ġactions":9671,"Ð²ÑĪÐµÐ¹":9672,"uts":9673,"unk":9674,"Ð°Ð»ÑĮÐ½Ð°Ñı":9675,"ĠÑĨÐµÐ»ÑıÑħ":9676,"ÐĿÐµÑģÐ¼Ð¾ÑĤÑĢÑı":9677,"ĠÑĤÑıÐ¶Ðµ":9678,"ÑģÑĤÐ¸ÐºÐ¸":9679,"ĠPaul":9680,"iveness":9681,"ÑīÐµÐ½Ð¸Ñİ":9682,"Ġentre":9683,"ĠÑĤÑĢÐµÐ±ÑĥÐµÑĤÑģÑı":9684,"Ġtransportation":9685,"ĠÐ·Ð°Ð¼ÐµÑĩÐ°":9686,"ĠÐ¿Ð¾Ð»Ð½Ð¾Ð¼":9687,"ĠCop":9688,"Ġ1995":9689,"ĠÐ²Ð°Ð¶Ð½Ð¾":9690,"ĠÐĳÐ¾Ð»Ð³Ð°":9691,"ĠÑģÑĩÐµÑĤÐ°":9692,"eld":9693,"ĠÑĥÐºÐ°Ð·ÑĭÐ²Ð°":9694,"ÑĢÐ¸Ñħ":9695,"ĠÐĺÐ²Ð°":9696,"Ġserve":9697,"ĠÐ¿ÑĢÐ¾Ð·":9698,"Ġinterior":9699,"ĠÐĹÐ°Ð²ÑĤÑĢÐ°Ðº":9700,"ĠÐ±Ð¸Ð±Ð»Ð¸Ð¾ÑĤÐµ":9701,"ĠLake":9702,"Ġmaintenance":9703,"ÐļÐ¾Ð½Ðµ":9704,"Ġlimit":9705,"ÑĢÐ¾Ð²Ð¾Ð¹":9706,"ĠÑģÑĤÑĢÐ°Ñħ":9707,"ĠÐ»ÑİÐ±Ð¾Ð¼":9708,"ĠÐ¿ÐµÑĢÑģÐ¿ÐµÐºÑĤÐ¸":9709,"03":9710,"ĠÐ½Ð°Ð»Ð¸ÑĩÐ¸Ðµ":9711,"Ġreasons":9712,"Ð¾ÑģÐ¿":9713,"ĠWil":9714,"ĠÐ»ÑİÐ±Ð¾Ðµ":9715,"2000":9716,"HP":9717,"Me":9718,"ÑĥÐº":9719,"obby":9720,"Ġamb":9721,"Ġpolitics":9722,"Ġnearby":9723,"ĠÑħÐ¾Ð´ÑĮÐ±Ñĭ":9724,"Ġapplied":9725,"ÑĤÐ¾Ð³Ð¾":9726,"ÑĢÑĥÑİÑĤÑģÑı":9727,"ĠÐ¿ÑĢÐµÐ´ÑģÐµÐ´Ð°":9728,"ÑıÐ·":9729,"Ð»ÐµÐ½Ð½ÑĭÐ¹":9730,"ĠÑĤÐµÑħÐ½Ð¸ÐºÐ¸":9731,"ĠÐºÐ²":9732,"Ġbott":9733,"quot":9734,"Ġisland":9735,"ĠÐ¿ÑĢÐ¾ÑħÐ¾Ð´":9736,"Ġriver":9737,"Ð¿ÑĥÑĤÐ°":9738,"ĠMot":9739,"ĠÑĢÐ°Ð·Ð´ÐµÐ»":9740,"ĠÐ²Ð¾ÑģÐ¿Ð¾Ð»ÑĮÐ·Ð¾Ð²Ð°ÑĤÑĮÑģÑı":9741,"Ð·Ð°Ð»Ð°":9742,"Ġenvironmental":9743,"ĠÐ¾ÑĤÑĢÐ°ÑģÐ»Ð¸":9744,"ĠLatvia":9745,"iche":9746,"Ġnote":9747,"ĠÐ±ÑĥÐ´ÐµÐ¼":9748,"Ġphysical":9749,"ĠÐ¸Ð·Ð¼ÐµÐ½Ð¸ÑĤÑĮ":9750,"bach":9751,"ĠÐŁÑĢÐµÐ´":9752,"ĠVan":9753,"ĠÐ´ÑĢÑĥÐ³Ð°":9754,"ĠÐºÐ¾Ð»Ð¸ÑĩÐµÑģÑĤÐ²Ð°":9755,"ĠDen":9756,"ĠÑģÐ°Ð¼Ð¾ÑģÑĤÐ¾Ñı":9757,"ĠConference":9758,"ĠÐ´Ð¾ÐºÑĥÐ¼ÐµÐ½ÑĤÐ¾Ð²":9759,"Ġu":9760,"ĠÑıÐ¿Ð¾Ð½":9761,"ĠTownship":9762,"ĠFoundation":9763,"ĠÐ²Ð¾Ð·Ð½Ð¸ÐºÐ°":9764,"Ġmedic":9765,"elcome":9766,"ÑīÐµÐ¼Ñĥ":9767,"Ð¾ÑĤÐ°":9768,"ĠÐ½Ð°Ð¸":9769,"ÐŁÐ¾Ð¼":9770,"Ð¸Ð»ÑĮÑı":9771,"Ġdiscount":9772,"Ġconcert":9773,"Ð¾ÑĩÐ½ÑĭÐ¹":9774,"ĠÐ±Ð°Ð½ÐºÐ°":9775,"Ġproperties":9776,"iquid":9777,"Ġtell":9778,"ĠÐ»ÐµÑĩÐµÐ½Ð¸Ñı":9779,"Ġexperienced":9780,"Ð´ÑĨÐ°":9781,"Ð¾Ð»Ð°":9782,"ÐŁÑĢÐ¾Ð³ÑĢÐ°Ð¼":9783,"ĠObama":9784,"ĠÑĥÑĩÐ¸":9785,"ĠÑĦÐ°ÐºÑĤ":9786,"ÐľÐµÐ¶Ð´ÑĥÐ½Ð°ÑĢÐ¾Ð´":9787,"itt":9788,"Ġstorage":9789,"Äĵ":9790,"Ġpositive":9791,"Ġgeneration":9792,"ĠÐ²ÑĭÑģÑĤÐ°Ð²ÐºÐ¸":9793,"Ġdespite":9794,"Ġsustain":9795,"75":9796,"Ġbon":9797,"Ġgetting":9798,"ĠÐ±Ð°Ð»Ð°Ð½":9799,"Ġsigned":9800,"Ġ..":9801,"Ġlif":9802,"Ð¼Ð¸Ð½":9803,"ÑĢÐ¾Ð²Ð°Ð»Ð¸":9804,"Ġcompleted":9805,"kin":9806,"ĠHall":9807,"ĠÐ¼ÐµÑĩ":9808,"ĠÑģÐ¸Ñħ":9809,"Ġfear":9810,"Ġrock":9811,"ĠÑĢÐµÐ±ÐµÐ½":9812,"Ã¡n":9813,"ĠÐĺÑģÐ¿Ð°":9814,"ishes":9815,"Ġbalcon":9816,"iding":9817,"ĠÐ¾ÑĤÐº":9818,"Ġdisp":9819,"ĠÐ¾ÑĩÐµÐ²Ð¸Ð´":9820,"ĠÐ´ÐµÐ¼Ð¾ÐºÑĢÐ°ÑĤÐ¸Ð¸":9821,"ĠÑĥÐ·Ð½Ð°ÑĤÑĮ":9822,"night":9823,"akers":9824,"Saint":9825,"ĠÑĢÐµÐ´":9826,"ÑĢÐ°ÑģÐ°":9827,"ÑģÐºÑĥ":9828,"Ġ1991":9829,"Located":9830,"zbek":9831,"Ð¿Ð°Ð½":9832,"ÑĤÐµÐ»Ñİ":9833,"ĠÐ¿ÐµÑĢÐµÑħÐ¾Ð´":9834,"aught":9835,"riger":9836,"ÑĳÐ½Ð½ÑĭÑħ":9837,"ĠÐºÑĥÑĢÑģ":9838,"ĠFrank":9839,"ĠFamily":9840,"ĠÐ¢Ñĥ":9841,"ĠÐ½Ð¾ÑıÐ±ÑĢÑı":9842,"ĠÐ²ÑĭÑģÐ¾ÐºÐ¾Ð¹":9843,"EF":9844,"ĠÐ¸ÑģÐ¿Ð¾Ð»ÑĮÐ·ÑĥÑı":9845,"ĠÐ´Ð¾Ð²ÐµÑĢÐ¸":9846,"ĠÑıÐ½Ð²Ð°ÑĢÑı":9847,"ĠCorporation":9848,"Ġ>":9849,"ÑįÐ»ÑĮ":9850,"ript":9851,"ĠÐ¿ÐµÑĢÐµÐ¼ÐµÐ½":9852,"ĠÐ·Ð°Ð¿Ð¸ÑģÐ¸":9853,"ÑĤÐ¸Ð²Ð½Ð¾Ð¹":9854,"ĠÐ¿Ð¾ÑģÐ»ÐµÐ´Ð½Ð¸Ñħ":9855,"ĠGuests":9856,"ÑįÑĦ":9857,"lying":9858,"ĠÐŁÐ¾Ñģ":9859,"Ġtrust":9860,"ĠÐ±Ð»ÑİÐ´Ð°":9861,"ÑįÑĢ":9862,"ĠFall":9863,"ĠOffice":9864,"Ð´ÐµÐ¼":9865,"Ð¿ÑĢÐµÐ¶Ð½ÐµÐ¼Ñĥ":9866,"ĠÐ²ÑĭÐ±Ð¾ÑĢÑĭ":9867,"ÐŁÐŀ":9868,"Ġeffects":9869,"Ð´Ð°Ñħ":9870,"ĠÐ»Ð¾Ð³Ð¸":9871,"ĠÑĥÑħÐ¾Ð´":9872,"Ġ36":9873,"ĠÐ°Ð²ÑĤÐ¾Ð±":9874,"Ġtim":9875,"ĠÑģÐ¾ÑģÐµÐ´":9876,"Its":9877,"ĠPlan":9878,"ĠÐ½ÐµÐ¾Ð±ÑħÐ¾Ð´Ð¸Ð¼ÑĭÐµ":9879,"ĠAsian":9880,"TA":9881,"struction":9882,"ĠÐĲÐ»":9883,"erman":9884,"ĠSecret":9885,"ĠÐ°ÑģÐ¿":9886,"ĠÐŁÑĢÐ¾":9887,"ĠÐŁÐ°ÑĢÐ¸":9888,"Ð³Ð¾ÑĢÐ¾Ð´":9889,"ĠÐ¾Ð¿ÑĤÐ¸Ð¼Ð¸":9890,"des":9891,"ĠÐ¸Ð·Ð¼ÐµÐ½ÐµÐ½Ð¸Ð¹":9892,"ĠÐ¢ÑĥÑĢÑĨÐ¸Ð¸":9893,"Ġvote":9894,"ÑĩÐ½Ð¾ÑģÑĤÑĮ":9895,"Ġcash":9896,"aria":9897,"Ġprefer":9898,"ĠÐºÑĢÐ°ÑģÐ¸Ð²":9899,"ĠParliament":9900,"ĠGovernment":9901,"smoking":9902,"vision":9903,"ĠÐ¿ÑģÐ¸":9904,"ĠÐ²ÑħÐ¾Ð´":9905,"ĠÐ·ÐµÑĢ":9906,"Ġparliament":9907,"ÑĩÐ°Ð»Ð°":9908,"Thus":9909,"ĠÑĥÐ´Ð¾Ð±ÑģÑĤÐ²Ð°":9910,"ĠÑĥÑĩÑĢÐµÐ¶Ð´ÐµÐ½Ð¸Ñı":9911,"ĠDirector":9912,"aling":9913,"Ġist":9914,"ÐľÐ½Ð¾Ð³Ð¸Ðµ":9915,"ĠÐ¿Ð°ÑĨÐ¸":9916,"ÑĥÑĩÐ¸":9917,"ĠÐĴÐµÐ½":9918,"Ġhair":9919,"ĠÐłÐ¾Ð±":9920,"Ġrat":9921,"ĠÐ§ÐµÑĢ":9922,"ĠÑĥÐ¿ÑĢÐ°Ð²Ð»ÐµÐ½Ð¸Ðµ":9923,"ĠÐ¿Ð¾Ð²ÑĭÑĪÐµÐ½":9924,"ĠÐ²ÐµÐ´ÑĥÑīÐ¸Ñħ":9925,"Ġwrite":9926,"estern":9927,"ĠÑĢÐµÐ¼Ð¾Ð½":9928,"ĠÐ»ÑİÐ´":9929,"ĠÐ¿Ð¾Ð²ÑĤÐ¾ÑĢ":9930,"ĠÐºÐ»Ð°ÑģÑģ":9931,"Ð°ÑĢÐ´":9932,"ĠÐĶÐ¾ÑģÑĤÐ°Ð²ÐºÐ°":9933,"CO":9934,"Co":9935,"Us":9936,"Ġdry":9937,"Ġbey":9938,"ÑĬÐµÐ´Ð¸Ð½":9939,"Ð¤ÑĢÐ°Ð½":9940,"Ġdoub":9941,"ĠÐ´ÐµÐºÐ°Ð±ÑĢÑı":9942,"CH":9943,"ĠÑģÐ¾Ð¶":9944,"ĠÐķÐ³Ð¸Ð¿":9945,"Ġ;":9946,"Ġbelong":9947,"ĠÐ¿ÑĢÐµÐ´Ð»Ð¾Ð¶ÐµÐ½Ð¸Ðµ":9948,"ÐºÐµÑĤÐ½ÑĭÐ¹":9949,"Ġcell":9950,"ĠPack":9951,"ĠLithuan":9952,"Ġspend":9953,"Ġtrav":9954,"war":9955,"ĠÐ½Ð°Ð±Ð¾ÑĢ":9956,"ĠMem":9957,"ĠÐ¿Ð¾Ð·Ð²Ð¾Ð»ÑıÑİÑĤ":9958,"Ġgain":9959,"Ð°ÑģÐ°":9960,"Ð»ÑİÐ·Ð¸":9961,"Ð¤Ð°":9962,"Ġdoesn":9963,"ĠÑĪÐ°Ð³":9964,"Ġprison":9965,"ĠÐºÐ°Ð½Ð°":9966,"ĠPrem":9967,"ĠÐ²ÐµÑĩÐµÑĢ":9968,"ĠDu":9969,"ĠDub":9970,"ĠAmsterdam":9971,"ĠÑĨÐµÐ»ÐµÐ¹":9972,"Ġluxurious":9973,"ÐµÐ»ÐµÐ½":9974,"Ġwindows":9975,"Ġthumb":9976,"Ġsays":9977,"Ð³ÐµÑĢ":9978,"ĠIr":9979,"ĠGal":9980,"ĠÐ±Ð¾Ð»ÑĮÑĪÐ¸Ñħ":9981,"ĠÐ´Ð¸Ð¿Ð»Ð¾Ð¼Ð°":9982,"ansion":9983,"ĠProject":9984,"Ã³w":9985,"ĠÐ²Ð¸Ð´Ð¾Ð¼":9986,"ĠÐ·Ð°Ð¿ÑĢÐµÑīÐµÐ½Ð¾":9987,"Ġcaused":9988,"ÑģÑģÐµ":9989,"Ð¾ÑĤÑĢÐµÐ±":9990,"ĠBay":9991,"ester":9992,"ĠEarth":9993,"ĠÐ´Ð°Ð½Ð½Ð¾Ð¼":9994,"Ġdistribut":9995,"Ġflight":9996,"ĠÐ¿Ð¾Ð´Ð´ÐµÑĢÐ¶ÐºÐ°":9997,"Ġarrival":9998,"ĠÐ°ÑĢÐ°Ð±":9999,"ÐĿÐĵ":10000,"Battle":10001,"fa":10002,"ÑĥÐ¼Ðµ":10003,"ĠÐ¿ÑĢÐ¸Ð¾ÑĢÐ¸":10004,"ĠArch":10005,"ĠÐ²Ð¾Ð·Ð´ÑĥÑħÐ°":10006,"ĠÐ¿Ð¸ÑĤÐ°Ð½Ð¸Ñı":10007,"Ġcaf":10008,"Ð¿ÑĤÐ¸":10009,"Ġstore":10010,"ĠÐ¼Ð°Ð³Ð°Ð·Ð¸":10011,"ĠÐ²Ð·Ð¸Ð¼Ð°ÐµÑĤÑģÑı":10012,"ĠÑĢÐ°Ð½ÐµÐµ":10013,"Ġofficials":10014,"ĠÐ¿Ð¾Ð·Ð¸ÑĨÐ¸Ð¸":10015,"Ð²Ð°Ð»Ð¸ÑģÑĮ":10016,"ĠÐµÑģÑĤÐµÑģÑĤÐ²":10017,"ÐķÐ³Ð¾":10018,"ĠÃ±":10019,"Ġperformed":10020,"Ġdomain":10021,"ĠChampionships":10022,"ĠÐĺÑĤÐ°Ð»Ð¸Ð¸":10023,"rive":10024,"aks":10025,"ÐĺÑģÑĤ":10026,"ÑĩÐµÐ½Ð°":10027,"ĠÑģÑĥÐ´ÐµÐ±":10028,"Ġscript":10029,"ĠÐ¿ÐµÑĢÐ²ÑĥÑİ":10030,"Ġopposition":10031,"Ð»Ð¾Ð¹":10032,"Ð¼Ð¸Ð½Ð°":10033,"Ð¡Ð¾Ð²":10034,"ÑĢÐ°ÑĤÐ¸ÑĤÑĮ":10035,"ĠÐ¿ÑĢÐµÐ²Ð¾Ñģ":10036,"31":10037,"Ð»Ð»ÐµÐºÑĤ":10038,"ĠÐ¿ÑĢÐµÐ·":10039,"uilding":10040,"ÑĤÐ¸Ð½Ð°":10041,"ĠLittle":10042,"Ġrul":10043,"95":10044,"Ġgave":10045,"Ġindividuals":10046,"ĠÑĤÐ¾Ð¹":10047,"ĠÐŁÐµÑĤ":10048,"Ġvolume":10049,"Ġintegration":10050,"Ġsources":10051,"Ð°Ð½ÑĤÐ°":10052,"ÐĵÐµÑĢ":10053,"Ġdecades":10054,"Ġsuccessfully":10055,"Ð²Ð¾ÑĢÐ¸":10056,"Ġbur":10057,"ĠÑĢÐ°Ð½":10058,"Ð¡Ð":10059,"Ġestim":10060,"iterran":10061,"Ġfuel":10062,"ĠCro":10063,"ĠBad":10064,"ellow":10065,"Ġnormal":10066,"ĠTO":10067,"ĠÐ³ÑĢÐ°Ð¶Ð´Ð°":10068,"Then":10069,"Ġsoft":10070,"ĠÐºÐ¾Ð¼ÑĦÐ¾ÑĢÑĤ":10071,"ĠÐ¼ÐµÑĢÐ¾Ð¿ÑĢÐ¸ÑıÑĤÐ¸Ð¹":10072,"ĠÐ±Ð°ÑģÑģÐµÐ¹Ð½":10073,"elle":10074,"ĠBor":10075,"duc":10076,"Ġ*":10077,"Ð±ÐµÑĢÐ°":10078,"ÑĦÑĦ":10079,"ĠÐĲÐ·ÐµÑĢÐ±Ð°Ð¹":10080,"Ð·Ð¸Ð°ÑĤ":10081,"ĠÐ´Ð¾Ð»Ð³Ð¾Ð²":10082,"ÐĲÐ»":10083,"Ġcool":10084,"ĠÑģÐµÐ¼ÑĮÐ¸":10085,"ĠÐ¿Ð¾ÑĤÐµÐ½ÑĨÐ¸":10086,"Ġdigital":10087,"lov":10088,"Ð´Ð¸Ð½Ð¸":10089,"Ġsurface":10090,"ĠÑģÐ¼Ð¾Ð¶ÐµÑĤ":10091,"ĠÐºÑĢÐ°Ð¹Ð½ÐµÐ¹":10092,"ĠÑĢÐ¾ÑģÐºÐ¾ÑĪ":10093,"EG":10094,"ĠÐºÐ¾Ð¼Ð°Ð½Ð´Ñĭ":10095,"Ð¸Ð³ÑĢÑĭ":10096,"Im":10097,"zone":10098,"ÑĤÐµÐ»ÑĮÐ½ÑĭÐ¼Ð¸":10099,"Ġvalid":10100,"heim":10101,"ĠÐ·Ð°ÑħÐ²Ð°":10102,"ĠÐ¸Ð·Ð´ÐµÐ»Ð¸Ð¹":10103,"Ð¾Ð¹Ð´ÐµÑĤ":10104,"ĠNewspapers":10105,"ech":10106,"Â·":10107,"Ġcook":10108,"ington":10109,"Ġconsists":10110,"ĠÐ¿ÑĢÐ¾Ð´Ð°Ð¶Ðµ":10111,"ÑĦÐ¸ÐºÐ°ÑĨÐ¸Ð¸":10112,"Ð¸Ð¿Ðµ":10113,"Ð¶Ð½Ð¾Ð³Ð¾":10114,"Ġbeyond":10115,"ÑĤÐ°Ðº":10116,"ĠOS":10117,"ĠÑģÐ¾Ð²ÑĢÐµÐ¼ÐµÐ½Ð½ÑĭÑħ":10118,"Ġeducational":10119,"Ġattractive":10120,"01":10121,"Ġparent":10122,"ĠSound":10123,"Sc":10124,"Ð°Ð½Ðº":10125,"ĠHol":10126,"iana":10127,"Ð¤Ð¸":10128,"MP":10129,"Ð³ÐµÐ»ÑĮ":10130,"Ġmaster":10131,"ĠSpain":10132,"ĠÐ¼Ð¸Ð½Ð¸Ð°ÑĤ":10133,"Ġturned":10134,"Ġframework":10135,"ĠÑĥÐ¿Ð°ÐºÐ¾Ð²":10136,"ĠÑħÐ¾ÑĩÐµÑĤ":10137,"ĠDr":10138,"ĠÑģÑĤÐµÐº":10139,"Ð°Ð»ÑĮÐ½ÑĭÐ¼":10140,"Ġcoord":10141,"Ġdidn":10142,"Ġreligious":10143,"Pal":10144,"Ġsport":10145,"ador":10146,"ĠÐ¿ÑĢÐ¸Ð´":10147,"ĠPeters":10148,"ania":10149,"ĠÑģÐ¿ÑĢÐ°Ð²ÐµÐ´":10150,"nail":10151,"iences":10152,"force":10153,"itness":10154,"Ġhands":10155,"Ġspending":10156,"ateral":10157,"ÑĸÐ´":10158,"ocket":10159,"ĠÐºÑĢÑĥÐ¿Ð½ÑĭÑħ":10160,"ÑģÑģÐ¸":10161,"ĠAG":10162,"ĠÑĢÑĭÐ½Ð¾":10163,"ĠShop":10164,"ĠÐ°Ð½Ð°Ð»Ð¸Ð·":10165,"ÑĪÐµÐ½Ð¸Ð¹":10166,"ĠÐ³Ð¾ÑģÑĥÐ´Ð°ÑĢÑģÑĤÐ²ÐµÐ½Ð½ÑĭÑħ":10167,"Ġpeaceful":10168,"asion":10169,"Ð¥Ð¾ÑĤÑı":10170,"Ð·ÑĭÐ²Ð°ÑİÑĤ":10171,"Ġmemory":10172,"ĠÐ´Ð²ÑĥÐ¼Ñı":10173,"ĠSocial":10174,"Bar":10175,"Ġna":10176,"ĠÐ¿Ð¾ÑĤÐ¾Ð¼":10177,"Ð½Ð¾Ð²ÑĮ":10178,"ĠÐ²ÐµÑĢÑģÐ¸Ñı":10179,"ocktail":10180,"Ġevening":10181,"ĠÑħÐ¾ÑĤÐµ":10182,"ĠMuslim":10183,"hent":10184,"ĠÐ»ÑİÐ±Ð¸":10185,"enses":10186,"ĠÑģÐ¾Ð³Ð»Ð°ÑĪÐµÐ½Ð¸Ñı":10187,"ĠÐ¸ÑģÐºÐ»ÑİÑĩÐ¸ÑĤÐµÐ»ÑĮÐ½Ð¾":10188,"ek":10189,"ĠÐ½Ð°ÑĪÐ°":10190,"Ġgrant":10191,"Ġexten":10192,"ÐĲÐ´":10193,"ĠÑĦÐ¾ÑĢÐ¼Ðµ":10194,"ĠÐ¾ÑĩÐ¸":10195,"ÑģÐºÐ¾Ð»ÑĮÐºÐ¾":10196,"ĠÐ¿Ð¾Ð»ÑĥÑĩÐ¸Ð»":10197,"ĠÐ°Ð±ÑģÐ¾Ð»ÑİÑĤ":10198,"Ġsan":10199,"ÐĴÐµÑĢ":10200,"ĠÐ½Ð¾Ð²Ð¾Ðµ":10201,"Ġpersonnel":10202,"ulate":10203,"Ð»ÐµÐ½Ð½Ð¾Ð¹":10204,"Ġkil":10205,"ĠÐ¿Ð°Ð»ÐµÑģÑĤÐ¸Ð½":10206,"Ð¸Ð³ÑĢÐ°":10207,"class":10208,"ĠÑĥÑģÑĤÑĢÐ¾Ð¹ÑģÑĤÐ²Ð°":10209,"actions":10210,"ĠÐĴÐĴÐŁ":10211,"Ġtransform":10212,"ĠÑĦÐµÐ²ÑĢÐ°Ð»Ñı":10213,"Ġcomparison":10214,"Ġcomprehensive":10215,"Ġcr":10216,"ĠÐĲÑĦ":10217,"ÐĶÐµÐ¹ÑģÑĤÐ²Ð¸":10218,"ĠÐ¿Ð¾ÑĢÑĤÐ°":10219,"ĠÐ¸ÑģÑģÐ»ÐµÐ´Ð¾Ð²Ð°":10220,"ĠÐ°ÑĢÑħÐ¸ÑĤÐµÐºÑĤÑĥ":10221,"Such":10222,"Your":10223,"Ġsch":10224,"Ġengineering":10225,"Ġbirth":10226,"ĠÑģÐµÑĢÐ´ÑĨÐµ":10227,"Ġaccordance":10228,"AG":10229,"ĠÐ½Ð°Ð»Ð¸ÑĩÐ¸":10230,"ĠAff":10231,"ĠÐŁÐ¸":10232,"Ġtemperature":10233,"Facilities":10234,"orial":10235,"ĠAL":10236,"Ð²ÐµÑĤÐ°":10237,"ĠÐ°Ð²Ð³ÑĥÑģÑĤÐ°":10238,"ÐĶÐ¡":10239,"Ð¸ÑĤÐ¾Ð²":10240,"ĠVict":10241,"ĠÐŃÐºÑģÐ¿":10242,"ÑĢÐ¾ÑĤ":10243,"ÑīÐµÐ½Ð°":10244,"ÐºÑĤÐ¸ÑĩÐµÑģÐºÐ¸":10245,"ĠÐºÐ¸Ð½Ð¾":10246,"ario":10247,"ĠCy":10248,"oung":10249,"AIDS":10250,"Ð¸ÑĤÑĮÑģÑı":10251,"Ð¢Ðŀ":10252,"ĠVers":10253,"ĠÐ²ÑĭÑģÐ¾ÐºÐ¾Ð³Ð¾":10254,"Ġdream":10255,"ĠÐ¿Ð¾Ð»Ð½ÑĭÐ¹":10256,"ĠÐ¿ÐµÑĩÐ°":10257,"Ġavailability":10258,"Ġborder":10259,"Ð¼Ð°Ñı":10260,"ĠÐŀÑĢÐ³Ð°Ð½Ð¸":10261,"IX":10262,"Ġrevolution":10263,"ĠÑĦÐ¸Ð½Ð°Ð½ÑģÐ¾Ð²Ð¾Ð³Ð¾":10264,"Ġexpensive":10265,"áĥĶáĥ":10266,"CC":10267,"ĠCamp":10268,"Ġbug":10269,"ĠÑģÑĤÑĢÐ°Ð½Ð°":10270,"Ġpred":10271,"ĠÐ¿Ð¾Ð»ÑĥÑĩÐ°ÑĤÑĮ":10272,"lines":10273,"arc":10274,"Ð°Ð½Ñģ":10275,"Ð¥Ð°":10276,"ĠÐ¸Ð¼Ð¸":10277,"ĠÐ¸ÑĤÐ°Ð»ÑĮÑıÐ½":10278,"oud":10279,"Ġsauna":10280,"TR":10281,"ĠGDP":10282,"Ġchurch":10283,"ĠÐ¾ÑģÐ²Ð¾Ð±":10284,"Ġalternative":10285,"ĠÐ¿Ð°ÑĢÑĤÐ¸Ñı":10286,"ĠÐ¿Ð¾ÑģÐµÑĤ":10287,"Ġrenovated":10288,"Ð»ÐµÐ³Ð°Ð½ÑĤ":10289,"Ġtesting":10290,"Ð¾ÑĢÑĥÑģ":10291,"Ð»ÑĮÐ½Ð¾Ð¼":10292,"ÐºÐ¸ÑģÑĤÐ°Ð½":10293,"ĠÐ²ÐµÐ»Ð¾Ñģ":10294,"Ġconcent":10295,"ĠÑĥÑĤ":10296,"Ġ(\"":10297,"ĠLeg":10298,"ĠRel":10299,"ĠCleaning":10300,"asy":10301,"Ġforum":10302,"Ġwall":10303,"oto":10304,"ĠÐĴÑģÐµÐ¼Ð¸ÑĢ":10305,"rance":10306,"32":10307,"DF":10308,"ĠÐ½Ð°ÑĩÐ¸Ð½Ð°Ñı":10309,"abin":10310,"ĠÐ¼ÐµÑĢÐ¾Ð¿ÑĢÐ¸ÑıÑĤÐ¸Ñı":10311,"Ð¸Ð¼ÑĩÐ¸ÑģÑĤÐºÐ°":10312,"ÑįÐº":10313,"ĠÐŀÐ½":10314,"ength":10315,"ĠAngel":10316,"ĠÐ»Ð¸ÑĨÐµÐ½Ð·Ð¸":10317,"ML":10318,"ĠÐĴÐµÑĢ":10319,"ÑĨÐµÐ¿":10320,"rice":10321,"uality":10322,"ĠÐ¶ÐµÐ»ÐµÐ·Ð½Ð¾Ð´Ð¾ÑĢÐ¾Ð¶":10323,"bs":10324,"Ġdim":10325,"Ġthanks":10326,"Ġmainly":10327,"ĠÐ²Ð»Ð°ÑģÑĤÑĮ":10328,"Banquet":10329,"Ġfant":10330,"Ð¡Ð¾Ð³Ð»Ð°":10331,"ĠÐļÐ¸ÑĤÐ°Ðµ":10332,"ĠAIDS":10333,"ĠLoc":10334,"ĠNAT":10335,"etworks":10336,"Ġinflation":10337,"Ġlaws":10338,"ĠÑĢÐ°Ð·Ð¼ÐµÑīÐµÐ½Ð¸Ð¸":10339,"ĠÐ¿ÑĢÐµÐ´Ð¾ÑģÑĤÐ°Ð²Ð¸ÑĤÑĮ":10340,"ÑĩÐ½ÑĭÐ¼Ð¸":10341,"ĠGlobal":10342,"ĠÐ²ÑĭÐ½Ñĥ":10343,"Ð½ÑıÐµÑĤ":10344,"Ġvotre":10345,"ĠÑĩÐµÑĤÐ²ÐµÑĢ":10346,"__":10347,"ĠÐ¿ÑĢÐ¸Ð²ÐµÑĤ":10348,"Ð°Ð¼Ð±":10349,"Ð¸ÑĤÐ²Ð°":10350,"ÑĤÐ¸Ð²Ð½Ð¾Ð³Ð¾":10351,"ĠÑĥÑģÐ»ÑĥÐ³Ð°Ð¼":10352,"abilities":10353,"ĠÐ¿ÑĢÐ¸Ð²ÐµÑģÑĤÐ¸":10354,"ĠÐ±Ð¾Ð»ÑĮÑĪÑĥÑİ":10355,"Ġsettings":10356,"oles":10357,"ĠÑįÐ¿Ð¸":10358,"Ġstations":10359,"ĠÐ¸ÑģÐ¿Ð¾Ð»ÑĮÐ·ÑĥÐµÑĤ":10360,"ĠÐºÐ¾Ð½ÑĨÐµÐ¿":10361,"ĠÑĢÐµÐºÐ¾Ð¼ÐµÐ½Ð´Ñĥ":10362,"ÐµÑĦ":10363,"ÑĢÐ¾Ð²Ð°Ð½Ð°":10364,"ĠÐĳÐ°Ð½ÐºÐµÑĤÐ½ÑĭÐ¹":10365,"ĠÐ¿Ð°Ð¼ÑıÑĤ":10366,"Ð³ÑĢÐ¸":10367,"Ð»ÐµÐ½Ð½Ð¾":10368,"Ġclosed":10369,"ĠÑĥÐ½Ð¸ÑĩÑĤ":10370,"Ġcombined":10371,"ĠÐ½Ð°Ð·":10372,"rick":10373,"ĠÑģÐ»ÑĥÐ¶Ð±Ñĭ":10374,"Ġfamilies":10375,"Ġaid":10376,"Ð»ÑıÐµÑĤÑģÑı":10377,"ĠÐ¾Ð±ÑĥÑĩÐµÐ½Ð¸Ñı":10378,"ĠÑıÐ²":10379,"Ġrespond":10380,"ĠÐ·Ð°Ð¿ÑĥÑģÐºÐ°":10381,"ĠÑĢÐ¾Ð´Ð¸":10382,"Ġprofessionals":10383,"Ġwin":10384,"Ġborn":10385,"ĠÐ»Ð¾Ðº":10386,"abil":10387,"ĠÐ¸Ð½Ð´ÑĥÑģÑĤÑĢÐ¸":10388,"ĠÐ½Ð°Ð¿ÑĢÐ°Ð²Ð»ÐµÐ½Ð¸Ñı":10389,"ĠÑĢÐµÐ»Ð¸Ð³Ð¸Ð¾Ð·":10390,"ĠâĤ¬":10391,"Ð´ÐµÑĢÐ¶Ð°":10392,"ĠÐ½ÐµÐ¾Ð±ÑħÐ¾Ð´Ð¸Ð¼Ð¾ÑģÑĤÑĮ":10393,"Ġarticles":10394,"Ð´Ð¶Ð°Ð½":10395,"Ġsemin":10396,"Ã©e":10397,"ĠÐłÐ¾ÑģÑģÐ¸Ñı":10398,"Ġnet":10399,"ĠPakistan":10400,"ĠWomen":10401,"Ġassets":10402,"Ġemerging":10403,"ĠDisabled":10404,"sych":10405,"ÐķÐĽ":10406,"Ġimpos":10407,"eet":10408,"Ġanaly":10409,"ÑĥÐ»ÑĮÐ¼Ð°Ð½":10410,"Ġindex":10411,"ĠÐ¾ÑģÑĤÑĢÐ¾Ð²Ð°":10412,"Ð±ÑĢÐ°Ð½":10413,"ÑģÑĤÐµÐ¼Ð°":10414,"ĠÐ½Ð¸Ð¼Ð¸":10415,"airman":10416,"ĠÑĦÑĥÐ½ÐºÑĨÐ¸Ð¾Ð½Ð°Ð»ÑĮ":10417,"ĠÐ·Ð°Ð´Ð°Ñĩ":10418,"ĠTre":10419,"ĠÑĢÐµÐ·ÑĥÐ»ÑĮÑĤÐ°ÑĤÐ¾Ð²":10420,"ĠÐ¿ÑĢÐ¾Ð¸Ð·Ð²Ð¾Ð´Ð¸ÑĤÐµÐ»ÐµÐ¹":10421,"Ġtro":10422,"ĠÑģÑĤÐµÐ½":10423,"ĠÐ¡Ð°Ð½ÐºÑĤ":10424,"TV":10425,"ĠÐĳÐµÐ»":10426,"Ġversions":10427,"ĠÐ¾Ð¿ÐµÑĢÐ°ÑĨÐ¸Ð¸":10428,"ĠSuite":10429,"99":10430,"ati":10431,"ĠdÃ©":10432,"ĠBrazil":10433,"ÑĥÑģÐ»Ð¾Ð²":10434,"Ġgoes":10435,"ÑĢÐ¾ÐºÐ¸":10436,"ĠÑĤÐ¸Ð¿":10437,"ĠÐĲÑĢÐ¼ÐµÐ½Ð¸Ð¸":10438,"ÑĬÐµÐ·Ð´Ð°":10439,"ĠÐ½ÑĥÐ¶Ð´Ð°":10440,"ĠÑĢÐµÐ³ÑĥÐ»ÑıÑĢ":10441,"uries":10442,"ĠÐ¿Ð¾Ð»Ðµ":10443,"ÐĵÑĢÐ°Ð½":10444,"ĠÐ²ÐµÑĢÐ½Ñĥ":10445,"ĠÐ¿ÑĢÐ¾ÑĤ":10446,"Ð¾ÐºÐ¸":10447,"ÑĩÐ°ÑİÑĤÑģÑı":10448,"ĠÐŁÐ¾Ð´":10449,"uj":10450,"Ġnorth":10451,"Ġintended":10452,"ĠÑĢÐµÐ³Ð¸ÑģÑĤÑĢÐ°ÑĨÐ¸Ñı":10453,"ĠÐ²ÑħÐ¾Ð´Ð¸ÑĤ":10454,"ĠÐľÐ¾Ð½":10455,"ÑĢÐµÐ¼Ñı":10456,"ĠÐ±Ð°ÑģÑģÐµÐ¹":10457,"ĠÐ¸Ð½ÑĦÑĢÐ°ÑģÑĤÑĢÑĥÐºÑĤÑĥ":10458,"'ve":10459,"Cent":10460,"Ġ),":10461,"ĠÑĢÐ¾Ð¼":10462,"Ġstru":10463,"ĠÐ¥Ð¸Ð¼ÑĩÐ¸ÑģÑĤÐºÐ°":10464,"ĠÑģÐ¾Ð³Ð»Ð°Ñģ":10465,"Ð°ÑģÑģÐ°Ð¶Ð¸":10466,"Ġearn":10467,"ĠÐ°ÐºÐ°Ð´ÐµÐ¼Ð¸":10468,"eva":10469,"ĠÐ·Ð°Ð½Ð¸Ð¼Ð°ÐµÑĤ":10470,"ĠÑĥÐ±Ð¸Ð¹":10471,"ĠÐ¡ÐŁÐĺ":10472,"orer":10473,"ĠÐºÐ°ÑĢÑĤÐµ":10474,"ĠÐ¾ÑĢÑĥÐ¶Ð¸Ñı":10475,"anc":10476,"ĠAustral":10477,"ĠÑģÐ¾Ð²ÐµÑĢÑĪÐµÐ½Ð½Ð¾":10478,"ĠÐ²Ð¾ÑĤ":10479,"Ð¹s":10480,"ĠÐ¼Ð°ÑĢÐºÐµÑĤ":10481,"ĠÐ¿ÑĢÐµÐ´ÑģÑĤÐ°Ð²Ð¸ÑĤÐµÐ»ÐµÐ¹":10482,"ĠÑģÐµÐºÑĤÐ¾ÑĢÐ°":10483,"ĠÐ·Ð²ÐµÐ·Ð´Ñĭ":10484,"ĠÐ²ÐµÐ»Ð¾ÑģÐ¸Ð¿Ðµ":10485,"Free":10486,"Ġmut":10487,"ÑĪÐµÐ½Ð¸Ñİ":10488,"Ġresol":10489,"ĠÑįÐ»ÐµÐºÑĤÑĢÐ¸":10490,"ĠTurkish":10491,"ĠÑĢÐ°ÑģÑĤÑĥ":10492,"ĠÐ´Ð¸Ð°Ð»":10493,"Ġcontemporary":10494,"ÑĩÐµÐ½Ð¸ÐµÐ¼":10495,"ichael":10496,"ĠÐ²Ð°ÑĪÐ¸":10497,"ĠÐ¾ÑģÐ½Ð¾Ð²Ð½Ð¾Ð¹":10498,"ĠÐ²ÑĭÐ±Ð¾ÑĢÐ¾Ð²":10499,"ĠÐ¶Ð¸Ð»":10500,"ĠÑģÐ¸ÑģÑĤÐµÐ¼Ð¾Ð¹":10501,"Ð²ÑĭÑĩÐ°Ð¹":10502,"ĠÐ¿Ð¾Ð»Ð¸ÑĤÐ¸ÐºÐµ":10503,"ĠÐ½ÑĭÐ½ÐµÑĪ":10504,"Ġcam":10505,"stall":10506,"ĠÐŁÑĢÐ¾Ð³ÑĢÐ°Ð¼":10507,"ĠÐ´Ð°Ð½Ð½ÑĭÐ¼":10508,"ĠÐ¾ÑģÐ½Ð¾Ð²Ð½ÑĭÐµ":10509,"ĠÐ²ÑĭÐ±ÑĢÐ°Ð½":10510,"ĠÐ¾Ð±ÑıÐ·Ð°Ð½":10511,"ĠÐ²Ð¾ÐºÑĢÑĥÐ³":10512,"Ã¦":10513,"isure":10514,"ĠÐ²Ð¼ÐµÑģÑĤÐ¾":10515,"Ġhum":10516,"cha":10517,"ĠEner":10518,"ĠHuman":10519,"ĠÐ½Ð°ÑĩÐ°Ð»Ð¾":10520,"ĠÑģÐ¾Ð±ÑģÑĤÐ²ÐµÐ½Ð½Ð¾ÑģÑĤÐ¸":10521,"ĠÐ¿ÐµÑĢÐµÐ´Ð°ÑĩÐ¸":10522,"Ġbrowser":10523,"Par":10524,"ĠÐ´Ð¸Ð·Ð°Ð¹Ð½":10525,"ĠÐ¾Ð±Ð»Ð¸":10526,"ĠGi":10527,"ĠÐ¸ÑģÐ¿Ð¾Ð»ÑĮÐ·ÑĥÑİÑĤÑģÑı":10528,"ÐµÐ¼Ð°Ñı":10529,"Ġthumbnail":10530,"ĠÐ²Ð½Ð¾Ð²ÑĮ":10531,"Ð»ÑĮÐ·Ñı":10532,"ĠÐ·Ð½Ð°ÑĩÐµÐ½Ð¸Ñı":10533,"ĠÑĢÐ¾Ð»Ð¸":10534,"ĠÑĢÐµÐ·ÑĥÐ»ÑĮÑĤÐ°ÑĤ":10535,"ĠChristian":10536,"ĠPetersburg":10537,"Ġuna":10538,"ÐºÐ¾Ð½ÑģÑĤÑĢÑĥ":10539,"Ġpurpos":10540,"levant":10541,"ĠWhite":10542,"Ð·Ð²ÐµÐ·Ð´Ð¾ÑĩÐ½ÑĭÐ¹":10543,"ĠÐ¾Ð±ÑĬÐµÐºÑĤÐ¾Ð²":10544,"ĠÐ½Ð¾Ð²Ð°Ñı":10545,"Ġboot":10546,"ĠÐ¾ÑĤÐ»Ð¸ÑĩÐ¸Ðµ":10547,"Ġbecomes":10548,"ĠÐ»Ñĭ":10549,"ĠGreen":10550,"Ġobjects":10551,"Ġaimed":10552,"ĠÑģÐ¾Ð¶Ð°Ð»":10553,"CD":10554,"ĠÐ²ÐµÑĢÑħ":10555,"ĠÐĲÐ¼ÐµÑĢÐ¸ÐºÐµ":10556,"Ġcharming":10557,"ĠÐ·Ð´ÑĢÐ°Ð²Ð¾Ð¾ÑħÑĢÐ°Ð½ÐµÐ½Ð¸Ñı":10558,"ĠEngland":10559,"ĠÑĢÐ°ÑģÑħÐ¾Ð´Ñĭ":10560,"ĠKyiv":10561,"Res":10562,"ped":10563,"Ð¾Ð¶Ð½Ð¾":10564,"ÐŁÑĥ":10565,"Ġjoin":10566,"ĠÑģÑĩ":10567,"Ġskin":10568,"ĠWhen":10569,"Ġtelevision":10570,"azine":10571,"ĠÑģÐµÑĢÐ¸Ð¸":10572,"Ġguide":10573,"Ġzone":10574,"date":10575,"Ġsen":10576,"ÑĨÐµÐ¹":10577,"ĠÐ¿Ð¾Ð»Ð°Ð³Ð°":10578,"Ð¿Ð°ÑĢÑħÐ¸Ñı":10579,"ĠÑĢÐ°Ð·Ð²Ð¸Ð²Ð°ÑİÑīÐ¸ÑħÑģÑı":10580,"Ġhyd":10581,"ÑīÐµÑģÑĤÐ²Ð°":10582,"ĠÐ¿Ð¾Ð¼Ð¾Ð¶ÐµÑĤ":10583,"ĠBoard":10584,"she":10585,"ĠÐ¶ÐµÑĢÑĤ":10586,"ĠÐĲÑģÑģ":10587,"Ġremained":10588,"Ã¥Ã±":10589,"agen":10590,"2007":10591,"Ġaccounts":10592,"ĠÐ´Ð¾Ð²Ð¾Ð»ÑĮÐ½Ð¾":10593,"ĠÐ·Ð°Ð¼ÐµÐ½":10594,"pped":10595,"ĠÐ¿Ð¸ÑģÐ°":10596,"Don":10597,"Ġalone":10598,"ĠÐ¿Ð¾Ð´Ð°ÑĢ":10599,"mitted":10600,"fortun":10601,"ĠPolish":10602,"ĠÐ¿Ð¾Ð»ÑĥÑĩÐ¸Ð»Ð¸":10603,"obert":10604,"ÑĨÐ°Ð¼":10605,"ĠÐ°Ð¼":10606,"ĠNow":10607,"ĠÐ²Ð¸Ð´Ñĭ":10608,"Ġvisited":10609,"ĠÐ¸Ð´ÐµÐ½":10610,"ÑĤÐ¾ÑģÐ¿Ð¾ÑģÐ¾Ð±":10611,"ĠÐ´ÑĢÑĥÐ³Ð¾Ðµ":10612,"ĠÑĢÑĭÐ½ÐºÐ¸":10613,"ĠÐ¡Ð¾ÑİÐ·Ð°":10614,"Ġincreasingly":10615,"andy":10616,"ĠÐ±ÑĥÐº":10617,"Ġsaw":10618,"ĠIslam":10619,"ĠÐ¾Ð±ÑīÐµÑģÑĤÐ²Ð¾":10620,"ĠPeople":10621,"Ġliterature":10622,"SE":10623,"Ð»Ð°Ñħ":10624,"ÑĢÐ¾Ð²Ð°Ð»":10625,"Ġobtain":10626,"ĠÑģÐ»ÑĥÑĩÐ°Ð¹":10627,"arlier":10628,"ĠÐ¾ÑģÑĥÑīÐµÑģÑĤÐ²Ð»ÑıÐµÑĤÑģÑı":10629,"ĠÐ½ÐµÐ»ÑĮÐ·Ñı":10630,"Ġappreci":10631,"ford":10632,"Ġaware":10633,"ĠÐ¼Ð¸Ð½Ð¸Ð¼Ð°":10634,"Ġmeetings":10635,"ÐļÐ¾Ð½ÐµÑĩÐ½Ð¾":10636,"stra":10637,"Ġarrest":10638,"ÑĨÐ¸Ð¾Ð½Ð½Ð°Ñı":10639,"Ð¼Ñģ":10640,"ĠBig":10641,"ĠGra":10642,"ĠÐ¾ÑĤÐ½Ð¾ÑģÐ¸ÑĤÑģÑı":10643,"Ġdetailed":10644,"Ġparameters":10645,"ÑģÑıÑĤ":10646,"ÑģÑĤÐ²Ð¸ÐµÐ¼":10647,"ĠÑĥÐ´Ð¾Ð²Ð¾Ð»ÑĮ":10648,"ĠID":10649,"Ġpover":10650,"Ġ75":10651,"Ġimportance":10652,"Ġpractical":10653,"TO":10654,"oted":10655,"Ġprest":10656,"ĠÐ²ÑĭÐ¿Ð¾Ð»Ð½ÐµÐ½Ð¸Ñı":10657,"ĠÐ³Ð»Ð°Ð²Ð½ÑĭÐ¼":10658,"Ð¾ÑģÑĤÑĮ":10659,"Ð°Ð²":10660,"Ġstory":10661,"Ġdisk":10662,"Ġlaunch":10663,"ĠÐ²ÑĭÐ±ÑĢÐ¾Ñģ":10664,"Ġweapons":10665,"Ġreality":10666,"ĠWater":10667,"Ġspl":10668,"ĠÐ¿Ð°ÑĢÑĤÐ½Ðµ":10669,"ĠÐ¡ÐµÐ²ÐµÑĢÐ½Ð¾Ð¹":10670,"ĠÐ¼Ð¸Ð½Ð¸Ð°ÑĤÑİ":10671,"ÐµÐ½Ð½Ð¾Ð¼":10672,"ancy":10673,"Pe":10674,"Ð¾ÑĤÑıÑĤ":10675,"ĠÑĢÐ°Ð´Ñĭ":10676,"ÐĲÐ¢Ðŀ":10677,"Ġpoverty":10678,"Ġrom":10679,"ĠÐ±Ð¾Ð³Ð°":10680,"ĠIV":10681,"Ġ1989":10682,"ĠÐ¾Ð¿ÑĤÐ¸Ð¼Ð°":10683,"Ð»ÑĮÐ½ÑĭÐ¼Ð¸":10684,"ĠPut":10685,"AV":10686,"ĠÐ¾Ð·":10687,"asks":10688,"place":10689,"Ġunderstanding":10690,"ĠÐ±ÑİÐ´Ð¶ÐµÑĤ":10691,"cat":10692,"ĠÐ¿ÑıÑĤÑĮ":10693,"omas":10694,"Ġtechnological":10695,"Ġmeasure":10696,"Ġhab":10697,"ĠÐ½ÐµÐ¿ÑĢÐµ":10698,"ĠLim":10699,"ÐºÐ¾ÑģÑĤÑĮ":10700,"ĠÑģÑĤÐ°ÑĤÑĥÑģ":10701,"ĠÐĲÐ´":10702,"Ġoffices":10703,"ĠÐ¿Ð¾Ð´Ð´ÐµÑĢÐ¶Ð°":10704,"ĠÐ®ÐĿ":10705,"overy":10706,"Ġsights":10707,"Ġsleep":10708,"arp":10709,"Ġmatch":10710,"ĠÐ¿ÑĢÐ¸ÑĪ":10711,"ĠÑĥÐ´Ð¸Ð²Ð¸":10712,"di":10713,"ÑīÐ°ÑĤÑĮÑģÑı":10714,"ĠÑįÐºÐ¾Ð½Ð¾Ð¼Ð¸ÑĩÐµÑģÐºÐ¸Ñħ":10715,"Good":10716,"work":10717,"ĠBand":10718,"Ġexcept":10719,"ÐłÐĺ":10720,"look":10721,"ĠÐ¿ÐµÑĢÐµÐ½":10722,"ĠÐ½ÐµÐ¼Ð½Ð¾Ð³Ð¾":10723,"ĠÐºÐ½Ð¾Ð¿ÐºÑĥ":10724,"ĠÐºÐ¾ÐºÑĤÐµÐ¹":10725,"ĠÐ²ÑĭÑĢÐ°Ð¶":10726,"Ġcompared":10727,"ĠÐ±Ð¾Ð»ÑĮÑĪÐµÐ¹":10728,"Ġmanaged":10729,"PC":10730,"ige":10731,"ĠÐ½ÐµÑĦÑĤÐ¸":10732,"ĠÐ·Ð´Ð¾ÑĢÐ¾Ð²ÑĮÑı":10733,"ÐŁÑĢÐ¾Ð²":10734,"Ð¾Ð¿Ð¸Ñģ":10735,"ĠUzbek":10736,"ĠÐºÐ¾Ð¼Ð¼ÐµÐ½ÑĤÐ°":10737,"ĠÐľÐ¾ÑģÐºÐ²Ðµ":10738,"ĠÐ¼ÐµÑģÑĤÐ½ÑĭÑħ":10739,"ĠÐ°ÑģÑģÐ¾ÑĢÑĤÐ¸":10740,"ĠTy":10741,"Ð´Ð¸Ð°":10742,"Ġteac":10743,"Ġvehicle":10744,"ĠÐ¿ÑıÑĤ":10745,"Ð¾ÑĢÐ´Ð¸Ð½Ð°":10746,"Ð¾Ð½Ñĥ":10747,"ĠJes":10748,"Ð°Ð¹ÑĤ":10749,"Ġreview":10750,"uke":10751,"ĠÐ¿ÑĢÐµÐ´Ð¿ÑĢÐ¸ÑıÑĤÐ¸Ðµ":10752,"ÐºÐ¾Ð¼Ð¸ÑĤÑĮÑģÑı":10753,"olo":10754,"ĠÐ¿ÑĢÐ¾Ð´ÑĥÐºÑĤ":10755,"Any":10756,"Ġpassed":10757,"Ġfundamental":10758,"Ġlas":10759,"istory":10760,"ĠDJ":10761,"Ġaccur":10762,"Ġdefined":10763,"ĠÑĨÐ²ÐµÑĤÐ°":10764,"odies":10765,"ensions":10766,"ĠÐ¿Ð¾ÑĩÑĤÐ¾Ð²":10767,"onic":10768,"ĠÐ²ÐµÑĤ":10769,"ĠÐ¸Ð·Ñĥ":10770,"Ġvan":10771,"Ð³Ð¾Ð²Ð¾ÑĢ":10772,"ĠÑĥÑĩÐ°ÑģÑĤÐ¸Ñı":10773,"ĠChampionship":10774,"Ġid":10775,"Ġmother":10776,"ĠÐ¼Ð¾Ð½Ð°":10777,"Ð¾ÐºÐ°ÑĩÐµÑģÑĤÐ²":10778,"ĠÑģÐ²Ð¾Ð±Ð¾Ð´Ñĭ":10779,"ĠBritain":10780,"ĠDiocese":10781,"ĠÐ·Ð°Ð²ÑĤÑĢÐ°Ðº":10782,"ĠDark":10783,"ĠOs":10784,"pport":10785,"ÑĳÐ»":10786,"ori":10787,"eeks":10788,"Ġimag":10789,"onds":10790,"Ġfinance":10791,"37":10792,"wing":10793,"Ð©":10794,"ĠÑĥÐ²Ð°":10795,"ĠÑĥÑĩÐµÐ½":10796,"ĠEmp":10797,"ĠÐ¿Ð¾Ð´ÑĩÐµÑĢ":10798,"ĠÐ¿ÑĢÐµÑģÑĤÑĥÐ¿":10799,"Ag":10800,"ĠÐ²Ð¿ÐµÑĢÐ²ÑĭÐµ":10801,"Ġnor":10802,"Ġagg":10803,"Ġ1993":10804,"ĠÐ³Ð»ÑĥÐ±Ð¾Ðº":10805,"Ġtoward":10806,"ressed":10807,"vi":10808,"rog":10809,"ĠÐ·Ð°Ð¼ÐµÑĤ":10810,"ĠÐ¾ÑĤÐ¾Ð±ÑĢÐ°":10811,"Ġchosen":10812,"Ġquant":10813,"Ġpromote":10814,"ĠÑģÑĤÑĢÐ°Ð½Ð°Ð¼Ð¸":10815,"ÐķÐ¿Ð°ÑĢÑħÐ¸Ñı":10816,"ĠÑģÐ¾Ð¾Ð±ÑīÐµÐ½Ð¸Ðµ":10817,"Mon":10818,"Ukra":10819,"ĠÐ°Ð´ÑĢÐµ":10820,"ĠÐ¿ÑĢÐ¾Ð´Ð°Ð¶Ð¸":10821,"ĠÐ¿ÐµÑĢÑģÐ¾Ð½Ð°Ð»ÑĮ":10822,"ĠÑģÐºÐ¸Ð´":10823,"Ġcere":10824,"Ð¼Ð°Ñħ":10825,"III":10826,"Ġcollabor":10827,"itting":10828,"ĠÐŃÑĤÐ¾ÑĤ":10829,"''''''''":10830,"Ġflat":10831,"ĠÑĤÐµÐ»ÐµÐ²Ð¸Ð´":10832,"iÄĩ":10833,"Ð·Ð¸ÑĢÐ¾Ð²Ð°ÑĤÑĮ":10834,"igned":10835,"Ġbegin":10836,"ĠÐ¸ÑģÐºÐ°":10837,"Ġbright":10838,"Ġmm":10839,"ĠInformation":10840,"ĠÐ¿ÑĢÐµÐ¿Ð¾Ð´Ð°":10841,"eur":10842,"ĠÐ¸Ð½Ð¾Ð³Ð´Ð°":10843,"ĠÐ¿ÑĢÐ¸Ð½Ð¸Ð¼Ð°ÑĤÑĮ":10844,"ĠRoad":10845,"ĠÐºÐ»Ð¸Ð¼Ð°ÑĤÐ°":10846,"ĠÑģÑĤÐ°Ð½ÑĨÐ¸Ð¸":10847,"osite":10848,"ĠTim":10849,"Ġmetro":10850,"ĠÐ¿Ð¾Ð´Ð´ÐµÑĢÐ¶ÐºÐµ":10851,"Ġfailed":10852,"ooth":10853,"Ð¾ÑĩÐ¸":10854,"Ġliquid":10855,"bank":10856,"han":10857,"mat":10858,"aven":10859,"ĠÑĢÐ°ÑģÐ¿ÑĢÐµÐ´Ðµ":10860,"ĠÐ²Ð¾ÑģÐ¿ÑĢÐ¸":10861,"Ð»Ð¸Ð·Ð¼":10862,"Fin":10863,"ÑĤÐ¸ÐµÐ¼":10864,"Ġ120":10865,"ÑĩÐµÐ½Ð¾":10866,"ĠÑģÐµÑĢÐ²ÐµÑĢÐ°":10867,"Ġinnovative":10868,"Ġcategory":10869,"Ð¼Ð¸ÑĤÑĢÐ¸":10870,"Ġec":10871,"Ġkinds":10872,"ĠÃŃ":10873,"Ġcreative":10874,"'m":10875,"Ð¡Ð¿Ðµ":10876,"Ġinvestments":10877,"Ġauthority":10878,"Ġwrong":10879,"do":10880,"Ð¾Ð²Ð¾Ð³Ð¾":10881,"ĠVilla":10882,"ĠÐĴÐ»Ð°Ð´Ð¸Ð¼Ð¸ÑĢ":10883,"Ãº":10884,"avig":10885,"Ġprimary":10886,"ĠÐºÐ°ÑĤÐ°Ð»Ð¾Ð³":10887,"Ġmessages":10888,"Set":10889,"Ð¾Ð¿ÑĢÐ¾":10890,"ĠForum":10891,"Ġbooks":10892,"ĠÐ²ÐºÑĥÑģ":10893,"Ġpurposes":10894,"Ġsuites":10895,"ĠÑĦÑĥÐ½Ð´Ð°":10896,"ÐµÐºÑģÐ¸":10897,"ĠClass":10898,"Ġdollar":10899,"Ð¾ÑĤÑĥ":10900,"ĠÐ¿Ð¾Ð»Ð½Ð¾Ð¹":10901,"ĠÐ®Ð¶Ð½Ð¾Ð¹":10902,"Ġwanted":10903,"Ġelse":10904,"ĠGeorgia":10905,"ĠGNU":10906,"ÐµÑı":10907,"ĠWay":10908,"ĠÐ¡ÑĤ":10909,"Ð²ÑĪÐ¸ÑģÑĮ":10910,"Ġtow":10911,"Ġdivid":10912,"Ð¿Ð¸ÑģÐ°Ð½Ð¸Ðµ":10913,"ĠÐ¿ÐµÑĢÐµÐ¼Ðµ":10914,"Ð»ÑİÐ¼Ð¸":10915,"ĠÐºÑĢÐ¾Ð²Ð°ÑĤ":10916,"44":10917,"ÐĶÐ°Ð¶Ðµ":10918,"ĠÑģÐµÐ³Ð¾Ð´Ð½ÑıÑĪÐ½Ð¸Ð¹":10919,"Ġje":10920,"Ġperhaps":10921,"Ġcars":10922,"ema":10923,"Ġscale":10924,"ĠÐ³Ð»Ð°Ð¶ÐµÐ½Ð¸Ñİ":10925,"Ð¾ÑħÐ¾Ð·ÑıÐ¹":10926,"ĠIroning":10927,"Ġlaunched":10928,"Âº":10929,"arily":10930,"Ġnom":10931,"ĠPg":10932,"ĠÐ²ÑĭÐ³Ð»Ñı":10933,"ĠÑģÐ»ÑĥÑĩÐ°ÐµÐ²":10934,"ĠÐ¼ÐµÑĤÑĢÐ¾":10935,"ĠBas":10936,"Ð¾ÑĩÐ½Ð¾Ð¹":10937,"ĠÐ¼Ð°ÑĪÐ¸Ð½Ñĭ":10938,"ĠÐĺÐ·ÑĢÐ°Ð¸Ð»Ñı":10939,"ĠSpe":10940,"Ġgiving":10941,"Ð°Ð½ÑĤÐ¸":10942,"Ð¦ÐµÐ½ÑĤ":10943,"Ġconditioning":10944,"Ġhostels":10945,"reets":10946,"ĠAD":10947,"ĠÐ¸Ð½ÑģÑĤÑĢÑĥÐ¼ÐµÐ½ÑĤ":10948,"Ġaus":10949,"ÑĩÐ¸Ð½Ñĭ":10950,"ĠÐĵÐµÐ½":10951,"ĠÐ¸Ð½ÑĤÐµÐ»Ð»ÐµÐºÑĤ":10952,"Ð¾Ð²Ñĭ":10953,"ĠOl":10954,"ÐĵÐ»Ð°Ð²":10955,"Ġflow":10956,"ĠÑįÐºÑģÐºÑĥÑĢ":10957,"Ġmechanism":10958,"Ġmig":10959,"Ð»ÐµÐ²":10960,"ifying":10961,"Ġvoc":10962,"ĠÐ³Ð¾ÑģÑĥÐ´Ð°ÑĢÑģÑĤÐ²ÐµÐ½Ð½Ð¾Ð³Ð¾":10963,"Ġcalcul":10964,"ĠÑģÑĤÑĢÐ°ÑĤÐµÐ³Ð¸Ð¸":10965,"ÏĦ":10966,"ĠÑĤÐ°ÑĢÐ¸ÑĦ":10967,"ĠWall":10968,"ĠÐĳÐ»Ð¸":10969,"ĠÐĿÐ¾ÑĢ":10970,"Ġissued":10971,"ĠÐ¾Ð±Ð½Ð°ÑĢÑĥ":10972,"Ġkernel":10973,"ruption":10974,"ĠÐ³Ð°Ð·Ð°":10975,"ĠÑĢÐ°Ð´Ð¸Ð¾":10976,"ĠÐ±Ð¾ÑĢÑĮÐ±Ðµ":10977,"Ġmultiple":10978,"Ġreb":10979,"ĠLike":10980,"ĠÐ¿Ð¾Ð´ÑħÐ¾Ð´Ñı":10981,"ÐĶÐ¾Ð¼":10982,"ĠÐ¾Ð¿Ð¿Ð¾Ð·Ð¸":10983,"ĠÐĴÐ°Ð¼Ð¸":10984,"ĠÐ³Ð¾ÑĢÐ¾Ð´Ð¾Ð²":10985,"ĠÐłÐ¾ÑģÑģÐ¸Ð¹ÑģÐºÐ¾Ð¹":10986,"ker":10987,"ĠÑģÐµÑĤÐµ":10988,"Ð¾Ð²Ð¾Ð»ÑĮ":10989,"ĠÐ¼Ð¾Ð´ÐµÑĢ":10990,"ĠÐŁÐµ":10991,"ĠÐ¾ÑģÐ²Ðµ":10992,"Ġnewly":10993,"Ġfirms":10994,"ĠÑģÐ»Ð¾":10995,"Ð¾ÑĢÐ¸Ð·":10996,"ĠÐ¿Ð¾Ð´Ð´ÐµÑĢÐ¶Ð¸Ð²Ð°ÐµÑĤ":10997,"Ġsecret":10998,"ĠArmy":10999,"Ġmicro":11000,"Ġreve":11001,"ĠÑĤÑİ":11002,"ĠNice":11003,"ÑĢÐ¾Ð²Ð°Ñı":11004,"ovich":11005,"Ġweak":11006,"ĠÐĶÐ»Ñı":11007,"ĠÐ±Ð¾Ð»ÑĮÑĪÐ¸Ðµ":11008,"ĠÑģÐ¾ÑħÑĢÐ°Ð½Ð¸ÑĤÑĮ":11009,"ximately":11010,"ĠÐ°Ð½Ð°Ð»Ð¾Ð³Ð¸":11011,"Ġextensive":11012,"ĠÐºÐ¾ÑĤÐ¾ÑĢÑĭÐ¼Ð¸":11013,"Ġstylish":11014,"ĠÐºÐ¾Ð¼Ð¿Ð»ÐµÐºÑģÐ°":11015,"ĠÐĴÐ¾ÑģÑĤÐ¾ÑĩÐ½Ð¾Ð¹":11016,"Ð½Ð¸ÑģÑĤÐ¸":11017,"Ġdriv":11018,"ÑīÐµÑĢ":11019,"ĠÑģÐ¾ÑģÑĤÐ°":11020,"hedral":11021,"stances":11022,"ĠÐ¿Ð¾ÑģÐ²ÑıÑīÐµÐ½":11023,"ÐļÐ°Ð¼":11024,"lectual":11025,"ĠUnder":11026,"ĠÐ¿ÐµÑĢÐ²ÑĭÑħ":11027,"ĠÐ¿Ð¾ÑģÐµÑĤÐ¸ÑĤÑĮ":11028,"Part":11029,"aters":11030,"aled":11031,"ĠÑĢÐ°Ð·Ð°":11032,"quality":11033,"ĠÑģÐ¸Ð»ÑĮÐ½Ð¾":11034,"ENT":11035,"ĠÑģÐ¾Ð±ÑĭÑĤÐ¸Ð¹":11036,"Ġod":11037,"Ġfab":11038,"Ġfulf":11039,"Ġlicense":11040,"ĠÐ¸Ð´ÐµÑĤ":11041,"ĠÐ°Ð¿Ð°ÑĢÑĤÐ°":11042,"Ġreforms":11043,"ĠÐ¼Ð°ÑĤÐµÑĢÐ¸Ð°Ð»Ð°":11044,"ĠÐ³Ð¾ÑĤÐ¾Ð²Ñĭ":11045,"ĠPortug":11046,"aming":11047,"Ġtrying":11048,"ĠÐķÐ²ÑĢÐ¾Ð¿ÐµÐ¹ÑģÐºÐ¾Ð³Ð¾":11049,"ĠÐľÐĴÐ¤":11050,"Ð¾Ð»ÑĩÐ°":11051,"ĠÐ¡Ðµ":11052,"proof":11053,"lor":11054,"ĠÐºÐ»ÑĥÐ±":11055,"ÐĳÐµÐ·":11056,"ĠÐ±Ð¾Ð»ÑĮÑĪÐ°Ñı":11057,"Ġminimum":11058,"osa":11059,"ÑĥÐ´Ð¾Ð²":11060,"ÑīÐ¸ÑħÑģÑı":11061,"Ġcold":11062,"ĠÐ´ÐµÐ¹ÑģÑĤÐ²Ð¸ÑĤÐµÐ»ÑĮÐ½Ð¾ÑģÑĤÐ¸":11063,"ĠÐĶÐ¶Ð¾ÑĢ":11064,"ĠÐ°ÑģÑģÐ¾ÑĨÐ¸Ð°":11065,"Ġ250":11066,"ĠÑĤÐ°Ð¹":11067,"iller":11068,"ÐķÐ¢":11069,"Ġarmy":11070,"ÑĤÑĥÑĢÐµ":11071,"ĠÐ¿Ð¾Ð»ÑĮÐ·Ð¾Ð²Ð°ÑĤÐµÐ»ÑĮ":11072,"ĠÐºÑĥÑĢÑģÐ°":11073,"Ġchallenges":11074,"ĠCongress":11075,"Ð½Ð¸Ð²ÐµÑĢÑģÐ¸":11076,"Ġwilling":11077,"ĠXV":11078,"Ġfactory":11079,"Ġparticipate":11080,"ĠÐļÐ¾Ð½ÑĦÐµÑĢÐµÐ½ÑĨ":11081,"ho":11082,"cean":11083,"ÐµÑģÐ¿Ð¾ÑģÐ¾Ð±":11084,"Ġadvance":11085,"ĠÐ³Ð³":11086,"ĠÐ´Ð°ÑĤÑĮ":11087,"Ġdecisions":11088,"Ġopinion":11089,"06":11090,"ĠLight":11091,"Ġconver":11092,"ĠVo":11093,"ĠÑĥÐ²ÐµÐ»Ð¸ÑĩÐµÐ½Ð½Ð¾Ð³Ð¾":11094,"aux":11095,"ĠÐ½Ð°ÑĢ":11096,"ÑĦÐµÐ»ÑĮ":11097,"ĠÐĺÑĢÐ°Ð½":11098,"Ġqui":11099,"stein":11100,"Ð±ÑĥÐ´ÑĮ":11101,"tre":11102,"Ġfashion":11103,"Ð¼Ð¸ÑĤ":11104,"ĠÑģÐ¿ÑĥÑĤ":11105,"ĠMaria":11106,"ĠÐ¿ÑĢÐµÐ´ÑģÑĤÐ°Ð²Ð¸ÑĤÐµÐ»Ð¸":11107,"ĠPhil":11108,"ĠAustria":11109,"Ġic":11110,"Ġexceed":11111,"Ð¿Ð°Ð´Ð°":11112,"ÐµÑĤÑĮÐ¼Ð¸":11113,"Ġfollowed":11114,"ĠÐ¼ÑıÐ³":11115,"ĠÑģÐ¾Ð¶Ð°Ð»ÐµÐ½Ð¸Ñİ":11116,"Sch":11117,"ÑĤÐ¸Ð»Ð¸":11118,"ĠMass":11119,"ÐŁÐ¾Ñĩ":11120,"ĠInf":11121,"Ġplayed":11122,"Ð´Ð¾ÑĢÑĦ":11123,"07":11124,"AK":11125,"Ġcatal":11126,"ĠÐ½Ð°Ð¼ÐµÑĢ":11127,"ĠÐ¡ÐµÐ¼":11128,"ĠÑĤÐ¾Ð²Ð°ÑĢ":11129,"Ġconcerning":11130,"ĠÐ¿Ð°Ð¼ÑıÑĤÐ¸":11131,"Ġroute":11132,"Î¿":11133,"Ð»Ð»Ðµ":11134,"allery":11135,"ÑİÑīÐ¸Ð¹ÑģÑı":11136,"ĠÐ¿ÑĢÐ¾ÑĪÐ»Ð¾Ð³Ð¾":11137,"ĠIMF":11138,"Ð¡Ð¡Ðł":11139,"RL":11140,"ÐµÑĢÑĪÐµÐ½":11141,"Ġprofit":11142,"enger":11143,"ĠAfrican":11144,"wa":11145,"osis":11146,"Ġvent":11147,"ĠÐ²ÑĭÐ¿ÑĥÑģÐº":11148,"anguage":11149,"ĠÐ¿Ð¾Ð¿Ð°":11150,"ĠÐ½Ð°ÑĨÐ¸Ð¾Ð½Ð°Ð»ÑĮÐ½Ð¾Ð¹":11151,"Ġintegrated":11152,"ĠÑĥÐ½Ð¸Ð²ÐµÑĢÑģÐ¸ÑĤÐµÑĤ":11153,"ĠÐ¼Ð¸Ð½Ð¸Ð°ÑĤÑİÑĢÑĥ":11154,"ection":11155,"inations":11156,"ĠÐ¿ÑĢÐ¾ÐµÐºÑĤÐ¸":11157,"Ġcheap":11158,"Ð¾Ð±ÑĢÐ°Ð·Ð¸":11159,"Great":11160,"ĠÐ¿Ð°ÑģÑģÐ°Ð¶Ð¸":11161,"Ġwealth":11162,"ĠÐ¿ÑĢÐ¾Ð´Ð°Ð¶":11163,"Ġmanager":11164,"Ġdecorated":11165,"Ġchallenge":11166,"gin":11167,"Ġrepe":11168,"ĠÑģÑĢÐµÐ´Ð½ÐµÐ³Ð¾":11169,"ÑİÑģÑĮ":11170,"ÐĴÐµ":11171,"Ġagencies":11172,"ĠÐºÐ¾Ð»Ð»ÐµÐºÑĤÐ¸Ð²":11173,"Ġprocedure":11174,"05":11175,"Ġcred":11176,"ĠÐ´ÐµÑĤÑĮÐ¼Ð¸":11177,"Ġalumin":11178,"Ð¡ÑĤÑĢÐ°":11179,"China":11180,"ĠÐ½ÐµÐ¿ÑĢÐ°Ð²Ð¸":11181,"ĠÐ£Ð·":11182,"197":11183,"Ġprotected":11184,"ĠAfghanistan":11185,"36":11186,"85":11187,"Ġtend":11188,"ÑįÐ½ÐµÑĢ":11189,"ĠÐ²ÐºÐ»ÑİÑĩÐ¸":11190,"well":11191,"Ãĥ":11192,"Ġweeks":11193,"Ð¾Ð±ÑīÐµ":11194,"ĠÐ¾ÑĤÐ¼Ðµ":11195,"ĠÐ´Ð¸Ð°Ð³":11196,"ĠÐ¿ÐµÑĢÐ²Ð¾Ð¼":11197,"ĠÐºÐ¾Ð¼Ð¼ÑĥÐ½Ð¸ÐºÐ°":11198,"ĠÐĶÐ°Ð½":11199,"Ġobvious":11200,"ĠÑĦÐ¸Ð½Ð°Ð½ÑģÐ¾Ð²ÑĭÐµ":11201,"Ste":11202,"ĠÐ»ÑĮ":11203,"othing":11204,"ĠÑıÐ·ÑĭÐºÐ¾Ð²":11205,"ĠGreek":11206,"Reg":11207,"isse":11208,"ĠÐ·Ð°ÐµÐ·Ð´Ð°":11209,"Ġbackground":11210,"Ð¶Ð´Ð°Ñı":11211,"pir":11212,"ams":11213,"Ġsolid":11214,"ĠÐ½ÐµÐ´Ð°Ð»ÐµÐºÐ¾":11215,"English":11216,"ÑģÐºÐ°Ð½":11217,"skaya":11218,"ĠÐ§Ð¸":11219,"Ð¾Ñı":11220,"Ġuns":11221,"ĠÑģÐ¾Ð²ÑĢÐµÐ¼ÐµÐ½Ð½Ð¾Ð¹":11222,"ktop":11223,"ĠBaby":11224,"ika":11225,"rague":11226,"Ġmulti":11227,"hal":11228,"ĠBon":11229,"ĠÐ²ÑĭÐ¿Ð»Ð°":11230,"Ġmanage":11231,"Ġcourses":11232,"Ġcapt":11233,"Ġtoile":11234,"Ġstim":11235,"ÐļÑĥÐ±Ð¾Ðº":11236,"hentic":11237,"ĠÐ³Ð°ÑĢ":11238,"ĠÐ¿Ð¾Ð»Ñı":11239,"asty":11240,"ÑģÐ°Ð´":11241,"ĠÑģÐ¿Ð¾Ñģ":11242,"ĠÐ¾Ð³ÑĢÐ°Ð½Ð¸ÑĩÐ¸":11243,"Ġimplemented":11244,"ĠÐ¿Ð¾Ð½ÑıÑĤÑĮ":11245,"ĠÐ¾ÑĢÐ³Ð°Ð½Ð¾Ð²":11246,"ÑĥÑģÑĤÐ¸":11247,"ÑĦÐµÑĢÐ°":11248,"urd":11249,"ĠÐºÐ¾Ð½ÑĨÐ°":11250,"Ġrelaxing":11251,"Ġjobs":11252,"ĠÐĽÐ°ÑĤÐ²Ð¸Ð¸":11253,"itzer":11254,"isco":11255,"ĠÑĢÐ°Ð·Ð¼":11256,"ĠGeorge":11257,"ĠÐ±Ð¾ÑĢÑĮÐ±Ñĭ":11258,"Ð»ÑİÐ·Ð¸Ð²":11259,"Ġsurv":11260,"ĠÐµÐ²ÑĢÐ¾Ð¿ÐµÐ¹ÑģÐºÐ¸Ñħ":11261,"ĠMexico":11262,"Car":11263,"ÑģÑĤÐ¾Ð¼":11264,"Ġcovered":11265,"ĠÐ¾ÑģÐ½Ð¾Ð²Ñĭ":11266,"ĠÐºÐ°Ð¶Ð´Ð¾Ð¼":11267,"Ã®Ã¢":11268,"ĠÑĤÐ¾ÑĢÐ³Ð¾Ð²ÑĭÑħ":11269,"Ġmist":11270,"Ð»Ð°ÐºÑĤÐ¸":11271,"ÐĶÐµÐ¹ÑģÑĤÐ²Ð¸ÑĤÐµÐ»ÑĮÐ½Ð¾":11272,"ÑĩÑĤÐ¾":11273,"ĠÑģÑĦÐµÑĢ":11274,"ido":11275,"ounge":11276,"Ġtransp":11277,"ĠÐ¼Ð¸ÑĢÐ¾Ð²Ð¾Ð³Ð¾":11278,"Ð¾ÑĦÐ¸":11279,"ĠSE":11280,"ĠÐ²ÑĭÐ±Ð¸ÑĢÐ°":11281,"aby":11282,"ĠFlor":11283,"Ð¾Ð»Ð¾Ð³Ð¸Ñı":11284,"ĠÐ»Ð¸Ð´ÐµÑĢÐ¾Ð²":11285,"Ġconsumption":11286,"ÃĹÃĹÃĹÃĹÃĹÃĹÃĹÃĹÃĹÃĹÃĹÃĹÃĹÃĹÃĹÃĹ":11287,"ĠÐ±ÑĢÐ°ÑĥÐ·":11288,"ĠÐ½ÐµÐ²Ð¾Ð·Ð¼Ð¾Ð¶Ð½Ð¾":11289,"ĠProvince":11290,"Situ":11291,"Ð²Ð°Ð¼Ð¸":11292,"ĠÑįÐ»ÐµÐ³Ð°Ð½ÑĤ":11293,"ĠÑħÐ¾ÑĤÑıÑĤ":11294,"ĠÐ¿Ð°Ð´":11295,"Ġmonu":11296,"Ð¾Ð±ÑĢÐ°ÑĤÑĮÑģÑı":11297,"ĠÐ¾ÑĢÐ³Ð°Ð½Ð¸Ð·Ð°ÑĨÐ¸Ñı":11298,"Ð½Ð¸Ð±ÑĥÐ´ÑĮ":11299,"Ð¶Ð°ÑĤ":11300,"Ġregarding":11301,"Ð½Ð°Ð¿ÑĢÐ¸Ð¼ÐµÑĢ":11302,"Ġship":11303,"ĠÐĴÐ°ÑģÐ¸":11304,"ĠÐ¸Ð½ÑĦÐ¾ÑĢÐ¼Ð°ÑĨÐ¸ÐµÐ¹":11305,"Ġfootball":11306,"02":11307,"Ġnation":11308,"ĠÐ³ÑĢÐµ":11309,"Ġprinciples":11310,"TML":11311,"ĠAP":11312,"ando":11313,"ÑĪÐ¸ÑĢ":11314,"Ġnearly":11315,"jo":11316,"Ġbill":11317,"Ġmal":11318,"ĠÐ°ÐºÑĤÑĥ":11319,"ÐĺÐ¼ÐµÐ½Ð½Ð¾":11320,"Ð¾Ð±Ð°Ð²":11321,"ĠÐ¿ÑĢÐ¾ÐµÐºÑĤÑĭ":11322,"ĠÐ¿Ð¾Ð²ÑĭÑĪÐµÐ½Ð¸Ñı":11323,"Ġrelationship":11324,"Ġschools":11325,"ĠÑģÐ¿ÐµÑĨÐ¸":11326,"ĠÐ¼ÐµÑģÑĤÐ°Ñħ":11327,"Ġcosy":11328,"ÑĢÑĤÑĥ":11329,"ĠÑģÐ¸Ð½":11330,"ĠMach":11331,"Ð¾ÑĩÐ½ÑĭÐµ":11332,"Ã¨s":11333,"ĠMP":11334,"Ð»Ð¾Ð²Ð¸Ñĩ":11335,"Ġdesk":11336,"ĠÐ³Ð¾Ð´Ð°Ñħ":11337,"Ġevidence":11338,"ĠÑĢÐ¸ÑģÑĥÐ½":11339,"Yet":11340,"ÐºÐ¾Ð²ÑĮ":11341,"ĠÐłÐ°Ð·":11342,"ĠÐ´Ð¾ÑģÑĤÐ¾Ð¿ÑĢÐ¸Ð¼ÐµÑĩÐ°ÑĤÐµÐ»ÑĮÐ½Ð¾":11343,"ĠÐĲÑĦÐ³Ð°Ð½Ð¸":11344,"Ð¾ÑģÐ°":11345,"Ð³Ð¸ÑģÑĤÑĢÐ°":11346,"ml":11347,"ĠAfter":11348,"Ġcompetitive":11349,"Ġdestroy":11350,"ĠÐ¾ÑĤÐ´ÐµÐ»ÑĮÐ½ÑĭÑħ":11351,"ĠNok":11352,"Ġdifference":11353,"Ġsn":11354,"ĠÐ½Ð°Ð¶Ð¼Ð¸ÑĤÐµ":11355,"ĠFestival":11356,"ÐĳÐµÑĢ":11357,"ĠÐ½Ð¾Ð²ÑĭÐ¼":11358,"34":11359,"cia":11360,"ters":11361,"Ġwants":11362,"ĠÐ´Ð²ÐµÑĢ":11363,"ĠÐ¿ÑĢÐµÐ´Ð¼ÐµÑĤ":11364,"Ġmodified":11365,"Ġplaying":11366,"UM":11367,"ÑĢÐ¸ÑĤÑĮ":11368,"ĠEr":11369,"Ġvul":11370,"ÐłÑ":11371,"ĠÐ°Ð»ÑĮÐ±Ð¾Ð¼":11372,"Ġconducted":11373,"Over":11374,"Ġanyone":11375,"ÑĤÐ¸Ð²Ð½ÑĭÐ¹":11376,"ĠForeign":11377,"ĠÑģÐ¾Ð²Ð¼ÐµÑģÑĤÐ½Ð¾":11378,"ÐºÐ¾Ð»ÑĮ":11379,"Ġspecialized":11380,"Ġappeared":11381,"ĠÐ½Ð°ÑĥÑĩÐ½Ð¾":11382,"Ð¾Ð·Ð¸ÑĤ":11383,"ÐļÐ¡":11384,"Ð¿Ð°ÑĢÐ°ÑĤ":11385,"Ð½Ð¾Ð²ÐµÐ½Ð¸Ñı":11386,"Ġkept":11387,"ĠÑĢÑĥÐ±":11388,"ĠÑģÐ¾Ð¾ÑĤÐ²ÐµÑĤÑģÑĤÐ²ÑĥÐµÑĤ":11389,"ĠÐ½ÐµÑĦÑĤÐµ":11390,"ĠDemoc":11391,"Ð½Ð¾Ð·":11392,"Ð»Ð¾ÑĢ":11393,"ĠÐµÐ¹":11394,"ĠÑģÐºÑĢÑĭ":11395,"ĠÑĥÐ´Ðµ":11396,"ĠHel":11397,"ĠÐºÐ¾ÑĤÐ¾ÑĢÐ¾Ð¼Ñĥ":11398,"Ġheating":11399,"ĠÑģÐ¾Ð²ÑģÐµÐ¼":11400,"Ġconfiguration":11401,"Ġpermanent":11402,"ĠÑīÐµ":11403,"Ġcable":11404,"Ġmort":11405,"ĠÐ³Ð¸Ð´":11406,"ĠÐ²ÑĭÑģÐ¾":11407,"Ġweight":11408,"ĠHotels":11409,"ĠÑģÐµÐ¼Ð¸Ð½Ð°":11410,"ĠÐºÐ»Ñĥ":11411,"Ġmission":11412,"ÑįÑĤ":11413,"ĠÑĢÐ°Ð·ÑĢÐ°Ð±Ð°ÑĤÑĭ":11414,"ÐĿÐ°ÑĪ":11415,"log":11416,"ĠÐ¸Ð¼Ñĥ":11417,"ĠÑģÐ¿ÐµÑĨÐ¸Ð°Ð»ÑĮÐ½Ð¾":11418,"ĠÑĤÑĢÐ°Ð½ÑģÐ¿Ð¾ÑĢÑĤÐ°":11419,"Ġintroduced":11420,"SR":11421,"hotel":11422,"Ġ`":11423,"ĠÐ´Ð½Ð¸":11424,"Ð°ÑĢÑĭ":11425,"Ð¿Ð¾Ð»Ð½Ðµ":11426,"Ġupdate":11427,"ĠÑħÑĥÐ´Ð¾Ð¶ÐµÑģÑĤÐ²":11428,"ĠÐ¸Ð·Ð´ÐµÐ»Ð¸Ñı":11429,"Ġdark":11430,"orders":11431,"azing":11432,"Ġsomeone":11433,"Once":11434,"ĠAR":11435,"Ġstone":11436,"Ð»Ð°Ð½Ð´Ð¸Ð¸":11437,"Ġfailure":11438,"Ġstars":11439,"Ð·Ð°ÑĨÐ¸Ñİ":11440,"ÐłÑĥ":11441,"ĠHealth":11442,"ĠÐ½ÐµÐ´Ð²Ð¸Ð¶Ð¸Ð¼Ð¾ÑģÑĤÑĮ":11443,"Ġrenew":11444,"ĠGreece":11445,"ĠÐ¡Ð°Ð´":11446,"Ð¾ÑĢÐ¸Ð¹":11447,"ĠÐ´ÐµÑĪÐµ":11448,"ĠÐ¾ÑĦÐ¸Ñģ":11449,"ĠÑģÑĤÑĢÐ¾Ð¸ÑĤÐµÐ»ÑĮÑģÑĤÐ²Ð¾":11450,"Ġwriting":11451,"ĠÑĥÐ±ÐµÐ´Ð¸":11452,"Ġfee":11453,"ĠÐ¾ÑĢÐ¸ÐµÐ½ÑĤÐ¸":11454,"Ġhelps":11455,"Ġequal":11456,"ĠÑĢÐ¾Ð´Ð°":11457,"ĠÐĵÐµÑĢÐ¼Ð°Ð½Ð¸Ñı":11458,"ĠÐ¼Ð¸Ð»Ð»Ð¸Ð°ÑĢÐ´Ð¾Ð²":11459,"unicipality":11460,"Ġtasks":11461,"eler":11462,"ĠÑĥÐ²Ð¸":11463,"uri":11464,"ĠÐ¿Ð¾ÑıÐ²Ð»Ñı":11465,"ĠVIP":11466,"cluding":11467,"Ð»Ð¾Ð¿":11468,"Ð³Ð¾Ð½":11469,"Ð´Ð°Ð»Ð¸":11470,"ĠÐºÐ¾Ð¼Ð¸":11471,"ĠÐ±ÑĥÐ´ÐµÑĤÐµ":11472,"ĠÑĦÐ°Ð¹Ð»Ð°":11473,"Ġcertainly":11474,"gn":11475,"ĠÐ¾Ð±ÑīÐµÐ³Ð¾":11476,"ulf":11477,"ĠRec":11478,"ĠÐ¾Ð±ÑĬÑıÐ²Ð¸":11479,"ÑģÐ¸ÐµÐ¹":11480,"ÑĪÐ°ÐµÐ¼":11481,"Ð²ÐµÐ´Ð¾Ð¼":11482,"ĠÐļÐ¾Ð½Ð´Ð¸ÑĨÐ¸Ð¾Ð½ÐµÑĢ":11483,"Ġhimself":11484,"Val":11485,"ĠÑĢÐ°Ð·ÑĢÐ°Ð±Ð¾ÑĤÐºÐµ":11486,"ĠÐºÐ¾Ð¼Ð°Ð½Ð´Ð°":11487,"Ð¾Ð»ÑĩÐ°Ð½Ð¸Ñİ":11488,"ilateral":11489,"rip":11490,"amm":11491,"ĠÑģÑĤÑĢÐ°Ð½Ð°Ð¼":11492,"ĠÐĵÐµ":11493,"ÑĢÑıÐ·":11494,"Ġamen":11495,"ĠÐĹÐµÐ¼":11496,"ĠÑĦÐ¾Ð½Ð´Ð¾Ð²":11497,"38":11498,"ĠÑĦÐµÐ´Ðµ":11499,"opes":11500,"ÐĶÑĢÑĥ":11501,"ÑĳÑħ":11502,"idden":11503,"ĠMusic":11504,"ĠÐ²Ð¾Ð²":11505,"Ġnative":11506,"ĠLux":11507,"Ġotherwise":11508,"ĠÐ¥Ð°ÑĢ":11509,"ĠÐ´ÑĢÑĥÐ³Ð¾Ð¼":11510,"ÑģÑĤÐ²Ð¾Ð²Ð°Ð»Ð¸":11511,"ĠFer":11512,"Ġpattern":11513,"ĠÐ´Ð¸ÑģÑĤÑĢÐ¸Ð±Ñĥ":11514,"ĠÐ¾ÑĤÐµÐ»ÐµÐ¹":11515,"ÑĤÐ¸ÐºÐ°":11516,"Ġearlier":11517,"ĠLiber":11518,"ĠEnd":11519,"Ġentry":11520,"Ġblue":11521,"Ġartists":11522,"iversary":11523,"Ġdram":11524,"ĠÐ¶Ð¸ÑĤÐµÐ»ÐµÐ¹":11525,"ÑĳÐ½Ð½ÑĭÐµ":11526,"ĠÑĢÐ¸ÑģÐºÐ°":11527,"Ġappears":11528,"ĠÑģÐµÑĤ":11529,"ĠMaster":11530,"irty":11531,"ĠÐĺÑĢ":11532,"Ð²ÐµÑĢÑģ":11533,"ĠÐºÐ¾Ð¼Ð¿Ð¾Ð·Ð¸":11534,"Ġaffect":11535,"ĠÑĢÐ°ÑģÐ¿Ð¾Ð»Ð°Ð³Ð°ÐµÑĤ":11536,"ĠTem":11537,"ĠÐ¿Ð°Ð¿":11538,"ĠÐ»ÑİÐ´ÑıÐ¼":11539,"ĠÐ¿ÑĢÐµÐ·ÐµÐ½ÑĤÐ°":11540,"ĠÐ¸Ð·ÑĢÐ°Ð¸Ð»ÑĮ":11541,"Ġnoise":11542,"Ġremote":11543,"Linux":11544,"TC":11545,"ÐµÑħÐ°":11546,"Ġrelevant":11547,"uma":11548,"ÐºÑĥÑĢ":11549,"inners":11550,"Ġaccepted":11551,"ĠÐ½Ð¸ÐºÐ°ÐºÐ¸Ñħ":11552,"Ð¾Ð²Ð°Ð½Ð¸ÐµÐ¼":11553,"ĠAC":11554,"ourg":11555,"ÑĤÐ¾ÑĢÐ°Ð¼Ð¸":11556,"ĠÑĢÐ°ÑģÑģÑĤÐ¾Ñı":11557,"ĠÐ¸Ð³ÑĢ":11558,"ĠÐ¼Ð°ÑģÑģÐ°":11559,"ÑħÐ¾Ð¶Ð´ÐµÐ½Ð¸Ñı":11560,"Ð³ÑĥÐ»Ð¸":11561,"ĠCanada":11562,"ĠÑĩÑĢÐµÐ·Ð²ÑĭÑĩÐ°Ð¹":11563,"ÑĩÐ¸ÐºÐ¸":11564,"scrib":11565,"ville":11566,"Ġintel":11567,"Ð£ÐºÑĢÐ°":11568,"ĠÐ²ÑĭÑģÐ¾ÐºÐ¾ÐºÐ°ÑĩÐµÑģÑĤÐ²":11569,"Ġchemical":11570,"OC":11571,"ÐµÑħ":11572,"ĠÐ·Ð°Ð´":11573,"igen":11574,"ĠÐ»ÑİÐ±ÑĭÐµ":11575,"ĠÐ½Ð¾Ð¼ÐµÑĢÐµ":11576,"Ġdescribed":11577,"Ġpick":11578,"Ġsole":11579,"ĠÐ¼Ð¾Ð³Ñĥ":11580,"ĠÐ¸Ð³ÑĢÑĥ":11581,"Ġmountains":11582,"Ġdiscover":11583,"eral":11584,"ĠPRO":11585,"Ġconvers":11586,"ĠÐŁÑĢÐ°Ð²Ð¸":11587,"conf":11588,"ĠPrix":11589,"ĠDou":11590,"ĠÑģÐ¾ÑĤÑĢÑĥÐ´Ð½Ð¸ÑĩÐµÑģÑĤÐ²Ð¾":11591,"yper":11592,"Ġ55":11593,"ĠÑĦÐ°ÐºÑĤÐ¾ÑĢ":11594,"ĠÐ¸Ð·Ð²ÐµÑģÑĤÐ½ÑĭÑħ":11595,"Ġestablishment":11596,"ĠÐ¿ÑĢÐµÐ²Ð¾ÑģÑħÐ¾Ð´":11597,"BS":11598,"TER":11599,"ÐĽÐĺ":11600,"Ġdemands":11601,"Soft":11602,"ĠAM":11603,"ĠÐ°Ð»ÑİÐ¼Ð¸":11604,"ĠÐĶÐ¼Ð¸ÑĤÑĢÐ¸":11605,"39":11606,"ĠÑģÐ¾ÐºÑĢÐ°ÑĤÐ¸":11607,"Ġep":11608,"ĠÐ¾ÑĤÐ¼ÐµÑĤ":11609,"Ġfactors":11610,"ĠÐ»Ð¸Ð´ÐµÑĢÑĭ":11611,"ĠÐ·Ð¸Ð¼Ð½Ð¸Ñħ":11612,"Ġmentioned":11613,"ÐµÑĢÑı":11614,"ĠSpecial":11615,"ami":11616,"ĠÐ»Ð¸Ð±ÐµÑĢÐ°":11617,"ÑĦÑĢÐ¸ÐºÐ°Ð½":11618,"Col":11619,"ĠÐºÐ»ÐµÑĤ":11620,"Ġdinner":11621,"irus":11622,"ĠÐ´Ð¾ÑģÑĤÐ°Ð²":11623,"ĠÐ¿ÑĢÐ¾Ð¸Ð·Ð¾ÑĪ":11624,"ĠÐ³Ð¾ÑĢÑı":11625,"ÑĢÐ¾Ð²Ð°Ð½Ð½Ð°Ñı":11626,"ĠConstit":11627,"ĠÐ¡ÐµÑĢÐ³ÐµÐ¹":11628,"Ġimpossible":11629,"ÑįÐ¼":11630,"ĠVill":11631,"ĠÐ²ÐµÑĢÐ¾ÑıÑĤÐ½Ð¾":11632,"free":11633,"Ġaf":11634,"Ġsont":11635,"ĠÐ¸Ð¼Ð¿ÐµÑĢ":11636,"ÑİÑīÐµÐ¹ÑģÑı":11637,"ĠÐ¾ÑĤÐ½Ð¾ÑĪÐµÐ½Ð¸Ñİ":11638,"Ġattacks":11639,"Ġdynamic":11640,"Ġnetworks":11641,"ĠÐºÐ°ÐºÐ¸Ñħ":11642,"Ð¡ÑĥÑīÐµÑģÑĤÐ²":11643,"ĠÐĳÑĢÐ°Ð·Ð¸":11644,"Ġcoal":11645,"ĠÐ¿Ð°ÑĢÑĤÐ½ÐµÑĢÐ¾Ð²":11646,"Ġentertainment":11647,"fortunately":11648,"ÐĨ":11649,"ĠÑĢÐµÐ°Ðº":11650,"ewhere":11651,"Note":11652,"Ġblood":11653,"ĠÑģÑĤÑĢ":11654,"ĠÐ°Ð½Ð°Ð»Ð¸Ð·Ð°":11655,"Ġbranch":11656,"ĠÐ¿Ð¾Ð»Ð¸ÑĤÐ¸ÑĩÐµÑģÐºÐ¸Ðµ":11657,"Ġassess":11658,"iterranean":11659,"ĠÐ¼Ð¾Ð½Ð¸":11660,"ĠÐ¿ÑĢÐ¸Ð³Ð¾ÑĤÐ¾Ð²":11661,"ĠÐ¡Ð¡Ð¡Ðł":11662,"crete":11663,"Ġmonetary":11664,"Ġhardware":11665,"Ġimproved":11666,"ÐŁÐ»Ð°":11667,"ĠÑĦÐµÑĢ":11668,"ĠJac":11669,"ĠÑħÐ¸":11670,"ĠExpl":11671,"ĠÐļÐ¸ÐµÐ²":11672,"ĠÑĥÐ¼Ð¾Ð»ÑĩÐ°Ð½Ð¸Ñİ":11673,"ĠHung":11674,"Ġleisure":11675,"phas":11676,"ĠÐ¤ÐµÐ´ÐµÑĢÐ°ÑĨÐ¸Ð¸":11677,"Ġsq":11678,"ĠÑĥÐ¼ÐµÑĢ":11679,"ĠÑįÐºÐ¾Ð½Ð¾Ð¼Ð¸ÐºÐ°":11680,"ĠÐ±ÑĥÐ´ÑĥÑīÐµÐµ":11681,"ĠPlace":11682,"Ġdownloading":11683,"ĠÐ¿ÑĢÐµÐ¿ÑıÑĤ":11684,"Ġpor":11685,"Ġexcess":11686,"ÐĽÑĥ":11687,"ĠÐ¼Ð¾Ð´Ðµ":11688,"ĠAgency":11689,"ĠÐ¿Ð¾Ð»Ð¾Ð¶ÐµÐ½Ð¸Ñı":11690,"ĠÑģÑĤÐ¾ÑĢÐ¾Ð½Ñĥ":11691,"ĠÐ¾ÑħÐ²Ð°":11692,"ÐŀÐĴ":11693,"ĠÐĳÐ¸Ð·Ð½ÐµÑģ":11694,"Ġfill":11695,"Ð¾Ð´Ñĭ":11696,"Ġfort":11697,"ÑģÑĤÑĢÐ°Ð¸":11698,"ĠÐºÐ°ÑĤÐµÐ³":11699,"ĠÐ¿Ð¾Ð±ÐµÑĢÐµÐ¶":11700,"ĠÐºÑĥÑħÐ½Ð¸":11701,"ĠÐºÑĢÑĥÐ¿Ð½ÐµÐ¹ÑĪÐ¸Ñħ":11702,"ÑģÐ»Ð°":11703,"ĠÐ¿ÐµÐ½":11704,"ĠÐ½Ð°ÑĪÐµ":11705,"Ð²Ð¸Ð»ÑĮ":11706,"Ġarm":11707,"ĠÐ¿ÑĢÐ¾ÑģÑĤÐ¾ÑĢ":11708,"ĠÐ³Ð¾ÑģÑĤÐ¸Ð½Ð¸ÑĨÑĭ":11709,"ĠÐ¾Ð±ÑıÐ·Ð°ÑĤÐµÐ»ÑĮÐ½Ð¾":11710,"ĠÑĢÐµÑģÑĥÑĢÑģÑĭ":11711,"Description":11712,"Ġsubsid":11713,"Ġlength":11714,"ÑĪÐµÐº":11715,"active":11716,"ĠÐ¼ÑĭÑĪ":11717,"obe":11718,"ĠÑģÐ¿ÐµÑĨÐ¸Ð°Ð»Ð¸ÑģÑĤÑĭ":11719,"ĠÐ³Ð¾Ð²Ð¾ÑĢÑı":11720,"ĠCurrency":11721,"His":11722,"ancial":11723,"Ġstra":11724,"Child":11725,"ĠÐĳÐ»Ð¸Ð¶":11726,"ÑĢÐ¾Ð²Ð°Ð½Ð¾":11727,"ĠÂĹ":11728,"Ã¶r":11729,"ĠÐ½ÐµÐ±":11730,"Ġowner":11731,"ĠÐļÑĥÑĢÐµÐ½Ð¸Ðµ":11732,"OW":11733,"pass":11734,"ÐŁÑĢÐ°Ð²Ð¸":11735,"ĠÐ¡Ñĥ":11736,"Ð¼Ð¾ÑĤÑĢ":11737,"ĠÐ½Ð°Ð·Ð²Ð°Ð½Ð¸ÐµÐ¼":11738,"sen":11739,"ĠÄ":11740,"ardens":11741,"ĠÐºÐ¾Ð½ÑģÑĤÐ¸ÑĤÑĥ":11742,"Ġadvice":11743,"ĠÑĥÐ´Ð°Ð»Ð¾ÑģÑĮ":11744,"ĠÐ¿Ð¾ÑģÐµÑĤÐ¸ÑĤÐµÐ»ÐµÐ¹":11745,"ĠSub":11746,"oli":11747,"Ġnotice":11748,"Ġminute":11749,"Ġsupports":11750,"ĠÐ´ÐµÑģÑıÑĤ":11751,"Ġcritical":11752,"Ġawarded":11753,"ĠÐ¸Ð·Ð±ÐµÐ¶Ð°ÑĤÑĮ":11754,"Ð½Ð¸ÐºÑĥ":11755,"ĠÑĥÑģÑĤ":11756,"ĠÐ½ÐµÑĥ":11757,"Ġalle":11758,"asters":11759,"ĠÐ¿ÑĢÐ¾Ð³Ñĥ":11760,"ĠÐ²Ð½Ð¸Ð¼Ð°Ð½Ð¸Ñı":11761,"ĠÐ¿Ð¾ÑĢÑıÐ´ÐºÐµ":11762,"ĠÐ¿ÐµÑĢÐµÐ³Ð¾Ð²Ð¾ÑĢÐ¾Ð²":11763,"Ġtouch":11764,"ĠGame":11765,"ÐľÐ°ÑĢÐ¸":11766,"endo":11767,"ĠÑģÐ¾Ð·Ð´Ð°Ð²Ð°ÑĤÑĮ":11768,"Ġsche":11769,"ÑĪÐ¸Ð½ÑģÑĤÐ²Ð¾":11770,"ĠÐ¿ÐµÑĢÑģÐ¾Ð½Ð°Ð»":11771,"las":11772,"ÑĤÐ¾ÑĢÐ¸":11773,"ĠÐ³Ð¾Ñģ":11774,"ĠÐĿÑĮÑİ":11775,"ĠÐ³Ð¾ÑģÑĥÐ´Ð°ÑĢÑģÑĤÐ²ÐµÐ½Ð½Ð¾Ð¹":11776,"ĠÐĳÑĥÑĪÐ°":11777,"Ġreserves":11778,"ĠÐ¿ÑĢÐµÐ´Ð¾ÑĤÐ²ÑĢÐ°":11779,"Other":11780,"cz":11781,"inct":11782,"cles":11783,"Ġ600":11784,"Ġrare":11785,"argo":11786,"ĠÑĦÑĥÐ½ÐºÑĨÐ¸Ð¾Ð½Ð¸":11787,"ĠAdminist":11788,"ĠÐ´Ð¾Ð¿Ð¾Ð»Ð½Ð¸ÑĤÐµÐ»ÑĮÐ½ÑĭÐµ":11789,"Ġwidely":11790,"rors":11791,"ĠÑĤÐµÑģÑĤÐ¸":11792,"aco":11793,"Ð²ÐµÐ»Ð¸":11794,"ÑīÐ°ÑİÑĤ":11795,"ÐµÐ½ÑĤÐ°Ð¼Ð¸":11796,"ĠÐ²ÑĭÑģÐ¾ÐºÐ¸Ð¹":11797,"ĠÐ¾Ð±Ð»Ð°Ð´Ð°":11798,"ĠÐ±ÐµÐ·Ð¾Ð¿Ð°ÑģÐ½Ð¾ÑģÑĤÑĮ":11799,"ĠÐ¿ÑĢÐ¾Ð·ÑĢÐ°":11800,"ĠCustom":11801,"udi":11802,"Ð¸Ð»ÑĮÑıÐ¼":11803,"Ð¹ÑģÐºÐ¸Ð¹":11804,"Ð¿ÐµÑĢÐµ":11805,"ÑİÐ´Ð°":11806,"ÑĪÐµÐ½Ð¸Ð¸":11807,"Ð²Ð°Ð»Ð°":11808,"utch":11809,"Ġcore":11810,"ĠOver":11811,"OV":11812,"Ġcircum":11813,"Ġdisease":11814,"Ġtitle":11815,"JSC":11816,"ĠÑī":11817,"Ġbecoming":11818,"ÐŀÐ¿Ð¸ÑģÐ°Ð½Ð¸Ðµ":11819,"ĠÑģÑĤÑĢÐ°ÑħÐ¾Ð²":11820,"Ġargu":11821,"ĠÑĢÑĭÐ½ÐºÐ°Ñħ":11822,"ĠÐ²ÑģÑĤÑĢÐµÑĩÐ¸":11823,"Ġautomatic":11824,"Ð²Ð¾Ð²":11825,"Ð²ÑĪÐ¸Ð¼":11826,"Ġdegree":11827,"aid":11828,"ĠPost":11829,"ĠRub":11830,"ÑĪÐ°ÐµÑĤÑģÑı":11831,"Ġolder":11832,"ĠCas":11833,"Ġdead":11834,"Ġmedium":11835,"Ġcontinues":11836,"ĠÐ²Ð´":11837,"Ġfruit":11838,"ÐµÐ²ÑĭÑħ":11839,"Ġarg":11840,"ĠÐ²Ð°Ð¼Ð¸":11841,"Ġstructures":11842,"ĠÐ·Ð°Ð±Ð¾Ð»Ðµ":11843,"ito":11844,"ĠÐ¿Ð¾Ð»Ð½Ð¾":11845,"avior":11846,"ĠÐ²Ð¾ÐµÐ½Ð½ÑĭÑħ":11847,"Ġlooks":11848,"ĠRevolution":11849,"ÐµÐ¶":11850,"Ġcomment":11851,"ĠÐ¸Ð½Ð¶ÐµÐ½":11852,"Ġunemp":11853,"Ġclearly":11854,"Ġpresence":11855,"ÑİÐ½":11856,"ĠLand":11857,"Ġexerc":11858,"ĠÑĢÐ°ÑģÐ¿Ð¾ÑĢÑı":11859,"Ġprogramme":11860,"ĠÐ¡Ð¾ÑİÐ·":11861,"ĠÐºÐ°ÑģÐ°ÐµÑĤÑģÑı":11862,"ĠÐĳÐ¾Ð»Ð³Ð°ÑĢÐ¸Ð¸":11863,"ĠCult":11864,"ĠÐĳÐ°Ð»":11865,"Ð¡ÐµÐ½":11866,"ĠÑģÑĤÐ°Ð½Ð´Ð°ÑĢÑĤÐ°Ð¼":11867,"Ġlovely":11868,"ĠÐ½Ð°Ð¼Ð½Ð¾Ð³Ð¾":11869,"ĠÐ½Ð°ÑģÑĤÐ¾Ð»ÑĮÐºÐ¾":11870,"ĠLast":11871,"ĠÐ¢Ð¾Ð¼":11872,"cession":11873,"ÑĥÐ±ÐµÑĢ":11874,"Ġexpansion":11875,"ĠÐ´ÐµÐ»Ð°ÑİÑĤ":11876,"ĠÐ½Ð°ÑĨÐ¸Ð¾Ð½Ð°Ð»ÑĮÐ½ÑĭÑħ":11877,"ĠÐ½Ð°ÑģÑĤÑĢÐ¾Ð¹ÐºÐ¸":11878,"Ġassociated":11879,"Ġposs":11880,"ĠÑĢÐµÐ¶Ð¸Ð¼Ð°":11881,"ĠGolden":11882,"ĠÑģÑĤÐ¸Ð¼ÑĥÐ»Ð¸":11883,"ĠÐ¡ÑĢÐµÐ´":11884,"ĠÐºÐ¾Ð½ÐµÑĨ":11885,"Ġrecovery":11886,"ĠÑģÐ¿Ð¾ÑģÐ¾Ð±Ð¾Ð¼":11887,"ĠÑĥÑģÐ¸Ð»Ð¸":11888,"Ġsusp":11889,"ĠUzbekistan":11890,"ÐµÐ¼Ð¾Ð½":11891,"Ġcorner":11892,"ĠÐĿÐĲÐ¢Ðŀ":11893,"ĠÐ¿Ð»Ð¾ÑīÐ°Ð´ÑĮ":11894,"Ġcommitted":11895,"ĠCO":11896,"Ġoffic":11897,"ĠÑĩÐ¸ÑģÐ»Ð°":11898,"ĠÑĥÐ½Ð¸Ð²ÐµÑĢÑģÐ¸ÑĤÐµ":11899,"ĠJesus":11900,"Ð¾Ð´Ð¾Ð»":11901,"ÑĤÐ¸Ð½Ð³":11902,"ÑĤÐ¾Ðµ":11903,"ÐºÐ¾ÑģÑĤÐ¸":11904,"ĠÐ¾Ð³ÑĢÐ°Ð½Ð¸ÑĩÐµÐ½Ð¸Ñı":11905,"ĠChristmas":11906,"ÂłÂł":11907,"67":11908,"PN":11909,"ĠÐĶÑĥ":11910,"Rem":11911,"Ġpaint":11912,"ĠST":11913,"ĠPR":11914,"Ġconcerns":11915,"ĠÐ½ÐµÐ´Ð°Ð²":11916,"Ð¡Ð¾Ð³Ð»Ð°ÑģÐ½Ð¾":11917,"Ð¶Ð¸ÑĤÑĮ":11918,"Ġagreed":11919,"Ġ800":11920,"Ġstudies":11921,"ĠÐ¿Ð°ÐºÐµÑĤÐ°":11922,"ĠÐĳÐµÐ»Ð°ÑĢÑĥÑģÐ¸":11923,"cap":11924,"iti":11925,"teg":11926,"Ð½Ð¾ÑģÑĤÑıÑħ":11927,"Ġconfir":11928,"ĠÑģÑĤÑĢÐ°Ð½Ñĥ":11929,"ĠÐ½Ð°Ð¿ÑĢÐ°Ð²Ð»ÐµÐ½Ð¸Ð¸":11930,"Ġnar":11931,"Ġeight":11932,"Ð½Ð¸ÑĨÑĥ":11933,"Ð¾ÑģÑĤÐµÐ¹":11934,"Ġphil":11935,"Ġice":11936,"Ġremark":11937,"ĠÐ³Ð¾ÑģÑĤÑıÐ¼":11938,"Ġelim":11939,"ĠÐºÐ²Ð°ÑĢÑĤÐ°":11940,"Ġletter":11941,"ĠArmenian":11942,"ĠÐ¾ÑĤÐ²ÐµÑĩÐ°ÐµÑĤ":11943,"Ġnegotiations":11944,"UL":11945,"ĠÐ´Ð²Ð¾":11946,"ÑĤÐµÐ»ÑĮÑģÑĤÐ²Ð¾Ð¼":11947,"ĠÐ¿Ð¾ÑģÐ»ÐµÐ´ÑģÑĤÐ²Ð¸Ñı":11948,"ÑİÑīÐ¸Ð¼ÑģÑı":11949,"Ġhospit":11950,"ĠÐ¼Ð¾Ð´ÐµÑĢÐ½Ð¸":11951,"PR":11952,"ĠÐ¼Ð¼":11953,"Ġsuite":11954,"Ġaccessible":11955,"Art":11956,"ĠLet":11957,"eren":11958,"ĠZe":11959,"Ð¾Ð¿ÑĢÐ¸ÑıÑĤ":11960,"Ġpatients":11961,"ĠÐ´Ð¾Ð³Ð¾Ð²Ð¾ÑĢÐ°":11962,"ĠÐ¿Ð¾Ð¼ÐµÑīÐµÐ½Ð¸Ñı":11963,"uh":11964,"Ġtar":11965,"Ð¾Ð²Ð¾":11966,"Ð¾ÑĢÑĤÐµ":11967,"Ð²Ð°Ð¹":11968,"ĠÐ¾Ð±Ñĥ":11969,"abet":11970,"ĠÐ¿Ð¾ÑĩÑĤÐµ":11971,"Ġmanufacturers":11972,"Ġstrugg":11973,"ĠÐ£Ð·Ð±Ðµ":11974,"ĠÐ±Ð¸ÑĢ":11975,"ĠCH":11976,"ĠÐ¾ÑĤÑĢÐ¸":11977,"ÑģÐºÐ¾ÑĢ":11978,"Ð½ÑĮÑĪÐµ":11979,"Ġpresidential":11980,"Ð²Ð°Ð¹ÑĤÐµ":11981,"ĠÐ²ÑĭÐ·":11982,"ĠÐ¸Ð½Ð¸ÑĨÐ¸Ð°":11983,"ĠÐ¿ÑĢÐµÐ´ÐµÐ»Ð°Ñħ":11984,"Because":11985,"Ġfem":11986,"Ġ1970":11987,"Ġtypical":11988,"ĠEv":11989,"ÐĺÑģ":11990,"Ð¾Ð½Ð°ÑĩÐ°":11991,"Ġfinally":11992,"ĠÐľÐ¸ÑħÐ°":11993,"Ġachieved":11994,"Ġprinciple":11995,"Ġchannel":11996,"160":11997,"ÑģÑĤÐ°Ð±Ð¸":11998,"ĠÐ·Ð°Ð¹":11999,"Ġtrial":12000,"Ġcommunities":12001,"ĠÐ¸Ð½Ð²ÐµÑģÑĤÐ¸ÑĨÐ¸Ð¸":12002,"Ã¾":12003,"unction":12004,"ÑģÑĤÐ¸ÐºÐ°":12005,"Ð¢Ñĥ":12006,"Ġtea":12007,"ĠÐ¼Ð¸Ð»Ð»Ð¸Ð¾Ð½Ð°":12008,"\")":12009,"mann":12010,"ÅĦ":12011,"ownt":12012,"ĠÐ»ÐµÐºÐ°ÑĢ":12013,"ĠÑģÑĥÑīÐµÑģÑĤÐ²ÑĥÑİ":12014,"ĠÑģÐ¾Ð³Ð»Ð°ÑģÐ¸":12015,"ĠÐ²ÑĭÑģÑĤÐ°Ð²ÐºÐµ":12016,"ĠSMS":12017,"ÑģÐºÐ¾ÑħÐ¾Ð·ÑıÐ¹":12018,"ĠÐ²Ð¾ÑģÑĤ":12019,"Ġpara":12020,"Ġrepresentative":12021,"ĠÐ¼ÑĥÐ·ÐµÐ¹":12022,"Les":12023,"ĠÐľÐ°Ð½":12024,"Ġformed":12025,"ĠÐ¾Ð¿ÑĭÑĤÐ¾Ð¼":12026,"bed":12027,"gi":12028,"Ð¼Ð¾Ð¼":12029,"Ð¾Ð±Ðµ":12030,"ĠÐ¿Ð¾Ð·Ð½Ð°":12031,"ĠÐ¼ÐµÑģÑıÑĨÐ°":12032,"eless":12033,"ĠÑĤÐºÐ°":12034,"ĠÐ²Ð°ÑĪÐ¸Ñħ":12035,"Ġ68":12036,"ĠÑģÐ°Ð¹ÑĤÐ¾Ð²":12037,"Ġdirector":12038,"ĠÐ·Ð°Ð´Ð°ÑĩÐ°":12039,"Ġholidays":12040,"ĠÐ·Ð°ÐºÐ¾Ð½Ð°":12041,"Ġmatt":12042,"under":12043,"Ġstreets":12044,"ÑģÐºÑĥÑĢ":12045,"ĠÑģÑĤÐ°ÑĢÑĭ":12046,"eller":12047,"Ã¼n":12048,"Ġincor":12049,"Ġsom":12050,"ĠPrague":12051,"ĠDead":12052,"Ġemployment":12053,"ĠÑĪÐºÐ¾Ð»Ñĭ":12054,"Two":12055,"ls":12056,"Ġball":12057,"Ġeyes":12058,"ĠÐ¸Ð·Ñĭ":12059,"ĠÐĵÑĢÑĥ":12060,"Ġconfirm":12061,"Ġreplace":12062,"Îµ":12063,"Ġtherm":12064,"Ð±Ð¾Ð²":12065,"ĠÐ¼ÐµÐ»":12066,"ĠÐ¼ÐµÐ¶":12067,"Ġ64":12068,"ĠÐ¾ÑĤÑĢÐ°Ñģ":12069,"ĠÐºÐ¾Ð½ÑĨÐµÑĢ":12070,"Ġqualified":12071,"Ã´tel":12072,"ĠÐ·Ð²Ð¾Ð½":12073,"nam":12074,"ĠÐ¾Ð±ÑĢÐ°Ð·Ð¾Ð²Ð°Ð½Ð¸Ðµ":12075,"Ġrecommended":12076,"Ġupdated":12077,"Ð²Ð¾Ð»ÑĮ":12078,"ĠÐ½Ð°ÑĩÐ°Ð»":12079,"Ġwhom":12080,"ÐľÐĲ":12081,"Ġseven":12082,"ÐºÐ¾Ð½Ð¾Ð¼":12083,"Ġcenters":12084,"Ġdecade":12085,"ĠÐ¸Ð½ÑĤÐµÑĢÐµÑģÑĭ":12086,"ĠÐºÐ¾Ð½ÑĦÐ¸Ð³Ñĥ":12087,"lik":12088,"usion":12089,"ĠÐ¾ÑĤÐ´Ð°":12090,"ĠÐ²ÑĭÐ±Ð¾ÑĢÐ°":12091,"ĠÐ¿ÑĢÐµÐ´ÑģÑĤÐ°Ð²Ð¸ÑĤÑĮ":12092,"ovsky":12093,"Ð¶Ð°ÐµÑĤÑģÑı":12094,"ĠShow":12095,"ĠÐ·Ð°Ð¿Ð»Ð°":12096,"ĠÑģÑĥÐ¼Ð¼Ñĥ":12097,"Ġconsequences":12098,"ji":12099,"sites":12100,"Ġrein":12101,"Ð³Ð°Ð»":12102,"ĠCharles":12103,"Ġ48":12104,"ĠÐ²Ð¸ÑĢÑĤÑĥ":12105,"ĠÑĢÐµÐ·ÐµÑĢÐ²":12106,"ĠÐ¸ÑģÑĤÐ¾ÑĢÐ¸Ñı":12107,"ĠÐ¶Ð¸Ð²Ð¾Ð¿Ð¸Ñģ":12108,"ĠÐ·ÐµÐ¼Ð»Ð¸":12109,"ĠÐ·Ð°Ð³ÑĢÑĥÐ·ÐºÐ¸":12110,"áĥĺáĥ":12111,"reland":12112,"Ġwalls":12113,"ĠÐ¿ÑĢÐ¾ÐµÐº":12114,"ĠÐ¸ÑģÐ¿ÑĢÐ°Ð²":12115,"Ġcommission":12116,"ĠÐ³Ð¾Ð²Ð¾ÑĢÑıÑĤ":12117,"ÑģÑĤÐ²ÐµÐ½Ð½Ð¾Ð³Ð¾":12118,"Ġobserv":12119,"ĠÐķÐ²ÑĢÐ¾Ð¿Ð°":12120,"ĠÑģÐ¾ÑĨÐ¸Ð°Ð»ÑĮÐ½Ð¾Ð¹":12121,"ÑĨÐµÐ¼":12122,"ĠÐ½Ð°Ñĩ":12123,"Ġreference":12124,"Ð¾Ð±Ð½Ð¾Ð²":12125,"ĠTs":12126,"ĠÐĴÐ°Ð»":12127,"ĠWM":12128,"ÐµÐ½ÑĤÐ¾Ð¼":12129,"ĠÑĥÐ½Ð¸Ð²ÐµÑĢÑģÐ¸ÑĤÐµÑĤÐ°":12130,"Ġvictim":12131,"ĠChildren":12132,"ÐºÑģÐ°":12133,"Ð»Ð°ÑģÑģ":12134,"ĠÑĢÐ°Ð½ÑĮÑĪÐµ":12135,"oses":12136,"Ð¼ÐµÐ½ÑĤÐµ":12137,"Ġ38":12138,"ĠÐŃÐ½":12139,"AH":12140,"fers":12141,"Åį":12142,"Ð¿Ð¿":12143,"Ġbusinesses":12144,"ĠÐ¸Ð´ÐµÐ¸":12145,"ĠÐŀÐ±Ð¼ÐµÐ½":12146,"Ġfather":12147,"ĠÐ¾Ð±ÑīÐµÑģÑĤÐ²ÐµÐ½Ð½Ð¾Ð³Ð¾":12148,"ĠÑĥÑģÐ¿ÐµÑħÐ°":12149,"ĠÐ´Ð¾ÐºÑĥÐ¼ÐµÐ½ÑĤÑĭ":12150,"ĠÐ¸Ð½ÑĤÐµÐ»Ð»ÐµÐºÑĤÑĥ":12151,"Ð´Ð²Ð¸":12152,"ader":12153,"ĠEs":12154,"ĠÐŀÐ´":12155,"Ð»Ð¾Ð¶ÐµÐ½Ð¸Ñı":12156,"Ġrefriger":12157,"ĠÐ¿Ð¾ÐºÐ°Ð·Ð°Ð½":12158,"ÐŁÐ¾ÑģÐ»ÐµÐ´":12159,"Ġmonitoring":12160,"ĠÐ¼ÑĥÑģÑĥÐ»ÑĮÐ¼Ð°Ð½":12161,"Ġurg":12162,"Ġbri":12163,"ĠRights":12164,"ĠÑģÐ²Ð¾Ð±":12165,"Ġconfidence":12166,"inf":12167,"ĠSund":12168,"ÑĢÑĥÑı":12169,"ĠÑĦÑĢÐ°":12170,"ĠÐĽÐ¾Ð½Ð´":12171,"Ġflu":12172,"ĠNews":12173,"ĠÐ¸Ð³ÑĢÐ°ÑĤÑĮ":12174,"ĠÐ½ÐµÐ·Ð°Ð²Ð¸ÑģÐ¸Ð¼":12175,"ĠÐ°ÐºÑĤÐ¸Ð²Ð¸":12176,"ancing":12177,"ĠPHP":12178,"ĠÐºÐ¾Ð¼Ð±Ð¸Ð½Ð°":12179,"Ð¢ÐµÑĢ":12180,"Ġarms":12181,"ĠAirconditioning":12182,"ĠBaltic":12183,"iri":12184,"ĠAst":12185,"ĠÐ½ÐµÐµ":12186,"Ð°Ð½Ð³":12187,"ĠÐ³Ð¾ÑģÑĥÐ´Ð°ÑĢÑģÑĤÐ²Ð¾":12188,"ÃŃÃ®":12189,"ĠÐ°ÐºÑĨÐ¸Ð¾Ð½":12190,"Ġera":12191,"ĠÑįÐºÑģÐ¿Ð»ÑĥÐ°ÑĤÐ°ÑĨÐ¸Ð¸":12192,"ÑĩÐºÐ°":12193,"ĠÐ°Ð´Ð°":12194,"amber":12195,"ĠÑĢÐµÐ¿":12196,"Ġcontrast":12197,"Ġroot":12198,"ĠÐ»ÑİÐ±ÑĭÑħ":12199,"ĠÐĺÑģÐ¿Ð°Ð½Ð¸Ð¸":12200,"eff":12201,"Ġconfort":12202,"Ġdecre":12203,"ĠÐ¿Ð¾Ð´ÑħÐ¾Ð´Ð¸ÑĤ":12204,"ervation":12205,"Ġrob":12206,"ÑĩÐµÐ½Ð½ÑĭÑħ":12207,"Ġrepresents":12208,"ÐŀÑĤÐºÑĢÑĭ":12209,"ĠÑĥÑģÑĤÑĢÐ¾Ð¹ÑģÑĤÐ²":12210,"appe":12211,"Ġstayed":12212,"bor":12213,"erg":12214,"Ð´Ð°ÑĨÐ¸Ð¸":12215,"ĠÐ¿Ð¾Ð´ÑĢÐ°Ð·":12216,"Ð»Ð¾Ðµ":12217,"Ġdescription":12218,"Ġrecognized":12219,"Ġliberal":12220,"ĠÑįÐºÑĢÐ°":12221,"Ð¢Ð¾Ð»ÑĮÐºÐ¾":12222,"Ġ37":12223,"ĠÑĢÐ°Ð±Ð¾ÑĤÐ½Ð¸ÐºÐ¾Ð²":12224,"ĠÑĢÑĭÐ½ÐºÐ¾Ð²":12225,"ĠÐ¿Ð¾ÑĩÑĤÑĭ":12226,"ĠIsraeli":12227,"Ġexactly":12228,"Ðģ":12229,"ĠÐ²ÑģÐµÐ¾Ð±":12230,"Ġemphas":12231,"ĠÐ¸Ð½ÑģÑĤÑĢÑĥÐ¼ÐµÐ½ÑĤÐ¾Ð²":12232,"ĠÑĢÐ°ÑģÑħÐ¾Ð´Ð¾Ð²":12233,"ĠÑĤÐµÑĢÑĢÐ¾ÑĢÐ¸Ð·":12234,"Ġvirtual":12235,"iÃ³n":12236,"enced":12237,"ĠLive":12238,"acing":12239,"Ð¢Ð¾ÑĢ":12240,"ĠÐ±Ð°Ð·Ñĭ":12241,"ĠÐ¾Ð¿ÐµÑĢÐ°ÑĨÐ¸Ð¹":12242,"ĠÐ³Ð¾Ð²Ð¾ÑĢÐ¸":12243,"AF":12244,"UB":12245,"ĠBC":12246,"sia":12247,"ĠÐĴÐ°ÑĪÐ¸":12248,"anna":12249,"ĠÐ¿ÑĢÐ¾Ð´Ð²Ð¸Ð¶":12250,"ĠÑĪÐ¸ÑĢÐ¾ÐºÐ¾":12251,"Ġreduced":12252,"ĠÑĩÐµÑĤÑĭÑĢÐµÑħ":12253,"Ð²Ð°ÑİÑīÐ¸Ñħ":12254,"Ġsalle":12255,"ĠTerrace":12256,"ĠÐ½Ð°ÐºÐ¾Ð½ÐµÑĨ":12257,"ĠCall":12258,"ĠDog":12259,"Ġvast":12260,"ĠÐ¡ÐĿÐĵ":12261,"ÐºÐ¾Ð²ÑĭÑħ":12262,"International":12263,"ĠÐ¢Ð°Ð¹":12264,"ĠÑĥÑĢÐ¾Ð²Ð½ÐµÐ¼":12265,"Besides":12266,"ĠÐ²Ð¿Ð¾Ð»Ð½Ðµ":12267,"ikol":12268,"ÑĪÐ°ÑİÑĤ":12269,"Ġdishes":12270,"ÑıÑĤÐ¸Ðµ":12271,"Ġmostly":12272,"ĠÐ¿ÐµÑĢÐ²ÑĭÐµ":12273,"zz":12274,"ĠÐ¾Ð±Ñģ":12275,"Ġamenities":12276,"len":12277,"ĠÐ¿ÑĢÐ¸Ñĩ":12278,"rome":12279,"Ð»ÐµÐ½Ð½Ð¾Ð³Ð¾":12280,"Ġspent":12281,"Ġspring":12282,"Ġethn":12283,"ÑģÐ»ÐµÐ´Ð¾Ð²Ð°":12284,"ĠÐĶÐ¶ÐµÐ¹":12285,"Ġchanging":12286,"ĠÐ¾Ð¿Ð»Ð°ÑĤÑĭ":12287,"ĠÐ¿Ð¾Ð¶ÐµÐ»Ð°":12288,"Ġsurrounded":12289,"ĠÐ²ÑĭÐ±Ð¾ÑĢÐ°Ñħ":12290,"Ġvulner":12291,"rary":12292,"oration":12293,"ĠÐºÐ¸Ð»":12294,"otic":12295,"ĠLong":12296,"ĠDol":12297,"ivered":12298,"ÑĩÑĥÐ²":12299,"ÐĹÐ°Ð¼":12300,"ĠÐ´Ð°Ð»ÐµÐºÐ¾":12301,"ĠÐĴÐ°ÑĪÐ¸Ð¼":12302,"ĠÑģÐ¾Ð·Ð´Ð°Ð½Ð¸Ð¸":12303,"ÑĢÐµÐ½Ð°":12304,"Ġregister":12305,"ĠTrade":12306,"Â¿":12307,"ÑģÐ¿Ð¾ÑĢÑĤ":12308,"Ð¸ÑĤÐ½ÐµÑģ":12309,"ĠMediterranean":12310,"Ġhousing":12311,"Ġorders":12312,"ĠÐ¦ÐµÐ½ÑĤÑĢÐ°Ð»ÑĮÐ½Ð¾Ð¹":12313,"etherlands":12314,"San":12315,"ĠÐ¾ÐºÐ°":12316,"Ġcolour":12317,"Ġscen":12318,"ÑĢÐ°Ð±Ð¾ÑĤÐ¸":12319,"ĠÐºÐ¾Ð½ÑĨÐ¾Ð²":12320,"rust":12321,"Ġaux":12322,"Ð²ÐµÑģ":12323,"ÐĳÐµÐ»":12324,"ÑĤÐ¸Ð²Ñĭ":12325,"Ġhelped":12326,"augh":12327,"ĠÐ¿Ð¾Ð»Ð¾Ð¶Ð¸ÑĤÐµÐ»ÑĮ":12328,"going":12329,"Ð½Ð¸ÐºÐµ":12330,"ĠDNS":12331,"ÑĢÐ¾ÑģÐ¾":12332,"Ġpleasure":12333,"band":12334,"ĠÑģÐ²Ð¾ÐµÐ¼Ñĥ":12335,"ĠÑĢÐ°ÑģÐ¿Ð¾Ð»Ð¾Ð¶ÐµÐ½Ñĭ":12336,"Ġvalu":12337,"ĠÐ¿ÑĢÐ¸Ð½ÑıÐ»Ð¸":12338,"ĠÐ¿ÐµÑĢÑģÐ¾Ð½Ð°Ð»Ð°":12339,"Ð²Ð°ÑĤÐ¸":12340,"ĠÐĳÐ¾Ð»ÑĮ":12341,"ĠÐ½Ð°ÑģÐºÐ¾Ð»ÑĮÐºÐ¾":12342,"Ġfinished":12343,"Ð·Ð´Ð¾ÑĢÐ¾Ð²":12344,"Ġcas":12345,"ĠCard":12346,"ĠÐ¾ÑĤÐ¿ÑĢÐ°Ð²Ð¸":12347,"Ð¾Ð¿Ð¾Ð»Ð¾Ð¶":12348,"ÐłÐµÐ·":12349,"55":12350,"Sw":12351,"Ð½Ð¾Ð³":12352,"ĠÑĤÐµÑĢÐ°":12353,"ĠYoung":12354,"ĠÑĤÐ¾Ð²Ð°ÑĢÑĭ":12355,"Ġafford":12356,"Ġmac":12357,"Ð°Ð»ÑĮÐ½ÑĥÑİ":12358,"ĠÐ¿ÑĢÐµÐ´Ð¾ÑģÑĤÐ°Ð²Ð¸":12359,"2006":12360,"ĠOnline":12361,"ĠÐĺÑĢÐ°Ð½Ð°":12362,"Ġstrength":12363,"Ð¼Ð¾ÑĤÑĢÐ¸ÑĤÐµ":12364,"ĠÐ¡Ð²ÑıÑĤ":12365,"ĠÐ²ÑĢÐµÐ´":12366,"ĠÐ·Ð°Ð²ÑĤÑĢÐ°":12367,"ĠBa":12368,"ĠÐ°ÐºÑĨÐ¸Ð¹":12369,"Ġrising":12370,"Ġfestival":12371,"Ð±ÐµÑĢÐµ":12372,"Ġbound":12373,"Ġaudio":12374,"ĠÐ°Ð¿Ð¿Ð°ÑĢÐ°":12375,"European":12376,"ÑħÐ½Ð¾Ð»Ð¾Ð³Ð¸":12377,"icip":12378,"Ġoverall":12379,"ĠÐºÑĥÐ¿Ð¸ÑĤÑĮ":12380,"ĠÐ¸Ð½ÑģÑĤÑĢÑĥÐ¼ÐµÐ½ÑĤÐ°":12381,"Ġdollars":12382,"ÑīÐ¸ÑĤ":12383,"Ġlegislation":12384,"47":12385,"yb":12386,"ÄĻ":12387,"itarian":12388,"ĠÐ·Ð°Ð²ÐµÐ´":12389,"Ð»ÐµÑĢÐµ":12390,"ĠDig":12391,"ĠVien":12392,"ĠInvest":12393,"Ġtourism":12394,"ĠMel":12395,"ĠStep":12396,"ĠÐ¿Ð¾Ð»ÑĮÐ·Ð¾Ð²Ð°ÑĤÑĮÑģÑı":12397,"ĠÐŀÐ±ÑĬÐµÐ´Ð¸Ð½":12398,"Ġsides":12399,"Ð³ÑĢÐ°Ð½":12400,"ÑıÐ·Ð²Ð¸":12401,"Ð½ÐµÐ½Ð¸Ð¹":12402,"Ð½Ð¸Ð»":12403,"Ð½Ð¸ÑĨÐ¸":12404,"ĠÐ´Ð¾Ð±Ñĭ":12405,"ĠÑįÐ»ÐµÐ¼ÐµÐ½ÑĤÐ¾Ð²":12406,"ĠÐ¼ÐµÑħÐ°Ð½Ð¸Ð·Ð¼":12407,"arium":12408,"Ð²Ð¸ÑĤ":12409,"Russia":12410,"ĠÑģÑĨÐµÐ½Ð°":12411,"Ð»ÑıÐ¼Ð¸":12412,"ĠMo":12413,"Ġwithd":12414,"Ġ1960":12415,"ĠÐ¿Ð¾Ð»ÑĥÑĩÐ°ÐµÑĤ":12416,"ĠÑįÐºÐ¾Ð½Ð¾Ð¼Ð¸ÐºÐµ":12417,"Ġallowing":12418,"ĠÑģÑĤÐ°ÑĤÑĮÐ¸":12419,"ĠÐŃÐºÑģÐ¿ÑĢÐµÑģÑģ":12420,"uv":12421,"ÑģÐµÐ¹":12422,"ĠÑĦÐ°Ðº":12423,"ĠÐ²Ð¾Ð·Ð³Ð»Ð°":12424,"ĠÑĤÑĢÑĥÐ±":12425,"Ġannounce":12426,"fol":12427,"rong":12428,"inating":12429,"Ð´Ð¾Ð½":12430,"Ġbars":12431,"ĠCold":12432,"ĠRail":12433,"Ð´ÐµÐ½ÑĨÐ¸Ð°Ð»ÑĮ":12434,"Ġevalu":12435,"Ġapproximately":12436,"ĠÑįÑĦÑĦÐµÐºÑĤÐ¸Ð²Ð½Ð¾ÑģÑĤÐ¸":12437,"ĠÐĲÐ½Ð´ÑĢÐµ":12438,"ĠÐ¾Ð¿ÑĢÐµÐ´ÐµÐ»Ð¸ÑĤÑĮ":12439,"EW":12440,"Ð¸s":12441,"Ð»ÐµÐ³Ð°":12442,"ÐķÐľ":12443,"ĠÐ¿Ð¾Ð²ÑĢÐµ":12444,"Ġbedrooms":12445,"LC":12446,"Ġdas":12447,"ÑĤÐ¸ÐºÐ¸":12448,"iva":12449,"ĠÐ´ÑĢÑĥÐ³Ð¾Ð³Ð¾":12450,"ĠÐļÐ¾Ð½ÑģÑĤÐ°Ð½":12451,"ĠÐ²Ð¾Ð¹Ð½Ð°":12452,"ĠÑģÑĩÐ¸ÑĤÐ°ÑİÑĤ":12453,"Ġprocedures":12454,"Get":12455,"fox":12456,"ading":12457,"ĠÐľÐ¸Ð½":12458,"ĠIntel":12459,"ĠAmericans":12460,"ĠManager":12461,"ĠÐ´ÑĥÑħÐ¾Ð²":12462,"ĠÐ²Ð¾Ð·ÑĢÐ°ÑģÑĤÐµ":12463,"ĠÐ¾Ð¿ÑĢÐµÐ´ÐµÐ»":12464,"ĠWilliam":12465,"ĠÐ½Ð°Ð¿Ð°Ð´":12466,"Ð¾ÐºÑģ":12467,"ĠGmb":12468,"enda":12469,"Ġweather":12470,"hof":12471,"atus":12472,"ĠÑģÐ¿Ð¾ÑĢÑĤÐ°":12473,"Ġconstantly":12474,"ĠÑģÐ¾ÑĤÑĢÑĥÐ´Ð½Ð¸ÐºÐ¸":12475,"ĠÐ·Ð°Ð´Ð°ÑĩÐ¸":12476,"ĠÐ¿Ð¾Ð»ÑĥÑĩÐ¸ÑĤÐµ":12477,"lamic":12478,"Ð¾ÑĤÐµÐ»ÑĮ":12479,"Ð¤Ð¾ÑĢ":12480,"Ġeasier":12481,"Ġkilomet":12482,"Ġintellectual":12483,"cers":12484,"ĠÐ·Ð°Ð±Ñĭ":12485,"Ð²Ð¸Ð¹":12486,"ĠÐĵÑĥ":12487,"ĠÐ¼ÑĥÐ¶ÑĩÐ¸Ð½":12488,"Ġmere":12489,"Ġheavy":12490,"oute":12491,"ĠÐ¿Ð¾ÑģÐ¼Ð¾ÑĤÑĢÐµÑĤÑĮ":12492,"ĠIndian":12493,"ÑĤÐµÑħÐ½Ð¸":12494,"Pol":12495,"Ġauf":12496,"ensive":12497,"Ġcocktail":12498,"ete":12499,"ĠÐºÐ°ÐºÐ¸Ð¼":12500,"unning":12501,"ĠÃĳ":12502,"Ð·Ð¸Ð´ÐµÐ½ÑĤÐ°":12503,"ĠÐ¿Ð°ÐºÐµÑĤÐ¾Ð²":12504,"ÑĥÐ±Ð»Ð¸Ñĩ":12505,"ĠÐ²ÑĭÐ±ÑĢÐ°":12506,"ĠÐ¸Ð·Ð²ÐµÑģÑĤÐ½Ð¾":12507,"ĠÐ¾Ð±Ð½Ð¾Ð²Ð»ÐµÐ½Ð¸Ñı":12508,"ĠÐĺÑĢÐ°ÐºÐµ":12509,"ĠÑĥÐ²ÐµÐ»Ð¸ÑĩÐµÐ½Ð¸Ðµ":12510,"ĠÑģÐ¾Ð²ÑĢÐµÐ¼ÐµÐ½Ð½ÑĭÐµ":12511,"prene":12512,"ÑĢÐ¾Ð²Ð¾Ð´Ð½Ð¾Ð¹":12513,"ĠÐ¿ÑĢÐµÐ´Ð¾ÑģÑĤÐ°Ð²Ð»ÐµÐ½Ð¸Ñı":12514,"itzerland":12515,"ÑĢÐ¾Ð¶Ð°":12516,"Ġtheory":12517,"ĠMess":12518,"ĠÑģÐ°Ð¼Ð¾Ð»":12519,"Ġdelivered":12520,"lt":12521,"owned":12522,"Ġpositions":12523,"ĠNokia":12524,"ĠÐļÐ¾":12525,"thod":12526,"Ð±Ð¾ÑĤÐ°":12527,"ĠÐ¸Ð·Ð¾Ð±ÑĢÐ°Ð¶ÐµÐ½Ð¸Ðµ":12528,"Ġliked":12529,"Ġresidential":12530,"ĠÐ¿ÑĥÐ½ÐºÑĤ":12531,"ĠÑĥÐ½Ð¸ÑĩÑĤÐ¾Ð¶":12532,"ÑĪÐµÐ½Ð¸ÐµÐ¼":12533,"ĠÑĥÐ´":12534,"ĠCasino":12535,"Ġyouth":12536,"ĠÐ¿ÐµÑĢÐ²ÑĭÐ¼":12537,"Ġsurpris":12538,"ĠÐ¿Ð¾ÐºÐ°Ð·ÑĭÐ²Ð°ÐµÑĤ":12539,"ĠÐļÐ°Ð½Ð°":12540,"Ð¾Ð³ÑĢÐ°ÑĦÐ¸Ñı":12541,"ĠÐ¿ÑĢÐ¸Ð»Ð¾Ð¶ÐµÐ½Ð¸Ñı":12542,"Ġtab":12543,"ĠÑģÐµÑĢÐµÐ´":12544,"ĠÐ¿Ð»Ð°Ð²Ð°":12545,"ĠTeam":12546,"ĠProfess":12547,"tor":12548,"ĠÑģÐ¾ÑģÑĢÐµÐ´":12549,"alin":12550,"Ġlobby":12551,"ĠMoney":12552,"pective":12553,"market":12554,"ĠÑģÐ¼ÐµÑĢÑĤÐ¸":12555,"ĠÑģÐ¾Ð¾Ð±ÑīÐµÑģÑĤÐ²Ð°":12556,"Ð»Ð¾Ð±Ð°":12557,"ĠÐ´Ð¾Ñģ":12558,"istry":12559,"Ġdeals":12560,"ĠEN":12561,"ĠÐĴÐ°ÑĢ":12562,"Ġremove":12563,"ĠÐ¼Ð¸ÑĢÐ¾Ð²ÑĭÑħ":12564,"ĠÐ¾ÑĨÐµÐ½ÐºÐ¸":12565,"ĠÑįÐºÑģÐºÐ»ÑİÐ·Ð¸Ð²":12566,"ĠÐ²ÑĢÑĥ":12567,"edy":12568,"ĠAward":12569,"ĠÑįÐ¿Ð¾":12570,"Ġcenturies":12571,"ĠÐ²ÑģÑĤÑĢÐµÑĩÐ°":12572,"ÙĦ":12573,"leks":12574,"rack":12575,"ĠÐ¿ÑĢÐ¸ÑĩÐ¸Ð½Ð°":12576,"ÑĳÑĤÑģÑı":12577,"Ġsphere":12578,"ĠÐ¾Ð±ÑĬÑıÐ²":12579,"Ġdepends":12580,"Ġretail":12581,"ĠMedia":12582,"Ð´ÑĮÐ¼Ð¸":12583,"ĠÐ¾Ð¿ÑĢÐ°Ð²":12584,"Ð»Ð¸Ð½Ð°":12585,"Ġlies":12586,"perial":12587,"ĠÐ²ÑĭÑģÐ¾ÐºÐ¾":12588,"Why":12589,"Ġ1988":12590,"ĠÑĤÐ°Ð±Ð»Ð¸":12591,"Ġelement":12592,"Ġclassic":12593,"ĠÑģÐµÐ»ÑĮÑģÐºÐ¾ÑħÐ¾Ð·ÑıÐ¹":12594,"bird":12595,"ĠÐ´Ð²Ð¾ÑĢ":12596,"ÑĢÐ¸ÑģÑĤ":12597,"ĠAS":12598,"Ġimpl":12599,"ĠÐĵÐµÐ½ÐµÑĢÐ°":12600,"Ġdiagn":12601,"Ġvehicles":12602,"ĠNATO":12603,"ĠHolid":12604,"looking":12605,"ĠÐºÐ°ÑĢÑĤÐ¾Ñĩ":12606,"ĠÐ¿ÐµÑĢÐ¸Ð¾Ð´Ð°":12607,"ĠÐºÐ¾Ð¼Ð¿ÑĮÑİÑĤÐµÑĢÐ°":12608,"ĠÐ´Ð¾ÑĢÐ¾Ð³":12609,"ĠÐ²Ð¼ÐµÑĪÐ°":12610,"ĠÑĥÑĩÐµÑĤÐ¾Ð¼":12611,"lan":12612,"Ġmir":12613,"ĠLos":12614,"oven":12615,"ĠÐ±ÐµÐ·ÑĢÐ°Ð±Ð¾ÑĤÐ¸":12616,"ĠÐ¸Ð¼ÐµÑİÑĤÑģÑı":12617,"ĠÐ¾Ð±Ð»Ð°Ð´Ð°ÐµÑĤ":12618,"ĠÑģÑĤÑĥÐ´ÐµÐ½ÑĤÐ¾Ð²":12619,"Ġimmig":12620,"field":12621,"ĠÐ¼Ð°Ðº":12622,"Ġquarter":12623,"ÐŁÐ¾ÑģÐº":12624,"Ġcertificate":12625,"ĠÐºÑĢÐ¾Ð²Ð°ÑĤÑıÑħ":12626,"ĠGmbH":12627,"Bank":12628,"ĠÐ¡ÐľÐĺ":12629,"ÑĤÐ¸Ð²Ð½Ð¾":12630,"ĠDev":12631,"ĠÐ°Ð²ÑĤÐ¾ÑĢÐ¸":12632,"ĠÐ¿ÑĢÐ¾ÑĤÐ¾ÐºÐ¾Ð»":12633,"Ð»Ð°Ð¹":12634,"iled":12635,"utely":12636,"Ġgenerally":12637,"ĠÐ¸Ð½ÑĤÐµÑĢÐµÑģÐ¾Ð²":12638,"Japan":12639,"Ð´Ð¾Ð²Ð°":12640,"Ġfish":12641,"ĠSen":12642,"ĠAtt":12643,"ĠBug":12644,"ÐľÐ°Ðº":12645,"Ġchamp":12646,"ĠÑĤÐµÐºÑģÑĤÐ¾Ð²":12647,"ÑĢÐ¾Ð²Ð°Ð½Ð½ÑĭÐ¼":12648,"ĠÐ¿Ð¾Ð±Ðµ":12649,"Ġimprovement":12650,"Ġadults":12651,"ĠÑĦÑĥÐ½Ð´Ð°Ð¼ÐµÐ½ÑĤÐ°":12652,"Os":12653,"ĠÐ¼Ð¾Ð¸":12654,"ĠÐ½Ð°ÑĢÐ¾Ð´Ð°":12655,"ĠÐ¾Ð±ÑģÑĤÐ°Ð½Ð¾Ð²":12656,"ĠTop":12657,"Ġspot":12658,"ĠÐ¿Ð¾ÑģÐ»ÐµÐ´ÑģÑĤÐ²Ð¸":12659,"Ġdriver":12660,"ĠÑĤÑĢÑĥÐ´Ð½Ð¾":12661,"Ġvoice":12662,"Ġadopted":12663,"ÐŁÐ¾ÑģÐºÐ¾Ð»ÑĮÐºÑĥ":12664,"can":12665,"ĠFar":12666,"ĠÐ¿ÑĢÐµÐ¿Ð°ÑĢÐ°":12667,"Ġresolution":12668,"Ġrelatively":12669,"ĠÐ±ÑĥÑħ":12670,"Ġreasonable":12671,"Ġcommitment":12672,"ĠÐ¿ÑĢÐ¸Ð½ÑıÑĤÐ¸Ñı":12673,"ĠÐ·Ð°ÑıÐ²Ð¸Ð»":12674,"ĠÑģÐ¿ÐµÐºÑĤÑĢ":12675,"Ġdining":12676,"ĠAccess":12677,"ĠÐ¿ÑĢÐ¾Ð¸Ð·Ð²Ð¾Ð´ÑģÑĤÐ²Ðµ":12678,"urban":12679,"rants":12680,"ti":12681,"Ġori":12682,"Ð½Ð¸ÑĤÐ°ÑĢ":12683,"Ð²ÑĭÐ¼Ð¸":12684,"ÐŁÑĢÐ¾Ð³ÑĢÐ°Ð¼Ð¼Ð°":12685,"Mark":12686,"ĠÐ½Ð°Ð»Ð¾Ð³":12687,"illy":12688,"ÑģÑĤÐ°Ð¼":12689,"ÑĢÐ¸Ð½Ð°":12690,"Ġspons":12691,"ĠÐ°ÐºÑĤÐ¸Ð²Ð½Ð¾":12692,"ĠEnergy":12693,"].":12694,"Å¼":12695,"iler":12696,"ĠÐµÐ·":12697,"ĠBoy":12698,"ĠÑįÐºÐ¾Ð½Ð¾Ð¼Ð¸ÑĩÐµÑģÐºÐ¸Ðµ":12699,"Ġactual":12700,"Comp":12701,"ÑĦÑĭ":12702,"ĠÑĢÐµÑĦÐ¾ÑĢÐ¼Ñĭ":12703,"ĠÐ¾ÑģÐ¾Ð±ÐµÐ½Ð½Ð¾ÑģÑĤÐ¸":12704,"Let":12705,"ĠÐ´ÑĢÐ°":12706,"ĠÑĤÑīÐ°":12707,"ÐķÑģÑĤÑĮ":12708,"Ġerror":12709,"Ġbalcony":12710,"ĠGames":12711,"aka":12712,"ÑĤÑĥÑĢÑĥ":12713,"Ġdiss":12714,"Alexander":12715,"wan":12716,"ĠÑĥÑīÐµÑĢ":12717,"ĠSee":12718,"Ð°Ð¼ÐµÑĢÐ¸":12719,"ÑģÑĤÐ²ÐµÐ½Ð½ÑĭÐ¹":12720,"ÑĢÑĥÐ¿Ð¿Ð°":12721,"ĠÐ¼ÑĥÐ·ÑĭÐºÐ¸":12722,"ĠÐ´Ð²Ð¸Ð¶ÐµÐ½Ð¸Ðµ":12723,"ĠÑģÑĤÐ°Ð±Ð¸Ð»ÑĮÐ½Ð¾ÑģÑĤÐ¸":12724,"ĠÐ¸ÑģÐºÐ»ÑİÑĩÐµÐ½Ð¸ÐµÐ¼":12725,"ÑĢÐµÑģÑģÐ¸Ð²":12726,"ĠÑĢÐ°Ð·Ð¼ÐµÑĢÐµ":12727,"66":12728,"ÑĢÐ½":12729,"Ġtours":12730,"Ġstudent":12731,"ĠÐ¿Ð¾Ð´Ð³Ð¾ÑĤÐ¾Ð²ÐºÐ¸":12732,"Ġplanned":12733,"Ġforced":12734,"ĠÑįÐºÑģÐ¿Ð¾ÑĢÑĤ":12735,"mo":12736,"ÑĤÑĮÑı":12737,"ĠÐ½ÐµÐ¾Ð±Ñĭ":12738,"Ġtheme":12739,"Ã¥Ãª":12740,"Ġrepresented":12741,"Ġemerg":12742,"Ġarrived":12743,"Ġdistributors":12744,"Ġearth":12745,"Ġvisiting":12746,"ĠFed":12747,"ĠWind":12748,"ĠÐļÐ°Ðº":12749,"ĠÐ½Ð°ÑĥÐº":12750,"ĠFederal":12751,"Ġdeleg":12752,"Ð¡Ð¿":12753,"ĠHTML":12754,"ÐĳÐ¸":12755,"ĠProduct":12756,"Welcome":12757,"col":12758,"Ð¾Ð»Ð¾":12759,"ĠÐ±Ð»":12760,"Ð¼Ð¸ÑĢÐ°":12761,"ĠÑĤÐµÐ»Ð°":12762,"Ð¿ÑĢÐ°Ð²Ð¸ÑĤÑĮ":12763,"Ġmarked":12764,"Ġtraditions":12765,"ĠÐ¢ÐµÑĢÑĢÐ°ÑģÐ°":12766,"ÑĤÐ¸ÑĦÐ¸ÑĨÐ¸":12767,"ĠÑĢÐ°ÑģÑĤÐ¸":12768,"ĠLuc":12769,"Ð¾Ð¿Ð»Ð°":12770,"Ġhear":12771,"Ġgoals":12772,"Ġreturned":12773,"ĠÑĤÑĢÐµÐ½Ð¸":12774,"see":12775,"rie":12776,"ĠFre":12777,"ÐĲÐ±":12778,
[...]
